一 个</w> 4329879
2 0 4204447
他 们</w> 3125973
- - 3120639
我 们</w> 3094294
国 家</w> 2603701
问 题</w> 2317068
20 0 2249896
委 员 2201860
委员 会</w> 2200869
没 有</w> 1924062
会 议</w> 1898583
1 9 1858096
20 1 1684433
工 作</w> 1675576
联 合 1675466
政 府</w> 1621433
提 供</w> 1596322
这 些</w> 1595527
报 告</w> 1588109
进 行</w> 1577687
组 织</w> 1500838
可 能</w> 1446247
发 展</w> 1380319
联合 国</w> 1371589
国 际</w> 1355137
包 括</w> 1349014
可 以</w> 1328220
其 他</w> 1322126
关 于</w> 1292135
以 及</w> 1285686
-- -- 1276146
情 况</w> 1230570
方 面</w> 1220057
通 过</w> 1218835
0 0</w> 1186539
公 司</w> 1113946
美 国</w> 1105049
认 为</w> 1100490
因 为</w> 1098256
机 构</w> 1095705
所 有</w> 1070856
社 会</w> 1053622
已 经</w> 1034878
人 员</w> 1033204
需 要</w> 1026506
这 个</w> 1023455
活 动</w> 975162
19 9 973199
特 别</w> 970670
方 案</w> 964863
有 关</w> 960631
一 些</w> 954496
行 动</w> 950389
安 全</w> 936631
如 果</w> 931197
1 0</w> 915834
执 行</w> 888757
妇 女</w> 882880
经 济</w> 882031
美 元</w> 875627
自 己</w> 863033
支 持</w> 851067
计 划</w> 839385
建 议</w> 825947
任 何</w> 803863
根 据</w> 801348
决 定</w> 793114
1 2</w> 791991
项 目</w> 789497
决 议</w> 786093
但 是</w> 782990
使 用</w> 779112
影 响</w> 769500
必 须</w> 766100
提 出</w> 760050
研 究</w> 754340
合 作</w> 754196
比 赛</w> 750080
时 间</w> 748459
开 始</w> 740215
公 约</w> 737743
不 是</w> 736821
部 分</w> 730305
秘 书 730054
工 作 724343
a r 718949
什 么</w> 717946
重 要</w> 715281
系 统</w> 707304
儿 童</w> 705239
要 求</w> 703207
人 权</w> 699243
时 候</w> 691354
a n 688371
事 会</w> 687161
技 术</w> 679464
地 区</w> 675863
规 定</w> 675668
世 界</w> 673194
大 会</w> 667357
表 示</w> 664455
继 续</w> 663669
服 务</w> 661435
1 1</w> 650406
法 律</w> 649803
作 为</w> 647229
权 利</w> 645393
主 要</w> 644918
获 得</w> 644201
这 种</w> 641827
区 域</w> 641684
理 事会</w> 635632
代 表</w> 633844
政 策</w> 630196
措 施</w> 628987
利 亚</w> 628032
缔 约 624839
e r 621301
行 为</w> 620675
目 标</w> 619599
现 在</w> 617876
正 在</w> 615110
主 义</w> 614620
先 生</w> 612381
管 理</w> 610181
其 中</w> 609955
---- ---- 606902
保 护</w> 588047
一 次</w> 587291
举 行</w> 578343
- -</w> 574386
成 为</w> 571789
努 力</w> 569900
之 间</w> 567899
得 到</w> 566861
许 多</w> 563981
发 生</w> 556913
能 力</w> 549208
采 取</w> 545773
调 查</w> 543352
中 国</w> 542274
增 加</w> 536567
生 活</w> 535948
知 道</w> 532749
i n 527774
发 现</w> 525532
共 和 525515
英 国</w> 517050
建 立</w> 515669
因 此</w> 514038
期 间</w> 513452
中 心</w> 512644
确 保</w> 511358
2 0</w> 509330
关 系</w> 508177
部 门</w> 507461
希 望</w> 506664
一 种</w> 506461
资 源</w> 504081
和 平</w> 501681
成 员</w> 498937
加 强</w> 495758
信 息</w> 492550
教 育</w> 490212
促 进</w> 488108
由 于</w> 480161
这 样</w> 478513
注 意</w> 477937
秘书 长</w> 476921
0 00</w> 474707
提 交</w> 468323
这 一</w> 467802
e r</w> 467406
3 0</w> 467403
地 方</w> 463384
主 席</w> 462329
考 虑</w> 459036
人 们</w> 457373
方 式</w> 456754
特 朗 456494
特朗 普</w> 456355
政 治</w> 455060
总 统</w> 450341
最 后</w> 449857
两 个</w> 449793
文 件</w> 449000
不 会</w> 441680
一 项</w> 440602
环 境</w> 437817
应 该</w> 436867
星 期 434275
参 加</w> 433008
o r 430189
全 球</w> 429293
帮 助</w> 427514
同 时</w> 426995
目 前</w> 425760
援 助</w> 422187
参 与</w> 422175
实 现</w> 420290
不 同</w> 419421
缔约 国</w> 413611
1 5</w> 411280
家 庭</w> 409406
那 些</w> 408978
审 查</w> 408952
一 名</w> 408218
能 够</w> 408203
这 是</w> 406489
第 二 406141
法 院</w> 404443
接 受</w> 404078
基 金</w> 403894
o n 401745
之 前</w> 401040
作 用</w> 399928
方 法</w> 398811
e n 398238
非 常</w> 396980
机 会</w> 396207
领 域</w> 396086
一 直</w> 394454
是 否</w> 391658
武 器</w> 391264
程 序</w> 390750
相 关</w> 388707
讨 论</w> 387224
受 到</w> 387034
它 们</w> 386327
孩 子</w> 385723
持 续</w> 384261
解 决</w> 381814
指 出</w> 381363
为 了</w> 380812
国 际 379611
之 后</w> 377098
而 且</w> 376209
草 案</w> 375853
来 自</w> 375777
a l 375457
实 施</w> 375122
o n</w> 374731
处 理</w> 374132
结 果</w> 373134
一 步</w> 372457
审 议</w> 371818
尽 管</w> 368775
小 组</w> 368281
减 少</w> 367411
如 何</w> 366548
各 国</w> 366030
一 起</w> 365205
就 是</w> 364701
有 效</w> 364057
共和 国</w> 362551
告 诉</w> 358823
出 现</w> 358497
之 一</w> 356182
代 表 356005
数 据</w> 355797
以 来</w> 353301
市 场</w> 350880
a t 350643
警 察</w> 350320
一 位</w> 350314
开 展</w> 349908
a n</w> 349011
看 到</w> 347082
战 略</w> 346089
提 高</w> 345800
不 能</w> 344693
事 件</w> 343717
对 于</w> 341821
然 后</w> 340747
5 0</w> 339087
预 算</w> 337733
造 成</w> 335369
大 学</w> 332566
作 出</w> 331184
人 民</w> 330926
资 料</w> 330190
工作 人员</w> 330056
仍 然</w> 329743
意 见</w> 329394
一 样</w> 329213
员 国</w> 328255
过 去</w> 327607
及 其</w> 326134
确 定</w> 326013
利 用</w> 325804
进 一步</w> 325263
标 准</w> 323504
人 口</w> 321530
议 程</w> 321456
存 在</w> 319886
斯 坦</w> 319515
任 务</w> 318536
联 盟</w> 317069
严 重</w> 316604
协 调</w> 316438
选 举</w> 315392
城 市</w> 313421
e l 312642
部 队</w> 312405
1 4</w> 312178
费 用</w> 311833
结 束</w> 311561
最 近</w> 309315
选 择</w> 309235
非 洲</w> 308002
1 8</w> 307483
事 务</w> 306022
企 业</w> 305984
变 化</w> 305856
1 6</w> 305781
1 3</w> 303900
文 化</w> 303759
支 助</w> 303573
说 明</w> 303475
银 行</w> 303455
或 者</w> 302942
自 由</w> 302713
所 以</w> 301840
显 示</w> 301483
代表 团</w> 301231
s t 300534
取 得</w> 299492
健 康</w> 299324
虽 然</w> 298616
俄 罗 298440
发 展 297312
培 训</w> 295892
产 生</w> 295467
事 情</w> 295409
增 长</w> 293878
目 的</w> 293326
i t 293122
学 校</w> 292429
澳 大 291675
投 资</w> 291484
无 法</w> 290723
官 员</w> 290534
原 因</w> 290397
i c 289800
欧 洲</w> 288782
过 程</w> 287428
犯 罪</w> 286866
并 且</w> 286510
来 说</w> 286476
然 而</w> 286200
感 到</w> 285351
具 有</w> 285314
评 估</w> 284642
运 动</w> 284233
制 度</w> 283987
制 定</w> 283524
完 成</w> 283421
范 围</w> 283326
2 5</w> 281973
冲 突</w> 281620
控 制</w> 280879
基 础</w> 280770
机 制</w> 279077
进 入</w> 278780
专 家</w> 277742
资 金</w> 276666
强 调</w> 275606
欢 迎</w> 275409
平 等</w> 274045
-------- -------- 273789
承 诺</w> 273397
条 约</w> 273335
导 致</w> 272913
1 0 272406
表 明</w> 272368
1 7</w> 272183
照 片</w> 272079
尼 亚</w> 271791
分 析</w> 271298
一 切</w> 271043
条 件</w> 271000
每 个</w> 270986
200 8</w> 270574
澳大 利亚</w> 270486
各 种</w> 270203
学 生</w> 269312
办 法</w> 267106
贸 易</w> 266580
责 任</w> 266570
死 亡</w> 266436
一 份</w> 266312
收 入</w> 266270
暴 力</w> 266133
以 便</w> 264859
2 1</w> 263941
那 里</w> 260728
正 式</w> 260659
起 来</w> 260634
1 9</w> 260501
201 0</w> 260109
i l 260005
-- --</w> 259825
原 则</w> 259803
特 派 259508
特派 团</w> 258937
多 数</w> 257834
必 要</w> 256823
拥 有</w> 256780
成 功</w> 256120
只 有</w> 255987
负 责</w> 255793
进 程</w> 255734
用 于</w> 254103
此 外</w> 253894
秘书 处</w> 253010
个 人</w> 252111
框 架</w> 250612
办 公 250581
a m 248524
歧 视</w> 248445
200 5</w> 248025
200 9</w> 247800
设 施</w> 246988
很 多</w> 246644
联 系</w> 246340
只 是</w> 245696
中 国家</w> 244842
发展 中国家</w> 244842
201 2</w> 244727
201 1</w> 244163
当 局</w> 243476
适 当</w> 243322
社 区</w> 242737
2 4</w> 242680
第 三 242504
今 年</w> 242276
200 6</w> 242102
a c 241531
超 过</w> 241350
这 项</w> 240400
改 变</w> 240395
挑 战</w> 240217
准 备</w> 240148
2 2</w> 239073
承 认</w> 238746
媒 体</w> 238079
俄罗 斯</w> 237282
200 7</w> 236647
东 西</w> 236580
袭 击</w> 235980
喜 欢</w> 235913
维 持</w> 235792
201 4</w> 234900
进 展</w> 234421
恐 怖 234369
办公 室</w> 234298
以 色 234099
世 界 233790
发 言</w> 233615
宣 布</w> 233316
完 全</w> 233143
形 式</w> 232550
共 同</w> 231797
记 录</w> 231725
电 影</w> 231260
行 政</w> 231125
第 一 231121
建 设</w> 230851
地 位</w> 230599
面 临</w> 230076
保 持</w> 229808
全 面</w> 229282
威 胁</w> 229124
鼓 励</w> 229107
案 件</w> 228812
改 革</w> 228272
离 开</w> 228221
指 控</w> 228199
201 3</w> 227506
业 务</w> 227497
一 点</w> 226694
19 8 226694
工作 组</w> 226601
例 如</w> 226441
设 立</w> 226060
关 注</w> 225973
风 险</w> 225703
2 3</w> 225534
最 大</w> 225270
规 则</w> 225264
协 议</w> 225132
未 来</w> 224797
那 么</w> 224756
谈 判</w> 224570
集 团</w> 224150
咨 询</w> 223926
试 图</w> 223775
消 除</w> 223325
格 兰</w> 223203
做 法</w> 222697
英 镑</w> 221660
6 0</w> 221283
200 4</w> 221031
司 法</w> 220783
安 排</w> 220443
应 当</w> 219707
报 道</w> 219665
还 有</w> 219463
独 立</w> 219089
4 0</w> 218933
按 照</w> 218907
以色 列</w> 218821
限 制</w> 218801
办 事 218746
e s</w> 218652
重 新</w> 218188
拉 克</w> 218068
a s 217866
如 此</w> 217720
法 庭</w> 217410
难 民</w> 217292
3 1</w> 216834
了 解</w> 216779
1 8 216206
甚 至</w> 216148
办事 处</w> 215906
阿 拉 215630
直 接</w> 215570
涉 及</w> 215436
达 到</w> 215264
禁 止</w> 214663
同 意</w> 214504
产 品</w> 214214
民 主 214192
批 准</w> 213921
去 年</w> 213675
整 个</w> 213616
具 体</w> 213404
设 计</w> 213403
似 乎</w> 213261
今 天</w> 212403
补 充</w> 212336
这 里</w> 212139
伊 斯 211938
认 识</w> 211795
r i 211608
缔约 方</w> 211190
朋 友</w> 211046
o u 210903
200 0</w> 210834
赢 得</w> 210776
英 语</w> 210332
当 地</w> 209998
法 国</w> 209844
几 乎</w> 209363
投 票</w> 209277
几 个</w> 208846
201 5</w> 208728
联 邦</w> 208556
生 产</w> 208519
性 别</w> 208391
部 长</w> 207794
协 助</w> 207288
e t 207166
利 益</w> 207030
会 员国</w> 206700
2 6</w> 206394
亿 美元</w> 204786
带 来</w> 204772
充 分</w> 204770
尤 其</w> 204642
下 午</w> 204599
全 国</w> 204457
人 类</w> 203793
改 善</w> 202737
加 入</w> 202613
基 本</w> 201970
历 史</w> 201841
女 士</w> 200981
小 时</w> 200964
大 多数</w> 200792
林 顿</w> 200618
o l 200324
反 对</w> 200252
受 害 199714
两 年</w> 199635
状 况</w> 199539
声 明</w> 199530
新 闻</w> 199063
女 性</w> 198902
网 络</w> 198695
程 度</w> 198117
2 7</w> 197594
管 理 197567
万 美元</w> 196801
不 过</w> 196682
克 林顿</w> 196635
2 8</w> 196565
人 道 196228
价 格</w> 195830
一 部分</w> 195591
义 务</w> 195325
有 人</w> 195077
200 3</w> 194901
空 间</w> 194838
支 付</w> 194729
议 员</w> 194185
移 民</w> 193785
r e 193551
发 表</w> 193419
纽 约</w> 193075
以 下</w> 192508
国 内</w> 192193
通 常</w> 192102
各 项</w> 191482
监 测</w> 190694
广 泛</w> 190390
内 容</w> 189901
稳 定</w> 189534
还 是</w> 189009
长 期</w> 188672
积 极</w> 188654
系 列</w> 188456
解 释</w> 187811
协 定</w> 187676
允 许</w> 187116
200 2</w> 187053
比 亚</w> 187019
呼 吁</w> 186849
至 少</w> 186827
法 官</w> 186502
事 项</w> 186175
艾 滋 185852
介 绍</w> 185764
因 素</w> 185503
出 来</w> 184996
真 正</w> 184651
联 合</w> 183677
更 加</w> 183263
打 击</w> 183122
交 易</w> 183107
需 求</w> 183089
汽 车</w> 182618
危 机</w> 182613
欧 盟</w> 182598
令 人</w> 182487
巴 勒 181672
相 信</w> 181280
日 本</w> 180890
当 时</w> 180824
电 话</w> 180730
大 量</w> 179735
一 年</w> 179630
拒 绝</w> 179514
水 平</w> 179187
领 导 178852
最 终</w> 178781
日 至</w> 178642
领 导</w> 178472
适 用</w> 178315
世 纪</w> 178253
治 疗</w> 178217
学 家</w> 178028
阶 段</w> 177939
定 书</w> 177917
经 济 177879
议 定书</w> 177391
200 1</w> 177251
i s 177104
采 用</w> 176893
2 9</w> 176685
某 些</w> 176633
经 常</w> 176045
德 国</w> 175894
恢 复</w> 175854
战 争</w> 175661
同 样</w> 175624
伊 拉克</w> 175345
临 时</w> 175296
一 般</w> 174390
. 1</w> 173890
推 动</w> 173880
议 会</w> 173617
价 值</w> 173590
结 构</w> 173561
o o 173549
e n</w> 173191
a l</w> 173188
伦 敦</w> 172581
有 些</w> 172442
监 督</w> 171990
立 法</w> 171840
飞 机</w> 171345
证 明</w> 171334
危 险</w> 171234
收 到</w> 171127
网 站</w> 171008
军 事</w> 170973
科 学</w> 170611
规 模</w> 170233
成 果</w> 169919
1 5 169854
优 先</w> 169808
游 戏</w> 169317
恐怖 主义</w> 169040
u r 168849
关 切</w> 168839
i n</w> 168620
1 00</w> 168012
的 话</w> 167885
针 对</w> 167764
意 味 167465
防 止</w> 167416
一 致</w> 167303
候 选 166995
叙 利亚</w> 166887
人 数</w> 166815
经 验</w> 166611
伙 伴</w> 166607
第 十 166607
找 到</w> 166071
做 出</w> 166003
三 个</w> 165876
位 于</w> 165578
意味 着</w> 165456
大 约</w> 164737
201 6</w> 164335
这 方面</w> 164211
为 什么</w> 164151
扩 大</w> 164122
材 料</w> 164041
受害 者</w> 163937
候选 人</w> 163614
附 近</w> 163103
传 统</w> 162922
发 言 162911
访 问</w> 162709
感 觉</w> 162296
下 来</w> 162140
医 生</w> 162088
开 发 161833
男 子</w> 161758
领 土</w> 161631
更 好</w> 161268
现 有</w> 161145
人道 主义</w> 161134
土 地</w> 160678
巴 马</w> 160623
下 降</w> 160363
母 亲</w> 160254
0 %</w> 159815
巨 大</w> 159591
该 国</w> 159057
1 . 158739
r a 158151
非 政府</w> 158119
附 件</w> 157919
故 事</w> 157906
保 证</w> 157595
证 据</w> 157325
非 法</w> 156990
预 计</w> 156977
数 字</w> 156872
担 任</w> 156708
保 障</w> 156681
设 备</w> 156525
不 断</w> 156475
损 失</w> 156395
奥 巴马</w> 156230
19 7 156099
群 体</w> 155776
公 众</w> 155707
请 求</w> 155569
表 现</w> 155328
开 发</w> 155284
评 价</w> 155157
年 代</w> 155154
实 际</w> 155131
分 子</w> 154998
最 好</w> 154786
领导 人</w> 154776
困 难</w> 154728
第 一次</w> 154666
明 确</w> 154564
199 9</w> 154431
合 同</w> 154401
评 论</w> 154345
每 年</w> 154268
分 钟</w> 154033
公 民</w> 153855
高 级 153231
反 应</w> 152633
协 会</w> 152598
律 师</w> 152466
c h 151984
从 而</w> 151603
关 键</w> 151539
印 度</w> 151394
l e 151309
加 拿 151191
克 斯</w> 151078
苏 格兰</w> 150310
记 者</w> 150212
违 反</w> 150078
团 体</w> 149898
报 告 149743
宣 言</w> 149666
1 3 149452
病 毒</w> 148969
公 共 148609
创 造</w> 148523
变 得</w> 148317
以 上</w> 148271
运 动 148134
重 申</w> 147773
医 院</w> 147579
基 金 147541
巴勒 斯坦</w> 147255
人 士</w> 147024
C h 146511
欧 洲 146372
数 量</w> 146326
随 着</w> 146089
一 天</w> 146060
容 易</w> 145884
这 次</w> 145777
以 前</w> 145720
知 识</w> 145462
指 导</w> 145049
公 共</w> 144934
履 行</w> 144934
报告 员</w> 144720
保 健</w> 144618
重 点</w> 144224
对 话</w> 144115
避 免</w> 144050
那 样</w> 143526
规 划</w> 143465
西 亚</w> 143391
美 国 143248
晚 上</w> 143050
这 位</w> 142793
权 力</w> 142732
理 会</w> 142625
质 量</w> 142339
不 要</w> 142228
199 8</w> 142086
父 亲</w> 141929
e s 141924
内 部</w> 141919
共和 党</w> 141877
再 次</w> 141874
1 7 141741
国 家 141336
民 主</w> 141287
类 似</w> 141277
综 合</w> 140941
加拿 大</w> 140941
o m 140898
采 取 140881
S t 140865
助 于</w> 140386
女 孩</w> 140131
遵 守</w> 139837
攻 击</w> 139810
一 场</w> 139567
安 理会</w> 139453
真 的</w> 139356
居 民</w> 139210
描 述</w> 139192
a g 139181
发 挥</w> 138983
财 政</w> 138978
论 坛</w> 138932
缺 乏</w> 138797
另 外</w> 138714
土 著</w> 138686
经 费</w> 138415
成 立</w> 138385
年 度</w> 138363
公 布</w> 138161
赛 季</w> 138137
联合 国 138017
第 四 138004
侵 犯</w> 137879
即 使</w> 137831
申 请</w> 137420
a d 137212
第 一个</w> 137212
符 合</w> 136981
来 源</w> 136914
2 . 136764
俱 乐 136718
团 队</w> 136695
俱乐 部</w> 136573
引 起</w> 136481
公 开</w> 136331
确 认</w> 136282
父 母</w> 136145
担 心</w> 135990
能 源</w> 135883
十 年</w> 135826
寻 求</w> 135783
压 力</w> 135780
成 本</w> 135717
后 来</w> 135601
理 由</w> 135598
那 个</w> 135576
意 义</w> 135540
斯 特</w> 135065
划 署</w> 134995
唯 一</w> 134977
专 员</w> 134857
土 耳 134572
结 论</w> 134205
工 具</w> 134164
学 习</w> 134080
条 款</w> 134006
生 命</w> 133911
一 定</w> 133806
冠 军</w> 133771
专 业</w> 133588
检 查</w> 133529
越 来 133382
定 期</w> 133368
i r 133301
最 佳</w> 133257
4 5</w> 133130
伊斯 兰</w> 133021
重 大</w> 132969
就 业</w> 132827
有 助于</w> 132533
年 轻</w> 132386
准 则</w> 132263
也 许</w> 132239
提 到</w> 132067
保 留</w> 131984
基 于</w> 131820
种 族 131746
u n 131512
协 商</w> 131505
竞 争</w> 131497
拘 留</w> 131488
仅 仅</w> 131366
动 物</w> 131328
辩 论</w> 131270
商 业</w> 131204
纳 入</w> 131027
错 误</w> 130932
贡 献</w> 130823
宗 教</w> 130750
组 成</w> 130681
资 产</w> 130409
基金 会</w> 130306
宪 法</w> 130266
签 署</w> 130091
预 防</w> 129670
应 对</w> 129570
越来 越</w> 129481
破 坏</w> 129426
审 计</w> 129339
工 人</w> 129260
竞 选</w> 129009
失 去</w> 128968
阿 尔 128931
警 方</w> 128771
学 院</w> 128554
星 期</w> 128088
明 显</w> 127818
估 计</w> 127812
第 二</w> 127764
e l</w> 127490
达 成</w> 127307
西 班 127280
3 5</w> 126968
节 目</w> 126792
首 席</w> 126369
核 武器</w> 126159
反 映</w> 126133
尊 重</w> 125927
5 %</w> 125860
社 会 125728
1 6 125556
土耳 其</w> 125285
模 式</w> 125146
人 民 124993
理 解</w> 124975
而 言</w> 124648
调 整</w> 124596
研 究 124534
生 物</w> 124463
宣 传</w> 124186
普 遍</w> 124156
迅 速</w> 123945
l i 123761
观 点</w> 123519
改 进</w> 123449
给 予</w> 123200
你 们</w> 123091
上 述</w> 123018
5 00</w> 122962
举 办</w> 122864
r o 122680
最 高</w> 122669
大 部分</w> 122558
意 大 122465
很 大</w> 122281
测 试</w> 122017
足 够</w> 121951
医 疗</w> 121933
观 察 121815
最 新</w> 121801
愿 意</w> 121709
地 点</w> 121707
音 乐</w> 121591
执 行 121582
成 员国</w> 121538
旨 在</w> 121533
制 订</w> 121524
当 然</w> 121249
1 4 121206
除 了</w> 121174
疾 病</w> 121063
意 识</w> 120950
停 止</w> 120892
语 言</w> 120826
位 置</w> 120708
发言 人</w> 120525
精 神</w> 120375
安 全 120256
受 伤</w> 120001
纳 德</w> 119941
应 用</w> 119611
一 系列</w> 119500
儿 子</w> 119484
电 视</w> 119195
消 息</w> 118959
选 民</w> 118895
核 心</w> 118797
检 察 118775
在 内</w> 118636
称 为</w> 118133
力 量</w> 118067
监 狱</w> 118036
现 象</w> 117933
刑 事</w> 117670
药 物</w> 117506
出 口</w> 117488
约 翰</w> 117461
高 级</w> 117441
训 练</w> 117368
支 出</w> 117218
主 任</w> 116754
公 园</w> 116652
道 路</w> 116643
金 融 116638
收 集</w> 116606
工 业</w> 115869
满 足</w> 115843
民 族</w> 115784
总 部</w> 115503
立 即</w> 115365
要 性</w> 115332
局 势</w> 115282
C . 115211
我 国</w> 114944
每 天</w> 114890
经 历</w> 114863
通 知</w> 114770
7 0</w> 114730
伙 伴 114651
一 级</w> 114523
不 仅</w> 114340
a y 114138
球 员</w> 114079
一 家</w> 114013
墨 西 113925
警 告</w> 113800
卫 生</w> 113619
比 例</w> 113352
伙伴 关系</w> 113343
任 命</w> 113016
上 午</w> 112955
裁 军</w> 112914
角 色</w> 112563
卫 生 112555
A d 112460
寻 找</w> 112433
女 人</w> 112252
亚 洲</w> 112187
员 额</w> 112115
毒 品</w> 111782
千 年</w> 111664
名 单</w> 111337
达 国家</w> 111232
发 达国家</w> 111232
购 买</w> 111219
时 期</w> 111196
财 产</w> 111116
h a 111085
I n 111032
才 能</w> 110894
第 一</w> 110766
提 议</w> 110609
第 五 110579
意大 利</w> 110578
首 先</w> 110445
事 实</w> 110402
实 际 110379
觉 得</w> 110342
而 是</w> 110330
外 交 110049
阿 富 110021
处 于</w> 109993
清 楚</w> 109847
客 户</w> 109809
声 称</w> 109703
美 洲</w> 109700
总 是</w> 109620
首 次</w> 109609
职 业</w> 109565
电 子 109439
阿拉 伯</w> 109278
发 布</w> 109128
想 法</w> 109100
用 户</w> 109011
发 出</w> 108942
速 度</w> 108911
回 到</w> 108906
总 理</w> 108880
妻 子</w> 108798
课 程</w> 108732
---------------- ---------------- 108682
外 国</w> 108617
特 殊</w> 108390
预 期</w> 108146
环 境 107920
直 到</w> 107915
顾 问</w> 107768
显 然</w> 107688
关 闭</w> 107556
残 疾 107551
下 列</w> 107394
属 于</w> 107368
回 顾</w> 107332
食 物</w> 107294
20 0</w> 107286
有 权</w> 107282
单 位</w> 107250
阻 止</w> 107246
境 内</w> 107107
运动 员</w> 106981
放 在</w> 106842
新 闻 106793
身 体</w> 106746
胜 利</w> 106681
开 放</w> 106671
生 产 106628
不 到</w> 106517
列 入</w> 106453
手 段</w> 106422
5 5</w> 106297
3 2</w> 106163
o s 106159
身 份</w> 106118
阿富 汗</w> 106115
敦 促</w> 106075
军 队</w> 105864
农 业</w> 105847
多 年</w> 105709
些 时候</w> 105623
6 5</w> 105588
经 过</w> 105565
8 0</w> 105404
武 装 105087
199 7</w> 105057
视 频</w> 105045
运 输</w> 105036
编 写</w> 104942
构 成</w> 104852
接 触</w> 104798
感 谢</w> 104696
倡 议</w> 104574
3 3</w> 104522
唐 纳德</w> 104501
公 平</w> 104379
销 售</w> 104377
名 字</w> 104089
遭 受</w> 104025
比 较</w> 104008
分 配</w> 103986
管 制</w> 103904
4 8</w> 103863
6 3</w> 103772
平 均</w> 103538
所 述</w> 103532
199 6</w> 103482
M ar 103467
扩 散</w> 103264
主 题</w> 102822
男 人</w> 102749
贩 运</w> 102728
华 盛 102671
旅 行</w> 102603
传 播</w> 102501
基 础 102486
令 人 102422
事 实 102400
R e 102375
实 行</w> 102269
债 务</w> 102254
登 记</w> 102250
森 林</w> 102095
上 升</w> 102021
法 案</w> 101813
贫 穷</w> 101518
最 初</w> 101442
南 部</w> 101224
伤 害</w> 101203
失 败</w> 101110
尔 斯</w> 101039
正 确</w> 100998
实际 上</w> 100993
L . 100980
虐 待</w> 100965
财 务</w> 100961
金 融</w> 100856
统 计</w> 100541
障 碍</w> 100536
授 权</w> 100437
时 代</w> 100406
青 年</w> 100364
本 国</w> 100359
良 好</w> 100189
建 筑</w> 100172
实 体</w> 100138
指 标</w> 100131
职 位</w> 99906
条 例</w> 99843
3 4</w> 99814
图 像</w> 99742
9 0</w> 99736
文 书</w> 99646
气 候 99400
年 人</w> 99315
行 动 99250
尚 未</w> 99136
兴 趣</w> 99088
诉 讼</w> 99083
复 杂</w> 98911
机 场</w> 98877
住 房</w> 98683
民主 党</w> 98644
预 测</w> 98636
3 6</w> 98632
吸 引</w> 98483
往 往</w> 98374
克 里 98297
年 龄</w> 98282
各 地</w> 98248
国际 法</w> 98174
审 判</w> 98038
从 事</w> 98034
爱 尔 98022
私 人</w> 98021
形 成</w> 97965
3 7</w> 97877
战 斗</w> 97816
巴 西</w> 97756
A n 97743
月 份</w> 97641
状 态</w> 97571
气候 变化</w> 97522
l e</w> 97521
0 . 97413
女 儿</w> 97345
物 质</w> 97285
步 骤</w> 97251
计 算</w> 97225
少 年</w> 97179
一 条</w> 97126
演 员</w> 97113
199 4</w> 97109
服 务 97067
香 港</w> 97066
行 业</w> 97015
批 评</w> 96956
之 外</w> 96933
议 院</w> 96924
政 治 96894
艾滋 病</w> 96883
6 7</w> 96861
降 低</w> 96850
落 实</w> 96830
5 7</w> 96662
编 制</w> 96640
趋 势</w> 96559
罪 行</w> 96541
贷 款</w> 96483
她 们</w> 96197
背 景</w> 95838
酷 刑</w> 95821
a v 95666
双 方</w> 95572
西班 牙</w> 95488
威 尔 95400
享 有</w> 95212
i a</w> 95147
5 8</w> 95118
简 单</w> 95036
星期 一</w> 95017
行 政 94954
6 4</w> 94732
6 1</w> 94726
墨西 哥</w> 94644
效 率</w> 94569
支 持 94519
199 5</w> 94443
武 装</w> 94373
返 回</w> 94171
立 场</w> 94120
定 义</w> 94103
放 弃</w> 94060
克 尔</w> 93863
正 如</w> 93727
解 决 93650
展 示</w> 93644
有 时</w> 93639
an d 93603
民 间</w> 93490
4 9</w> 93485
曾 经</w> 93424
委 会</w> 93300
5 2</w> 93269
基础 设施</w> 93245
北 部</w> 93222
后 续</w> 93202
专 门</w> 93115
e b 93069
起 诉</w> 93053
3 . 93040
上 诉</w> 93033
自 然</w> 93006
永 远</w> 92985
教 练</w> 92969
王 国</w> 92950
重 要性</w> 92920
提 案</w> 92769
计 划署</w> 92755
个 月</w> 92726
紧 急</w> 92600
作 品</w> 92521
事实 上</w> 92520
家 人</w> 92438
部 署</w> 92376
5 9</w> 92321
海 洋</w> 92277
为 此</w> 92246
残疾 人</w> 92241
o t 92075
艺 术</w> 91938
伟 大</w> 91847
邮 件</w> 91803
前 往</w> 91721
6 2</w> 91611
邀 请</w> 91593
取 消</w> 91436
几 年</w> 91382
日 期</w> 91292
投 资 91269
他 人</w> 91248
机 关</w> 91093
遭 到</w> 90935
概 念</w> 90897
分 别</w> 90833
古 巴</w> 90801
多 样 90680
6 6</w> 90583
爱尔 兰</w> 90451
布 鲁 90410
会 议 90335
5 1</w> 90233
5 3</w> 90213
动 力</w> 90024
声 音</w> 89993
很 快</w> 89892
证 实</w> 89827
全 部</w> 89693
大 规模</w> 89691
马 里</w> 89650
高 兴</w> 89627
电 视 89519
不 得 89504
出 生</w> 89468
3 8</w> 89423
消 费 89306
石 油</w> 89191
平 民</w> 89008
制 作</w> 88984
艾滋 病毒</w> 88966
听 到</w> 88962
答 复</w> 88917
态 度</w> 88800
回 答</w> 88736
制 造</w> 88577
5 6</w> 88526
工 资</w> 88504
农 村</w> 88498
释 放</w> 88442
一 下</w> 88406
伊 朗</w> 88266
交 流</w> 88262
3 9</w> 88259
i d 88244
i m 88193
增 强</w> 88179
s on</w> 88148
视 为</w> 88128
非 正式</w> 88110
5 4</w> 88108
男 性</w> 88108
贸 易 88079
司 法 87789
身 上</w> 87763
维 护</w> 87724
自 由 87586
球 队</w> 87516
检察 官</w> 87455
法 律 87410
姆 斯</w> 87397
各 方</w> 87287
运 作</w> 87285
统 一</w> 87236
拟 议</w> 87163
教 授</w> 87156
福 利</w> 87055
为 止</w> 87051
采 购</w> 87006
若 干</w> 86984
大 卫</w> 86968
4 4</w> 86954
足 球</w> 86919
资 格</w> 86733
不 可</w> 86714
平 衡</w> 86689
4 7</w> 86592
分 享</w> 86467
损 害</w> 86377
苏 丹</w> 86342
第 五</w> 86332
主 义 86321
人 权 86261
4 2</w> 86179
经 理</w> 86159
不 再</w> 86074
协 调 86034
事 务 86027
随 后</w> 86025
即 将</w> 85943
男 孩</w> 85896
以 外</w> 85841
4 6</w> 85763
行动 计划</w> 85748
表 演</w> 85727
痛 苦</w> 85664
逮 捕</w> 85648
数 据 85411
肯 定</w> 85394
少 数</w> 85288
通 信</w> 85259
拍 摄</w> 85134
详 细</w> 85095
不 可 85058
调 查 84915
199 3</w> 84857
t h 84804
英 国 84659
今 后</w> 84624
本 身</w> 84581
是 因为</w> 84455
4 1</w> 84447
A l 84325
不得 不</w> 84304
竞 争 84291
现 实</w> 84257
信 息 84201
里 亚</w> 84162
尔 德</w> 84121
官 方</w> 84064
自 愿</w> 84059
食 品</w> 83946
怀 疑</w> 83902
种 族</w> 83885
确 实</w> 83662
星期 五</w> 83622
家 庭 83587
修 订</w> 83574
正 常</w> 83553
丈 夫</w> 83488
a b 83410
鉴 于</w> 83372
如 下</w> 83361
提 名</w> 83341
t er</w> 83214
移 徙</w> 83152
对 手</w> 83147
职 能</w> 83076
e d 82934
自 然 82900
华盛 顿</w> 82866
说 法</w> 82782
巴 黎</w> 82774
房 子</w> 82656
相 同</w> 82643
日 内 82597
赔 偿</w> 82592
理 论</w> 82590
C N 82586
承 担</w> 82568
共 同 82483
地 球</w> 82423
相 当</w> 82408
供 应</w> 82364
德 斯</w> 82346
4 3</w> 82045
o h 81990
争 议</w> 81920
周 三</w> 81894
类 型</w> 81861
黎 巴 81838
举 措</w> 81596
u s 81549
4 . 81546
转 移</w> 81464
电 子</w> 81340
化 学 81127
保 险</w> 81042
坚 持</w> 81033
工 程</w> 80854
观察 员</w> 80810
性 质</w> 80761
额 外</w> 80674
其 它</w> 80541
e m 80379
召 开</w> 80340
方 向</w> 80321
支持 者</w> 80312
接 近</w> 80245
6 8</w> 80154
采 访</w> 80037
黎巴 嫩</w> 80030
资 助</w> 79706
这 场</w> 79699
基 地</w> 79578
u l 79576
占 领</w> 79575
十 分</w> 79365
S h 79315
早 期</w> 79268
哥 伦 79144
合 作 78965
体 系</w> 78765
怎 么</w> 78634
特 定</w> 78626
变 成</w> 78571
a k 78566
判 决</w> 78565
u m 78500
患 者</w> 78387
试 验</w> 78234
艺 术 78222
主 管</w> 78146
第 三</w> 78137
宪 章</w> 78087
爆 炸</w> 78084
巴 基 78048
技 术 78026
明 星</w> 78000
i s</w> 77688
基 本 77683
周 四</w> 77671
现 代</w> 77642
拉 里</w> 77601
腐 败</w> 77556
享 受</w> 77508
太 平 77464
贫 困</w> 77334
e d</w> 77304
u t 77279
形 象</w> 77151
修 改</w> 77057
更 新</w> 77044
尼 亚 77007
员 工</w> 76962
出 席</w> 76947
当 前</w> 76935
T h 76921
Ad d 76898
编 辑</w> 76755
超 级</w> 76679
采取 行动</w> 76662
欧洲 联盟</w> 76542
研究 所</w> 76535
相 比</w> 76534
潜 在</w> 76456
有 限</w> 76417
2 %</w> 76415
第二 十 76409
加 以</w> 76267
拟 订</w> 76240
秘 书</w> 76190
粮 食</w> 76177
第 六</w> 76173
人 物</w> 76010
集 中</w> 75972
力 于</w> 75953
a r</w> 75952
早 些时候</w> 75886
致 力于</w> 75876
投资 者</w> 75858
以 后</w> 75723
阿拉 伯 75707
一 只</w> 75696
失 所</w> 75661
周 日</w> 75654
流 离 75621
流离 失所</w> 75620
体 制</w> 75552
巴基 斯坦</w> 75551
想 要</w> 75472
英 里</w> 75455
依 据</w> 75381
此 类</w> 75358
维 亚</w> 75329
3 00</w> 75297
回 应</w> 75293
房 间</w> 75278
题 为</w> 75220
出 售</w> 75150
任 何 75141
上 涨</w> 75091
工 程 75085
抗 议</w> 75048
未 能</w> 75019
政 党</w> 74969
首 脑 74878
多 边</w> 74870
印 度 74812
埃 及</w> 74796
洛 杉 74774
多 少</w> 74695
首脑 会议</w> 74647
命 令</w> 74587
索 赔</w> 74500
建 筑 74494
合 理</w> 74405
飞 行</w> 74371
满 意</w> 74311
干 事</w> 74294
指 定</w> 74285
重 视</w> 74262
对 此</w> 74229
i g 74184
第 六 74181
打 算</w> 74133
写 道</w> 74121
公 正</w> 74115
商 定</w> 74045
账 户</w> 73983
e t</w> 73968
in g</w> 73953
at i 73906
失 踪</w> 73885
纲 领</w> 73719
这 么</w> 73692
日内 瓦</w> 73626
信 任</w> 73557
能 性</w> 73525
透 露</w> 73525
上 周</w> 73505
至 关 73356
常 驻</w> 73144
现 金</w> 73094
监 管</w> 73081
199 0</w> 73059
技 能</w> 73058
削 减</w> 73028
捐 款</w> 72951
免 费</w> 72946
一 半</w> 72926
消费 者</w> 72904
一 般 72841
观 察</w> 72828
建 造</w> 72758
不 得</w> 72712
至关 重要</w> 72677
予 以</w> 72667
B C</w> 72663
看 法</w> 72642
塞 尔</w> 72634
边 界</w> 72515
依 照</w> 72511
车 辆</w> 72484
制 裁</w> 72484
强 烈</w> 72456
推 出</w> 72299
R o 72181
北 京</w> 72167
四 个</w> 72156
奥 运 72066
夫 人</w> 71999
广 告</w> 71901
生 效</w> 71793
适 应</w> 71761
oo k</w> 71741
使 得</w> 71687
公 路</w> 71666
6 9</w> 71663
本 周</w> 71592
司 机</w> 71557
海 岸</w> 71517
广 播 71502
优 势</w> 71453
包 含</w> 71405
1 %</w> 71383
博 士</w> 71377
回 来</w> 71292
可 能性</w> 71259
启 动</w> 71219
克 兰</w> 71202
不 足</w> 71171
只 要</w> 71078
u b 70984
周 末</w> 70935
用 来</w> 70864
教 师</w> 70859
结 合</w> 70826
居 住</w> 70817
非 洲 70787
指 数</w> 70775
功 能</w> 70723
庆 祝</w> 70721
南 非</w> 70680
太平 洋</w> 70580
航 空 70568
计 算 70567
英 格兰</w> 70482
国 会</w> 70433
周 二</w> 70417
体 育</w> 70326
相 对</w> 70262
磋 商</w> 70252
a s</w> 70202
比 如</w> 70191
灾 害</w> 70177
在 于</w> 70172
截 至</w> 70126
将 会</w> 70124
所 谓</w> 70119
经 营</w> 70107
希 拉里</w> 70096
当 选</w> 70007
公 里</w> 69903
o v 69766
清 单</w> 69657
手 机</w> 69598
时 刻</w> 69523
待 遇</w> 69500
后 果</w> 69492
适 合</w> 69453
两 次</w> 69452
核 准</w> 69420
只 能</w> 69262
及 时</w> 69204
创 新</w> 69190
年 轻 69039
利 亚 69012
助 理</w> 68974
er s</w> 68687
意 思</w> 68682
e c 68668
相 反</w> 68632
科 学家</w> 68561
联合 王国</w> 68455
穆 斯 68399
洛杉 矶</w> 68385
阅 读</w> 68367
5 . 68278
事 故</w> 68232
高级 专员</w> 68188
全 球 68125
国 民</w> 68099
延 长</w> 68091
o m</w> 68051
著 名</w> 67994
分 之一</w> 67810
加 勒 67792
奥运 会</w> 67769
决 策</w> 67759
任 期</w> 67716
拉 斯</w> 67689
探 讨</w> 67574
文 章</w> 67527
平 台</w> 67512
遇 到</w> 67447
出 版</w> 67341
大 楼</w> 67303
效 果</w> 67293
别 人</w> 67158
周 六</w> 67116
表 达</w> 67051
两 名</w> 66998
模 型</w> 66997
多样 性</w> 66959
与 会 66957
糟 糕</w> 66936
大 型</w> 66900
岛 屿</w> 66877
约 翰 66871
穆斯 林</w> 66859
奥 斯 66843
商 品</w> 66794
o w 66676
i e</w> 66633
看 看</w> 66631
瑞 典</w> 66596
希 腊</w> 66518
进 步</w> 66498
移 动</w> 66326
重 建</w> 66269
之 下</w> 66263
捐 助</w> 66259
信 托</w> 66147
尼 斯</w> 66140
贸 发</w> 66104
演 讲</w> 66098
斯 特 66051
退 出</w> 65960
第二 次</w> 65943
o r</w> 65928
an d</w> 65872
污 染</w> 65799
联 赛</w> 65757
愤 怒</w> 65684
周 围</w> 65566
统 计 65563
不 管</w> 65513
转 让</w> 65512
星期 二</w> 65469
质 性</w> 65455
3 %</w> 65431
反 对 65307
斯 坦 65302
中 说</w> 65301
等 待</w> 65296
年轻 人</w> 65289
相 互</w> 65287
旅 游</w> 65273
6 . 65249
瑞 士</w> 65114
看 起来</w> 64997
雇 员</w> 64990
职 业 64977
安 德 64918
裁 决</w> 64688
退 休</w> 64659
职 责</w> 64654
强 大</w> 64648
面 对</w> 64610
感 染</w> 64569
任何 人</w> 64551
一 件</w> 64499
联 网</w> 64488
最 高 64443
与 此 64411
流 动</w> 64353
伯 特</w> 64204
实 质性</w> 64200
两 性</w> 64112
士 兵</w> 63960
7 5</w> 63956
资 本</w> 63952
难 民 63908
青 少年</w> 63818
不 久</w> 63810
与会 者</w> 63810
行 使</w> 63782
衣 服</w> 63742
杂 志</w> 63702
从 未</w> 63625
左 右</w> 63603
劳 工</w> 63578
中 央</w> 63563
刑 事 63550
联 邦 63504
7 7</w> 63492
尝 试</w> 63478
e y</w> 63384
葡 萄 63368
病 人</w> 63365
财 政 63300
观 众</w> 63259
私 营 63183
e v 63155
成 绩</w> 63130
一 旦</w> 63042
M a 62948
很 少</w> 62909
詹 姆斯</w> 62863
紧 张</w> 62845
荷 兰</w> 62828
例 子</w> 62807
日 子</w> 62697
手 术</w> 62668
199 2</w> 62642
4 00</w> 62554
索 马里</w> 62517
保 罗</w> 62472
警 察 62443
婴 儿</w> 62436
道 德</w> 62408
投 入</w> 62368
上 面</w> 62359
预 防 62270
过 渡</w> 62216
周 五</w> 62123
留 下</w> 62105
多 个</w> 62090
惩 罚</w> 62086
纽 约 62073
严 格</w> 62069
中 国 61956
谋 杀</w> 61913
受 欢迎</w> 61882
可 怕</w> 61840
全 世界</w> 61640
日 益</w> 61590
生 涯</w> 61584
o c 61583
情 绪</w> 61500
婚 姻</w> 61478
之 中</w> 61446
乔 治</w> 61389
b er 61373
卫 星</w> 61292
现 场</w> 61271
细 胞</w> 61267
财 务 61236
赞 赏</w> 61230
俄罗 斯 61149
数 额</w> 61126
专 家 61126
首 都</w> 61116
领 袖</w> 61099
最 低</w> 61089
7 %</w> 61053
从 来</w> 61011
运 行</w> 61002
连 续</w> 60981
主 权</w> 60938
开发 署</w> 60914
执行 官</w> 60889
制 造 60887
开发 计划署</w> 60885
决 赛</w> 60882
妈 妈</w> 60877
2 8 60873
途 径</w> 60756
F ac 60734
告 知</w> 60705
高级 别</w> 60687
秘 密</w> 60677
气 候</w> 60589
乌 克兰</w> 60568
货 物</w> 60554
面 前</w> 60489
快 速</w> 60475
高 度</w> 60462
国 务 60445
图 片</w> 60417
有 力</w> 60406
一 辆</w> 60397
干 预</w> 60353
朝 鲜</w> 60323
各 级</w> 60269
威尔 士</w> 60252
值 得</w> 60239
版 本</w> 60190
万 英镑</w> 60182
结 婚</w> 60109
种族 主义</w> 60071
夫 妇</w> 60055
4 %</w> 59966
货 币</w> 59920
单 独</w> 59906
软 件</w> 59894
与此 同时</w> 59876
房 屋</w> 59827
三 年</w> 59709
坐 在</w> 59695
交 通</w> 59666
讲 习 59666
拉 丁 59627
犯 罪 59582
西 兰</w> 59574
供 应 59542
大 家</w> 59505
兄 弟</w> 59401
否 认</w> 59301
一 张</w> 59256
性 恋</w> 59256
百 分 59209
eb ook</w> 59205
酒 店</w> 59193
完 整</w> 59129
打 开</w> 59080
w it 59057
黑 人</w> 59034
6 %</w> 59000
眼 睛</w> 58902
克 鲁 58901
a p 58891
合 法</w> 58872
赞 扬</w> 58870
专 题</w> 58770
谴 责</w> 58712
获 胜</w> 58656
年 来</w> 58652
伊斯 兰 58652
外 部</w> 58571
密 斯</w> 58492
指 责</w> 58483
桑 德斯</w> 58464
一般 性</w> 58430
利 于</w> 58409
a m</w> 58336
商 店</w> 58325
失 望</w> 58249
私营 部门</w> 58211
专 门 58188
斗 争</w> 58149
Fac ebook</w> 58139
保 守 58093
群 岛</w> 58063
上 去</w> 58038
到 达</w> 57995
m an</w> 57986
季 度</w> 57971
燃 料</w> 57964
201 7</w> 57944
差 异</w> 57927
混 合</w> 57921
7 . 57905
特 征</w> 57839
西 方</w> 57821
绝 对</w> 57759
讲习 班</w> 57756
西 部</w> 57730
地 雷</w> 57720
心 理</w> 57677
不 想</w> 57601
发 射</w> 57571
各 个</w> 57517
信 心</w> 57486
尼 日 57482
工 会</w> 57443
差 距</w> 57413
出 版 57353
装 置</w> 57349
专家 组</w> 57279
下 跌</w> 57277
教 堂</w> 57242
迈 克尔</w> 57234
保 护 57223
原 子 57190
合 并</w> 57190
工 党</w> 57163
主 持</w> 57131
il l 57078
常 常</w> 56975
暴 力 56952
报 纸</w> 56849
自 我</w> 56815
有 所</w> 56793
指 南</w> 56736
不 利</w> 56728
电子 邮件</w> 56727
劳 动</w> 56725
剥 夺</w> 56704
互 联网</w> 56673
会议 室</w> 56656
其 他人</w> 56626
悉 尼</w> 56602
布 莱 56598
表 决</w> 56592
外 地</w> 56534
场 所</w> 56521
除 非</w> 56500
博 物 56491
更 大</w> 56440
监 禁</w> 56436
展 开</w> 56372
强 迫</w> 56277
马 克</w> 56243
欧 元</w> 56231
普 通</w> 56212
初 步</w> 56159
数 目</w> 56107
密 切</w> 56078
o f</w> 56013
乘 客</w> 56010
工作 队</w> 55880
电 脑</w> 55874
国 王</w> 55844
负 责 55826
利 率</w> 55824
成 就</w> 55749
执 法</w> 55736
各 自</w> 55716
博物 馆</w> 55647
震 惊</w> 55639
国际 公约</w> 55623
广播 公司</w> 55616
治 理</w> 55594
所 作</w> 55553
筹 资</w> 55498
军 事 55444
为 期</w> 55433
筹 备</w> 55396
罗 马</w> 55375
获 取</w> 55364
根 本</w> 55363
侵 害</w> 55307
这 名</w> 55260
申 诉</w> 55256
新 西兰</w> 55255
细 节</w> 55253
7 3</w> 55225
er n 55200
挪 威</w> 55180
i d</w> 55163
有 点</w> 55149
救 济</w> 55099
此 种</w> 55011
人 群</w> 54995
好 处</w> 54984
庇 护</w> 54976
所 有人</w> 54970
研 讨 54935
特 点</w> 54932
距 离</w> 54783
哥伦 比亚</w> 54770
引 发</w> 54730
遗 憾</w> 54711
最高 法院</w> 54679
工 厂</w> 54659
研讨 会</w> 54638
里 克</w> 54612
体 育 54586
作 家</w> 54575
网 上</w> 54573
回 家</w> 54568
卢 旺 54567
199 1</w> 54509
人权 委员会</w> 54468
i k 54455
布 朗</w> 54454
任 择</w> 54438
定 性</w> 54431
被 迫</w> 54392
菲 律 54290
外 交</w> 54214
o p 54211
国 人</w> 54143
护 理</w> 54097
卢旺 达</w> 54089
谈 论</w> 53957
皇 家</w> 53951
第 四</w> 53949
大 使</w> 53888
期 限</w> 53881
去 世</w> 53804
中 期</w> 53801
年 底</w> 53788
用 途</w> 53775
得 分</w> 53772
8 %</w> 53754
角 度</w> 53749
阿 根 53721
期 待</w> 53698
布 尔</w> 53689
加 拉 53648
u s</w> 53622
民主 共和国</w> 53592
wit ter</w> 53573
加勒 比</w> 53537
做 到</w> 53515
拉丁 美洲</w> 53486
依 然</w> 53465
2 9 53395
中 东</w> 53395
作 者</w> 53384
无 论</w> 53372
数 百 53316
维 也 53313
下 去</w> 53289
史 密斯</w> 53253
同 一</w> 53214
低 于</w> 53211
维也 纳</w> 53174
所 涉</w> 53168
同 事</w> 53161
a y</w> 53121
讲 话</w> 53106
教 育 53066
佛 罗 53060
in g 53054
被 捕</w> 53022
妇 女 52987
尽 可能</w> 52953
总 额</w> 52910
突 然</w> 52906
提 供 52895
思 想</w> 52879
前 景</w> 52858
参 议员</w> 52806
决 心</w> 52778
对 象</w> 52687
地 震</w> 52681
扮 演</w> 52610
团 结</w> 52609
修 正</w> 52579
绿 色</w> 52573
一 方面</w> 52562
A b 52512
想 象</w> 52467
总 体</w> 52384
后 者</w> 52357
残 疾</w> 52339
菲律 宾</w> 52315
in e</w> 52273
科 技</w> 52213
质 疑</w> 52209
驾 驶</w> 52190
边 境</w> 52156
规 范</w> 52143
艺术 家</w> 52076
科 威 51992
取 代</w> 51972
杀 害</w> 51966
L e 51934
数据 库</w> 51934
充 满</w> 51916
斯 蒂 51915
决 于</w> 51890
提 醒</w> 51885
攸 关</w> 51883
取 决于</w> 51871
争 取</w> 51832
ar d</w> 51802
很 难</w> 51738
事 业</w> 51712
来 到</w> 51710
苹 果</w> 51689
积 极 51662
关 键 51550
照 顾</w> 51531
东 部</w> 51514
药 品</w> 51496
人 力 51447
比 利 51413
到 来</w> 51368
穿 着</w> 51347
B r 51330
进 口</w> 51295
索 沃</w> 51266
o s</w> 51223
6 00</w> 51219
T witter</w> 51195
捐 助 51162
期 望</w> 51151
分 发</w> 51130
我 会</w> 51107
7 2</w> 51065
标 志</w> 51062
英 尺</w> 50963
主 流</w> 50945
科 索沃</w> 50918
丰 富</w> 50848
海 外</w> 50737
加 州</w> 50695
天 气</w> 50664
红 色</w> 50539
增 进</w> 50491
情 报</w> 50489
刚 果 50483
我 要</w> 50457
证 人</w> 50439
和 平 50438
a h</w> 50395
海 地</w> 50368
并 非</w> 50354
墨 尔 50332
社 交</w> 50322
指 示</w> 50298
负责 人</w> 50293
主 教</w> 50279
集 体</w> 50227
全 体 50214
音 乐 50186
信 贷</w> 50174
提 及</w> 50154
迹 象</w> 50083
里 斯</w> 50077
上 帝</w> 50067
起 草</w> 50037
a d</w> 50035
花 费</w> 50017
询 问</w> 50015
董 事会</w> 50011
el l 49988
or g</w> 49986
美 联 49952
几 天</w> 49937
便 利</w> 49910
对 待</w> 49895
代 理</w> 49839
方 针</w> 49828
家 里</w> 49816
排 放</w> 49795
尼 西亚</w> 49779
殖 民 49778
四 年</w> 49777
阿根 廷</w> 49762
波 兰</w> 49710
替 代</w> 49689
韩 国</w> 49660
纪 念</w> 49648
w w 49640
圣 诞 49630
业 绩</w> 49628
癌 症</w> 49619
品 牌</w> 49615
武装 冲突</w> 49599
说 话</w> 49577
排 除</w> 49567
付 款</w> 49550
阻 碍</w> 49539
发 行</w> 49530
创 建</w> 49506
植 物</w> 49499
二 十 49442
第 七 49420
h t 49358
协调 员</w> 49348
铁 路</w> 49345
恐 怖</w> 49301
演 出</w> 49243
游 客</w> 49216
子 女</w> 49216
推 迟</w> 49193
J oh 49190
消 费</w> 49189
信 仰</w> 49185
安 保</w> 49181
税 收</w> 49153
老 板</w> 49116
有 着</w> 49042
c om</w> 49001
国 防 48923
废 物</w> 48907
酒 吧</w> 48904
俄罗斯 联邦</w> 48887
消 失</w> 48857
艰 难</w> 48793
基 督 48754
推 进</w> 48753
国 籍</w> 48731
应 用 48718
科威 特</w> 48716
尔 特</w> 48710
早 上</w> 48666
墨尔 本</w> 48660
真 实</w> 48641
容 忍</w> 48622
分 类</w> 48587
查 明</w> 48542
u n</w> 48444
实 验</w> 48402
组 合</w> 48388
利 润</w> 48370
负 担</w> 48356
连 接</w> 48324
难 以</w> 48299
i v 48235
在 线</w> 48235
法 治</w> 48214
领 先</w> 48212
透 明 48207
供 资</w> 48203
策 略</w> 48196
图 书 48169
五 年</w> 48164
航 空</w> 48132
来 文</w> 48070
死 刑</w> 48068
控 制 48062
斯 拉 48056
看 来</w> 48049
快 乐</w> 48016
以 往</w> 47997
炸 弹</w> 47964
种族 歧视</w> 47964
有 利于</w> 47956
克 罗 47939
合 适</w> 47934
尔 顿</w> 47848
职 务</w> 47846
收 益</w> 47823
ww w</w> 47816
诸 如</w> 47810
星期 六</w> 47801
一 届</w> 47789
遗 产</w> 47779
通 报</w> 47775
en t 47749
参 议院</w> 47745
更 为</w> 47725
周 一</w> 47689
激 烈</w> 47685
一 部</w> 47590
流 行</w> 47583
怎 样</w> 47518
星期 四</w> 47508
记 得</w> 47447
大 陆</w> 47435
P h 47391
el l</w> 47353
动 机</w> 47322
小 型</w> 47295
看 上去</w> 47292
大 幅</w> 47273
转 变</w> 47273
法 规</w> 47267
接 下来</w> 47245
发 起</w> 47238
共 有</w> 47225
轨 道</w> 47148
正 是</w> 47090
9 %</w> 47089
独 特</w> 47088
第二 个</w> 47066
附 属</w> 47053
c e</w> 47039
航空 公司</w> 47006
储 存</w> 47004
on e</w> 46986
比利 时</w> 46986
导 弹</w> 46982
完 美</w> 46959
担 忧</w> 46911
全体 会议</w> 46900
收 购</w> 46818
克 斯坦</w> 46814
认 可</w> 46814
这 家</w> 46805
紧 急 46777
促 使</w> 46776
民 众</w> 46769
d e</w> 46751
佛罗 里 46742
强 奸</w> 46731
年 前</w> 46723
成 年人</w> 46715
利 比 46704
刚果 民主共和国</w> 46696
哪 些</w> 46651
几 内 46630
男 女</w> 46627
约翰 逊</w> 46617
抓 住</w> 46615
图书 馆</w> 46604
突 出</w> 46590
泰 国</w> 46579
关 心</w> 46566
怀 孕</w> 46544
不 幸</w> 46513
现 年</w> 46508
习 惯</w> 46496
观 看</w> 46449
减 轻</w> 46438
有 趣</w> 46431
安 装</w> 46404
物 品</w> 46396
市 长</w> 46396
专 辑</w> 46395
密 切 46393
印度 尼西亚</w> 46378
囚 犯</w> 46357
彻 底</w> 46336
太 阳</w> 46326
3 0 46295
至 于</w> 46266
爆 发</w> 46261
人力 资源</w> 46246
风 格</w> 46185
公 寓</w> 46099
周 期</w> 46092
利比 里亚</w> 46075
多 次</w> 46070
和 解</w> 46064
马 来 46018
注 册</w> 46012
利 比亚</w> 45995
8 00</w> 45964
自 动</w> 45955
CN . 45946
看 见</w> 45918
分 析 45904
A m 45895
准 确</w> 45885
主 席 45877
奥 地 45873
7 4</w> 45856
透明 度</w> 45850
达 尔 45848
层 面</w> 45839
海 滩</w> 45834
所 载</w> 45827
萨 斯 45811
交 换</w> 45780
A r 45761
管理 局</w> 45758
a u 45722
依 赖</w> 45687
海 洋 45678
战 略 45673
警 官</w> 45643
两 种</w> 45640
提 请</w> 45631
加 上</w> 45631
维 尔</w> 45613
独 立 45449
le y</w> 45422
M c 45413
7 1</w> 45396
过 度</w> 45368
t on</w> 45346
同 性恋</w> 45305
斯 顿</w> 45161
足 以</w> 45113
小 说</w> 45081
融 资</w> 45064
仪 式</w> 45060
重 复</w> 44980
一 座</w> 44954
证 书</w> 44922
段 时间</w> 44847
如 今</w> 44803
脆 弱</w> 44799
白 宫</w> 44774
下 面</w> 44722
路 易 44720
大 脑</w> 44713
7 6</w> 44703
历 史 44691
赋 予</w> 44678
第五 十 44642
斯 科 44562
C or 44510
e w 44508
化学 品</w> 44507
开 支</w> 44505
打 破</w> 44475
路 线</w> 44461
交 通 44451
卡 罗 44433
暂 停</w> 44416
e p 44407
相 应</w> 44407
可 靠</w> 44359
相 互 44332
一 周</w> 44312
尼 尔</w> 44269
自 行 44232
滥 用</w> 44194
公 务 44171
跟 踪</w> 44170
法 令</w> 44164
琼 斯</w> 44162
出 去</w> 44132
本 文</w> 44110
精 神 44075
B BC</w> 44039
埃 塞 44035
被 告</w> 44018
自 杀</w> 44013
自 从</w> 44010
当 事 43970
持 有</w> 43965
设 置</w> 43954
星期 三</w> 43911
意 外</w> 43865
马 尔 43842
i l</w> 43819
诊 断</w> 43798
毫 无 43796
革 命</w> 43775
否 则</w> 43719
尸 体</w> 43686
奥地 利</w> 43678
玩 家</w> 43663
效 力</w> 43659
排 名</w> 43656
提 升</w> 43630
言 论</w> 43617
C O 43598
9 . 43595
8 . 43584
布 里 43581
维 多 43560
合作 伙伴</w> 43557
9 9</w> 43553
恐 惧</w> 43520
核 查</w> 43502
采取 措施</w> 43490
雇 主</w> 43453
克里 斯</w> 43452
一 边</w> 43426
地 产</w> 43419
行 星</w> 43419
实 践</w> 43381
白 色</w> 43374
a h 43356
剥 削</w> 43333
透 明</w> 43300
双 边</w> 43295
尼日 利亚</w> 43272
全球 化</w> 43202
印 象</w> 43197
颁 布</w> 43174
派 遣</w> 43145
合 众 43121
逐 步</w> 43115
志 愿 43107
风 暴</w> 43039
席 位</w> 43025
得 以</w> 42946
共 识</w> 42919
f f 42898
类 别</w> 42831
不 安</w> 42805
津 贴</w> 42735
黑 色</w> 42708
第三 十 42687
达 州</w> 42684
教 训</w> 42652
共同 体</w> 42647
某 种</w> 42619
赞 成</w> 42584
主席 团</w> 42578
恶 化</w> 42576
格 鲁 42528
生 物 42528
那 时</w> 42520
成 长</w> 42501
里 面</w> 42488
尼亚 州</w> 42429
C ar 42408
联合 会</w> 42398
酌 情</w> 42381
o d 42353
王 子</w> 42330
表 面</w> 42319
协 作</w> 42305
彼 得</w> 42298
深 刻</w> 42261
I I</w> 42244
斯 科</w> 42235
马来 西亚</w> 42207
南 斯拉 42202
成 部分</w> 42193
组 成部分</w> 42193
那 种</w> 42188
明 白</w> 42184
未 经</w> 42184
许 可 42178
球 迷</w> 42175
美 利 42165
威 尔</w> 42161
斯 洛 42134
这 部</w> 42117
i o</w> 42116
明 年</w> 42114
集 会</w> 42058
地 面</w> 42046
电 台</w> 42025
保 险 42009
错 过</w> 42005
应用 程序</w> 41957
a t</w> 41942
载 有</w> 41941
股 票</w> 41918
美 丽</w> 41905
解决 办法</w> 41902
高 等 41899
名 为</w> 41899
an n 41848
于 是</w> 41826
后 面</w> 41814
陷 入</w> 41770
金 属</w> 41760
o g 41746
商 业 41731
缺 陷</w> 41731
处 罚</w> 41728
合众 国</w> 41706
认 真</w> 41671
时 报</w> 41606
规 划署</w> 41600
许 可</w> 41598
维 和</w> 41550
标 题</w> 41515
五 个</w> 41509
公务 员</w> 41497
学 会</w> 41479
美利 坚 41430
来 看</w> 41408
家庭 暴力</w> 41321
刺 激</w> 41288
0 0 41282
许可 证</w> 41273
周 年</w> 41259
夏 天</w> 41254
生 存</w> 41246
加 利 41220
抵 达</w> 41218
罪 犯</w> 41200
乐 队</w> 41189
劳 动力</w> 41182
财 富</w> 41161
击 败</w> 41128
命 名</w> 41109
担 保</w> 41101
7 8</w> 41094
空 气</w> 41083
每 周</w> 41064
订 正</w> 41056
弹 药</w> 41037
修 正 41032
头 发</w> 41031
世界 各地</w> 41022
民 族 40996
罗 斯</w> 40954
8 5</w> 40942
格鲁 吉 40932
清 洁</w> 40915
名 称</w> 40915
计算 机</w> 40913
工 发</w> 40904
争 论</w> 40878
大 选</w> 40871
职业 生涯</w> 40861
涵 盖</w> 40854
现 行</w> 40849
每 日</w> 40848
据 称</w> 40839
白 人</w> 40811
不 够</w> 40810
拉 斯 40797
害 怕</w> 40776
实 验 40771
海 军</w> 40747
常 见</w> 40746
整 体</w> 40715
波 斯 40707
执行 局</w> 40692
常 设</w> 40685
台 湾</w> 40669
农 民</w> 40662
丹 麦</w> 40661
火 车</w> 40649
o b 40643
医 疗 40640
审 理</w> 40631
摘 要</w> 40621
公 民 40617
体 现</w> 40598
1 50</w> 40582
9 5</w> 40578
r an 40576
迫 使</w> 40567
暴力 行为</w> 40564
争 端</w> 40550
参 与 40536
气 体</w> 40508
某 个</w> 40463
信 号</w> 40448
u c 40424
受 益</w> 40416
An d 40403
s h 40391
装 备</w> 40384
答 案</w> 40366
显 著</w> 40362
歌 曲</w> 40358
推 广</w> 40358
颜 色</w> 40321
逐 渐</w> 40306
中 有</w> 40291
富 尔</w> 40287
语 文</w> 40282
万 人</w> 40271
灾 难</w> 40263
自行 车</w> 40249
进 球</w> 40233
一 套</w> 40219
投 诉</w> 40212
修正 案</w> 40174
多 么</w> 40170
i c</w> 40151
q u 40127
制造 商</w> 40127
et t 40110
混 乱</w> 40105
设 法</w> 40100
休 息</w> 40073
议 事 40070
报 表</w> 40062
7 00</w> 40060
卡 梅 40058
格鲁吉 亚</w> 40053
温 度</w> 40048
主 张</w> 40041
美利坚 合众国</w> 40028
竞 选 40023
女 童</w> 40017
每 月</w> 39987
极 端</w> 39970
长 时间</w> 39962
检 测</w> 39883
驱 逐</w> 39866
B ar 39865
死 亡 39858
达尔 富尔</w> 39858
统 治</w> 39822
纪 录</w> 39820
解 雇</w> 39811
定 于</w> 39803
衡 量</w> 39803
后 勤</w> 39780
定 罪</w> 39778
秩 序</w> 39778
留 在</w> 39760
敏 感</w> 39759
难民 署</w> 39745
7 9</w> 39698
制 止</w> 39656
事务 部</w> 39654
贝 尔</w> 39620
致 命</w> 39619
单 一</w> 39590
参 考</w> 39580
理 想</w> 39576
r y</w> 39561
首 相</w> 39553
公 投</w> 39524
广 播</w> 39521
还 要</w> 39512
新 加 39492
特 设</w> 39478
马 丁</w> 39463
掌 握</w> 39460
世界 银行</w> 39457
仲 裁</w> 39441
沙 特 39416
汤 姆</w> 39412
自 身</w> 39408
补 救</w> 39349
迪 瓦</w> 39347
维 斯</w> 39325
区 域 39322
持 久</w> 39292
纪 念 39285
充 分 39228
i r</w> 39227
营 地</w> 39207
披 露</w> 39163
基 因</w> 39149
罚 款</w> 39107
加利 福 39092
第三 次</w> 39081
D av 39066
供应 商</w> 39062
埃塞 俄 39027
原子 能</w> 39026
航 班</w> 39020
带 到</w> 39010
分 裂</w> 38984
摩 洛 38975
8 7</w> 38970
科 特 38962
难 以 38946
危 害</w> 38916
次 级</w> 38906
以 期</w> 38809
P . 38798
续 性</w> 38768
警察 局</w> 38751
一 所</w> 38729
服 装</w> 38691
优 秀</w> 38670
人民 共和国</w> 38653
竞选 活动</w> 38650
R C</w> 38648
科特 迪瓦</w> 38615
萨斯 州</w> 38609
比 尔</w> 38601
嫌 疑 38600
合 法 38598
听 取</w> 38598
拯 救</w> 38576
少 数 38568
议事 规则</w> 38568
可 行</w> 38545
化 学</w> 38538
因 而</w> 38531
P ar 38524
自 治</w> 38457
威 廉</w> 38456
国家 一级</w> 38444
第四 十 38426
感 兴趣</w> 38408
尽 快</w> 38395
幸 运</w> 38392
出版 物</w> 38387
中 央 38366
g e</w> 38362
橄 榄 38346
武装 部队</w> 38292
防 治</w> 38288
Add . 38283
操 作</w> 38256
英 文</w> 38244
纳 州</w> 38225
夏 季</w> 38177
哪 里</w> 38153
本 书</w> 38136
管 辖</w> 38130
不 仅仅</w> 38077
出 于</w> 38051
反 恐</w> 38006
粮 食 37992
c h</w> 37973
保 存</w> 37965
空 中</w> 37965
船 只</w> 37937
非洲 联盟</w> 37924
观 念</w> 37911
教 会</w> 37899
据 说</w> 37898
. . 37880
a z 37860
倾 向</w> 37859
r a</w> 37853
这 份</w> 37846
使 用 37838
生 态 37819
杰 克</w> 37813
疯 狂</w> 37798
旅 游 37718
克 服</w> 37703
惊 人</w> 37696
巩 固</w> 37679
诉 人</w> 37657
塞 尔 37652
合 物</w> 37624
人 口 37623
季 节</w> 37619
i m</w> 37593
指 挥 37587
球 场</w> 37564
In st 37512
记 忆</w> 37511
太 阳 37508
维多 利亚</w> 37503
过 境</w> 37482
工程 处</w> 37469
保守 党</w> 37469
会 谈</w> 37418
版 权</w> 37414
队 伍</w> 37406
in d 37398
反对 派</w> 37394
搜 索</w> 37386
打 电话</w> 37382
8 3</w> 37379
妇女 地位</w> 37370
摩洛 哥</w> 37318
犹 太 37299
沙特 阿拉伯</w> 37280
边 缘</w> 37276
切 实</w> 37264
解决 方案</w> 37223
M ic 37210
肯 尼亚</w> 37195
老 年人</w> 37180
度 过</w> 37168
正 义</w> 37151
科 学 37142
克鲁 兹</w> 37126
这 座</w> 37105
标 签</w> 37100
辞 职</w> 37096
依 靠</w> 37094
al l 37084
两 人</w> 37077
加 快</w> 37074
过 来</w> 37057
e st 37053
意 愿</w> 37052
雷 斯</w> 37047
里 兰 37046
案 文</w> 37043
具 体 37026
潜 力</w> 37015
探 索</w> 37008
谈 到</w> 37001
罗 伯特</w> 36989
塞 浦 36986
C C 36985
塞浦 路 36985
蒙 特 36973
系 统 36968
车 站</w> 36936
升 级</w> 36936
互 动</w> 36935
三 届</w> 36913
时 间 36911
档 案</w> 36889
斯科 特</w> 36886
S p 36878
案 例</w> 36878
广 场</w> 36867
作 出 36863
en t</w> 36863
波斯 尼亚</w> 36852
人 力</w> 36845
Add .1</w> 36815
心 理 36795
马 斯</w> 36769
市 场 36761
表 示 36753
上 文</w> 36748
8 8</w> 36745
测 量</w> 36734
赞 同</w> 36723
天 然 36716
繁 荣</w> 36701
固 定</w> 36656
拟 定</w> 36629
中 间</w> 36616
亚 历 36598
u d 36595
1 2 36550
埃塞俄 比亚</w> 36536
歌 手</w> 36523
列 出</w> 36512
短 期</w> 36500
申 请 36489
全 国 36482
本 人</w> 36477
所 说</w> 36437
生 育</w> 36435
接 着</w> 36435
效 益</w> 36410
新加 坡</w> 36353
奇 怪</w> 36340
族 裔</w> 36339
恤 金</w> 36338
a w 36322
家 园</w> 36291
特 性</w> 36261
概 述</w> 36241
部 长 36210
企 图</w> 36201
芝 加 36198
小 学</w> 36193
舞 台</w> 36167
不 错</w> 36153
透 社</w> 36152
路 透社</w> 36136
梦 想</w> 36120
利 昂</w> 36102
议 题</w> 36084
交 给</w> 36065
麦 克 36063
史 蒂 36042
加 剧</w> 36027
8 1</w> 36019
圣诞 节</w> 36017
面 积</w> 35960
预防 犯罪</w> 35934
慈 善</w> 35932
此 次</w> 35913
阿尔 及 35910
废 除</w> 35904
相 当 35900
会 见</w> 35859
ar d 35853
主 持 35837
初 级</w> 35820
塞 拉 35818
交 易 35807
缓 慢</w> 35800
播 放</w> 35748
谷 歌</w> 35709
餐 馆</w> 35706
刑 法</w> 35696
布 隆 35662
终 止</w> 35621
实验 室</w> 35612
区 别</w> 35596
8 6</w> 35593
无 论 35578
考 试</w> 35557
as s 35546
吁 请</w> 35533
蓝 色</w> 35530
娱 乐</w> 35522
通 讯</w> 35510
帝 汶</w> 35505
政 权</w> 35489
死亡 率</w> 35486
共 享</w> 35483
环境 署</w> 35479
忽 视</w> 35478
越 南</w> 35475
遵 循</w> 35442
书 面</w> 35433
工 业 35429
计 数</w> 35407
深 入</w> 35371
布鲁 塞尔</w> 35369
德 尔</w> 35363
教 科 35356
8 2</w> 35341
跨 国</w> 35337
方 便</w> 35330
阁 下</w> 35326
做 好</w> 35317
198 0</w> 35301
机 器</w> 35300
已 有</w> 35295
会 计 35276
ra m</w> 35255
外 面</w> 35223
近 年来</w> 35217
皮 肤</w> 35202
时 尚</w> 35202
进 攻</w> 35192
加 速</w> 35187
昨 天</w> 35168
转 向</w> 35166
物 种</w> 35143
马 拉</w> 35122
教 学</w> 35061
幸 福</w> 35057
款 项</w> 35056
天然 气</w> 35055
引 渡</w> 35050
疑 问</w> 35033
全 体</w> 35017
阐 述</w> 35017
一 道</w> 35004
东 帝汶</w> 35002
逃 离</w> 34975
南斯拉 夫</w> 34974
委 员</w> 34965
塞拉 利昂</w> 34946
翻 译</w> 34945
有 利</w> 34937
检 查 34923
刚 刚</w> 34902
筹 措</w> 34891
调 动</w> 34838
融 入</w> 34813
建筑 物</w> 34795
主 办</w> 34782
发 动</w> 34769
多 种</w> 34753
8 4</w> 34720
人道 主义 34713
人道主义 法</w> 34713
麦 克</w> 34704
建 设 34702
雇 用</w> 34696
街 道</w> 34669
路 上</w> 34665
9 2</w> 34664
上 万</w> 34663
成 千 34649
辩 护</w> 34648
骚 扰</w> 34631
此 前</w> 34599
一 群</w> 34592
有 所 34589
预 算 34581
杀 死</w> 34578
价 值 34552
分 布</w> 34502
9 6</w> 34499
产 业</w> 34478
理 查 34472
澄 清</w> 34444
成千 上万</w> 34439
录 像</w> 34421
医 学</w> 34415
布 拉 34407
申 诉人</w> 34405
捐助 者</w> 34383
康 复</w> 34382
就 业 34372
将 来</w> 34367
塞 拜 34366
队 员</w> 34356
现 代 34344
禁 令</w> 34343
空 缺</w> 34317
限 于</w> 34286
可 是</w> 34266
芝加 哥</w> 34250
知 识 34249
删 除</w> 34248
与 其</w> 34239
代 价</w> 34235
每 次</w> 34235
加 沙</w> 34186
德 里</w> 34174
送 到</w> 34174
么 样</w> 34171
重 返</w> 34164
变 革</w> 34159
对 抗</w> 34123
阿 塞拜 34107
战 斗 34100
产 出</w> 34095
北 爱尔兰</w> 34080
会 计</w> 34077
一 块</w> 34076
老 师</w> 34059
补 贴</w> 34058
谈 话</w> 34015
缅 甸</w> 34008
识 别</w> 34004
工作 者</w> 34002
n e</w> 33940
日 起</w> 33939
手 册</w> 33906
抱 怨</w> 33903
女 子</w> 33903
聚 集</w> 33844
相当 于</w> 33825
国务 院</w> 33823
歇 尔</w> 33808
穿 过</w> 33807
引 力</w> 33803
大 战</w> 33802
芬 兰</w> 33781
南 方</w> 33780
格 雷 33770
伯 格</w> 33761
高 于</w> 33758
布 什</w> 33750
B e 33736
顾 客</w> 33728
an t 33727
星期 天</w> 33718
或 是</w> 33711
外 国人</w> 33674
背 后</w> 33653
受害 人</w> 33652
该 项</w> 33642
卫生 组织</w> 33628
电视 台</w> 33610
英 雄</w> 33572
共 计</w> 33567
C E 33558
重 新 33557
安 置</w> 33550
妨 碍</w> 33547
枪 击</w> 33543
i on</w> 33540
培 养</w> 33536
终 于</w> 33528
卡 车</w> 33510
有 者</w> 33479
年 度 33476
尼 克</w> 33469
柏 林</w> 33459
ati on</w> 33444
罗 马 33443
委 内 33440
移 交</w> 33432
委内 瑞 33432
坚 定</w> 33426
患 有</w> 33417
粉 丝</w> 33378
摧 毁</w> 33370
一 支</w> 33348
枪 支</w> 33319
8 9</w> 33297
培 拉</w> 33282
城 镇</w> 33276
家 中</w> 33262
约 旦</w> 33231
十 二 33229
假 设</w> 33215
C l 33183
保 持 33173
富 有</w> 33172
黑 暗</w> 33143
立 法 33133
扩 展</w> 33108
天 空</w> 33095
产 权</w> 33071
恐怖 分子</w> 33055
普 京</w> 33046
货 币 33033
一 代</w> 33030
应 急</w> 33027
劳 动 33025
房 地产</w> 33014
具 备</w> 33000
并 未</w> 32997
莱 坞</w> 32989
裁 定</w> 32988
克 莱 32944
麻 烦</w> 32935
高 专</w> 32933
有 限 32929
一 段</w> 32904
生 殖</w> 32900
堪 培拉</w> 32893
补 偿</w> 32880
运 营</w> 32864
有 用</w> 32862
9 3</w> 32855
智 利</w> 32853
体 化</w> 32852
9 8</w> 32849
入 侵</w> 32848
限 度</w> 32836
示 范</w> 32790
ic k</w> 32779
政 府 32777
en d 32736
聪 明</w> 32728
乌 干 32684
资 源 32658
邮 报</w> 32656
拉 圭</w> 32634
B l 32614
D i 32610
花 园</w> 32590
选 票</w> 32585
克 萨斯州</w> 32577
饮 食</w> 32566
in a</w> 32531
巴 布 32514
促 请</w> 32504
两 位</w> 32500
影 片</w> 32498
失 业</w> 32495
绑 架</w> 32494
平 均 32490
总 数</w> 32489
地 图</w> 32476
注 重</w> 32466
党 人</w> 32458
主 管 32437
塔 尔</w> 32435
设 想</w> 32431
名 义</w> 32421
导 演</w> 32421
实 地</w> 32413
孟 加拉 32401
两 项</w> 32398
地 址</w> 32379
主义 者</w> 32377
ac h 32350
布隆 迪</w> 32340
崩 溃</w> 32337
远 远</w> 32332
民 国</w> 32327
乌干 达</w> 32320
性 能</w> 32264
要 素</w> 32252
签 名</w> 32248
安 东 32247
一 体化</w> 32234
漠 化</w> 32234
道 歉</w> 32225
1 20</w> 32190
e g 32185
有 罪</w> 32183
剧 院</w> 32167
利 斯</w> 32163
授 予</w> 32144
9 4</w> 32121
上 海</w> 32100
巴勒 斯坦 32091
州 长</w> 32083
认 定</w> 32072
9 1</w> 32069
确 立</w> 32055
5 0 32042
N F 32026
公共 部门</w> 32025
克罗 地 32019
i b 32018
处 决</w> 32010
众 议院</w> 32002
暂 时</w> 32001
登 记 31998
其 余</w> 31996
耶 路 31995
帝 国</w> 31995
营 养</w> 31994
分 歧</w> 31985
耶路 撒 31984
防 守</w> 31983
判 处</w> 31971
帐 户</w> 31970
阿尔及 利亚</w> 31970
9 7</w> 31969
主持 人</w> 31960
伊 朗 31955
卡梅 伦</w> 31946
时间 表</w> 31946
中 华 31941
剩 下</w> 31936
第 九 31934
运 用</w> 31910
思 考</w> 31909
村 庄</w> 31895
应 付</w> 31870
女 王</w> 31861
先 前</w> 31843
信息 技术</w> 31827
苏 联</w> 31823
循 环</w> 31815
关 联</w> 31808
中 部</w> 31793
老 人</w> 31772
西班 牙 31758
邻 国</w> 31756
一 段时间</w> 31752
救 援</w> 31743
耶路撒 冷</w> 31740
自然 资源</w> 31736
9 00</w> 31735
漂 亮</w> 31709
荣 誉</w> 31706
长 大</w> 31668
I S 31658
捐 赠</w> 31649
直 升 31642
债 券</w> 31615
私 营</w> 31613
效 应</w> 31599
1 000</w> 31584
泰 勒</w> 31573
个 人 31563
中 学</w> 31561
好 莱坞</w> 31545
平 方 31525
前 进</w> 31502
设 在</w> 31498
命 运</w> 31497
内 阁</w> 31493
估 计数</w> 31492
少数 民族</w> 31490
惊 讶</w> 31468
at h 31462
委内瑞 拉</w> 31433
愿 望</w> 31411
莫 斯科</w> 31394
港 口</w> 31390
含 有</w> 31377
任 意</w> 31358
改 为</w> 31357
奥 林 31341
豁 免</w> 31326
管 辖 31325
Joh n</w> 31324
海 关</w> 31318
原 来</w> 31314
10 %</w> 31313
东 道 31307
竞争 对手</w> 31304
处 境</w> 31288
引 用</w> 31271
清 理</w> 31253
关 押</w> 31205
小 姐</w> 31190
主 动</w> 31181
基督 教</w> 31178
叙 利亚 31171
专门 机构</w> 31139
匈 牙 31121
有 害</w> 31097
大 西 31081
多 尔</w> 31058
薪 金</w> 31058
e z</w> 31025
忘 录</w> 31025
备 忘录</w> 31024
外 层 31023
外层 空间</w> 31023
学 位</w> 31001
塞浦路 斯</w> 30995
保 加 30989
长 期 30970
ag ram</w> 30962
所 在</w> 30956
i t</w> 30904
毕 业</w> 30901
占 据</w> 30896
毁 灭 30892
能 量</w> 30874
兴 奋</w> 30859
频 道</w> 30855
创 造 30843
设 计 30842
极 大</w> 30840
布里 斯 30829
注 意 30821
陈 述</w> 30803
s k 30786
讲 述</w> 30782
拨 款</w> 30766
就 此</w> 30752
E n 30748
毁灭 性</w> 30746
威 廉 30742
尊 严</w> 30723
四 届</w> 30722
罢 工</w> 30722
一 方</w> 30718
场 景</w> 30706
经 验 30695
非 常 30682
开 幕</w> 30669
2 50</w> 30662
用 品</w> 30648
当 中</w> 30641
-------------------------------- -------------------------------- 30632
阿塞拜 疆</w> 30620
制 性</w> 30569
马 拉 30568
荒 漠化</w> 30556
好 像</w> 30525
分 摊</w> 30525
细 则</w> 30488
活 力</w> 30486
柬 埔 30483
一 架</w> 30468
政 客</w> 30462
s s 30456
火 灾</w> 30447
看 着</w> 30441
受 理</w> 30428
古 老</w> 30416
的 确</w> 30407
不 满</w> 30384
十 字 30382
C on 30365
地 带</w> 30332
作 业</w> 30326
孟加拉 国</w> 30313
奥林 匹 30311
礼 物</w> 30305
前 面</w> 30300
追 求</w> 30292
体 重</w> 30283
198 9</w> 30282
基本 上</w> 30248
军 官</w> 30243
这 件</w> 30234
上 空</w> 30233
农 场</w> 30204
家 族</w> 30199
镜 头</w> 30192
葡萄 牙</w> 30175
电 影 30169
国 民 30156
摆 脱</w> 30145
修 复</w> 30124
T r 30119
不 论</w> 30119
希 尔</w> 30106
几内 亚</w> 30104
发 放</w> 30096
论 会</w> 30093
覆 盖</w> 30083
航 天 30080
小 岛屿</w> 30077
阿 勒 30075
饮 料</w> 30055
屏 幕</w> 30049
动 作</w> 30026
大 麻</w> 30010
陪 审 29996
Inst agram</w> 29977
昂 贵</w> 29971
垃 圾</w> 29954
爸 爸</w> 29954
缓 解</w> 29943
完 善</w> 29920
口 头</w> 29916
经济 体</w> 29915
联邦 政府</w> 29905
至 今</w> 29886
哈 拉</w> 29880
缺 少</w> 29873
会 上</w> 29858
昆 士 29853
或 许</w> 29845
安德 鲁</w> 29840
屠 杀</w> 29839
围 绕</w> 29829
激 励</w> 29829
驱 动</w> 29814
事 先</w> 29799
o v</w> 29790
一 致 29785
政治 权利</w> 29783
渴 望</w> 29781
目 前 29780
目前 为止</w> 29753
欺 诈</w> 29749
路易 斯</w> 29742
强 化</w> 29731
清 除</w> 29728
沟 通</w> 29728
几 十年</w> 29708
晚 些时候</w> 29689
融 合</w> 29681
见 到</w> 29679
E l 29670
破 产</w> 29666
另 一方面</w> 29653
界 定</w> 29636
有 效 29635
or t 29631
明 天</w> 29601
迄 今 29591
刚 果</w> 29584
彼 此</w> 29583
例 外</w> 29556
一 个月</w> 29529
玻 利 29529
i z 29528
餐 厅</w> 29516
时 至</w> 29512
洪 水</w> 29509
下 文</w> 29507
联 络</w> 29498
a f 29495
米 尔</w> 29480
基 准</w> 29443
发 送</w> 29443
症 状</w> 29438
注意 力</w> 29427
协 商 29425
an g 29414
外交 部长</w> 29408
4 0 29371
地 理</w> 29313
封 锁</w> 29272
玛 丽</w> 29264
吸 引力</w> 29257
福 克斯</w> 29245
多 名</w> 29241
携 带</w> 29232
en n 29226
飞 行 29214
挣 扎</w> 29204
美 好</w> 29195
阿勒 颇</w> 29182
尼 泊 29181
得 克萨斯州</w> 29172
影 响 29172
上 个月</w> 29161
随 时</w> 29144
这 笔</w> 29135
菲 尔德</w> 29133
沃 尔 29131
一 生</w> 29126
克罗地 亚</w> 29116
保加 利亚</w> 29099
影响 力</w> 29098
咖 啡</w> 29094
部长 级</w> 29068
战 士</w> 29059
U N 29046
数 以 29029
切 尔 29021
七 届</w> 29020
沮 丧</w> 29019
第 八 29012
本 月</w> 29006
继 承</w> 29004
忘 记</w> 29001
宗 旨</w> 28996
住 宅</w> 28995
外交 部</w> 28974
暗 示</w> 28964
征 聘</w> 28954
相 似</w> 28939
回 忆</w> 28939
犯 有</w> 28937
西 非</w> 28929
三 分之一</w> 28926
众 多</w> 28917
无 人 28914
仇 恨</w> 28911
穷 人</w> 28879
元 素</w> 28798
匈牙 利</w> 28796
活 跃</w> 28772
不 起</w> 28770
决 策 28770
节 日</w> 28768
热 情</w> 28754
击 中</w> 28749
典 型</w> 28747
真 是</w> 28742
支 援</w> 28740
带 有</w> 28739
大西 洋</w> 28735
汇 率</w> 28731
a ir 28729
推 翻</w> 28725
疫 苗</w> 28722
困 境</w> 28716
熟 悉</w> 28708
级 别</w> 28699
戏 剧</w> 28687
W il 28671
讨 论会</w> 28650
ic h 28645
S ch 28639
聚 会</w> 28631
发 布 28617
无 核武器</w> 28616
五 届</w> 28614
氧 化 28602
交 谈</w> 28589
提 前</w> 28575
靠 近</w> 28572
机 器 28551
爵 士</w> 28549
失 业 28542
教科 文 28539
秘 鲁</w> 28524
教科文 组织</w> 28514
直升 机</w> 28500
本 次</w> 28484
要 么</w> 28484
塞尔 维亚</w> 28480
国 外</w> 28473
回 报</w> 28439
朝 鲜 28433
开 枪</w> 28414
承 包 28410
文 本</w> 28403
郊 区</w> 28366
法 语</w> 28351
保 守</w> 28347
惯 例</w> 28346
隔 离</w> 28337
乐 观</w> 28327
判 断</w> 28316
谨 慎</w> 28304
有限 公司</w> 28304
爆 炸 28296
共 产 28243
一 对</w> 28223
年度 报告</w> 28196
说 服</w> 28190
物 体</w> 28176
定 居 28173
销 毁</w> 28168
第二 天</w> 28146
罕 见</w> 28139
ic k 28129
持 续性</w> 28118
卡 尔</w> 28117
黄 金</w> 28112
百分 比</w> 28094
托 马斯</w> 28085
离 婚</w> 28085
特 里亚</w> 28060
贝 尔 28054
突 尼斯</w> 28054
治 安</w> 28052
谅 解</w> 28031
本 届</w> 28029
渔 业</w> 28025
之 内</w> 28024
c o</w> 28018
管辖 权</w> 27980
20 %</w> 27966
制 品</w> 27959
飓 风</w> 27952
火 箭</w> 27936
堕 胎</w> 27930
以 此</w> 27911
渠 道</w> 27897
A l</w> 27896
高 中</w> 27896
首 脑</w> 27891
局 长</w> 27887
公民 权利</w> 27877
听 说</w> 27869
今 晚</w> 27868
出 场</w> 27845
永 久</w> 27844
简 要</w> 27843
收 费</w> 27842
无 疑</w> 27840
建设 性</w> 27829
行 预</w> 27821
美联 社</w> 27813
M at 27800
橄榄 球</w> 27797
此 后</w> 27770
是 从</w> 27766
展 览</w> 27761
i p 27758
金融 机构</w> 27758
游 泳</w> 27752
付 出</w> 27741
s e</w> 27734
年 初</w> 27728
th e</w> 27709
成 熟</w> 27674
样 子</w> 27673
咨 询 27667
引 入</w> 27643
心 脏</w> 27628
201 8</w> 27622
克 逊</w> 27608
人 格</w> 27603
亚 美 27597
旅 馆</w> 27589
签 订</w> 27588
活 性</w> 27583
厄 立 27579
厄立 特里亚</w> 27570
以 为</w> 27567
参 观</w> 27564
友 好</w> 27548
指挥 官</w> 27547
客 人</w> 27530
得 出</w> 27516
一 个 27514
零 售 27512
普 遍 27493
利 物 27487
脱 离</w> 27472
敌 人</w> 27465
分析 师</w> 27464
击 者</w> 27448
学 者</w> 27435
坚 决</w> 27420
人 居</w> 27417
R os 27409
机器 人</w> 27385
灵 活</w> 27357
理查 德</w> 27357
Ch ri 27350
利物 浦</w> 27338
格 式</w> 27326
文 化 27322
发言 者</w> 27322
黑 塞 27311
伊斯兰 共和国</w> 27309
意 图</w> 27301
生态 系统</w> 27293
198 8</w> 27287
监 察 27282
加 尔</w> 27261
改 造</w> 27249
将 军</w> 27235
丧 失</w> 27234
落 后</w> 27223
企 业 27211
科 尔</w> 27202
别 的</w> 27176
大 小</w> 27174
种 植</w> 27152
产 量</w> 27149
人 道</w> 27122
见 面</w> 27119
强 有力</w> 27117
也 门</w> 27114
u g 27105
经济 学家</w> 27089
手 中</w> 27084
列 为</w> 27074
备 选</w> 27054
核 裁军</w> 27050
交 付</w> 27040
提 起</w> 27023
柬埔 寨</w> 27004
偿 还</w> 26978
瓦 尔</w> 26973
正 规</w> 26965
薪 酬</w> 26963
两 天</w> 26959
当 天</w> 26949
东道 国</w> 26918
文 明</w> 26905
创 始 26899
有 机</w> 26894
5 0%</w> 26887
网 页</w> 26882
S c 26862
第四 次</w> 26855
B A</w> 26851
安 哥 26828
司法 部</w> 26827
撤 销</w> 26812
i f 26807
像 是</w> 26791
法 行为</w> 26777
武 力</w> 26772
黑塞 哥 26766
Y ou 26731
维 那</w> 26726
先 进</w> 26726
黑塞哥 维那</w> 26726
多 地</w> 26709
超 出</w> 26705
价值 观</w> 26697
规 约</w> 26695
迄今 为止</w> 26683
创 作</w> 26680
放 松</w> 26673
开 车</w> 26671
退 欧</w> 26666
情 报 26662
特 别 26650
as h</w> 26629
份 额</w> 26625
对 方</w> 26616
D P</w> 26606
u st 26605
丑 闻</w> 26603
发布 会</w> 26582
纽约 时报</w> 26574
招 募</w> 26557
配 合</w> 26541
学 术</w> 26518
本 地</w> 26517
总 结</w> 26511
厄 瓜 26510
al l</w> 26496
愉 快</w> 26493
身 边</w> 26491
观察 团</w> 26490
斯 里兰 26484
南 亚</w> 26482
管 道</w> 26470
ati on 26463
设 定</w> 26457
董 事</w> 26452
an a</w> 26451
u m</w> 26447
文 学</w> 26439
主 人</w> 26434
海 上</w> 26410
宣 称</w> 26408
约 会</w> 26388
衰 退</w> 26378
六 个</w> 26364
弗 兰 26357
玻 璃</w> 26341
奖 金</w> 26339
着 手</w> 26336
维 奇</w> 26335
选 手</w> 26333
任 职</w> 26308
选 出</w> 26298
拖 延</w> 26296
出 色</w> 26294
本 来</w> 26288
充 足</w> 26287
作 战</w> 26276
情 形</w> 26264
幅 度</w> 26262
竞争 力</w> 26262
提供 援助</w> 26252
英 超</w> 26249
前 任</w> 26249
不 良</w> 26246
可 用</w> 26241
U n 26232
喜 爱</w> 26226
目 录</w> 26219
遣 队</w> 26211
对 阵</w> 26204
婚 礼</w> 26166
尼泊 尔</w> 26150
始 终</w> 26149
配 置</w> 26141
现代 化</w> 26138
创始 人</w> 26128
冲 击</w> 26123
斯里兰 卡</w> 26123
填 补</w> 26119
约 束 26109
G r 26104
想 到</w> 26102
旅 程</w> 26094
H ar 26093
饥 饿</w> 26080
外 勤</w> 26076
严 重 26076
盟 友</w> 26071
罗马 尼亚</w> 26068
白 俄罗斯</w> 26054
签 证</w> 26042
半 年</w> 26034
用 作</w> 26032
动 态</w> 26012
形 势</w> 26011
俄 亥 25995
内 政 25990
国 内 25986
日 常</w> 25985
电 力</w> 25982
销 售 25980
并 于</w> 25975
毛 里 25973
间 接</w> 25952
反 叛</w> 25949
人 才</w> 25946
寿 命</w> 25943
感 受</w> 25937
指 挥</w> 25921
短 暂</w> 25917
高 尔 25912
N A</w> 25910
消 息 25910
央 行</w> 25897
撒 哈拉</w> 25896
太 空</w> 25884
宝 贵</w> 25880
犹太 人</w> 25873
卖 淫</w> 25862
增 长 25856
另 有</w> 25855
有 益</w> 25846
斯 基</w> 25832
淘 汰</w> 25831
矛 盾</w> 25830
打 败</w> 25821
股 市</w> 25777
凯 恩</w> 25774
生 日</w> 25773
月 底</w> 25772
CN N</w> 25771
总 裁</w> 25766
参与 者</w> 25758
表 格</w> 25754
大 大</w> 25753
C A 25748
减 贫</w> 25733
M or 25731
密切 合作</w> 25731
问 及</w> 25725
开 设</w> 25701
驳 回</w> 25694
危 地 25675
极 端 25673
解 放 25659
所 有者</w> 25643
分 之 25627
福 德</w> 25613
不 列 25611
分 散</w> 25611
不列 颠</w> 25596
召 集</w> 25592
B S</w> 25588
形 态</w> 25586
加 工</w> 25583
福 特</w> 25581
男 女 25580
名 人</w> 25575
总 值</w> 25547
新 南 25546
骄 傲</w> 25540
管理 人员</w> 25537
菲 利 25531
血 液</w> 25509
最 低 25496
激 进</w> 25491
K h 25484
安哥 拉</w> 25480
原 始</w> 25472
Re v 25441
工 艺</w> 25440
印 第 25429
维 修</w> 25426
人 人</w> 25426
头 部</w> 25412
这 张</w> 25379
模 拟</w> 25377
纪 律</w> 25341
分 为</w> 25340
气 氛</w> 25336
亿 英镑</w> 25323
抨 击</w> 25315
分 离</w> 25311
综 合 25309
前 锋</w> 25299
佛罗里 达州</w> 25286
y n 25272
财务 报表</w> 25270
调查 局</w> 25269
培 训 25258
偏 见</w> 25250
冒 险</w> 25239
党 派</w> 25228
0 1</w> 25211
犯 下</w> 25206
厨 房</w> 25203
i an</w> 25198
经 委会</w> 25198
金 额</w> 25191
行 事</w> 25180
专 业 25168
发 达</w> 25157
大 韩 25147
投 票 25147
大韩 民国</w> 25139
北 方</w> 25134
加利福 尼亚州</w> 25131
格 兰 25129
邻 居</w> 25124
推 行</w> 25122
真 相</w> 25119
奖 励</w> 25117
物 理</w> 25115
多 人</w> 25109
卡 拉</w> 25049
干 旱</w> 25049
斯 达 25044
厄瓜 多尔</w> 25042
工程 师</w> 25021
职 人员</w> 25015
阶 层</w> 25005
可 爱</w> 24989
微 笑</w> 24960
er s 24949
克 林</w> 24944
名 额</w> 24942
吸 收</w> 24942
街 头</w> 24934
c l 24929
消 防 24919
附 加</w> 24896
列 表</w> 24894
复 苏</w> 24883
读 者</w> 24883
营 养 24869
克 拉克</w> 24862
谢 谢</w> 24857
阶 级</w> 24856
审 计 24845
削 弱</w> 24826
杰 克逊</w> 24813
座 位</w> 24813
作 物</w> 24811
G l 24806
商 人</w> 24804
一 片</w> 24794
G ar 24783
证 券</w> 24778
临 床</w> 24774
生 命 24758
节 省</w> 24758
电 池</w> 24756
算 法</w> 24746
怀 特</w> 24745
第 一位</w> 24741
祝 贺</w> 24733
那 天</w> 24730
ri g 24715
死 去</w> 24714
第三 个</w> 24711
四 条</w> 24702
女 演员</w> 24702
发 生 24701
就业 机会</w> 24701
便 宜</w> 24698
成 人</w> 24691
游 行</w> 24690
中国 政府</w> 24690
几 次</w> 24689
伊朗 伊斯兰共和国</w> 24661
姓 名</w> 24654
现 状</w> 24643
旁 边</w> 24637
安 娜</w> 24633
合 格</w> 24631
库 存</w> 24622
干 扰</w> 24618
射 击</w> 24604
ht t 24597
尼 奥</w> 24565
劳 工 24552
接 收</w> 24550
照 料</w> 24546
三 次</w> 24535
短 缺</w> 24534
提 高 24531
没 收</w> 24522
等 等</w> 24521
内 罗 24518
网 络 24518
呼 吸</w> 24512
比 率</w> 24504
拉 姆</w> 24499
约束 力</w> 24490
地 说</w> 24469
股 价</w> 24468
亨 利</w> 24465
各 类</w> 24458
过 于</w> 24453
灭 绝</w> 24450
o f 24448
事 态</w> 24436
股 东</w> 24429
萨 尔 24425
会 晤</w> 24424
安全 部队</w> 24399
向 前</w> 24397
当事 人</w> 24393
冻 结</w> 24381
军 人</w> 24379
b er</w> 24376
对 付</w> 24368
il l</w> 24367
被 控</w> 24365
阿拉伯 叙利亚 24362
阿拉伯叙利亚 共和国</w> 24362
数 学</w> 24360
爱 情</w> 24347
钻 石</w> 24347
内罗 毕</w> 24341
危地 马拉</w> 24332
太 多</w> 24315
喜 剧</w> 24314
内 陆</w> 24312
极 为</w> 24311
天 主教</w> 24295
其 实</w> 24294
自然 灾害</w> 24277
空 军</w> 24272
法 定</w> 24250
农 业 24249
重 大 24249
初 选</w> 24243
寻 常</w> 24241
20 20</w> 24232
问 责 24228
世界 杯</w> 24218
汇 编</w> 24213
I N 24194
A S 24193
所 有权</w> 24191
曼 联</w> 24177
指 称</w> 24177
M on 24133
伴 侣</w> 24124
接 到</w> 24100
论 文</w> 24081
领 取</w> 24078
代 替</w> 24066
军 谈判</w> 24063
裁 军谈判</w> 24063
远 离</w> 24060
信 用 24046
撰 写</w> 24045
牧 师</w> 24027
储 备</w> 24017
碎 片</w> 24011
停 留</w> 24003
部 落</w> 23996
普 通 23993
北 约</w> 23992
差 别</w> 23989
互 相</w> 23989
队 长</w> 23984
张 贴</w> 23982
十 一届</w> 23946
农 组织</w> 23936
粮 农组织</w> 23936
里 约 23934
定 为</w> 23934
毫无 疑问</w> 23922
置 信</w> 23920
巴勒斯坦 人</w> 23910
舒 适</w> 23902
民 意 23901
吉 尔 23898
话 题</w> 23891
超 越</w> 23873
观 测</w> 23873
前 提</w> 23872
米 歇尔</w> 23862
个 别</w> 23853
回 收</w> 23846
目 的 23838
新闻 部</w> 23838
印 发</w> 23827
结 果 23817
援 引</w> 23817
科 技 23790
1 30</w> 23781
睡 眠</w> 23780
戴 维斯</w> 23775
it y</w> 23766
陪审 团</w> 23766
悲 剧</w> 23765
推 特</w> 23765
姐 妹</w> 23765
名 叫</w> 23759
消 耗</w> 23741
损 坏</w> 23740
C. 2</w> 23727
布里斯 班</w> 23720
多样 化</w> 23708
调 解</w> 23705
公 开 23693
组 织 23673
哈 萨 23671
大 众</w> 23670
p l 23649
哥 哥</w> 23632
共 体</w> 23616
为 何</w> 23616
使 馆</w> 23592
at e</w> 23589
凯 特</w> 23587
直 至</w> 23573
亚美 尼亚</w> 23563
特 遣队</w> 23561
久 性</w> 23558
一 句</w> 23552
可 持续性</w> 23550
残 忍</w> 23524
莱 德</w> 23517
英国 人</w> 23513
被 判</w> 23510
P et 23495
驻 地</w> 23486
简 报</w> 23476
必 要 23475
局 面</w> 23461
近 东</w> 23460
存 者</w> 23454
信息 系统</w> 23452
竞 赛</w> 23417
f or 23408
技 巧</w> 23407
宗 教 23399
转 型</w> 23398
强 制</w> 23392
元 首</w> 23388
膨 胀</w> 23387
挑 选</w> 23366
斯洛 伐 23366
何 种</w> 23363
追 踪</w> 23363
英国 广播公司</w> 23357
运 送</w> 23355
难以 置信</w> 23345
解 除</w> 23337
病 例</w> 23332
知识 产权</w> 23332
停 火</w> 23330
设计 师</w> 23314
含 量</w> 23309
分 开</w> 23307
摄 影 23304
温 室</w> 23300
ic h</w> 23295
再 生 23284
昆士 兰</w> 23284
比 亚 23279
过 渡 23263
高 达</w> 23261
不 必</w> 23246
证 会</w> 23244
197 0</w> 23244
经 典</w> 23242
幸 存者</w> 23231
平 静</w> 23221
丧 生</w> 23208
听 证会</w> 23208
缔 结</w> 23200
格 林</w> 23192
练 习</w> 23186
艾 伦</w> 23178
am m 23178
参 数</w> 23169
反 腐败</w> 23164
假 期</w> 23163
华 尔 23150
国际 贸易</w> 23149
B o 23147
拍 卖</w> 23141
动 荡</w> 23138
迈 克</w> 23134
顺 利</w> 23106
儿 童 23096
区 分</w> 23091
战 胜</w> 23077
问责 制</w> 23073
认 证</w> 23057
金融 危机</w> 23055
重 于</w> 23045
严 厉</w> 23030
动 物 23029
漫 长</w> 23029
志愿 人员</w> 23026
全 面 23015
目的 地</w> 23006
帕 特 22987
导 言</w> 22976
能 否</w> 22968
大 街</w> 22963
四 分之一</w> 22960
国 防</w> 22958
舒 服</w> 22958
社会 保障</w> 22951
啤 酒</w> 22943
印第 安 22934
筹 集</w> 22924
涉 嫌</w> 22915
C ol 22914
家 长</w> 22910
简 化</w> 22909
情 感</w> 22895
切尔 西</w> 22893
抵 押</w> 22892
会 员</w> 22887
标 记</w> 22882
.. .</w> 22871
代 码</w> 22866
自 信</w> 22852
民 兵</w> 22850
阳 光</w> 22848
小 心</w> 22840
斯 托 22839
监 控</w> 22839
联 络 22834
辐 射</w> 22816
年 间</w> 22799
守 则</w> 22789
大 臣</w> 22784
遣 返</w> 22779
大 厦</w> 22767
加 纳</w> 22766
实 质</w> 22763
创 伤</w> 22761
重 组</w> 22758
统计 数据</w> 22750
余 额</w> 22736
几 周</w> 22736
克 共和国</w> 22733
紧急 情况</w> 22733
P l 22732
巴 士</w> 22732
E d 22729
凯 利</w> 22728
杀 人</w> 22710
亚 太 22698
成 效</w> 22696
军 方</w> 22693
获 悉</w> 22690
htt p</w> 22680
198 6</w> 22672
招 聘</w> 22670
生 长</w> 22664
Dav id</w> 22660
流 行 22657
i el 22646
报 复</w> 22646
摄 像 22641
迄 今</w> 22632
C om 22624
购 物</w> 22623
it h</w> 22592
迈 阿 22583
仔 细</w> 22574
飞行 员</w> 22574
记 住</w> 22572
N e 22569
洗 钱</w> 22567
强 劲</w> 22561
迈阿 密</w> 22556
鼓 舞</w> 22552
总 共</w> 22518
巡 逻</w> 22516
德 拉</w> 22515
爱 丁 22505
中 场</w> 22483
生 态</w> 22482
概 算</w> 22482
小 行星</w> 22476
用 水</w> 22471
卡 特</w> 22462
地 铁</w> 22458
5 000</w> 22453
城 市 22452
0 5</w> 22450
a st 22447
愚 蠢</w> 22446
种 类</w> 22442
教 徒</w> 22436
un d 22427
徒 刑</w> 22426
活 动 22418
承 受</w> 22415
专门 知识</w> 22415
困 扰</w> 22412
离 职</w> 22410
根 源</w> 22404
一 篇</w> 22399
勇 敢</w> 22393
性 暴力</w> 22387
决 权</w> 22379
必 要性</w> 22376
神 经</w> 22372
重 量</w> 22364
回 归</w> 22362
开 会</w> 22344
on g</w> 22332
u k 22311
匹 配</w> 22310
容 性</w> 22308
格 斯</w> 22294
包 装</w> 22290
查 阅</w> 22287
护 士</w> 22282
色 情</w> 22280
纠 正</w> 22280
单 方面</w> 22266
结 构 22264
夜 晚</w> 22258
麻 醉 22256
英 寸</w> 22256
协 同</w> 22256
土 著 22252
此 事</w> 22246
再生 能源</w> 22244
修 建</w> 22241
职 等</w> 22238
严 肃</w> 22235
数 十 22232
赤 字</w> 22226
ha m</w> 22221
知 情</w> 22217
现 任</w> 22206
引 人 22192
不 人道</w> 22186
议 者</w> 22179
计 划 22165
商 务</w> 22161
不 当</w> 22158
脸 上</w> 22151
文 字</w> 22147
积极 参与</w> 22138
J am 22129
较 大</w> 22129
专 注</w> 22120
延 伸</w> 22101
D e 22100
常 规</w> 22099
顶 级</w> 22098
美联 储</w> 22094
咖 啡 22083
六 届</w> 22074
摊 款</w> 22074
由 此</w> 22069
健 康 22067
最 为</w> 22059
度 假</w> 22058
一 再</w> 22057
管 如此</w> 22036
尽 管如此</w> 22036
不 好</w> 22019
克 拉 22014
最 多</w> 22013
巴 尔 22009
A P</w> 22006
特 权</w> 22002
国际 法庭</w> 22000
号 码</w> 21998
罗 姆 21993
1 10</w> 21991
处 置</w> 21986
辅 助</w> 21984
威 斯 21974
添 加</w> 21970
空 袭</w> 21969
银 行 21947
街 上</w> 21947
俄亥 俄 21942
奥斯 卡</w> 21940
层 次</w> 21936
Ph one</w> 21935
失业 率</w> 21933
所 列</w> 21908
侵 略</w> 21904
两 者</w> 21894
常 规 21861
神 经 21857
A F 21846
不 应</w> 21846
耶 和 21842
装 饰</w> 21838
金 山</w> 21826
ha el</w> 21826
化 合物</w> 21825
沉 默</w> 21816
疼 痛</w> 21813
普 森</w> 21806
发 明</w> 21802
民 事</w> 21797
金 钱</w> 21787
成 分</w> 21786
社会 主义</w> 21784
焦 点</w> 21772
面 试</w> 21771
耶和 华</w> 21755
保 安</w> 21754
产 妇</w> 21750
难民 营</w> 21743
一 度</w> 21734
今 日</w> 21729
强 度</w> 21729
响 应</w> 21729
浪 费</w> 21719
就 要</w> 21697
调查 结果</w> 21697
沙 特</w> 21696
首 长</w> 21693
俄亥俄 州</w> 21688
诚 实</w> 21684
Th e</w> 21682
监 督 21651
应 有</w> 21646
确 定性</w> 21642
引 擎</w> 21640
威廉 斯</w> 21636
爱 德 21632
委 托</w> 21627
高 速 21604
4 0%</w> 21603
逻 辑</w> 21601
吉 尼亚</w> 21597
行政 当局</w> 21584
性 格</w> 21579
出 发</w> 21575
家 属</w> 21572
埃 尔</w> 21569
神 秘</w> 21569
退 化</w> 21568
抗 议者</w> 21565
一 人</w> 21557
剩 余</w> 21553
物 资</w> 21552
巴 拿 21543
负 债</w> 21539
as h 21538
储 蓄</w> 21530
查 尔斯</w> 21526
大 火</w> 21524
i Phone</w> 21521
B ern 21516
3 0%</w> 21511
复 员</w> 21506
l a</w> 21505
联邦 调查局</w> 21496
生 意</w> 21495
al e</w> 21495
检 验</w> 21489
会计 准则</w> 21465
t o</w> 21460
运动 会</w> 21460
草 坪</w> 21440
e e</w> 21439
D on 21438
诊 所</w> 21432
o k 21416
年 级</w> 21413
促 成</w> 21410
时 说</w> 21408
P ro 21407
伍 德</w> 21395
普 查</w> 21394
代 理 21385
S R 21375
残 酷</w> 21375
上 次</w> 21363
托 尼</w> 21362
佛罗里 达</w> 21353
网 球</w> 21351
上 周五</w> 21345
菲利 普</w> 21342
包 围</w> 21331
入 境</w> 21324
In t 21311
地 上</w> 21306
n er</w> 21303
股 份</w> 21300
无 线 21296
污 染 21296
示 威</w> 21275
援 助 21267
护 照</w> 21265
马 上</w> 21258
传 染 21253
A C. 21252
赞 助</w> 21235
I m 21227
嫌疑 人</w> 21225
约 束</w> 21220
海洋 法</w> 21214
队 友</w> 21211
防 御</w> 21206
旧 金山</w> 21205
资源 管理</w> 21203
回 合</w> 21199
燃 烧</w> 21197
C. 3</w> 21192
各 位</w> 21191
塞 内 21181
细 菌</w> 21181
一 笔</w> 21174
东 京</w> 21170
安东 尼</w> 21155
妹 妹</w> 21154
卡 塔尔</w> 21152
性 虐待</w> 21149
隐 藏</w> 21147
监 察</w> 21144
窗 户</w> 21139
尔 多</w> 21133
他 会</w> 21126
C R 21123
核 定</w> 21123
颁 发</w> 21123
澳大 利亚 21120
生产 总值</w> 21102
国防 部</w> 21102
塞内 加尔</w> 21097
显 得</w> 21092
突 破</w> 21086
an e</w> 21084
2 12</w> 21078
分 庭</w> 21072
r e</w> 21071
S and 21065
租 金</w> 21058
史蒂 夫</w> 21045
冬 季</w> 21035
利 尔</w> 21034
G u 21016
仇 外</w> 21016
所 属</w> 21012
一 百 20991
西 斯</w> 20988
瓦 多</w> 20971
岩 石</w> 20969
S al 20958
标 准 20958
内 部 20938
首 要</w> 20934
爱丁 堡</w> 20927
地 中 20923
放 射 20920
恶 劣</w> 20916
亲 密</w> 20915
确 切</w> 20913
沿 着</w> 20907
丹 尼尔</w> 20905
M an 20902
配 偶</w> 20901
酒 精</w> 20894
沿 海</w> 20893
金 牌</w> 20891
坦 桑 20890
桌 子</w> 20885
利 班</w> 20884
塔 利班</w> 20871
大 会 20870
纲 要</w> 20868
并 不 20858
封 信</w> 20856
成 年</w> 20849
单 元</w> 20842
未 有</w> 20840
走 向</w> 20840
心 脏 20837
市 中心</w> 20837
奥 尔 20818
萨尔 瓦多</w> 20797
汇 报</w> 20781
数百 万</w> 20778
珀 斯</w> 20769
r o</w> 20764
D A 20755
家庭 成员</w> 20751
关 税</w> 20741
京 都</w> 20741
地 板</w> 20733
波 动</w> 20727
注 目</w> 20726
法 典</w> 20725
舞 蹈</w> 20722
. 2</w> 20714
卧 室</w> 20710
亚 马 20708
一 词</w> 20704
CN. 4</w> 20704
替 代 20692
公 认</w> 20691
斯洛伐 克</w> 20688
阿尔 巴 20678
黎 加</w> 20672
不 少</w> 20671
明 智</w> 20643
进 来</w> 20643
协商 一致</w> 20643
相 机</w> 20642
视 察</w> 20639
尴 尬</w> 20636
智 能</w> 20635
八 届</w> 20631
中 非 20627
哥 斯达 20603
中 断</w> 20599
毫 米</w> 20597
哥斯达 黎加</w> 20584
S u 20574
里约 热 20561
内 卢</w> 20560
里约热 内卢</w> 20556
第一 届</w> 20538
米 勒</w> 20536
乌 拉圭</w> 20523
油 价</w> 20521
保 密</w> 20517
Mic hael</w> 20517
当 作</w> 20514
ar t</w> 20513
源 于</w> 20496
睡 觉</w> 20489
i st 20482
掩 盖</w> 20473
半 场</w> 20472
定居 点</w> 20472
设 有</w> 20471
租 赁</w> 20468
这 类</w> 20466
传 递</w> 20464
贸易 法</w> 20462
到 处</w> 20450
大 多</w> 20446
抵 制</w> 20446
温 和</w> 20428
奥 运</w> 20426
10 5</w> 20416
置 于</w> 20403
转 化</w> 20392
能 源 20387
转 换</w> 20384
莱 斯</w> 20381
灵 魂</w> 20364
玩 笑</w> 20362
智 慧</w> 20339
上 市</w> 20331
期 内</w> 20317
殖民 地</w> 20314
国务 卿</w> 20309
学 科</w> 20305
北 卡罗 20299
早 晨</w> 20297
现 已</w> 20297
美国 政府</w> 20295
内 战</w> 20291
牙 买 20282
自 治 20279
消 灭</w> 20279
家 乡</w> 20273
其 后</w> 20272
k er</w> 20269
198 7</w> 20262
土 壤</w> 20254
大 门</w> 20245
流 程</w> 20238
无论 是</w> 20230
继 续 20228
ou r 20226
拥 挤</w> 20224
A le 20221
增长 率</w> 20219
谈 会</w> 20200
变 动</w> 20198
预 定</w> 20197
中华 人民共和国</w> 20185
排 斥</w> 20169
领 空</w> 20160
地 下</w> 20155
金 斯</w> 20152
一 国</w> 20150
峰 会</w> 20149
排 雷</w> 20145
动 员</w> 20144
写 作</w> 20140
强 制性</w> 20139
莎 白</w> 20136
0 8</w> 20128
铭 记</w> 20127
很 长</w> 20126
免 受</w> 20118
排 放 20107
新 兴</w> 20106
198 5</w> 20106
校 园</w> 20104
高等 教育</w> 20103
言 论 20100
三 名</w> 20099
克 里</w> 20096
屋 顶</w> 20091
at t 20090
体 验</w> 20088
复 杂 20082
G e 20079
伊斯兰 教</w> 20079
言论 自由</w> 20076
绩 效</w> 20063
乘 坐</w> 20062
E P</w> 20055
根 本 20052
al d</w> 20052
值 得 20042
特 恩</w> 20039
文 斯</w> 20037
A C 20026
配 备</w> 20018
南 南 20017
脱 欧</w> 20015
象 征</w> 20004
违 背</w> 20000
标 赛</w> 19998
锦 标赛</w> 19994
遭 遇</w> 19991
双 重</w> 19990
一 本</w> 19983
动物 园</w> 19979
推 荐</w> 19976
玩 具</w> 19968
服务 器</w> 19968
自 豪</w> 19966
特 色</w> 19962
引人 注目</w> 19944
后 卫</w> 19940
场 地</w> 19939
倡 导</w> 19931
波 特</w> 19923
F ar 19921
此 项</w> 19917
第三 方</w> 19909
an i</w> 19902
扩 张</w> 19900
各 个 19895
膝 盖</w> 19888
地中 海</w> 19888
教 皇</w> 19884
国际 法院</w> 19877
旅游 业</w> 19874
航 行</w> 19867
恰 当</w> 19859
订 立</w> 19858
加 斯</w> 19853
监察 员</w> 19850
彻 斯特</w> 19846
南南 合作</w> 19840
特 区</w> 19828
世 贸 19822
0 7</w> 19814
S P 19806
华盛 顿 19805
哈萨 克斯坦</w> 19800
买 家</w> 19795
一 把</w> 19791
理 事</w> 19785
校 长</w> 19783
斯蒂 芬</w> 19781
代表 性</w> 19779
使 命</w> 19776
输 入</w> 19772
其 次</w> 19769
殴 打</w> 19754
0 3</w> 19751
绝 大多数</w> 19751
对 外</w> 19749
多 米 19747
深 度</w> 19744
1 40</w> 19739
通 货 19738
阴 谋</w> 19734
财政 部</w> 19732
税 务</w> 19731
半 岛</w> 19730
生 活 19729
魅 力</w> 19726
时 限</w> 19711
忽 略</w> 19711
民意 调查</w> 19711
罗 伯 19709
包 容性</w> 19707
缩 小</w> 19703
香 港 19702
法律 援助</w> 19702
et t</w> 19678
索 赔 19669
不 变</w> 19669
城 堡</w> 19645
支 柱</w> 19645
0 9</w> 19642
尽 量</w> 19634
恩 斯</w> 19633
S m 19626
默 德</w> 19618
贩 卖</w> 19617
当 代</w> 19608
亚历 山 19598
G re 19596
说 道</w> 19596
服 用</w> 19594
l er</w> 19568
岗 位</w> 19563
牙买 加</w> 19560
l and</w> 19550
存 款</w> 19526
报 酬</w> 19526
哥伦 比亚 19518
玻利 维亚</w> 19513
书 籍</w> 19495
脂 肪</w> 19487
援助 团</w> 19484
耶 稣</w> 19468
苏 尔</w> 19465
给 出</w> 19459
必 需</w> 19452
精 英</w> 19436
中非 共和国</w> 19435
指 导 19431
大 声</w> 19423
乌 兹 19420
收 取</w> 19417
焦 虑</w> 19410
电 信</w> 19402
这 儿</w> 19396
哈 利</w> 19395
ar a</w> 19392
萨 德</w> 19391
火 星</w> 19390
阵 线</w> 19390
习 俗</w> 19387
19 67</w> 19387
决策 者</w> 19374
吸 烟</w> 19372
大 道</w> 19367
企业 家</w> 19366
极 其</w> 19359
Q u 19356
精 力</w> 19354
未 成年人</w> 19347
乍 得</w> 19341
不 愿</w> 19337
幻 想</w> 19333
机 械</w> 19329
自 动 19327
卫 队</w> 19319
低 收入</w> 19319
编 号</w> 19318
马 其 19310
乌兹 别 19310
有效 性</w> 19303
出 租 19297
一 艘</w> 19296
旅 费</w> 19295
抢 劫</w> 19295
审 评</w> 19275
排放 量</w> 19274
规 章</w> 19272
ag e</w> 19270
弱 势</w> 19264
组 建</w> 19263
事 物</w> 19258
权 人</w> 19257
寒 冷</w> 19250
转 递</w> 19232
地 域</w> 19225
宇 宙</w> 19223
上 学</w> 19222
操 纵</w> 19215
煽 动</w> 19210
列 车</w> 19209
筹 备 19196
分 列</w> 19194
管理 层</w> 19194
博 客</w> 19187
志愿 者</w> 19187
缴 纳</w> 19181
有 时候</w> 19176
揭 示</w> 19172
到 底</w> 19159
Ab d 19157
查 询</w> 19152
is h</w> 19147
下 周</w> 19143
六 个月</w> 19138
贫 困 19125
故 意</w> 19125
总 监</w> 19124
一致 性</w> 19120
加 大</w> 19112
面 包</w> 19109
肌 肉</w> 19105
庞 大</w> 19101
拆 除</w> 19101
所 在 19095
问 责</w> 19088
0 6</w> 19085
198 2</w> 19081
无 关</w> 19076
一 面</w> 19075
演 奏</w> 19072
毕 业 19071
讨 厌</w> 19071
参 照</w> 19065
绝 望</w> 19059
索赔 人</w> 19056
载 于</w> 19054
裁 判</w> 19054
墨西 哥 19052
D NA</w> 19050
华 州</w> 19044
b ur 19041
乡 村</w> 19039
养 老 19023
取 得 19021
老 鼠</w> 19014
奖 项</w> 19009
终 了</w> 19006
ett y</w> 19003
波 士 19001
零售 商</w> 18999
国 别</w> 18996
捷 克共和国</w> 18987
有 辱</w> 18982
营 销</w> 18968
新 鲜</w> 18961
免 疫</w> 18936
灵 活性</w> 18934
尺 寸</w> 18929
撤 出</w> 18924
邪 恶</w> 18923
收 回</w> 18919
轻 武器</w> 18914
10 9</w> 18909
oo d</w> 18908
动 性</w> 18903
穆 罕 18900
伊 丽 18893
同 情</w> 18892
主 意</w> 18889
环 保</w> 18888
对 比</w> 18887
可 疑</w> 18873
大 使馆</w> 18871
所 得</w> 18871
之 所以</w> 18852
团 伙</w> 18850
房 产</w> 18847
证 词</w> 18836
公 报</w> 18829
殖民 化</w> 18829
一 贯</w> 18819
北 美</w> 18816
1 60</w> 18814
隐 私</w> 18801
政治 家</w> 18791
前 所 18784
轻 松</w> 18783
F l 18780
印 刷</w> 18779
糖 尿 18778
克 力</w> 18776
S T</w> 18771
ou n 18765
以 南</w> 18761
世界 卫生组织</w> 18760
i es</w> 18755
延 迟</w> 18746
巨 头</w> 18736
穆罕 默德</w> 18735
权 益</w> 18729
富 翁</w> 18725
欣 赏</w> 18719
卫生 部</w> 18704
高速 公路</w> 18703
牺 牲</w> 18696
小 企业</w> 18692
助 手</w> 18691
次 数</w> 18688
西 岸</w> 18686
截 止</w> 18682
19 60</w> 18679
P I</w> 18677
伊丽 莎白</w> 18677
价 格 18666
蒙特 利尔</w> 18665
玛 丽 18661
生 素</w> 18658
各 项 18654
某 人</w> 18651
不 太 18648
无 效</w> 18637
大 概</w> 18636
198 4</w> 18633
麦 隆</w> 18625
监 视</w> 18624
代表 大会</w> 18623
h m 18615
世贸 组织</w> 18613
凌 晨</w> 18600
尔 曼</w> 18595
积 累</w> 18593
阐 明</w> 18592
轰 炸</w> 18590
巴拿 马</w> 18587
无 家 18585
联合国 开发计划署</w> 18585
蔬 菜</w> 18584
抑 制</w> 18582
协调 一致</w> 18580
兰 德</w> 18577
捍 卫</w> 18577
糖尿 病</w> 18574
不 了</w> 18564
无家 可 18558
格 拉斯 18554
尼 加拉 18546
详 细 18544
人 为</w> 18543
主 角</w> 18541
内政 部</w> 18526
尼加拉 瓜</w> 18526
空 间 18519
多 哈</w> 18512
旋 转</w> 18506
蒙 古</w> 18501
消 极</w> 18501
巧 克力</w> 18499
蒂 姆</w> 18497
板 球</w> 18496
大 厅</w> 18493
感 情</w> 18492
ic e</w> 18488
莱 纳州</w> 18487
北卡罗 莱纳州</w> 18487
家 伙</w> 18486
施 加</w> 18481
异 常</w> 18481
信 件</w> 18479
阿 德 18475
是 不是</w> 18471
拉 特</w> 18459
阿 卜 18459
格拉斯 哥</w> 18456
阿 布 18454
地 下 18453
8 0%</w> 18452
经验 教训</w> 18447
H e 18446
大 不列颠</w> 18445
净 额</w> 18442
切 尔</w> 18440
客 观</w> 18438
包 容</w> 18425
迫 切 18423
和 谐</w> 18421
十 五届</w> 18417
太阳 能</w> 18417
疟 疾</w> 18415
10 1</w> 18415
军 备</w> 18409
C o 18401
长期 以来</w> 18399
主 导</w> 18376
不 妨</w> 18376
着 重</w> 18372
吉 布 18363
冰 岛</w> 18360
制 片 18360
凯 文</w> 18357
伤 亡</w> 18354
立 陶 18350
承包 商</w> 18341
清 晰</w> 18334
格 林 18330
C r 18329
尊 敬</w> 18329
看 待</w> 18325
环境 保护</w> 18322
使用 者</w> 18321
太 太</w> 18312
亚马 逊</w> 18310
船 员</w> 18306
我 能</w> 18306
示 威 18305
阿尔巴 尼亚</w> 18305
库 尔德</w> 18304
依 法</w> 18301
o w</w> 18297
替 换</w> 18292
多 伦 18290
斯 加</w> 18289
延 误</w> 18289
解 放</w> 18289
世界 大战</w> 18288
昨 晚</w> 18286
破 坏 18285
石 头</w> 18283
不可 避免</w> 18278
分 割</w> 18262
M ac 18261
o t</w> 18258
鱼 类</w> 18258
透 过</w> 18257
0 4</w> 18255
各 种 18253
用 以</w> 18247
第二 届</w> 18243
C. 5</w> 18240
电 话 18238
夜 间</w> 18237
样 本</w> 18235
备 金</w> 18233
ub e</w> 18232
陆 军</w> 18229
近 期</w> 18228
下 载</w> 18220
优 惠</w> 18218
飞 往</w> 18212
亚 当</w> 18209
职 权 18208
职权 范围</w> 18206
干 涉</w> 18204
摄影 师</w> 18197
A R 18196
犹 太</w> 18181
起 到</w> 18180
预算 外</w> 18178
纽约 市</w> 18177
欺 骗</w> 18167
强 调 18165
强调 指出</w> 18165
引 导</w> 18160
最 早</w> 18160
新 型</w> 18156
术 语</w> 18149
指 令</w> 18143
登记 册</w> 18132
波士 顿</w> 18132
种 子</w> 18122
常 会</w> 18114
某 种 18100
独立 性</w> 18087
公 斤</w> 18082
论 点</w> 18079
化学 武器</w> 18071
船 舶</w> 18070
心脏 病</w> 18069
六 年</w> 18067
多 达</w> 18059
左 翼</w> 18055
卡 斯 18053
s p 18040
曼 彻斯特</w> 18039
解 除 18037
看 作</w> 18033
富 裕</w> 18028
格 尔</w> 18024
斯 图 18020
特 网</w> 18020
春 天</w> 18011
听 众</w> 18006
勇 气</w> 17995
民主 主义 17995
申请 人</w> 17995
a x</w> 17992
变 性</w> 17992
脆 弱 17984
多伦 多</w> 17984
之 处</w> 17964
e f 17941
阿 萨德</w> 17938
a j 17934
通 道</w> 17921
中 等</w> 17915
k a</w> 17913
国际 标准</w> 17913
朝鲜 民主主义 17906
喀 麦隆</w> 17903
资 深</w> 17903
占 领 17901
河 流</w> 17893
密 尔顿</w> 17888
信 念</w> 17887
一 组</w> 17880
该 市</w> 17880
分之 二</w> 17879
通 胀</w> 17876
斯洛 文 17876
总 干事</w> 17866
国 政府</w> 17861
报 价</w> 17855
评 级</w> 17849
脆弱 性</w> 17845
什 么样</w> 17838
不 确定性</w> 17833
发 给</w> 17832
批 评 17832
纳 税 17828
得 不到</w> 17824
人 生</w> 17824
感 激</w> 17824
相 关 17822
种 种</w> 17820
热 带</w> 17816
粮食 安全</w> 17816
均 衡</w> 17813
找 出</w> 17812
逃 跑</w> 17809
恒 星</w> 17806
发 电 17792
那 儿</w> 17791
历史 性</w> 17791
家 具</w> 17787
详 情</w> 17787
核 实</w> 17782
T V</w> 17778
该 法</w> 17778
选 定</w> 17774
之 上</w> 17769
散 步</w> 17767
计算 机 17767
前所 未有</w> 17758
第十 二 17749
三 天</w> 17747
不 用</w> 17747
长 达</w> 17744
2 5%</w> 17741
阿 里</w> 17739
救 助</w> 17738
不 同 17733
开 办</w> 17725
不 多</w> 17719
Rev .1</w> 17716
林 斯</w> 17714
C .1</w> 17713
万 富翁</w> 17713
赠 款</w> 17713
合法 性</w> 17711
弥 补</w> 17708
计划 生育</w> 17708
露 面</w> 17707
下 滑</w> 17703
债 权人</w> 17696
访 者</w> 17694
18 0</w> 17691
复 制</w> 17680
非 殖民化</w> 17677
哲 学</w> 17675
拥 抱</w> 17670
不 结 17660
智 能 17650
0 2</w> 17649
水 资源</w> 17647
场 合</w> 17644
叫 做</w> 17639
器 官</w> 17637
夫 兰</w> 17634
所 知</w> 17632
同 等</w> 17631
生产 力</w> 17631
蛋 糕</w> 17629
伯 尼</w> 17624
津 巴布 17619
一 枚</w> 17610
汉 密尔顿</w> 17607
I D 17601
马 德里</w> 17598
里 奥</w> 17597
因 特网</w> 17589
进 度</w> 17586
不 足以</w> 17583
优 化</w> 17573
模 糊</w> 17569
纳税 人</w> 17569
今 年 17561
试 点</w> 17559
男女 平等</w> 17547
对 策</w> 17543
p h 17519
性 别 17515
G etty</w> 17510
核 试验</w> 17508
is s 17508
回 去</w> 17500
紧 密</w> 17500
日 报</w> 17495
突 袭</w> 17489
三 分之二</w> 17478
B an 17477
抵 抗</w> 17477
跑 步</w> 17455
安 静</w> 17454
乐 趣</w> 17452
品 质</w> 17444
高 效</w> 17443
初 次</w> 17440
第六 十 17440
通 讯 17439
得 知</w> 17437
冬 天</w> 17427
走 出</w> 17420
该 党</w> 17414
活 着</w> 17414
验 证</w> 17406
公 主</w> 17405
扫 描</w> 17399
战 役</w> 17398
津巴布 韦</w> 17398
出 口 17397
SR . 17396
a in 17392
J o 17390
葡萄 酒</w> 17384
开 心</w> 17379
反 馈</w> 17379
信 用</w> 17378
ol d 17374
百分 点</w> 17362
E m 17356
生 于</w> 17356
复 兴</w> 17356
哈 里</w> 17349
暴 露</w> 17346
联 刚</w> 17346
受 益 17341
特 使</w> 17338
水 果</w> 17336
摩 托 17334
自 主</w> 17331
友 谊</w> 17326
解除 武装</w> 17324
ation al</w> 17322
R y 17319
15 %</w> 17310
特 人</w> 17306
蒙 德</w> 17300
污染 物</w> 17299
接 纳</w> 17298
划 分</w> 17277
整 合</w> 17276
霍 尔</w> 17273
嫌疑 犯</w> 17268
开 采</w> 17265
尽 早</w> 17260
生 气</w> 17247
天 堂</w> 17246
住 所</w> 17246
还 应</w> 17244
更 换</w> 17239
黑 客</w> 17238
证 件</w> 17237
亚 利 17233
两 家</w> 17230
开 玩笑</w> 17228
星期 日</w> 17222
y a</w> 17211
水 域</w> 17205
音乐 会</w> 17201
只 会</w> 17192
通 用</w> 17190
录 片</w> 17189
两 倍</w> 17179
系 列 17179
明 确 17175
小 组 17170
专 题 17161
子 弹</w> 17158
战 场</w> 17149
转 交</w> 17144
长 度</w> 17143
破 裂</w> 17140
K ar 17128
特 派</w> 17124
朝鲜民主主义 人民共和国</w> 17124
反 复</w> 17110
K e 17107
发 了</w> 17107
新闻 网</w> 17100
黄 色</w> 17099
S e 17098
生 病</w> 17098
制 约</w> 17096
发 表 17092
M al 17090
爱 荷 17088
孕 妇</w> 17085
F ran 17083
接 管</w> 17081
发 挥 17079
国家 元首</w> 17077
行政 部门</w> 17077
b y</w> 17074
对 性</w> 17074
亚利 桑 17060
拉 德</w> 17059
坦 克</w> 17058
势 头</w> 17053
剧 本</w> 17049
主管 部门</w> 17046
养老 金</w> 17043
声 誉</w> 17031
全球 性</w> 17031
亚太 经 17006
198 1</w> 17005
形 状</w> 17001
神 奇</w> 16998
少 女</w> 16978
第二 条</w> 16976
197 9</w> 16976
洛 克</w> 16966
发挥 作用</w> 16958
信 通</w> 16944
频 率</w> 16940
遏 制</w> 16937
是 说</w> 16934
布 什 16927
健 全</w> 16926
威尔 逊</w> 16924
更 改</w> 16910
复 原</w> 16910
气 象 16906
慈 善 16904
锻 炼</w> 16900
吉 姆</w> 16884
办 理</w> 16884
蛋 白 16876
出 境</w> 16874
y n</w> 16868
频 繁</w> 16868
斯 德 16867
恐 吓</w> 16867
区域 合作</w> 16865
责 任 16849
带 走</w> 16844
面 向</w> 16842
实 例</w> 16841
祈 祷</w> 16839
发展 权</w> 16831
制片 人</w> 16828
克 拉</w> 16827
打 死</w> 16818
咨询 服务</w> 16816
不 明</w> 16813
右 翼</w> 16808
页 面</w> 16794
197 8</w> 16794
ar y</w> 16792
将 近</w> 16791
论 性</w> 16790
ic a</w> 16790
等 级</w> 16788
买 卖</w> 16788
普 及</w> 16786
杀 伤</w> 16785
零 售</w> 16784
滑 稽</w> 16784
停 车 16784
下 次</w> 16779
两 场</w> 16779
农 村 16770
古 怪</w> 16766
海 盗</w> 16763
毛里 求 16757
侧 重于</w> 16754
同 行</w> 16751
经济 学</w> 16746
各 州</w> 16745
下 令</w> 16744
工作 室</w> 16735
哥 尔 16734
旅 行 16732
精 确</w> 16720
杰 里 16717
撤 回</w> 16716
市 民</w> 16713
激 进 16708
枪 手</w> 16708
雷 德</w> 16698
哈 顿</w> 16695
政 变</w> 16690
保护 区</w> 16689
克 利 16679
势 力</w> 16675
激 动</w> 16674
评 论 16664
确 信</w> 16663
牛 奶</w> 16661
案 子</w> 16659
a k</w> 16650
行 驶</w> 16650
斯德 哥尔 16649
午 餐</w> 16648
负 有</w> 16648
爱荷 华州</w> 16648
发 动机</w> 16631
身 份 16627
出租 车</w> 16627
W al 16626
年 长</w> 16626
感 到 16625
布莱 克</w> 16622
ar t 16613
日 本 16609
费 城</w> 16600
杰 夫</w> 16596
人 选</w> 16593
弗兰 克</w> 16592
最 小</w> 16585
以 至于</w> 16576
斯洛文 尼亚</w> 16573
迫切 需要</w> 16572
温 暖</w> 16570
疏 散</w> 16570
H S</w> 16563
ber g</w> 16558
共产 党</w> 16558
or e</w> 16557
登 上</w> 16555
en ce</w> 16552
萨 拉</w> 16551
禁 运</w> 16550
提 取</w> 16546
必要 措施</w> 16546
O S</w> 16543
分 至</w> 16539
完 全 16538
高 层</w> 16536
航天 局</w> 16530
思 维</w> 16526
ac k</w> 16526
几内 亚 16525
圣 诞</w> 16524
T e 16523
手 指</w> 16520
莱 斯特</w> 16519
缩 短</w> 16519
10 . 16518
模 特</w> 16511
示威 者</w> 16509
一 颗</w> 16497
0 000</w> 16496
本 质</w> 16493
B ro 16491
干 净</w> 16491
实 在</w> 16484
视 性</w> 16478
高 质量</w> 16474
联合国 大会</w> 16468
犯罪 行为</w> 16465
N ew 16462
知 名</w> 16457
L a 16454
提高 认识</w> 16453
妥 协</w> 16449
毛里求 斯</w> 16447
合 成</w> 16445
C am 16440
处 理 16436
初 期</w> 16431
行 性</w> 16429
隧 道</w> 16418
字 母</w> 16411
赛 事</w> 16410
沙 漠</w> 16397
山 区</w> 16394
仓 库</w> 16390
宏 观 16390
函 数</w> 16390
生 计</w> 16388
理 性</w> 16385
支 配</w> 16383
斯 塔</w> 16380
职 员</w> 16380
1 2. 16378
歧 视性</w> 16378
专 利</w> 16376
当事 方</w> 16376
伦 斯</w> 16374
野 生 16374
核 可</w> 16368
常规 武器</w> 16366
极端 主义</w> 16349
比 克</w> 16345
典 礼</w> 16339
6 0%</w> 16338
纤 维</w> 16338
捐助 国</w> 16325
西班牙 语</w> 16315
猜 测</w> 16302
激 情</w> 16301
恢 复 16300
肯 尼 16299
斯德哥尔 摩</w> 16299
内部 监督</w> 16288
特 勒</w> 16287
考 验</w> 16287
折 磨</w> 16287
欧洲 委员会</w> 16285
二 战</w> 16281
各 样</w> 16273
交易 所</w> 16267
免 遭</w> 16260
M e 16257
菲 尔</w> 16253
怎 么样</w> 16253
唱 片</w> 16247
保险 公司</w> 16246
负 面</w> 16245
合 组织</w> 16239
I II</w> 16226
除 外</w> 16224
判 例</w> 16215
里 奇</w> 16209
十 届</w> 16202
y le</w> 16199
生 成</w> 16191
塔 吉 16190
天 文 16181
公共 卫生</w> 16181
大 气</w> 16179
步 行</w> 16176
结 论性</w> 16174
周 知</w> 16171
权 威</w> 16171
次 世界大战</w> 16169
泳 池</w> 16167
较 为</w> 16160
木 材</w> 16158
检察 长</w> 16158
上 限</w> 16157
侦 探</w> 16154
驾 驶 16148
撤 离</w> 16141
k e</w> 16136
会 费</w> 16134
查 看</w> 16133
订 单</w> 16132
马 修</w> 16129
G en 16128
双 手</w> 16128
游 说</w> 16108
冷 静</w> 16108
认 同</w> 16105
一 切 16104
人民 币</w> 16098
X X 16094
er g 16084
T a 16081
点 击</w> 16078
iel d</w> 16077
re s 16069
摩 尔</w> 16068
纪 录片</w> 16066
立 刻</w> 16065
画 面</w> 16061
借 口</w> 16061
-- -</w> 16061
I S</w> 16058
M o 16058
圣 地 16057
全 权</w> 16051
立陶 宛</w> 16050
安 慰</w> 16047
m a</w> 16046
O r 16044
闻 名</w> 16037
巴 塞尔</w> 16034
全 民 16033
Wil li 16031
ber t</w> 16029
S ha 16028
杰里 米</w> 16027
爱 好 16024
信用 卡</w> 16024
弗 朗 16018
尔 多 16016
无 害</w> 16016
理 学</w> 16016
纳 米 16014
森 纳</w> 16013
定 居</w> 16008
困 惑</w> 16007
C BS</w> 16004
降 至</w> 16004
A T 16002
后 代</w> 16002
捕 获</w> 16001
M oh 15998
1 11</w> 15997
在 此 15997
And re 15995
迁 移</w> 15987
讽 刺</w> 15986
出 庭</w> 15974
e k</w> 15966
现 实 15953
十 三届</w> 15946
笑 话</w> 15937
减 缓</w> 15937
孤 独</w> 15934
野生 动物</w> 15934
人 均</w> 15933
巴 斯</w> 15929
损 伤</w> 15923
线 路</w> 15921
结果 表明</w> 15920
策 划</w> 15917
9 0%</w> 15910
卫 报</w> 15895
孤 立</w> 15895
es s 15892
I M 15886
197 3</w> 15885
亚 哥</w> 15882
巴 林</w> 15879
之 际</w> 15877
故 障</w> 15876
还 会</w> 15874
慷 慨</w> 15873
编 列</w> 15870
洛 斯</w> 15867
操 作 15867
体 面</w> 15861
月 初</w> 15858
管理 系统</w> 15847
R E 15845
审 讯</w> 15845
日 前</w> 15844
风 险 15844
不 受</w> 15842
反对 党</w> 15840
众 所 15828
采 纳</w> 15825
帽 子</w> 15823
部 件</w> 15816
B ur 15810
自 决</w> 15808
廉 价</w> 15806
简 直</w> 15805
条 文</w> 15802
覆 盖 15797
布 拉</w> 15790
杰 出</w> 15790
岛 上</w> 15786
众所 周知</w> 15783
船 上</w> 15779
训 练 15776
有 待</w> 15772
遥 远</w> 15771
努 力 15762
es t</w> 15760
华尔 街</w> 15759
高等 法院</w> 15758
m an 15757
为 主</w> 15754
摩 苏尔</w> 15748
默 克尔</w> 15744
足 球 15735
经 纪 15729
无 视</w> 15724
进 去</w> 15724
浓 度</w> 15720
叙 述</w> 15718
引 进</w> 15717
偶 尔</w> 15716
明 尼 15715
资 金 15715
要 点</w> 15711
摩托 车</w> 15710
吉尔 吉 15708
发 现 15706
P S</w> 15704
最 长</w> 15697
虚 假</w> 15687
智能 手机</w> 15682
人 心</w> 15677
四 分</w> 15673
泄 漏</w> 15673
大 学 15661
月 球</w> 15658
广 大</w> 15652
毫 无</w> 15650
梅 尔</w> 15646
树 木</w> 15638
一 封</w> 15637
纯 粹</w> 15631
机 遇</w> 15621
安全 部门</w> 15621
k s</w> 15615
散 发</w> 15615
不 见</w> 15609
本 法</w> 15608
床 上</w> 15606
T ube</w> 15605
匿 名</w> 15603
二 氧化 15601
特 里</w> 15591
派 出</w> 15588
那 州</w> 15582
克 雷 15581
g l 15577
小 镇</w> 15574
欧洲 人</w> 15574
o l</w> 15566
危 及</w> 15561
G oo 15560
执 法 15558
旅 客</w> 15553
W e 15548
抵 消</w> 15542
圣地 亚哥</w> 15538
学 金</w> 15533
含 义</w> 15532
u r</w> 15526
A N 15526
代理 人</w> 15525
司 长</w> 15524
阿 森纳</w> 15520
名 册</w> 15520
野 生</w> 15519
抱 歉</w> 15510
7 0%</w> 15508
人 体</w> 15507
斯图 尔特</w> 15507
外交 政策</w> 15502
蔓 延</w> 15501
m d 15499
爱 沙 15495
送 往</w> 15492
You Tube</w> 15491
如 同</w> 15490
维 吉尼亚</w> 15484
马 特</w> 15483
疗 法</w> 15481
基金 组织</w> 15476
培训 班</w> 15476
两 周</w> 15474
亚历山 大</w> 15470
挖 掘</w> 15464
N BA</w> 15455
雷 达</w> 15453
平 等 15452
百 万</w> 15451
紧 迫</w> 15450
制造 业</w> 15450
慢 慢</w> 15446
an g</w> 15444
肥 胖</w> 15437
坚 称</w> 15433
赞 比亚</w> 15426
水 中</w> 15426
战斗 人员</w> 15426
学 术 15423
补 助 15421
198 3</w> 15421
天 使</w> 15419
斯 堡</w> 15418
却 是</w> 15417
莫 桑 15407
灰 色</w> 15406
利 息</w> 15386
达 成 15384
已 知</w> 15372
共同 努力</w> 15369
经纪 人</w> 15366
大 力</w> 15364
9 63</w> 15362
柯 比</w> 15362
增 多</w> 15359
作 证</w> 15357
罪 名</w> 15350
N et 15347
美 分</w> 15338
毕业 生</w> 15338
新 年</w> 15337
将 要</w> 15335
西 藏</w> 15334
真 寺</w> 15331
格 达</w> 15329
清 真寺</w> 15327
公开 赛</w> 15325
10 2</w> 15322
马 耳 15320
旗 帜</w> 15314
碰 撞</w> 15313
僵 局</w> 15312
六 条</w> 15309
噪 音</w> 15307
奴 隶</w> 15304
密 码</w> 15302
亚太经 社会</w> 15302
巡 回 15299
肯尼 迪</w> 15294
争 夺</w> 15293
很 小</w> 15292
注 射</w> 15291
该 部</w> 15290
o u</w> 15282
护 者</w> 15280
七 个</w> 15279
里 森</w> 15278
得 主</w> 15273
神 圣</w> 15272
尼 古 15264
比 绍</w> 15263
称 赞</w> 15262
or d 15262
紧 缩</w> 15255
三 条</w> 15250
缺 席</w> 15246
秋 天</w> 15244
塑 料</w> 15243
想 起</w> 15241
作出 贡献</w> 15238
早 餐</w> 15229
高级 官员</w> 15229
以色 列 15226
定 位</w> 15223
库 克</w> 15220
狂 热</w> 15217
主 导 15216
大 胆</w> 15215
i er</w> 15214
时 机</w> 15207
美国 广播公司</w> 15203
计 量</w> 15202
而 已</w> 15200
总 会</w> 15197
曼 哈顿</w> 15196
正 当</w> 15189
几 分钟</w> 15189
新 泽 15185
蛋白 质</w> 15184
味 道</w> 15182
忠 诚</w> 15177
令人 震惊</w> 15173
一 无 15170
爱好 者</w> 15165
特 许</w> 15159
国内 法</w> 15155
车 队</w> 15153
e m</w> 15152
篮 球</w> 15152
有 意思</w> 15142
角 落</w> 15141
莫桑 比克</w> 15140
马耳 他</w> 15140
O R 15136
理 念</w> 15131
两 国</w> 15131
一 批</w> 15130
链 接</w> 15128
红 十字 15126
奠 定</w> 15122
全 力</w> 15121
构 建</w> 15121
t e</w> 15116
咨 商</w> 15113
多 项</w> 15112
停车 场</w> 15111
非 国家</w> 15106
沉 重</w> 15103
P er 15096
葬 礼</w> 15089
审 查 15084
九 条</w> 15083
振 兴</w> 15081
宏观 经济</w> 15079
诉 讼 15078
瑟 夫</w> 15068
接 待</w> 15066
不 必要</w> 15061
要 是</w> 15060
即 便</w> 15057
a u</w> 15052
S im 15051
棒 球</w> 15047
医疗 保健</w> 15045
架 构</w> 15038
副 本</w> 15034
宠 物</w> 15031
选 项</w> 15027
选 区</w> 15025
p p 15024
亲 爱</w> 15020
码 头</w> 15018
契 约</w> 15015
扭 转</w> 15015
跨 越</w> 15013
雇 佣</w> 15012
里 程 15004
年 内</w> 15002
论 述</w> 15002
镇 压</w> 14998
石 油 14994
十二 届</w> 14992
H RC</w> 14990
an c 14989
爱沙 尼亚</w> 14988
侮 辱</w> 14986
U ber</w> 14985
西 蒙</w> 14983
u e</w> 14982
B ri 14982
ot t</w> 14981
标准 化</w> 14979
t h</w> 14973
信 中</w> 14973
in o</w> 14968
九 届</w> 14966
汉 姆</w> 14956
报 导</w> 14952
窗 口</w> 14946
达成 协议</w> 14941
抛 弃</w> 14940
i on 14935
登 陆</w> 14935
oc k</w> 14927
爆炸 物</w> 14927
格 里 14920
依 赖 14920
头 衔</w> 14917
保守 派</w> 14914
教育 部</w> 14914
法 索</w> 14913
占 领土</w> 14912
被 占领土</w> 14912
Cor r 14904
起 飞</w> 14901
同 一个</w> 14899
清 洗</w> 14897
通 往</w> 14895
警 卫</w> 14894
F air 14892
人权 法</w> 14891
解 散</w> 14879
对 应</w> 14879
紧 张 14879
草 稿</w> 14877
办 公</w> 14877
狮 子</w> 14867
过 时</w> 14863
着 重 14856
烟 草</w> 14853
事 宜</w> 14851
豪 华</w> 14848
对 面</w> 14847
ag es</w> 14840
P A</w> 14838
批评 者</w> 14831
心 灵</w> 14829
黑 山</w> 14822
马 州</w> 14820
裁 谈会</w> 14814
吉 尔</w> 14807
年 期</w> 14806
经 合组织</w> 14805
J u 14801
交 叉</w> 14799
播 出</w> 14797
发 誓</w> 14792
布鲁 斯</w> 14788
兴 奋 14786
有 意</w> 14785
肿 瘤</w> 14785
公 告</w> 14780
黄 金 14770
减 免</w> 14769
莱 特</w> 14768
恐怖 袭击</w> 14767
Joh n 14765
d is 14764
采 矿</w> 14762
追 究</w> 14759
人权 宣言</w> 14757
斯 塔 14754
安德 森</w> 14754
一 间</w> 14752
退 休 14752
腺 癌</w> 14749
补助 金</w> 14749
S am 14747
再 度</w> 14739
特 兰 14738
品 种</w> 14736
养 护</w> 14733
勘 探</w> 14733
g le</w> 14730
公共 汽车</w> 14729
海 底</w> 14728
十 字</w> 14728
逝 世</w> 14723
聊 天</w> 14723
得 出 14712
得出 结论</w> 14708
反 弹</w> 14707
远 程</w> 14704
指导 方针</w> 14701
麦 当 14697
一 员</w> 14689
演 变</w> 14689
安 妮</w> 14686
合 约</w> 14686
注 入</w> 14685
土 地 14681
无 辜</w> 14679
增 至</w> 14675
政府 首脑</w> 14674
亲 属</w> 14672
W ar 14670
就 是说</w> 14669
奥林匹 克 14668
md ash</w> 14665
一 轮</w> 14653
S A 14647
多 边 14646
统计 局</w> 14642
10 3</w> 14637
童 工</w> 14636
运 输 14636
密 度</w> 14632
圣 经</w> 14632
山 脉</w> 14630
会 儿</w> 14625
意 识 14625
有 毒</w> 14622
创 意</w> 14618
公共 服务</w> 14616
伤 势</w> 14615
裁 员</w> 14612
公 爵</w> 14610
d a</w> 14608
共和 党人</w> 14601
权 限</w> 14597
液 体</w> 14597
激进 分子</w> 14596
第五 次</w> 14588
体育 场</w> 14580
a i</w> 14579
三 种</w> 14574
摩 根</w> 14574
发现 自己</w> 14567
马尔 科</w> 14561
中 文</w> 14558
赛 车</w> 14553
布莱 恩</w> 14549
陆 地</w> 14548
院 长</w> 14548
标 志 14547
三 十 14546
针 对性</w> 14545
扭 曲</w> 14544
R T</w> 14541
首 歌</w> 14540
土著 人</w> 14540
所 示</w> 14536
遗 传</w> 14527
au l</w> 14523
J os 14522
可 怜</w> 14522
J on 14520
走 进</w> 14520
197 5</w> 14520
戈 登</w> 14516
原 理</w> 14516
立 学校</w> 14510
血 管</w> 14509
搜 查</w> 14507
几内亚 比绍</w> 14503
中 午</w> 14491
国 公司</w> 14488
全国 性</w> 14482
下 放</w> 14473
3 000</w> 14472
哪 个</w> 14462
胞 胎</w> 14459
世界 贸易 14458
军事 行动</w> 14458
征 求</w> 14453
吉尔吉 斯 14448
特 尔</w> 14444
无 法 14438
不太 可能</w> 14437
实 物</w> 14435
斯特 罗</w> 14435
回 复</w> 14432
S A</w> 14431
鲨 鱼</w> 14431
轻 微</w> 14429
第六 条</w> 14423
中 止</w> 14422
亚 太</w> 14420
3 50</w> 14420
有 线 14418
里 德</w> 14417
微 软</w> 14414
大 赦</w> 14408
勒 斯</w> 14407
选 择 14407
预防 性</w> 14407
意识 形态</w> 14393
排 队</w> 14389
M ur 14384
中 美洲</w> 14384
平 面</w> 14381
R ich 14380
供 水</w> 14376
可 见</w> 14374
工作 文件</w> 14374
力 度</w> 14370
程 序 14367
不 罚</w> 14367
林 业</w> 14354
浪 漫</w> 14347
l y</w> 14340
走 私</w> 14340
I C 14339
带 领</w> 14338
卷 入</w> 14336
拉 脱 14334
他 州</w> 14332
纪念 碑</w> 14329
塞 族</w> 14327
缺 点</w> 14327
受 害</w> 14324
无 人</w> 14321
E C</w> 14314
流 入</w> 14307
海 事</w> 14304
这 时</w> 14303
尽 力</w> 14302
民主 党人</w> 14301
厕 所</w> 14296
代 尔</w> 14282
照 会</w> 14281
浏 览</w> 14281
凯 尔 14280
和平 利用</w> 14276
技术 转让</w> 14275
补 助</w> 14274
杀 手</w> 14272
最 有</w> 14271
必 然</w> 14269
10 4</w> 14269
放 缓</w> 14268
乌兹别 克斯坦</w> 14263
t s</w> 14262
流 量</w> 14261
in s</w> 14260
科 罗 14256
工作 量</w> 14248
开 幕 14247
圣 战</w> 14244
E x 14243
传 真</w> 14243
署 长</w> 14243
197 6</w> 14242
愿 景</w> 14239
1 25</w> 14231
自由 化</w> 14230
at a</w> 14226
哈 里斯</w> 14224
举 动</w> 14224
斐 济</w> 14223
优 质</w> 14219
玛丽 亚</w> 14219
七 条</w> 14208
正 面</w> 14205
10 0%</w> 14200
贝 克</w> 14192
夏 威 14192
税 款</w> 14192
挑 战 14191
桥 梁</w> 14188
大 屠杀</w> 14185
10 8</w> 14184
国 旗</w> 14180
工业 化</w> 14174
一 倍</w> 14173
实 力</w> 14173
基 纳 14172
10 6</w> 14168
毕 竟</w> 14164
弱 势 14159
圆 桌 14158
热 爱</w> 14152
经 营 14148
一 类</w> 14145
更 多地</w> 14143
史 以来</w> 14134
有 史以来</w> 14134
圆桌 会议</w> 14134
高 管</w> 14129
S T 14125
获 得 14119
布 基纳 14117
布基纳 法索</w> 14117
拉脱 维亚</w> 14107
指 望</w> 14106
弱势 群体</w> 14106
Corr .1</w> 14104
新南 威尔士</w> 14103
on om 14101
骑 兵</w> 14099
救 护 14096
同 学</w> 14095
嘲 笑</w> 14095
us s 14095
色 彩</w> 14092
负 面 14092
创 下</w> 14092
视 觉</w> 14089
悲 伤</w> 14085
严 峻</w> 14080
am s</w> 14080
格 雷</w> 14076
动 议</w> 14075
群 众</w> 14074
暂 行</w> 14070
布 雷</w> 14068
CC C</w> 14067
销 量</w> 14065
经济 委员会</w> 14055
爱德 华</w> 14055
士 学位</w> 14053
科罗 拉 14052
亚 特兰 14051
化 石</w> 14045
食 品 14043
征 税</w> 14042
流 感</w> 14041
存 储</w> 14026
船 长</w> 14025
泡 沫</w> 14022
争 吵</w> 14020
口 袋</w> 14017
1 15</w> 14015
凯尔 特人</w> 14014
行 李</w> 14012
已 故</w> 14001
197 4</w> 14000
萨 尔</w> 13999
到 期</w> 13992
伊斯 坦 13990
所 用</w> 13989
青 年人</w> 13988
天 然</w> 13988
W h 13983
自 行</w> 13978
晚 餐</w> 13976
准 入</w> 13975
兴奋 剂</w> 13972
v e</w> 13969
查 理</w> 13969
事务 所</w> 13968
创 立</w> 13967
东 欧</w> 13965
受 过</w> 13964
Mar t 13961
修 理</w> 13958
无线 电</w> 13957
同 期</w> 13954
来 纳州</w> 13946
B I</w> 13944
核 能</w> 13943
选 举 13943
美 洲 13941
A M 13936
应 由</w> 13933
苏 丹 13927
P R 13926
盈 利</w> 13925
下 述</w> 13924
提 倡</w> 13923
集 中 13919
V al 13918
问 道</w> 13917
激 发</w> 13915
Im ages</w> 13914
从 中</w> 13906
游 泳池</w> 13903
东 南亚</w> 13902
经济 危机</w> 13902
而 易 13901
亲 自</w> 13898
伤 病</w> 13898
泰 德</w> 13897
超 市</w> 13894
拿 出</w> 13886
单 身</w> 13881
录 音</w> 13878
严 格 13864
施 工</w> 13862
纳 斯</w> 13861
移 植</w> 13854
迷 人</w> 13850
高 出</w> 13849
F or 13844
第三 届</w> 13842
此 时</w> 13840
a in</w> 13837
某种 程度</w> 13836
蒂 斯</w> 13832
侵 入</w> 13831
伊 拉 13828
P C</w> 13827
范 畴</w> 13826
第十 四条</w> 13826
志 愿</w> 13817
得 起</w> 13817
德 利</w> 13811
约 瑟夫</w> 13811
布 雷 13806
I s 13801
枪 杀</w> 13794
Th om 13792
资 讯</w> 13790
地 人</w> 13788
福 祉</w> 13785
必 不可 13780
忍 受</w> 13779
国际 劳工 13777
精神 病</w> 13773
真 诚</w> 13771
椅 子</w> 13771
1 12</w> 13762
奥林匹 克</w> 13761
奇 迹</w> 13758
文 献</w> 13756
as s</w> 13756
休 斯顿</w> 13752
空 气 13750
奖 学金</w> 13739
农村 妇女</w> 13732
少 量</w> 13730
延 续</w> 13728
无论 如何</w> 13722
197 2</w> 13717
学 到</w> 13714
符 合 13712
里程 碑</w> 13710
人 事</w> 13709
都 拉斯</w> 13701
P al 13696
负面 影响</w> 13695
吸 毒</w> 13689
执 政</w> 13687
权 能</w> 13686
增 编</w> 13683
分 担</w> 13683
布鲁 克林</w> 13683
线 索</w> 13682
蒙 特</w> 13678
创 业</w> 13678
伊斯坦 布尔</w> 13676
澳 洲</w> 13671
h t</w> 13669
签 字</w> 13669
奥斯 本</w> 13669
审查 会议</w> 13667
占 有</w> 13662
考 察</w> 13660
词 汇</w> 13660
卡 斯特罗</w> 13658
购 置</w> 13658
调 节</w> 13651
进 化</w> 13647
投 标</w> 13646
标志 性</w> 13646
阵 营</w> 13639
传 说</w> 13638
叛 乱</w> 13638
逆 转</w> 13635
纳 粹</w> 13623
A s 13623
届 会</w> 13623
联合国 总部</w> 13621
华 德</w> 13619
假 日</w> 13618
征 收</w> 13617
F CCC</w> 13613
资 本 13604
G DP</w> 13601
行 为 13601
中 非</w> 13596
19 50</w> 13586
驱 逐 13584
巴 格达</w> 13583
提供 者</w> 13581
1 1. 13579
新 生 13578
总 督</w> 13577
c t 13572
半 决赛</w> 13571
健康 状况</w> 13563
绘 画</w> 13561
邮 政</w> 13561
H er 13558
老 年</w> 13548
世界 人权宣言</w> 13547
警察 部队</w> 13546
更 具</w> 13544
制 服</w> 13540
得 多</w> 13537
刑事 法庭</w> 13534
任 用</w> 13533
f ax</w> 13527
章 程</w> 13522
克利 夫兰</w> 13522
曼 谷</w> 13521
信 函</w> 13518
诉 诸</w> 13516
缴 款</w> 13511
日 益 13510
误 解</w> 13508
判 刑</w> 13508
大 师</w> 13507
一 杯</w> 13504
救护 车</w> 13504
敌 对 13498
底 部</w> 13492
内 在</w> 13488
过 分</w> 13488
i e 13482
灯 光</w> 13481
无人 驾驶</w> 13480
学 率</w> 13479
跨 界</w> 13476
认 知</w> 13474
基 会</w> 13471
洪 都拉斯</w> 13469
纠 纷</w> 13469
漫 画</w> 13466
必不可 少</w> 13464
摩 尔多 13462
恐 慌</w> 13459
A C</w> 13458
双 边 13458
波 多 13451
摄 影</w> 13449
假 定</w> 13449
w e 13444
穆 雷</w> 13443
后 期</w> 13440
认 捐</w> 13440
申 明</w> 13439
i k</w> 13439
A t 13438
Jam es</w> 13437
通货 膨胀</w> 13435
二氧化 碳</w> 13434
失 误</w> 13432
前 线</w> 13432
助 长</w> 13431
辩 称</w> 13429
看 出</w> 13429
多米 尼 13426
19 49</w> 13425
动 画</w> 13415
瞬 间</w> 13409
惊 奇</w> 13407
伴 随</w> 13406
各种 各样</w> 13406
防 范</w> 13403
17 0</w> 13402
帕特 里克</w> 13401
本 案</w> 13397
迎 接</w> 13396
197 7</w> 13394
申 报</w> 13392
破坏 性</w> 13392
高尔 夫 13381
这 使</w> 13380
10 7</w> 13379
NF L</w> 13379
演 习</w> 13376
战斗 机</w> 13376
分 娩</w> 13368
F re 13367
一 根</w> 13367
阿德 莱德</w> 13365
大 幅度</w> 13361
暴 行</w> 13361
热 量</w> 13359
决 定性</w> 13359
心 情</w> 13358
阴 影</w> 13357
I P</w> 13354
残疾 儿童</w> 13347
分 段</w> 13345
霍 华德</w> 13343
M u 13338
从 不</w> 13337
几 十 13336
随 者</w> 13330
中 亚</w> 13326
童 年</w> 13326
交 流 13325
跨 国公司</w> 13320
地 理 13319
可 信</w> 13310
长 国</w> 13303
传 奇</w> 13302
履 行 13296
展 出</w> 13295
营养 不良</w> 13294
酋 长国</w> 13293
波多 黎 13290
U PI</w> 13288
一 次 13281
波多黎 各</w> 13272
何 时</w> 13271
第 一步</w> 13268
l es</w> 13264
鲍 勃</w> 13257
亚特兰 大</w> 13257
书 面 13256
职 权</w> 13256
蛋 白</w> 13256
威斯 康 13256
森 堡</w> 13255
不 停</w> 13254
瑟 琳</w> 13251
介 入</w> 13249
刚 才</w> 13232
健 身</w> 13231
终 身</w> 13228
克 莱</w> 13227
亚历 克斯</w> 13219
大 大 13215
毛 额</w> 13215
高 峰</w> 13212
宾 夕 13208
科 斯</w> 13207
for d</w> 13206
风险 管理</w> 13204
o x</w> 13202
摄像 机</w> 13197
税 率</w> 13191
巴 巴 13190
蚊 子</w> 13190
特 工</w> 13186
复杂 性</w> 13186
感 器</w> 13185
第 七</w> 13181
相 处</w> 13174
人民 政府</w> 13171
每 一</w> 13170
招 待 13168
F C</w> 13164
宾夕 法 13163
自动 化</w> 13160
篇 文章</w> 13156
外交 官</w> 13154
密 歇 13153
Chri s</w> 13145
性别 歧视</w> 13142
ir e</w> 13140
高 地</w> 13138
墙 上</w> 13136
手 臂</w> 13132
伊 恩</w> 13129
双 胞胎</w> 13128
总 经理</w> 13128
坠 毁</w> 13123
Don ald</w> 13107
耐 心</w> 13106
阿 曼</w> 13103
所在 地</w> 13103
影 子</w> 13102
模 仿</w> 13101
P aul</w> 13095
同 年</w> 13094
东 耶路撒冷</w> 13092
第一 轮</w> 13092
无 需</w> 13089
数以 百 13089
发 育</w> 13088
心 里</w> 13081
参 加 13081
重 叠</w> 13080
访 问 13079
措 辞</w> 13076
手 续</w> 13075
批 款</w> 13074
地 毯</w> 13073
一 刻</w> 13064
数 千</w> 13063
1 14</w> 13059
追 随者</w> 13057
国际劳工 组织</w> 13054
迫 害</w> 13051
触 发</w> 13049
一 台</w> 13047
哈 特</w> 13044
多 斯</w> 13043
虚 拟</w> 13043
自由 主义</w> 13043
隔 离 13038
有 没有</w> 13035
夏威 夷</w> 13035
皮 特</w> 13033
生 殖 13033
华盛顿 邮报</w> 13023
背 部</w> 13020
总 体 13019
电视 节目</w> 13017
一 分钟</w> 13016
伯 恩</w> 13015
难 题</w> 13015
边 缘 13013
东 盟</w> 13010
大 学生</w> 13005
is h 13005
耳 朵</w> 13004
骚 乱</w> 13004
联合国 环境 13000
联合国环境 规划署</w> 13000
ac e</w> 12999
非 正规</w> 12997
k o</w> 12994
布 罗 12994
警 报</w> 12989
消 防</w> 12986
本 赛季</w> 12984
意 志</w> 12982
三 项</w> 12979
性 侵犯</w> 12978
灾 难 12978
UN EP</w> 12978
盟 约</w> 12974
蓄 意</w> 12972
收 养</w> 12970
祖 母</w> 12969
个 体</w> 12968
in t 12966
性 骚扰</w> 12964
事 长</w> 12958
简 称</w> 12956
小 孩</w> 12952
本 着</w> 12952
脖 子</w> 12945
商 品 12941
序 言</w> 12941
亿 万富翁</w> 12936
德 班</w> 12930
日 常 12928
世界贸易 组织</w> 12927
M ed 12922
n a</w> 12913
取得 成功</w> 12903
手 枪</w> 12899
克 劳 12896
Chri st 12896
醒 来</w> 12894
灾难 性</w> 12894
197 1</w> 12893
凯 瑟琳</w> 12888
该 州</w> 12887
界 限</w> 12886
贝 宁</w> 12883
S C</w> 12880
特 拉 12879
灵 感</w> 12876
传 感器</w> 12873
简 短</w> 12872
斯 汀</w> 12866
团 长</w> 12866
一 揽 12863
日 历</w> 12857
一揽 子</w> 12855
ay st 12851
网 址</w> 12845
大 批</w> 12839
剂 量</w> 12839
预 警</w> 12837
秋 季</w> 12833
力 学</w> 12833
为 重要</w> 12830
I P 12825
收 藏</w> 12825
罗 德 12823
怎 么 12822
不结 盟 12820
不结盟 运动</w> 12819
C D</w> 12818
春 季</w> 12817
滑 雪</w> 12816
顺 序</w> 12813
吃 饭</w> 12806
在 外</w> 12802
情 节</w> 12797
全 新</w> 12796
无 数</w> 12793
P r 12792
议 长</w> 12790
目 光</w> 12789
线 图</w> 12788
肩 膀</w> 12780
Goo gle</w> 12780
忧 虑</w> 12779
维 加斯</w> 12777
迪 斯 12776
送 交</w> 12773
饮 用水</w> 12768
派 对</w> 12764
体 内</w> 12764
他 于</w> 12763
入 口</w> 12760
天 赋</w> 12758
布 斯</w> 12755
塔吉 克斯坦</w> 12751
异 议</w> 12746
头 上</w> 12746
艰 苦</w> 12746
走 廊</w> 12746
毫 不</w> 12746
冷 战</w> 12743
联 黎</w> 12743
多 万</w> 12739
贝 利</w> 12735
猛 烈</w> 12732
优 点</w> 12731
p er 12729
g er</w> 12728
思 议</w> 12721
放射 性</w> 12721
y m 12718
火 器</w> 12717
骑 士</w> 12717
1 16</w> 12716
之 为</w> 12712
着重 指出</w> 12706
特 里 12704
纳米 比亚</w> 12703
i y 12700
国防 部长</w> 12700
人 员 12697
B en</w> 12696
第七 条</w> 12694
东 北部</w> 12693
布 兰 12691
签 发</w> 12687
埃 尔 12685
教 学 12682
受 损</w> 12676
Tr um 12674
Fair fax</w> 12673
一 大</w> 12671
不可 思议</w> 12671
切 实 12667
自由 党</w> 12663
原 则 12657
同 次</w> 12649
创造 性</w> 12648
门 口</w> 12647
组织 者</w> 12647
ac h</w> 12646
宇 航 12644
某 一</w> 12639
职 类</w> 12631
中 立</w> 12625
准 备金</w> 12620
1 13</w> 12619
裂 变</w> 12617
海 湾</w> 12617
牙 齿</w> 12613
e x</w> 12609
接 种</w> 12607
各个 方面</w> 12606
著 作</w> 12603
属 性</w> 12602
一 会儿</w> 12601
手 里</w> 12600
古 代</w> 12597
未 决</w> 12595
基本 权利</w> 12588
送 给</w> 12587
建筑 师</w> 12587
南 卡罗 12583
等 于</w> 12583
舞 会</w> 12575
力 求</w> 12573
M el 12572
玫 瑰</w> 12571
延 期</w> 12569
在 场</w> 12569
财政 年度</w> 12564
导 航</w> 12563
务 人员</w> 12562
泰 晤 12561
一次 性</w> 12556
处 以</w> 12553
弃 权</w> 12552
兰 人</w> 12550
联合国 儿童 12546
联合国儿童 基金会</w> 12546
边缘 化</w> 12544
弗 里</w> 12539
操 守</w> 12538
卢 森堡</w> 12531
东 南部</w> 12530
身 后</w> 12529
繁 忙</w> 12526
应 为</w> 12522
始 于</w> 12520
习 惯 12519
教 区</w> 12517
变 暖</w> 12515
危 险 12515
et h</w> 12512
菜 单</w> 12510
充分 利用</w> 12510
激 增</w> 12508
en s 12508
西 雅 12506
节 奏</w> 12500
归 还</w> 12495
符 号</w> 12494
姐 姐</w> 12494
墙 壁</w> 12492
布莱 尔</w> 12492
切 断</w> 12490
数以 千 12486
朝 着</w> 12485
五 条</w> 12483
既 定</w> 12482
购 物 12480
不 足 12478
夺 取</w> 12476
拉 加</w> 12473
教 室</w> 12472
董 事长</w> 12470
戏 剧 12469
房 价</w> 12466
科技 咨询</w> 12457
尖 叫</w> 12454
利 兹</w> 12449
活动 家</w> 12446
南卡罗 来纳州</w> 12445
致 使</w> 12441
展 望</w> 12439
研 制</w> 12432
en a</w> 12429
消息 来源</w> 12429
不 适</w> 12426
DA W</w> 12426
间 谍</w> 12424
人 质</w> 12422
司法 部长</w> 12422
放 置</w> 12418
回 返</w> 12416
切 割</w> 12409
f ield</w> 12408
案 情</w> 12401
道 奇</w> 12397
开 罗</w> 12395
一 幅</w> 12395
对 不起</w> 12386
我 谨</w> 12385
数以千 计</w> 12383
开 列</w> 12382
持 久性</w> 12381
I V</w> 12380
原 本</w> 12379
钥 匙</w> 12377
CE DAW</w> 12377
联 塞</w> 12373
钢 铁</w> 12370
泰晤 士 12370
鼻 子</w> 12362
克 劳</w> 12359
巨 人</w> 12358
萨 姆</w> 12356
辅 导</w> 12355
低 估</w> 12354
监 护 12351
鞋 子</w> 12347
盗 窃</w> 12344
伯 明 12341
赢 家</w> 12340
包 裹</w> 12339
联 利</w> 12338
民族 主义</w> 12338
民 事 12333
文 职人员</w> 12332
全 年</w> 12332
反 应 12330
推 移</w> 12330
整 理</w> 12323
西雅 图</w> 12317
描 绘</w> 12315
相关 性</w> 12312
被 困</w> 12310
饮 酒</w> 12309
书 记</w> 12307
土 库 12306
传染 病</w> 12303
姑 娘</w> 12302
加利福 尼亚</w> 12301
消息 人士</w> 12298
长 官</w> 12295
煤 炭</w> 12292
拉斯 维加斯</w> 12292
联合 酋长国</w> 12285
阿拉伯 联合酋长国</w> 12285
个 性</w> 12281
合作 社</w> 12279
杰 米</w> 12278
a c</w> 12274
迈 出</w> 12274
NF . 12272
欢 乐</w> 12268
解决 问题</w> 12267
伊拉 克 12265
ac k 12261
出 台</w> 12260
2 26</w> 12259
禁 毒</w> 12257
J e 12252
汽 油</w> 12252
民 警</w> 12250
远 镜</w> 12249
路 线图</w> 12248
第十 届</w> 12247
it e</w> 12246
定 价</w> 12243
兄 弟 12243
有所 增加</w> 12243
时 代 12242
望 远镜</w> 12242
赔 偿 12241
多 岁</w> 12240
仪 器</w> 12239
海 军 12238
外 联</w> 12235
列 举</w> 12233
特 纳</w> 12231
谋 求</w> 12231
保 释</w> 12225
伯明 翰</w> 12223
准 许</w> 12217
开发 商</w> 12215
研 发</w> 12211
完 整 12207
见 解</w> 12206
小 额</w> 12204
弱 点</w> 12202
沃 克</w> 12191
亨 特</w> 12191
迪 克</w> 12189
气 象</w> 12189
烹 饪</w> 12189
同 性</w> 12188
火 山</w> 12187
总 务</w> 12186
筹备 工作</w> 12184
R ub 12182
克雷 格</w> 12181
底 特 12179
俄 克拉 12177
二 世</w> 12176
矿 业</w> 12176
汉 堡</w> 12171
上 班</w> 12171
麻醉 药品</w> 12171
祖 国</w> 12165
八 个</w> 12160
白 天</w> 12159
分 区</w> 12159
卡 斯</w> 12157
Ro d 12154
配 额</w> 12152
值得 注意</w> 12149
底特 律</w> 12149
E v 12142
无人 机</w> 12140
亲 戚</w> 12139
最低 工资</w> 12139
继 承 12138
Sand ers</w> 12136
西 西 12133
an o</w> 12133
此 案</w> 12132
S N 12131
1 18</w> 12130
欧 文</w> 12127
替代 品</w> 12125
国 有</w> 12121
预 订</w> 12120
亮 相</w> 12114
假 如</w> 12114
Ge or 12112
巴 拉圭</w> 12104
违 法</w> 12103
f or</w> 12102
火 焰</w> 12101
制 成</w> 12101
预 先</w> 12100
吉 米</w> 12098
最 快</w> 12096
奶 酪</w> 12096
加勒 比 12096
联合国 秘书处</w> 12095
世 卫</w> 12093
西 撒哈拉</w> 12090
丛 林</w> 12089
支 票</w> 12089
dis pl 12087
只 不过</w> 12086
原 料</w> 12085
相 比 12084
既 然</w> 12084
经 社 12083
A g 12082
汽 车 12080
连 任</w> 12074
硬 件</w> 12073
棘 手</w> 12072
三 月</w> 12071
电 邮</w> 12070
2 6 12069
C al 12067
之 以 12065
本 条</w> 12061
1. 5</w> 12057
am b 12054
限 期</w> 12050
专 用</w> 12049
容 器</w> 12040
依赖 于</w> 12038
干 燥</w> 12036
P e 12030
E l</w> 12028
米 兰</w> 12027
步 枪</w> 12019
接 替</w> 12018
外 表</w> 12017
普 里</w> 12016
伤 心</w> 12014
ar i</w> 12012
高尔 夫</w> 12012
有 化</w> 12010
微 型</w> 12008
可 行性</w> 12007
第一 天</w> 12004
大 国</w> 12003
1 17</w> 12001
叶 派</w> 11999
什 叶派</w> 11999
1 22</w> 11998
法 外</w> 11992
加 里</w> 11990
displ ayst 11987
产 阶级</w> 11986
displayst yle</w> 11986
Ch ar 11984
o o</w> 11979
系统 地</w> 11978
N R 11975
种族 灭绝</w> 11964
en c 11958
明尼 苏 11957
部 委</w> 11955
B . 11950
领 土 11949
er a</w> 11948
内 地</w> 11945
中 将</w> 11945
漏 洞</w> 11944
启 发</w> 11942
测 器</w> 11940
不 知</w> 11935
G ra 11934
日常 生活</w> 11932
盘 旋</w> 11929
19 69</w> 11928
ow s</w> 11928
一 遍</w> 11927
2 7 11922
传 球</w> 11922
身份 证</w> 11921
提 出 11917
服 役</w> 11915
布 伦 11914
空 运</w> 11914
L in 11907
席 会议</w> 11906
一 事</w> 11905
稳 定性</w> 11901
国家 联盟</w> 11901
发 电</w> 11900
海 峡</w> 11898
外 科 11897
威尔 士 11896
崛 起</w> 11895
英国 政府</w> 11893
W ind 11892
h e 11891
盒 子</w> 11891
称 之为</w> 11891
欢 呼</w> 11889
同 伴</w> 11883
意大 利 11883
竞争 者</w> 11883
比 额</w> 11880
相比 之下</w> 11879
m on 11875
支 撑</w> 11874
力 支持</w> 11872
看 过</w> 11872
就 职</w> 11871
负 担 11867
编 码</w> 11861
执 照</w> 11856
Int ern 11855
联合 共和国</w> 11852
巴 塞 11851
估 算</w> 11851
偶 然</w> 11846
服 刑</w> 11841
紧张 局势</w> 11841
灵 顿</w> 11840
高 度 11828
Mar k</w> 11826
挽 救</w> 11825
适 用 11822
r i</w> 11820
19 61</w> 11818
插 入</w> 11817
p er</w> 11816
er v 11816
双 性恋</w> 11815
已 于</w> 11811
ov a</w> 11808
走 上</w> 11806
不 法行为</w> 11805
弟 弟</w> 11805
深 信</w> 11802
业 务 11795
据 信</w> 11795
全 文</w> 11793
元 区</w> 11788
管理 员</w> 11787
创 纪录</w> 11778
第四 条</w> 11778
P a 11777
欧 元区</w> 11777
第二 轮</w> 11777
第三 条</w> 11777
中 小企业</w> 11772
气 味</w> 11771
诞 生</w> 11767
荣 幸</w> 11761
新泽 西</w> 11761
街 区</w> 11759
集 合</w> 11758
变 更</w> 11758
z a</w> 11757
谎 言</w> 11756
爱 国 11754
垃 圾 11751
电 报</w> 11745
拳 击</w> 11741
题 目</w> 11741
基督 徒</w> 11741
科学 技术</w> 11739
伊 尔</w> 11738
机 密</w> 11737
否 决</w> 11734
施 行</w> 11731
节 约</w> 11727
哪 儿</w> 11727
电子 商务</w> 11727
短 信</w> 11726
拜 访</w> 11724
经社 理事会</w> 11720
o p</w> 11718
当 今</w> 11718
罗 夫</w> 11716
路 径</w> 11715
之 旅</w> 11710
后 赛</w> 11709
行政 区</w> 11708
公共 政策</w> 11707
周 刊</w> 11701
页 次</w> 11699
季 后赛</w> 11698
印 尼</w> 11694
皇 室</w> 11692
判 定</w> 11689
国民 议会</w> 11688
媒 介</w> 11686
浴 室</w> 11682
L i 11680
期 刊</w> 11678
不 太</w> 11676
大 象</w> 11675
达 拉斯</w> 11674
尼亚 联合共和国</w> 11673
坦桑 尼亚联合共和国</w> 11673
性 行为</w> 11672
随 机</w> 11670
跟 随</w> 11667
无家可 归</w> 11660
惊 喜</w> 11658
克 森</w> 11657
进 口 11656
国际 货币 11655
巴 赫</w> 11654
更 正</w> 11651
P at 11647
国防 军</w> 11645
酗 酒</w> 11641
代 人</w> 11636
记 载</w> 11635
八 年</w> 11634
人 工 11634
厘 米</w> 11634
事务 处</w> 11634
室 内</w> 11632
Al l 11627
项 目 11624
胸 部</w> 11618
在 乎</w> 11616
曲 线</w> 11615
折 扣</w> 11613
表示 感谢</w> 11612
在 家</w> 11610
头 脑</w> 11610
出 生 11609
阿卜 杜 11606
住 宿</w> 11602
li x</w> 11597
魔 法</w> 11596
跳 舞</w> 11596
基 督</w> 11595
原 油</w> 11590
电 力 11590
女 生</w> 11584
法律 文书</w> 11582
宾夕法 尼亚州</w> 11580
产 品 11579
确 性</w> 11577
s t</w> 11572
sk i</w> 11568
个 案</w> 11565
丽 特</w> 11561
获 奖</w> 11556
1 19</w> 11555
违 约</w> 11555
之 日起</w> 11553
系 数</w> 11547
令人 不安</w> 11547
Sm ith</w> 11537
萨 摩 11536
逃 避</w> 11536
卡 因</w> 11526
坐 下</w> 11525
老 龄</w> 11523
弹 性</w> 11523
真 理</w> 11520
尔 森</w> 11516
军 火</w> 11515
招待 会</w> 11511
信 誉</w> 11509
总 的 11508
原 籍</w> 11498
构 想</w> 11497
主 体</w> 11492
入 学</w> 11492
牵 头</w> 11492
i j 11490
吉尔吉斯 斯坦</w> 11486
全民 投票</w> 11480
B ra 11477
法 医</w> 11476
联 检</w> 11476
海 啸</w> 11475
年 龄 11474
行动 者</w> 11474
受 到 11472
祖 父</w> 11466
原 先</w> 11462
关键 作用</w> 11462
难 道</w> 11457
三 星</w> 11451
停 车</w> 11451
g an</w> 11450
道 理</w> 11450
会议 议程</w> 11449
常 用</w> 11444
降 落</w> 11444
CN. 9</w> 11442
车 道</w> 11441
显 而易 11441
东 方</w> 11440
显而易 见</w> 11440
口 译</w> 11437
生 境</w> 11437
预 见</w> 11435
巴塞 罗 11428
下 半场</w> 11425
in i</w> 11425
y r 11423
执法 人员</w> 11423
内 华 11422
研究 员</w> 11418
雷 尔</w> 11417
2. 5</w> 11412
从 来 11410
抑 郁</w> 11409
普 敦</w> 11408
更 糟</w> 11408
目 睹</w> 11405
开 端</w> 11404
奖 牌</w> 11404
处 在</w> 11400
礼 貌</w> 11399
第四 届</w> 11391
普遍 性</w> 11390
201 9</w> 11383
门 票</w> 11381
原子 能 11381
景 观</w> 11379
C S 11378
法 兰 11378
新南 威尔士 11377
新南威尔士 州</w> 11377
近 几 11371
前 夕</w> 11371
前 后</w> 11370
s ch 11369
帖 子</w> 11369
下 台</w> 11368
气 温</w> 11366
顾 及</w> 11365
公 式</w> 11358
前 途</w> 11357
爵 夫人</w> 11357
完整 性</w> 11357
追 加</w> 11356
第五 条</w> 11356
退 役</w> 11354
进 行 11353
一切 都 11353
年 份</w> 11349
B er 11347
究 竟</w> 11342
19 68</w> 11341
闭 会</w> 11335
亚利桑 那州</w> 11333
慈善 机构</w> 11333
S ar 11330
手 工</w> 11328
流行 病</w> 11326
哈 马</w> 11325
差 不多</w> 11324
M r</w> 11323
复 活 11316
警 卫队</w> 11314
er al</w> 11313
1 .1</w> 11309
费 尔 11309
跑 道</w> 11304
急 剧</w> 11302
传 输</w> 11301
统计 数字</w> 11300
证 券 11296
时 光</w> 11294
幽 默</w> 11294
克 郡</w> 11290
敬 意</w> 11289
领土 完整</w> 11289
斯 威 11285
In c</w> 11285
结 余</w> 11284
两 份</w> 11284
强 壮</w> 11284
等 到</w> 11280
罗姆 人</w> 11280
从来 不</w> 11280
补 编</w> 11278
ou r</w> 11277
星 球</w> 11276
血 压</w> 11275
医疗 保险</w> 11275
欧 安 11272
B en 11270
此 举</w> 11270
次 序</w> 11268
H am 11266
该 案</w> 11266
St ev 11266
诉讼 法</w> 11265
第二 章</w> 11255
瓦 纳</w> 11254
省 份</w> 11253
拦 截</w> 11252
七 年</w> 11250
诗 人</w> 11249
三 位</w> 11247
里 根</w> 11245
电影 节</w> 11241
之 夜</w> 11237
保 卫</w> 11237
凯 蒂</w> 11233
所 指</w> 11227
微 妙</w> 11224
人 会</w> 11222
高 速</w> 11215
按 钮</w> 11211
充 满 11210
预防 措施</w> 11210
拿 到</w> 11207
法 人</w> 11204
两 级</w> 11203
览 会</w> 11202
舰 队</w> 11201
C P. 11198
辉 煌</w> 11197
D an 11195
测 定</w> 11192
穿 越</w> 11192
臭 氧</w> 11192
B re 11189
流 通</w> 11189
粹 主义</w> 11185
那 位</w> 11184
承 担 11183
签 约</w> 11179
作出 努力</w> 11179
加 深</w> 11177
女 友</w> 11176
雕 像</w> 11176
帐 篷</w> 11175
聘 请</w> 11170
开 放 11163
遇 见</w> 11160
俄 勒 11159
改 编</w> 11159
秒 钟</w> 11155
谈 谈</w> 11153
C M 11149
闭 门</w> 11148
体育 馆</w> 11148
自治 区</w> 11144
辩 护 11143
d er</w> 11140
Ph il 11140
哈 根</w> 11137
潜 艇</w> 11136
1 23</w> 11135
f lix</w> 11133
优 雅</w> 11133
人口 普查</w> 11131
马 达 11129
肖 恩</w> 11126
提 示</w> 11125
不 如</w> 11125
赌 博</w> 11123
卡斯 尔</w> 11118
送 回</w> 11116
不 断 11114
音乐 家</w> 11114
格 拉斯</w> 11113
联 科</w> 11113
原 子</w> 11109
合法 化</w> 11109
运 营 11107
更 高</w> 11106
公 务</w> 11105
文 职</w> 11102
14 . 11102
贵 族</w> 11101
涌 入</w> 11099
加 热</w> 11098
模 块</w> 11097
辛 普森</w> 11096
萨摩 亚</w> 11095
福 音</w> 11094
通讯 社</w> 11094
暴 风 11093
团 聚</w> 11087
捕 捞</w> 11086
马达 加 11084
分 支</w> 11081
时 装 11080
战 术</w> 11080
中 旬</w> 11076
一 小 11075
复活 节</w> 11074
聘 用</w> 11070
指 派</w> 11069
19 45</w> 11068
运 转</w> 11066
步 伐</w> 11066
毁 灭</w> 11066
基 尔</w> 11065
维 拉</w> 11065
容 纳</w> 11065
统 筹</w> 11064
售 价</w> 11064
海 报</w> 11060
国际 原子能 11059
国际原子能 机构</w> 11059
深 深</w> 11058
曼 斯坦</w> 11056
人 工</w> 11056
职 工</w> 11056
土库 曼斯坦</w> 11056
买 方</w> 11046
英 亩</w> 11045
章 节</w> 11043
好 好</w> 11043
根 除</w> 11040
专 长</w> 11039
免 疫 11037
犯 人</w> 11037
可 卡因</w> 11029
欣 见</w> 11029
输 出</w> 11029
支持 率</w> 11029
Net flix</w> 11027
流 动性</w> 11017
同 步</w> 11016
股 权</w> 11011
C ap 11009
感到 遗憾</w> 11007
人 身 11005
可 靠 11001
天 内</w> 11001
顶 部</w> 10999
行 程</w> 10998
般 的</w> 10997
13 . 10991
V er 10989
休 假</w> 10984
乐 团</w> 10983
分 手</w> 10983
内 外</w> 10981
本 土</w> 10980
西 欧</w> 10980
搬 迁</w> 10980
简 介</w> 10977
等 候</w> 10977
ep h 10977
展 现</w> 10974
罗 德</w> 10968
达 尔</w> 10967
万 名</w> 10967
it t 10967
国际货币 基金组织</w> 10966
B a 10964
好 消息</w> 10964
除 此 10958
晋 升</w> 10958
改 组</w> 10957
退休 金</w> 10956
会 期</w> 10946
便 于</w> 10944
o y 10939
B u 10939
M us 10937
空 白</w> 10936
跟 着</w> 10931
社会 福利</w> 10931
下 议院</w> 10930
纳 森</w> 10926
数百 名</w> 10924
传 送</w> 10922
巴塞罗 那</w> 10919
建 成</w> 10914
剑 桥</w> 10913
早 就</w> 10913
救 灾</w> 10911
废 墟</w> 10903
马达加 斯加</w> 10903
养 恤</w> 10898
oo d 10896
坚 信</w> 10895
可 否</w> 10893
宣 传 10893
尼日 尔</w> 10892
无 情</w> 10891
射 杀</w> 10891
2 20</w> 10878
悲 惨</w> 10878
该 条</w> 10872
格雷 格</w> 10870
A v 10865
澳大利亚 人</w> 10855
乔 丹</w> 10849
该 司</w> 10846
北 极</w> 10844
金融 市场</w> 10844
肮 脏</w> 10840
之 类</w> 10839
强 硬</w> 10837
Ry an</w> 10836
玛 格 10832
阿 姆 10831
交 往</w> 10829
不 用 10828
解放 军</w> 10827
德 里克</w> 10824
大 法官</w> 10820
订 约</w> 10820
诽 谤</w> 10819
第一 章</w> 10818
斯 克</w> 10816
敌对 行动</w> 10814
毫 不 10812
人民 法院</w> 10812
主导 地位</w> 10809
锁 定</w> 10808
妇 发</w> 10807
无 罪</w> 10806
司法 制度</w> 10805
巴尔 的 10804
经 共体</w> 10800
青 年 10799
哥 本 10798
境 外</w> 10798
市 镇</w> 10797
垄 断</w> 10797
Bern ie</w> 10794
矿 物</w> 10790
纽 卡斯尔</w> 10789
一 款</w> 10789
投 掷</w> 10789
微 小</w> 10786
没 什么</w> 10785
S a 10783
销售 额</w> 10783
生产 商</w> 10781
W or 10780
所 得 10776
约 克郡</w> 10775
先 决 10774
令人 满意</w> 10772
敌 对</w> 10771
R es 10767
着 陆</w> 10759
尊 重 10758
形 容</w> 10752
生产 者</w> 10752
新 罕 10751
总 统 10751
揭 露</w> 10746
启 用</w> 10744
il le</w> 10740
受 访者</w> 10736
慢 性</w> 10730
1 21</w> 10729
不 予</w> 10727
再 也</w> 10727
口 味</w> 10725
五 名</w> 10720
R a 10714
工 商 10713
原 告</w> 10708
勃 勃</w> 10707
营 利</w> 10706
光 明</w> 10703
先决 条件</w> 10703
粒 子</w> 10702
毒 性</w> 10698
邮 票</w> 10697
刑事 诉讼</w> 10697
面 包 10695
ol l 10693
多 久</w> 10691
一 月</w> 10688
图 表</w> 10678
法 文</w> 10676
以 免</w> 10676
不用 说</w> 10675
经济 社会</w> 10674
易 斯</w> 10672
市 政</w> 10669
解 释 10669
一 同</w> 10668
名 昭 10668
圆 形</w> 10666
挂 钩</w> 10662
新生 儿</w> 10662
新罕 布什 10661
分 数</w> 10656
卢 比</w> 10655
中央 银行</w> 10654
指 明</w> 10651
探 测</w> 10651
奥林匹克 运动会</w> 10651
精 简</w> 10648
概 况</w> 10645
塞 人</w> 10641
答 应</w> 10640
2 70</w> 10638
苏 里 10636
数 值</w> 10636
苏丹 政府</w> 10636
基本 建设</w> 10635
维 护者</w> 10633
和平 解决</w> 10629
明 亮</w> 10628
性 生活</w> 10628
b a</w> 10627
立法 机构</w> 10626
斯 托</w> 10625
协调 会</w> 10621
en s</w> 10617
K as 10616
隔离 墙</w> 10614
马拉 维</w> 10612
十 几 10611
生物 学</w> 10611
平方 米</w> 10606
S P</w> 10597
图 书</w> 10597
马 萨 10596
拍 照</w> 10596
撞 击</w> 10594
普 尔</w> 10593
巴尔的 摩</w> 10593
公 顷</w> 10591
深 切</w> 10590
奴 隶 10587
内 政</w> 10586
尊重 人权</w> 10586
负担 得起</w> 10585
精 彩</w> 10582
混 凝 10578
惩 处</w> 10577
刘 易斯</w> 10576
厄 姆</w> 10574
ou p</w> 10571
神 话</w> 10569
A hm 10567
宇航 员</w> 10564
贫 民 10560
可靠 性</w> 10560
遗 留</w> 10558
译 文</w> 10554
第一 批</w> 10552
服务 业</w> 10551
w ood</w> 10550
开 火</w> 10549
佩 克</w> 10547
加 共和国</w> 10545
马 里兰 10544
扎 克</w> 10543
妮 弗</w> 10540
日 程</w> 10530
姿 态</w> 10530
曼 城</w> 10525
兑 现</w> 10525
食 用</w> 10523
马 克 10519
召 回</w> 10519
硬 币</w> 10518
E R 10517
塔 尼亚</w> 10517
陪 同</w> 10516
阵 地</w> 10514
有 望</w> 10510
传 达</w> 10509
onom y</w> 10508
总 量</w> 10506
行 走</w> 10506
外 债</w> 10505
后 悔</w> 10504
递 交</w> 10504
挫 折</w> 10503
十 四届</w> 10502
伙 人</w> 10500
用 尽</w> 10500
淹 没</w> 10498
根 州</w> 10496
D C</w> 10495
卡 拉 10492
不 像</w> 10492
莱 恩</w> 10490
也 就是说</w> 10490
利 益 10489
咎 于</w> 10488
on d 10488
安东 尼奥</w> 10486
M ik 10483
归 咎于</w> 10482
哥本 哈根</w> 10482
言 之</w> 10481
中 所载</w> 10475
鸟 类</w> 10475
L a</w> 10474
一 番</w> 10473
百分 之 10473
里 昂</w> 10472
鸡 蛋</w> 10469
19 63</w> 10468
13 73</w> 10467
统 一 10465
路易 斯 10465
宽 容</w> 10464
说 出</w> 10464
起 点</w> 10463
羁 押</w> 10462
这 条</w> 10461
新 华 10459
警 务</w> 10459
广 告 10456
卡 片</w> 10455
所 能</w> 10455
风 景</w> 10455
臭 名昭 10455
内 心</w> 10453
厨 师</w> 10453
感 染 10452
当 年</w> 10450
原则 上</w> 10450
M er 10449
深 感</w> 10445
P R</w> 10442
商 标</w> 10441
赫 尔</w> 10425
喝 酒</w> 10424
e in</w> 10423
充 当</w> 10423
尔 德 10422
这 会</w> 10422
中 所</w> 10417
赚 钱</w> 10413
刑事 责任</w> 10413
位 数</w> 10409
地 质</w> 10409
热 门</w> 10408
结构 性</w> 10408
原 谅</w> 10404
i el</w> 10403
一 首</w> 10403
压 制</w> 10401
贸易 协定</w> 10401
永 久性</w> 10400
多 哥</w> 10399
T er 10398
实 用</w> 10390
废 弃</w> 10390
in t</w> 10386
Pet er</w> 10385
政府 部门</w> 10382
榜 样</w> 10381
臭名昭 著</w> 10380
小 规模</w> 10378
假 装</w> 10375
4 50</w> 10374
航 天</w> 10373
混凝 土</w> 10373
an s</w> 10369
话 说</w> 10364
多米尼 加共和国</w> 10364
权 力 10363
In d 10363
Ta x 10356
全面 禁止</w> 10355
1 24</w> 10354
尔 州</w> 10354
un g</w> 10350
激 光</w> 10348
自 称</w> 10344
1 28</w> 10340
I C</w> 10336
诺 贝尔 10335
彼 得 10334
最 终 10333
量 化</w> 10332
订 购</w> 10329
19 66</w> 10328
进 出口</w> 10327
15 . 10323
德 语</w> 10321
格雷 厄姆</w> 10321
新 生</w> 10318
抚 养</w> 10316
获 益</w> 10315
这 句</w> 10309
一 日</w> 10308
海 牙</w> 10307
致 敬</w> 10307
心理 健康</w> 10306
is a</w> 10305
英 联邦</w> 10303
雅 各 10298
探 测器</w> 10292
沙 滩</w> 10290
数 字 10289
进行 谈判</w> 10284
四 名</w> 10282
暴力 事件</w> 10282
幼 儿</w> 10281
八 条</w> 10276
y l 10275
市 政 10275
海 伦</w> 10273
检查 组</w> 10269
天 体</w> 10267
免 除</w> 10267
15 5</w> 10264
or y</w> 10263
汉 普 10262
全 职</w> 10262
发 作</w> 10262
合 伙人</w> 10260
第九 条</w> 10259
封 闭</w> 10254
吉布 提</w> 10253
早 已</w> 10251
右 边</w> 10247
区 内</w> 10237
程 式</w> 10236
扣 押</w> 10236
e k 10234
整 天</w> 10232
19 64</w> 10231
阿拉伯 语</w> 10231
on g 10230
构 成 10219
巴 里</w> 10218
巴巴 多斯</w> 10215
埃 文斯</w> 10214
宽 松</w> 10212
段 落</w> 10208
外 空</w> 10207
加拿 大 10206
惩 治</w> 10205
反 驳</w> 10201
都 市</w> 10200
女 朋友</w> 10199
西 北部</w> 10198
生 人</w> 10197
住 院</w> 10191
I F 10190
客 户 10187
不 让</w> 10185
回 忆 10185
地 狱</w> 10184
-------- ---- 10184
a ir</w> 10183
第二 次世界大战</w> 10183
Wind ows</w> 10183
烟 雾</w> 10180
m ent</w> 10175
历史 学家</w> 10175
夫 妻</w> 10167
参加 者</w> 10165
入 狱</w> 10164
而 来</w> 10164
哭 泣</w> 10160
国 会 10159
规 律</w> 10159
分 校</w> 10157
线 性</w> 10156
即 可</w> 10155
鉴 定</w> 10153
塑 造</w> 10146
多 元 10141
无 意</w> 10141
穷 国</w> 10140
心 中</w> 10138
开幕 式</w> 10136
烧 毁</w> 10135
萨 斯</w> 10134
C A</w> 10133
伪 造</w> 10133
13 5</w> 10133
艾 哈 10132
自 决权</w> 10132
处 方</w> 10132
前 方</w> 10131
第 八</w> 10131
D A</w> 10129
华 纳</w> 10127
格 拉</w> 10126
天 才</w> 10124
N or 10123
迪 拜</w> 10119
出 名</w> 10119
累 积</w> 10117
ID B. 10117
抓 获</w> 10115
文化 遗产</w> 10112
连 同</w> 10111
业 主</w> 10110
性 感</w> 10108
2 .1</w> 10106
游 骑兵</w> 10105
发 射 10104
乳 腺癌</w> 10104
St r 10103
野 蛮</w> 10101
筹 款</w> 10100
第二 阶段</w> 10098
新罕布什 尔州</w> 10092
连 续性</w> 10086
学 员</w> 10084
殖 民</w> 10083
F r 10080
警 惕</w> 10079
3 60</w> 10078
营 业</w> 10078
转 会</w> 10078
行 列</w> 10071
Andre w</w> 10069
马其 顿 10067
获 释</w> 10066
实 时</w> 10064
普 斯</w> 10061
名 誉</w> 10059
职业 培训</w> 10048
一 封信</w> 10045
挑 衅</w> 10045
早 日</w> 10043
p s</w> 10042
换 句 10041
纷 纷</w> 10038
马尔 代 10038
牛 仔</w> 10037
an t</w> 10036
丹 尼</w> 10035
升 高</w> 10035
不 但</w> 10034
农 产品</w> 10030
无 限</w> 10030
比 利</w> 10028
派 别</w> 10028
诸 多</w> 10027
实 务</w> 10027
举 报</w> 10027
广 泛 10026
水 面</w> 10024
电 站</w> 10019
病 率</w> 10019
优 先 10018
据 此</w> 10018
一切都 是</w> 10018
招 标</w> 10017
es s</w> 10017
e v</w> 10016
狭 窄</w> 10015
上 映</w> 10014
很 棒</w> 10014
大 赛</w> 10013
弗 林 10013
主 教练</w> 10013
上 网</w> 10012
私 有化</w> 10009
西 南</w> 10008
香 烟</w> 10008
违 法行为</w> 10008
Tax onomy</w> 10006
混 合物</w> 10003
灭 绝 10003
公共 行政</w> 10001
轻 易</w> 10000
第五十 九</w> 9999
洛 伊</w> 9998
疲 软</w> 9997
博 茨 9996
付 费</w> 9996
刑 法典</w> 9995
固 有</w> 9993
奴 役</w> 9992
瑞 克</w> 9990
非 索</w> 9990
玛格 丽特</w> 9987
麦当 劳</w> 9985
服务 中心</w> 9984
巴 克</w> 9981
外 界</w> 9981
P O 9977
阵 容</w> 9975
am a</w> 9971
卫生 保健</w> 9971
第一 夫人</w> 9970
源 自</w> 9967
做 些</w> 9966
CO NF. 9966
绳 之以 9963
绳之以 法</w> 9963
略 有</w> 9962
债 务 9958
途 中</w> 9958
一 体</w> 9955
南 部 9953
手 表</w> 9952
踢 球</w> 9952
外 观</w> 9951
烦 恼</w> 9946
开 来</w> 9945
偶 像</w> 9945
迫 切</w> 9944
陌 生人</w> 9942
图 案</w> 9941
无 条件</w> 9938
南部 非洲</w> 9937
7 5%</w> 9936
牛 津</w> 9935
换句 话说</w> 9935
二 级</w> 9933
灭绝 种族</w> 9933
幸 存</w> 9930
炮 弹</w> 9929
伊 斯</w> 9927
2 3 9925
西 州</w> 9924
销 商</w> 9924
贩 毒</w> 9922
消 耗 9919
丢 失</w> 9917
所得 税</w> 9917
指 引</w> 9916
ath an</w> 9916
帕 克</w> 9915
回 国</w> 9915
C H 9914
等 教育</w> 9914
i er 9912
十 分 9909
in al</w> 9908
13 2</w> 9907
戏剧 性</w> 9906
录 音 9905
撕 裂</w> 9901
星 系</w> 9900
克 兰 9894
1 27</w> 9894
入 学率</w> 9892
工 人 9889
收 获</w> 9889
新 几内亚</w> 9888
多 种 9887
结 局</w> 9887
具体 情况</w> 9885
采取 有效</w> 9882
情报 局</w> 9880
华 丽</w> 9877
庇 护 9877
虚 构</w> 9875
四 十 9874
几 种</w> 9872
美 妙</w> 9871
而 出</w> 9870
埃 里克</w> 9869
鲁 特</w> 9868
乔 纳森</w> 9862
星 球 9862
星球 大战</w> 9862
核 算</w> 9861
赶 上</w> 9861
过 多</w> 9855
个 州</w> 9854
摩 纳 9853
关键 问题</w> 9850
搜 寻</w> 9847
纳 姆</w> 9844
内 斯堡</w> 9843
见 证</w> 9838
画 廊</w> 9837
马其顿 共和国</w> 9837
议 案</w> 9836
激 素</w> 9833
约翰 内斯堡</w> 9833
博茨 瓦纳</w> 9833
u l</w> 9831
注 视</w> 9829
新闻 稿</w> 9827
今年 夏天</w> 9826
不 佳</w> 9825
面 部</w> 9824
消防 员</w> 9824
袭 击者</w> 9823
马尔代 夫</w> 9822
相 结合</w> 9820
迪斯 尼</w> 9820
非 凡</w> 9817
德 森</w> 9813
A c 9810
出 身</w> 9809
n ey</w> 9808
试 试</w> 9806
伊 利 9802
u k</w> 9801
上 半年</w> 9798
金 色</w> 9798
一 层</w> 9798
无 国籍</w> 9798
Trum p</w> 9797
先 例</w> 9796
几 率</w> 9796
民 用</w> 9795
改 革 9795
行 人</w> 9794
眼 镜</w> 9789
敦 士 9786
1 26</w> 9780
列 支 9780
列支 敦士 9780
轮 胎</w> 9779
议 定</w> 9779
填 写</w> 9778
项 下</w> 9775
O n 9772
马萨 诸 9772
分 成</w> 9770
牛 肉</w> 9768
I T</w> 9762
谋 杀 9759
捕 鱼</w> 9758
收 益 9758
怎么 办</w> 9757
2 5 9755
大 马 9754
迟 到</w> 9753
M il 9751
点 燃</w> 9746
行 径</w> 9746
想 想</w> 9743
走 过</w> 9741
环 节</w> 9740
综合 性</w> 9737
概 要</w> 9736
法律 事务</w> 9735
1. 2</w> 9733
13 8</w> 9733
树 林</w> 9732
ul l 9732
苹 果 9730
未 知</w> 9728
田 纳 9727
不 丹</w> 9723
裤 子</w> 9723
胎 儿</w> 9722
i al</w> 9721
诗 歌</w> 9721
闪 电</w> 9721
经 常 9719
贩 卖 9719
压 倒 9715
基 层</w> 9713
波 利斯</w> 9713
峡 谷</w> 9710
C O</w> 9708
沙 发</w> 9708
富 人</w> 9708
巴 尔</w> 9708
布拉 德</w> 9708
澳 门</w> 9707
普通 照会</w> 9707
大 致</w> 9705
依 存</w> 9705
芯 片</w> 9701
繁 殖</w> 9700
第五十 八</w> 9699
ur e</w> 9697
据 报</w> 9696
iv e</w> 9695
W est 9694
新 社</w> 9694
海洋 环境</w> 9694
希 特勒</w> 9693
测 验</w> 9691
好 事</w> 9688
财务 报告</w> 9686
汇 款</w> 9685
制 药</w> 9683
逃 脱</w> 9683
贿 赂</w> 9683
纪念 日</w> 9682
学术 界</w> 9682
财务 状况</w> 9681
Ban k</w> 9681
i p</w> 9679
据 估计</w> 9678
贝 拉</w> 9675
水 道</w> 9675
指 向</w> 9674
大 气 9673
过 后</w> 9672
on y</w> 9670
荒 谬</w> 9669
下 半年</w> 9668
2 40</w> 9666
会 面</w> 9663
率 领</w> 9661
刊 登</w> 9654
AF L</w> 9653
公 然</w> 9652
自 卫</w> 9648
两 国 9644
独 自</w> 9643
运 人</w> 9642
喂 养</w> 9642
森 特</w> 9641
附 录</w> 9634
幼 儿 9633
平方 公里</w> 9632
13 4</w> 9631
19 0</w> 9624
供应 链</w> 9624
新华 社</w> 9623
一 大 9622
尽 全力</w> 9620
序 列</w> 9619
左 边</w> 9618
t a</w> 9613
货 运</w> 9612
放 到</w> 9610
商 务 9607
认 罪</w> 9607
列支敦士 登</w> 9607
h er</w> 9604
马里兰 州</w> 9601
劳 伦斯</w> 9599
海 域</w> 9597
追 回</w> 9597
接 收 9597
2 4 9596
海 洛 9593
议 会 9591
柴 油</w> 9589
文 物</w> 9588
有 个</w> 9585
限 额</w> 9584
文 件 9581
二十 一</w> 9579
法 新社</w> 9578
电 梯</w> 9575
放 下</w> 9575
大 宗</w> 9574
is t</w> 9574
生产 率</w> 9574
称 作</w> 9572
黄金 海岸</w> 9572
流 产</w> 9570
L u 9565
民 粹主义</w> 9561
借 鉴</w> 9561
司法 部门</w> 9561
壮 观</w> 9560
艺术 品</w> 9560
雅 虎</w> 9559
搁 置</w> 9559
邻 近</w> 9558
艾哈 迈 9558
抗 生素</w> 9557
里 尼奥</w> 9554
反 抗</w> 9554
攻 击 9554
米 亚</w> 9553
雅 典</w> 9552
一 新</w> 9552
老 虎</w> 9552
作出 反应</w> 9552
居 住 9550
四 次</w> 9550
Gen eral</w> 9548
账 单</w> 9547
表 情</w> 9545
预 报</w> 9545
重新 考虑</w> 9543
相互 作用</w> 9542
第九 届</w> 9542
正 好</w> 9541
c on 9540
内 特</w> 9538
加 州 9538
安 迪</w> 9537
以 北</w> 9536
演 唱</w> 9535
全 额</w> 9534
媒 体 9534
看 不到</w> 9533
大 城市</w> 9532
安全 性</w> 9531
输 掉</w> 9530
15 3</w> 9530
箱 子</w> 9529
士 革</w> 9523
小 女孩</w> 9522
大马 士革</w> 9520
相 符</w> 9519
国家 队</w> 9519
国会 议员</w> 9519
动 用</w> 9518
儿 基会</w> 9516
采取 任何</w> 9516
宁 愿</w> 9515
多 样</w> 9513
圭 亚 9513
收 容</w> 9513
视 野</w> 9512
格 伦</w> 9511
脑 袋</w> 9511
唐 纳</w> 9509
关 系 9508
具体 措施</w> 9508
蒙特 雷</w> 9508
过渡 时期</w> 9507
除此 之外</w> 9505
绘 制</w> 9504
午 夜</w> 9503
无 力</w> 9501
册 子</w> 9501
控制 权</w> 9501
A L 9500
E r 9500
句 子</w> 9497
产 物</w> 9491
J er 9490
孤 儿</w> 9487
存 活</w> 9483
T ur 9481
雇 佣 9480
死 者</w> 9479
赌 场</w> 9479
E S</w> 9474
过 早</w> 9471
良 心</w> 9468
东 南 9465
ou l 9465
已 婚</w> 9464
知 名 9461
划 界</w> 9458
A ss 9456
er son</w> 9455
三 角 9454
中 风</w> 9446
绝 不</w> 9442
追 捕</w> 9441
高尔夫 球</w> 9436
适 足</w> 9433
捷 克</w> 9430
草 地</w> 9428
画 家</w> 9427
大 桥</w> 9425
夫 特</w> 9424
马 尔</w> 9423
见 下文</w> 9421
尼 克 9417
核 证</w> 9417
沿 岸</w> 9413
ad e</w> 9413
比 分</w> 9407
概 览</w> 9403
li e</w> 9403
外 来</w> 9402
紧急 状态</w> 9400
u z</w> 9399
请 愿</w> 9399
t y</w> 9397
艰 巨</w> 9397
暗 杀</w> 9396
学 费</w> 9394
保 育</w> 9391
帮 忙</w> 9386
2 30</w> 9381
ort h</w> 9381
星 星</w> 9380
特 兰</w> 9378
玉 米</w> 9378
近 平</w> 9377
习 近平</w> 9375
薪 水</w> 9374
不 敢</w> 9373
颁 奖 9372
ec t 9372
1 29</w> 9370
尽 量 9370
薄 弱</w> 9368
引 爆</w> 9363
楼 梯</w> 9362
绿 党</w> 9360
特 殊 9356
留 给</w> 9356
19 48</w> 9355
庇护 所</w> 9355
附 上</w> 9354
海洛 因</w> 9353
情 景</w> 9351
g e 9350
出 演</w> 9350
劳动 者</w> 9350
巴 哈马</w> 9348
狩 猎</w> 9348
泄 露</w> 9347
一 声</w> 9346
视 力</w> 9345
肯 塔 9344
正 当 9344
总的 来说</w> 9340
炸 药</w> 9339
摄像 头</w> 9332
悲 痛</w> 9331
羞 辱</w> 9330
A ir 9329
每 人</w> 9329
伤 口</w> 9329
长 远</w> 9327
检查 站</w> 9327
法律 顾问</w> 9326
机 组 9325
ri s</w> 9325
机组 人员</w> 9325
B al 9324
集 装 9322
零 零 9321
马拉 松</w> 9321
专题 讨论</w> 9321
原 文</w> 9319
机 票</w> 9319
前 一天</w> 9318
笔 记 9318
M OR 9315
从 前</w> 9315
ic s</w> 9313
1 45</w> 9311
海 水</w> 9310
克里 斯托 9310
布鲁 克</w> 9308
明确 规定</w> 9308
出版 社</w> 9306
苦 难</w> 9305
亿 元</w> 9305
e h</w> 9304
P ol 9304
不 良 9303
市场 准入</w> 9303
c om 9302
强 制 9298
o st 9294
不同 于</w> 9292
雅各 布</w> 9292
五 角 9290
穆 里尼奥</w> 9289
部 份</w> 9289
C RC</w> 9288
今 天 9288
2 10</w> 9285
呈 现</w> 9285
2. 2</w> 9285
阿姆 斯特 9285
立法 会</w> 9284
立 大学</w> 9283
M it 9280
货 车</w> 9280
雷 特</w> 9279
土耳 其 9278
h a</w> 9277
弗 雷 9276
增 加 9275
16 . 9274
拉 美</w> 9270
加 密</w> 9269
小 册子</w> 9267
加 紧</w> 9265
心理 学</w> 9265
S k 9262
每 桶</w> 9261
更 长</w> 9260
妥 善</w> 9259
素 质</w> 9255
7 50</w> 9254
省 级</w> 9253
D ar 9252
R am 9252
a il</w> 9249
A P 9249
战 队</w> 9248
卫生 设施</w> 9248
弹 道 9247
玻利 瓦尔</w> 9245
足 联</w> 9244
三 大</w> 9242
莎 士 9240
莎士 比亚</w> 9238
巴 特</w> 9232
旅行 者</w> 9231
益 于</w> 9230
海 豚</w> 9228
公 立学校</w> 9228
戒 指</w> 9227
飞 越</w> 9226
移 民 9224
震 荡</w> 9222
刑 罚</w> 9221
第一 阶段</w> 9220
浪 潮</w> 9218
举 起</w> 9218
T D</w> 9217
坦桑 尼亚</w> 9217
意 料</w> 9214
马其 顿</w> 9213
好 奇</w> 9211
型 期</w> 9210
上 任</w> 9206
一 年 9206
持 续 9206
转 型期</w> 9206
巴布 亚 9204
余 地</w> 9203
产 假</w> 9203
恶 心</w> 9203
Ro bert</w> 9203
刑事 诉讼法</w> 9203
圭亚 那</w> 9203
下 旬</w> 9202
M in 9201
尼 特</w> 9201
避 孕 9201
新 增</w> 9200
革 命 9199
多 重</w> 9198
时 速</w> 9198
复 审</w> 9197
15 00</w> 9197
巴布亚 新几内亚</w> 9196
沃 伦</w> 9195
S n 9193
避 孕</w> 9193
光 线</w> 9188
编 纂</w> 9186
模 板</w> 9185
移 动 9184
载 列</w> 9183
戴 维</w> 9182
or t</w> 9182
摩纳 哥</w> 9181
之 地</w> 9180
i g</w> 9179
阻 挠</w> 9176
慕 尼 9175
侵 蚀</w> 9173
皇 帝</w> 9172
停 下来</w> 9169
换 取</w> 9168
俄克拉 何 9168
固 定 9166
下 落</w> 9165
银行 家</w> 9163
终 结</w> 9160
中 毒</w> 9158
大 于</w> 9157
欧 国家</w> 9152
法 郎</w> 9150
喜 剧 9150
费 率</w> 9149
德 国 9148
激 动 9148
审计 员</w> 9147
中 产阶级</w> 9145
ol a</w> 9144
名 词</w> 9137
听 见</w> 9132
人 身</w> 9131
D V 9129
研究 生</w> 9128
第七 届</w> 9128
慕尼 黑</w> 9128
主 场</w> 9127
is e</w> 9127
客 厅</w> 9119
终 端</w> 9119
口 号</w> 9117
安德 烈</w> 9116
平 行</w> 9112
Rich ard</w> 9109
炸 死</w> 9107
赶 到</w> 9107
多 巴 9106
鲍 里斯</w> 9105
倒 塌</w> 9101
中 小型</w> 9100
这 起</w> 9100
汤 普森</w> 9099
想 不到</w> 9099
德 曼</w> 9096
减 肥</w> 9096
第六 次</w> 9096
赫 尔 9095
格 里</w> 9095
排 列</w> 9095
性 化</w> 9095
Ale x 9094
文 中</w> 9090
当 事</w> 9086
忠 实</w> 9085
易 于</w> 9085
选择 性</w> 9085
饭 店</w> 9083
I T 9080
或 缺</w> 9079
d i</w> 9078
存 放</w> 9078
国内 外</w> 9075
急 需</w> 9072
详 尽</w> 9072
忆 及</w> 9068
管理 机构</w> 9068
多 余</w> 9067
一 头</w> 9064
业 余</w> 9064
维 生素</w> 9063
甲 基</w> 9062
单 曲</w> 9062
诱 惑</w> 9062
中 东 9061
胳 膊</w> 9061
I R 9060
维 克</w> 9060
公 平 9060
样 品</w> 9060
全 民</w> 9059
B ak 9058
19 65</w> 9058
衬 衫</w> 9055
联合国 安全 9055
联合国安全 理事会</w> 9055
骨 折</w> 9054
眼 泪</w> 9051
罗 杰</w> 9049
情 人</w> 9049
面 孔</w> 9048
参 考 9046
演 说</w> 9042
肤 色</w> 9041
增 设</w> 9039
p e</w> 9038
东 亚</w> 9038
宣 读</w> 9038
定 制</w> 9038
re n</w> 9037
胜 者</w> 9036
莫 里斯</w> 9033
当 斯</w> 9032
贩卖 人口</w> 9032
交 换 9031
拖 欠</w> 9030
安 卡拉</w> 9029
布 赖 9028
开 关</w> 9028
避 开</w> 9026
解释 性</w> 9026
五角 大楼</w> 9026
用 语</w> 9025
ou se</w> 9025
亏 损</w> 9024
票 价</w> 9024
e y 9023
昆 虫</w> 9022
德 勒</w> 9019
虚 弱</w> 9019
G er 9015
胜 地</w> 9012
不可 或缺</w> 9011
学 习 9010
劳 拉</w> 9010
医 学 9010
食 谱</w> 9009
并 非 9008
后 裔</w> 9007
维 尔 9005
小 小 9004
所 提</w> 9003
雷 诺</w> 9002
热 线</w> 9000
词 语</w> 9000
进 而</w> 8998
离 子</w> 8996
祝 福</w> 8995
第五十 七届</w> 8993
总 之</w> 8992
免 于</w> 8992
反应 堆</w> 8992
兹 堡</w> 8991
毛里 塔尼亚</w> 8991
M A</w> 8986
一 处</w> 8983
否 定</w> 8983
攻 击者</w> 8980
摇 滚 8980
联 海</w> 8978
发 病率</w> 8976
反 过来</w> 8974
-------------------------------- ---------------- 8974
英 语 8973
收益 率</w> 8972
药 物 8971
民 间 8970
诉 求</w> 8968
基 因 8967
通 勤</w> 8961
参 赛</w> 8959
沃 特 8958
商 场</w> 8956
四 周</w> 8956
加 重</w> 8955
NR L</w> 8955
li v 8952
封 面</w> 8950
实 况</w> 8950
瘫 痪</w> 8950
打 断</w> 8949
变 量</w> 8948
令人 鼓舞</w> 8948
农 药</w> 8946
规 划 8946
区域 性</w> 8944
金融 服务</w> 8942
日内 瓦 8939
发 光</w> 8935
深 化</w> 8932
拉 塞尔</w> 8931
律 师 8930
电影 院</w> 8930
德 国人</w> 8929
T es 8928
适 宜</w> 8926
西 澳大利亚</w> 8923
随 意</w> 8923
十 二</w> 8922
二 届</w> 8921
脸 书</w> 8916
弹道 导弹</w> 8916
起 初</w> 8915
叔 叔</w> 8913
休 闲</w> 8913
苏 珊</w> 8910
误 导</w> 8909
遗 址</w> 8907
Intern ational</w> 8907
热 烈</w> 8902
评 注</w> 8901
坟 墓</w> 8900
M ad 8899
胁 迫</w> 8897
亚 当斯</w> 8896
1 2%</w> 8895
夺 回</w> 8895
小小 的</w> 8895
不 出</w> 8890
红十字 会</w> 8890
鲜 花</w> 8883
续 会</w> 8880
夫 斯基</w> 8878
奴隶 制</w> 8878
流 域</w> 8877
昨 日</w> 8876
佩 里</w> 8875
追 逐</w> 8875
巡 逻 8874
分 解</w> 8873
低 成本</w> 8873
科学 研究</w> 8873
要 说</w> 8871
郁 症</w> 8871
四 天</w> 8870
玩 耍</w> 8868
in k 8868
出 租</w> 8863
13 3</w> 8863
的 是</w> 8861
遗 传 8858
似 的</w> 8858
罗姆 尼</w> 8858
访 谈</w> 8855
学 年</w> 8854
第三 国</w> 8854
起 源</w> 8853
CR P. 8853
所 致</w> 8852
D el 8851
另 一名</w> 8850
民 航</w> 8847
r ick</w> 8844
库 尔德 8843
赚 取</w> 8842
贫民 窟</w> 8841
并 发 8840
机 械 8839
该 股</w> 8837
花 板</w> 8836
半 数</w> 8835
施 政</w> 8833
Add. 2</w> 8833
种 群</w> 8831
卖 方</w> 8829
19 51</w> 8829
运 气</w> 8828
并发 症</w> 8824
推 测</w> 8823
强 烈 8822
征 服</w> 8821
上 校</w> 8820
咖啡 馆</w> 8819
13 6</w> 8817
林 肯</w> 8814
T im 8813
W at 8813
几 项</w> 8813
小组 讨论</w> 8812
MOR E</w> 8810
2 60</w> 8807
录 制</w> 8807
第一 条</w> 8803
第六 届</w> 8802
挑战 性</w> 8801
连 串</w> 8800
公 爵夫人</w> 8800
叛 军</w> 8800
货币 政策</w> 8795
一 点 8793
托 管</w> 8792
那 次</w> 8791
ro s 8791
K l 8787
扫 盲</w> 8787
空间 站</w> 8787
1 31</w> 8785
托 克劳</w> 8785
马 歇尔</w> 8783
泰晤士 报</w> 8781
露 出</w> 8780
审 视</w> 8780
第五 届</w> 8775
财政 部长</w> 8774
偷 运</w> 8773
监护 人</w> 8773
下 属</w> 8772
Al i</w> 8772
喀 布尔</w> 8771
疲 劳</w> 8771
瑞 士 8769
坚 实</w> 8768
F A 8767
上 来</w> 8766
虚 拟 8766
微 生物</w> 8763
矿 石</w> 8763
胡 子</w> 8762
布 里</w> 8762
C o</w> 8759
讯 息</w> 8759
人 中</w> 8752
体 罚</w> 8751
回 避</w> 8747
A sh 8746
脚 踝</w> 8746
钢 琴</w> 8746
运营 商</w> 8744
美国 有线 8743
电视 新闻网</w> 8743
美国有线 电视新闻网</w> 8743
诺 斯 8741
电 路</w> 8740
金 正 8739
反 而</w> 8739
海 地区</w> 8738
身 体 8738
组 件</w> 8738
条 目</w> 8737
物 理 8734
万 元</w> 8731
盘 子</w> 8728
物 流</w> 8727
礼 服</w> 8725
不 住</w> 8725
构 造</w> 8725
S w 8721
辛 格</w> 8719
俄 国</w> 8715
化 妆</w> 8715
运 河</w> 8714
每 股</w> 8712
阿 伯 8711
电 脑 8711
雄 心 8707
相 一致</w> 8704
壁 垒</w> 8703
格林 纳 8703
悬 挂</w> 8702
德 兰</w> 8700
天 花板</w> 8700
水 准</w> 8700
越 过</w> 8697
一小 部分</w> 8696
第一 年</w> 8695
欧安 组织</w> 8692
建 制</w> 8691
盈 余</w> 8690
T ra 8687
安全 局</w> 8687
日 记</w> 8686
导 师</w> 8685
守 门 8685
各 部</w> 8685
内华 达州</w> 8681
吃 惊</w> 8679
悲 哀</w> 8678
大 程度</w> 8673
集装 箱</w> 8673
牢 房</w> 8670
倾 听</w> 8670
厌 恶</w> 8668
讲 座</w> 8662
极 度</w> 8660
权力 下放</w> 8660
哈 利 8659
电 缆</w> 8659
实 践 8659
加 蓬</w> 8658
非洲 大陆</w> 8655
战 后</w> 8654
19 62</w> 8654
科 比</w> 8653
黑 兰</w> 8652
弗 雷</w> 8649
宪 法 8649
赤 贫</w> 8649
疫 情</w> 8645
14 1</w> 8645
资本 主义</w> 8644
ay a</w> 8643
敏 感 8639
18 2</w> 8639
不 懈</w> 8637
大会 决议</w> 8637
应 予</w> 8635
电 器</w> 8635
写 信</w> 8635
博 拉</w> 8634
希 腊 8632
司法 机关</w> 8632
年 纪</w> 8631
德 黑兰</w> 8626
陪 伴</w> 8626
城市 化</w> 8626
连 贯</w> 8624
冰 箱</w> 8623
裁 减</w> 8622
获 准</w> 8622
密 集</w> 8620
尔 逊</w> 8619
玻 璃 8616
洞 穴</w> 8614
实 效</w> 8614
令人 担忧</w> 8614
厌 倦</w> 8613
伸 出</w> 8612
17 . 8610
让 步</w> 8607
Di st 8607
祖 先</w> 8605
倾 斜</w> 8604
第 九</w> 8602
cl ass</w> 8599
兼 顾</w> 8598
提 问</w> 8597
美 军</w> 8596
篮 板</w> 8596
天 主 8595
gl ish</w> 8594
巡回 赛</w> 8594
当 地人</w> 8593
道 尔</w> 8593
便 利 8592
潜 能</w> 8591
淡 水</w> 8588
老 汇</w> 8588
百 老汇</w> 8585
无 障碍</w> 8585
激 起</w> 8585
收 款</w> 8585
有 过</w> 8584
轿 车</w> 8583
目 击者</w> 8579
记 录 8579
服 从</w> 8579
经验 丰富</w> 8579
宪法 法院</w> 8579
Moh amm 8577
直 布罗 8575
嫁 给</w> 8575
纳 尔</w> 8572
技术 支持</w> 8571
B or 8570
三 人</w> 8567
动 产</w> 8567
瓦 斯</w> 8566
一 连串</w> 8563
结 盟</w> 8563
娱 乐 8563
接 受 8561
埃 德 8560
前 者</w> 8560
火 车站</w> 8560
偏 离</w> 8559
欧洲 共同体</w> 8558
激动 人心</w> 8558
退 伍 8557
艾哈迈 德</w> 8557
擅 长</w> 8554
非洲 人</w> 8554
哈 瓦 8552
欧 佩克</w> 8551
An g 8551
杰 森</w> 8549
票 房</w> 8547
取 向</w> 8544
生 育 8544
时 性</w> 8543
美 术 8543
退伍 军人</w> 8543
反 击</w> 8542
毒 素</w> 8540
il e</w> 8538
4 000</w> 8536
下 调</w> 8534
文 森特</w> 8531
通 用 8530
第十 一届</w> 8530
O rig 8529
容 量</w> 8529
斯 利</w> 8527
足 球队</w> 8525
日 后</w> 8524
利 害 8524
相互 依存</w> 8521
遵 照</w> 8520
顶 端</w> 8519
与 会</w> 8518
场 上</w> 8517
奥 利 8514
流 失</w> 8513
课 题</w> 8512
麦 凯恩</w> 8508
西 北</w> 8507
银 河</w> 8506
威廉 姆斯</w> 8503
凯 尔</w> 8502
补 救 8502
18 . 8502
冠 军 8501
仲 裁 8500
东 北</w> 8499
治 愈</w> 8497
同 盟</w> 8497
N BC</w> 8495
C re 8492
发 性</w> 8491
变 为</w> 8491
管理 者</w> 8491
陆 战队</w> 8489
身 材</w> 8486
兽 医</w> 8485
不可 分割</w> 8484
系统 性</w> 8482
村 民</w> 8481
多 元</w> 8480
背 叛</w> 8479
吸 取</w> 8479
综合 症</w> 8476
便 是</w> 8474
性 关系</w> 8473
匹 兹堡</w> 8473
作 法</w> 8471
软 件 8471
院 校</w> 8469
压倒 性</w> 8467
有 名</w> 8466
动 摇</w> 8466
智 力</w> 8465
Com m 8465
保 留 8462
急 性</w> 8462
最 具</w> 8461
公 私</w> 8459
事 后</w> 8458
益 处</w> 8457
An t 8456
为 本</w> 8449
St eph 8449
呼 吸 8447
镜 子</w> 8447
业 已</w> 8447
防 卫</w> 8446
坎 贝尔</w> 8443
改 动</w> 8443
多元 化</w> 8441
沙 拉</w> 8440
联合国 日内瓦 8440
空气 污染</w> 8440
联合国日内瓦 办事处</w> 8440
境 况</w> 8439
S E 8437
勋 章</w> 8435
地 名</w> 8433
西 尔</w> 8431
盖 尔</w> 8430
庭 长</w> 8430
月 亮</w> 8430
通 告</w> 8426
估 值</w> 8425
承 付</w> 8423
集 束</w> 8419
宝 宝</w> 8418
对 冲</w> 8418
刑 期</w> 8416
表 演 8414
缺 口</w> 8412
前 来</w> 8411
喷 气 8410
共产 主义</w> 8406
乔 治 8405
按 时</w> 8404
附 带</w> 8403
届 时</w> 8403
哈瓦 那</w> 8403
参 见</w> 8402
明尼苏 达州</w> 8401
拒 绝 8400
犹 他州</w> 8398
预算 编制</w> 8396
罗 斯 8395
ad i</w> 8395
受益 人</w> 8395
经 由</w> 8394
邓 肯</w> 8392
特 立 8392
怪 异</w> 8392
弗林 特</w> 8391
五 十 8388
饰 演</w> 8388
iv ers 8385
里 士 8383
追 溯</w> 8383
19 58</w> 8378
14 2</w> 8378
辩护 律师</w> 8377
质 量 8376
有 利 8374
为 例</w> 8373
少 于</w> 8371
g h 8369
营 业 8368
13 7</w> 8365
作 曲 8363
舆 论</w> 8363
语 法</w> 8363
塑 料 8363
Rub io</w> 8363
阿 拉</w> 8362
再 生</w> 8360
核 不 8357
cl ass 8357
尖 锐</w> 8355
核不 扩散</w> 8354
O l 8352
近几 个月</w> 8351
加 拉</w> 8349
善 良</w> 8349
万 计</w> 8348
潮 湿</w> 8347
新 娘</w> 8345
冈 比亚</w> 8342
严重 性</w> 8342
O s 8340
缓 和</w> 8338
推 定</w> 8337
ing ton</w> 8334
九 个</w> 8330
会议 组织</w> 8330
伊斯兰 会议组织</w> 8330
审 核</w> 8329
陷 入 8329
唱 歌</w> 8328
骨 头</w> 8326
弗 里 8322
图 形</w> 8322
训 研</w> 8322
译 成</w> 8320
以 供</w> 8319
猩 猩</w> 8319
冷 却</w> 8315
款 人</w> 8313
巡 回</w> 8312
红 十字</w> 8311
二 零零 8308
承担 责任</w> 8308
南 极</w> 8304
在此 期间</w> 8303
美 味</w> 8302
孕 产妇</w> 8302
发电 机</w> 8301
子 公司</w> 8300
守门 员</w> 8299
y d 8297
中 世纪</w> 8297
宝 贝</w> 8296
福 利 8296
甄 选</w> 8296
埃 德</w> 8295
一 侧</w> 8295
到 位</w> 8293
发表 声明</w> 8293
小 男孩</w> 8288
西 亚 8287
这 两项</w> 8287
克鲁 斯</w> 8287
主 帅</w> 8285
it a</w> 8285
款 额</w> 8284
IN F</w> 8284
罗伯 茨</w> 8284
交 货</w> 8281
都 柏林</w> 8279
血 统</w> 8279
热 点</w> 8278
债务 人</w> 8278
移 除</w> 8277
系列 赛</w> 8276
驾 车</w> 8272
雇佣 军</w> 8272
输 给</w> 8271
议会 选举</w> 8269
并非 如此</w> 8267
福 斯特</w> 8265
起 义</w> 8264
斯 卡</w> 8263
贝 鲁特</w> 8262
上 赛季</w> 8261
无 可 8261
第三 季度</w> 8261
调 解 8259
婚 姻 8256
Mart in</w> 8256
Orig inal</w> 8253
防 护</w> 8252
毁 坏</w> 8251
伊拉克 政府</w> 8250
关 岛</w> 8249
种族 隔离</w> 8249
新 建</w> 8246
Gr oup</w> 8245
宝 石</w> 8244
ad a</w> 8244
常 务 8243
宗教 信仰</w> 8243
补救 措施</w> 8243
托 尔</w> 8241
装 有</w> 8241
新闻 界</w> 8240
余 下</w> 8239
激 怒</w> 8238
施 加 8237
D ec 8237
放 映</w> 8237
K r 8236
传 统 8235
热 带 8234
兴 建</w> 8233
压 缩</w> 8233
传染 性</w> 8233
填 充</w> 8232
年 里</w> 8230
um b 8229
推 销</w> 8228
经营 者</w> 8228
信 徒</w> 8226
关 节</w> 8224
打 印</w> 8224
无 聊</w> 8223
纹 身</w> 8222
缴 付</w> 8222
独立 宣言</w> 8222
F in 8221
斡 旋</w> 8220
英 译 8219
有所 不同</w> 8219
视 角</w> 8218
暴 跌</w> 8218
16 2</w> 8218
弗 拉 8215
生 理</w> 8215
id e</w> 8213
作曲 家</w> 8212
托 斯</w> 8211
崇 拜</w> 8209
欲 望</w> 8209
混 淆</w> 8209
界 线</w> 8208
qu e</w> 8207
万 亿美元</w> 8204
敏 斯特</w> 8204
北 非</w> 8204
难 过</w> 8204
生产 能力</w> 8204
威斯 敏斯特</w> 8204
心 态</w> 8203
头 痛</w> 8202
强 行</w> 8201
最 少</w> 8201
13 9</w> 8201
蔑 视</w> 8199
十 六届</w> 8198
ar e</w> 8198
Kas ich</w> 8196
喜剧 演员</w> 8194
自由 贸易</w> 8193
16 6</w> 8192
独 裁 8187
中 方</w> 8187
极端 分子</w> 8186
过 剩</w> 8185
阿拉伯 国家联盟</w> 8184
若 干 8182
束 缚</w> 8182
高 盛</w> 8180
Ro c 8178
受益 者</w> 8178
车 祸</w> 8177
瑞 安</w> 8177
抑 郁症</w> 8176
筛 选</w> 8173
遗 忘</w> 8172
奶 油</w> 8172
上 课</w> 8171
传 媒</w> 8167
中央 政府</w> 8160
期 徒刑</w> 8159
战略 性</w> 8159
快 速 8158
温 柔</w> 8155
体育 运动</w> 8154
杀 戮</w> 8152
名 列</w> 8147
温 布 8146
弹 劾</w> 8146
Sh e 8144
贬 值</w> 8142
19 . 8142
压 迫</w> 8141
局 部</w> 8141
巨 大 8140
解 脱</w> 8140
直布罗 陀</w> 8138
M ill 8131
阳 台</w> 8131
私 人 8127
加 紧 8126
倒 退</w> 8126
大 纲</w> 8124
戈 兰</w> 8124
原 有</w> 8123
古 巴 8122
干 什么</w> 8122
开发 银行</w> 8121
限 制性</w> 8120
16 9</w> 8119
瑞 恩</w> 8117
完 工</w> 8115
3 .1</w> 8113
持 久 8111
族 群</w> 8108
歌 词</w> 8107
几 位</w> 8105
告 别</w> 8104
佛 教</w> 8101
保 障 8100
哺 乳 8100
加紧 努力</w> 8100
树 立</w> 8098
伯 爵</w> 8097
孙 子</w> 8096
开 启</w> 8096
悬 崖</w> 8096
尼 科 8095
务 实</w> 8093
各 省</w> 8093
游 艇</w> 8092
瓦 共和国</w> 8090
En glish</w> 8090
摩尔多 瓦共和国</w> 8090
感 动</w> 8089
W ood 8088
17 5</w> 8088
密 西西 8086
14 3</w> 8085
暂 定</w> 8084
第八 届</w> 8082
B el 8081
动 脉</w> 8081
驻 扎</w> 8077
上 衣</w> 8076
规 格</w> 8076
扶 持</w> 8076
耻 辱</w> 8075
数 十年</w> 8074
墓 地</w> 8072
所 称</w> 8069
借 助</w> 8069
进 出</w> 8068
着 眼 8068
会计 师</w> 8067
深 入 8065
男 朋友</w> 8065
五 分之一</w> 8064
眼 中</w> 8064
此 机会</w> 8064
几 名</w> 8062
朗 德</w> 8061
恶 意</w> 8060
声 援</w> 8059
竭 尽全力</w> 8058
于 本周</w> 8057
试 着</w> 8057
高 潮</w> 8055
放 入</w> 8055
14 4</w> 8055
监 护</w> 8051
均 等</w> 8049
意 想不到</w> 8049
惠 益</w> 8048
敌 意</w> 8046
K ir 8045
蜜 蜂</w> 8042
团 结 8042
瓦 特</w> 8041
第十 九条</w> 8041
l in</w> 8038
脚 步</w> 8036
雕 塑</w> 8036
电视 剧</w> 8036
血 腥</w> 8034
植 物 8033
气 旋</w> 8033
中 间 8032
麦 卡 8030
饼 干</w> 8030
S il 8028
A T</w> 8026
沙 尔</w> 8025
义 务 8024
s en</w> 8023
真 实 8022
迪 伦</w> 8020
S ol 8020
W G 8020
因 子</w> 8020
平均 水平</w> 8020
先 后</w> 8017
撒 谎</w> 8016
卓 越</w> 8014
宣 告</w> 8014
催 化 8014
上 调</w> 8013
固 醇</w> 8011
经济 合作 8011
阿拉伯 人</w> 8009
加 尔 8008
单 词</w> 8008
两 党</w> 8008
a b</w> 8006
3 5%</w> 8006
紫 色</w> 8006
氯 化</w> 8006
数以百 计</w> 8005
心理 学家</w> 8003
瓶 子</w> 8002
注 定</w> 8002
格兰 特</w> 8002
半 球</w> 7998
仅 限于</w> 7998
渔 民</w> 7995
领 地</w> 7994
称 呼</w> 7994
三 角</w> 7989
宣 誓</w> 7989
幕 后</w> 7988
麻醉 品</w> 7988
上 周末</w> 7987
侦 查</w> 7987
密歇 根州</w> 7987
把 握</w> 7985
表 达 7985
市 区</w> 7984
al a</w> 7982
现 时</w> 7980
晚 间</w> 7978
辆 车</w> 7978
利益 冲突</w> 7978
根 深 7977
门 槛</w> 7976
P .1</w> 7975
基 石</w> 7974
调 集</w> 7969
德 罗</w> 7966
深 远</w> 7965
州 政府</w> 7963
克 利</w> 7962
John son</w> 7962
法 国 7961
散 布</w> 7961
面 具</w> 7961
首 尔</w> 7961
冲 动</w> 7960
印度 洋</w> 7958
丹 尼斯</w> 7957
恐 龙</w> 7957
简 易</w> 7956
领 事</w> 7956
语 音</w> 7956
国 界</w> 7954
预 言</w> 7953
e x 7951
普 林 7951
卖 出</w> 7951
借 此机会</w> 7950
解 密</w> 7949
蒂 固</w> 7944
巴 萨</w> 7944
提供 商</w> 7944
合 理 7941
是 非</w> 7940
奥 委会</w> 7939
保护 措施</w> 7939
根深 蒂固</w> 7938
外 汇</w> 7937
分 组</w> 7937
M ay 7936
减 弱</w> 7936
勇 士</w> 7934
门 外</w> 7933
电 车</w> 7931
实 习</w> 7930
库 珀</w> 7929
房 舍</w> 7929
巧 妙</w> 7927
在 一起</w> 7926
件 事</w> 7926
第四 季度</w> 7926
A k 7925
兄弟 姐妹</w> 7924
功 率</w> 7923
宿 舍</w> 7921
南 美洲</w> 7920
猎 人</w> 7918
14 6</w> 7918
特 丹</w> 7917
同 胞</w> 7917
做 饭</w> 7917
所 罗 7914
尽量 减少</w> 7914
鹿 特丹</w> 7910
u el</w> 7908
一 九 7905
避 难 7903
评论 家</w> 7902
投 降</w> 7899
驱逐 出境</w> 7899
乐 意</w> 7898
文 档</w> 7897
再 见</w> 7895
环 球</w> 7894
牧 场</w> 7893
晚 会</w> 7893
N HS</w> 7892
棕 色</w> 7891
拖 车</w> 7890
工 具 7890
意 志 7889
修 道 7888
oc k 7887
海军 陆战队</w> 7886
丹 佛</w> 7883
观 者</w> 7882
沿 线</w> 7882
租 用</w> 7881
重大 进展</w> 7881
N ic 7880
驾驶 员</w> 7879
汲 取</w> 7878
韦 恩</w> 7876
方 程</w> 7873
14 7</w> 7871
占领 国</w> 7869
男 友</w> 7868
结 核 7866
持久 和平</w> 7865
索 托</w> 7864
Cr uz</w> 7864
一 任</w> 7863
尤 为</w> 7861
非 法 7861
皇 后</w> 7861
马 尼 7860
破 碎</w> 7857
19 40</w> 7856
雄心 勃勃</w> 7856
巴 马州</w> 7855
熟 练</w> 7855
南 北</w> 7853
稳 步</w> 7853
耳 机</w> 7852
闭 幕</w> 7850
13 %</w> 7850
北 京 7849
预 示</w> 7847
结果 显示</w> 7845
地 形</w> 7844
西 卡</w> 7843
调查 团</w> 7843
万 个</w> 7842
相 称</w> 7842
零 件</w> 7841
联 系 7841
在 职</w> 7837
15 4</w> 7837
痕 迹</w> 7835
借 贷</w> 7834
非 统 7833
非统 组织</w> 7833
贝 巴</w> 7832
此 处</w> 7832
联合国 人口 7832
经常 性</w> 7832
联合国人口 基金</w> 7832
遗 体</w> 7830
物 业</w> 7827
革 新</w> 7827
审 批</w> 7824
氧 化</w> 7822
琳 娜</w> 7821
五 次</w> 7820
自 主权</w> 7819
哥 华</w> 7816
Ro b 7816
温 哥华</w> 7815
特立 尼 7814
日 元</w> 7813
置 评</w> 7811
扣 除</w> 7811
裙 子</w> 7808
赌 注</w> 7808
2 35</w> 7807
礼 拜</w> 7807
小 丑</w> 7806
. .</w> 7803
发生 冲突</w> 7802
波 音</w> 7801
法 国人</w> 7799
十 三</w> 7798
走 路</w> 7798
象 征 7797
G old 7795
总 局</w> 7795
经 销商</w> 7794
夏 洛 7793
油 价格</w> 7791
塞 特</w> 7788
数 年</w> 7788
犯罪 活动</w> 7788
A BC</w> 7787
百 姓</w> 7787
受 审</w> 7786
股 票 7785
逮 捕 7784
特别 行政区</w> 7784
常 任 7783
爱国 者</w> 7783
on s</w> 7782
15 7</w> 7781
15 40</w> 7781
资金 来源</w> 7781
克里 斯蒂 7778
无 线</w> 7777
水 下</w> 7775
bur y</w> 7775
ell a</w> 7770
印第安 人</w> 7770
L ev 7769
约 定</w> 7768
伯 利</w> 7767
明 治</w> 7767
直 播</w> 7767
阿伯 丁</w> 7765
安 大 7762
鸿 沟</w> 7762
往 来</w> 7762
社 团</w> 7760
凯 西</w> 7759
每 当</w> 7759
地 向</w> 7758
ar s</w> 7756
S an</w> 7755
北 韩</w> 7755
吉 他</w> 7752
P ri 7750
西 装</w> 7749
清 醒</w> 7749
生殖 器</w> 7749
奥尔 良</w> 7747
通 知 7746
非 营利</w> 7746
濒 危</w> 7746
院 子</w> 7745
and er</w> 7745
肇 事 7744
累 计</w> 7744
英译 汉</w> 7743
手 套</w> 7741
去 除</w> 7741
勒 姆</w> 7740
水 泥</w> 7740
颁奖 典礼</w> 7739
大会 堂</w> 7738
亚 贝巴</w> 7736
偷 窃</w> 7736
杯 子</w> 7733
第十二 届</w> 7731
马 克斯</w> 7729
过 量</w> 7728
兵 役</w> 7726
技术 性</w> 7725
气 球</w> 7724
Sh ar 7724
身 心</w> 7723
远 地区</w> 7721
政 策 7717
候 选</w> 7717
派 驻</w> 7716
皇 家 7716
划 拨</w> 7716
大 陆 7715
不 行</w> 7714
土著 居民</w> 7712
带 回</w> 7711
怪 物</w> 7705
居 民 7704
不 利于</w> 7704
医 务人员</w> 7704
令人 遗憾</w> 7701
定居 者</w> 7701
遥 感</w> 7700
威 尼斯</w> 7698
隐 瞒</w> 7690
积极 分子</w> 7689
Mic h 7687
斯 亚贝巴</w> 7684
侦 察 7684
货币 基金</w> 7684
恐 怕</w> 7682
赦 免</w> 7682
Mor gan</w> 7682
自 我 7681
19 30</w> 7681
er y</w> 7681
第一 季度</w> 7681
纳 税</w> 7679
征 得</w> 7678
官 长</w> 7676
初 始</w> 7672
认 出</w> 7672
W P. 7667
休 斯</w> 7667
抽 出</w> 7667
十几 岁</w> 7667
第一 款</w> 7664
环 保 7663
现 金 7663
百 万美元</w> 7662
标 识</w> 7662
多巴 哥</w> 7662
冰 淇 7661
半 个</w> 7659
一般 来说</w> 7659
3. 5</w> 7658
不 合理</w> 7657
大气 层</w> 7657
一年 一度</w> 7656
奖 杯</w> 7655
架 飞机</w> 7654
地 方 7652
更 衣 7652
亚 的 7645
巴 西 7645
湖 人</w> 7645
境 地</w> 7645
竞 技 7644
课 堂</w> 7644
亚的 斯亚贝巴</w> 7644
方 济 7643
Un ivers 7642
资 料 7641
失 利</w> 7639
编 入</w> 7639
15 6</w> 7639
喷气 式</w> 7637
埃 弗 7636
K ell 7631
女 权 7631
部 位</w> 7631
g a</w> 7629
卡 尔 7628
总 收入</w> 7628
不 清</w> 7627
采 集</w> 7626
开 业</w> 7626
更衣 室</w> 7626
斯 蒂</w> 7624
沃 斯</w> 7624
斯坦 共和国</w> 7624
问 卷</w> 7622
身 高</w> 7622
道 格拉斯</w> 7621
调查 员</w> 7621
弯 曲</w> 7619
拘 押</w> 7619
新闻 报道</w> 7617
达 科 7614
翅 膀</w> 7609
E ri 7608
使 人</w> 7608
侧 重</w> 7605
a z</w> 7604
钱 包</w> 7603
维 基</w> 7602
新 政府</w> 7599
冰淇 淋</w> 7599
一 流</w> 7596
极 限</w> 7595
挫 败</w> 7593
持 有人</w> 7590
炸 机</w> 7590
出 人 7588
独立 国家</w> 7588
w or 7587
Fran c 7587
国 土</w> 7586
单 个</w> 7585
奋 斗</w> 7585
不 去</w> 7584
文 学 7583
无 权</w> 7583
全国 代表大会</w> 7582
移动 电话</w> 7582
乔 恩</w> 7581
炫 耀</w> 7581
开 辟</w> 7580
内 斯</w> 7579
创 办</w> 7578
着眼 于</w> 7578
结 核</w> 7576
人 称</w> 7574
轰 炸机</w> 7574
占 用</w> 7573
行 道</w> 7573
警 长</w> 7573
狂 欢</w> 7572
an ce</w> 7572
外 出</w> 7570
闯 入</w> 7570
强 加</w> 7569
控 告</w> 7568
M ag 7565
互 助</w> 7564
瑞 典 7561
一 世</w> 7560
主 演</w> 7558
多 方</w> 7556
塞 夫</w> 7556
晚 期</w> 7556
勋 爵</w> 7556
增 幅</w> 7553
空 调</w> 7552
化 妆 7550
宴 会</w> 7547
分之 三</w> 7547
19 46</w> 7546
垂 直</w> 7545
甲 板</w> 7544
处 长</w> 7543
交通 工具</w> 7543
DV D</w> 7543
富 兰 7535
劫 持</w> 7533
居 留</w> 7530
es a</w> 7528
民 政</w> 7527
事务 司</w> 7527
四 分之三</w> 7526
r on</w> 7525
交 出</w> 7523
肇事 者</w> 7523
3. 2</w> 7522
整 套</w> 7517
Thom as</w> 7517
O p 7515
日 志</w> 7513
一 阵</w> 7513
科 维奇</w> 7512
比 特</w> 7510
例 行</w> 7510
克里斯托 弗</w> 7509
特 有</w> 7508
上 尉</w> 7508
迁 徙</w> 7508
及 农业 7507
五 月</w> 7507
联合国 粮食 7507
及农业 组织</w> 7507
联合国粮食 及农业组织</w> 7507
特 拉</w> 7506
彻 底 7503
粉 色</w> 7503
东 区</w> 7501
缩 减</w> 7499
缔 约</w> 7498
M et 7495
巴 沙尔</w> 7493
珊 瑚 7493
佩 尔</w> 7492
路易斯 安 7491
oc i 7490
Bro w 7490
正 常 7489
os s 7488
ett e</w> 7488
结 尾</w> 7486
戈 尔</w> 7484
H ay 7482
P V 7482
何 塞</w> 7482
放 心</w> 7480
用 餐</w> 7479
接 口</w> 7478
书 记 7475
才 华</w> 7473
订 阅</w> 7473
宽 带</w> 7471
3 20</w> 7469
夜 总会</w> 7469
并 入</w> 7469
富兰 克林</w> 7469
传 给</w> 7468
号 法</w> 7466
戴 尔</w> 7463
准 确性</w> 7462
出 示</w> 7461
结核 病</w> 7461
H al 7459
H ol 7459
交 道</w> 7459
口 气</w> 7458
基 线</w> 7457
第五十 四届</w> 7457
15 1</w> 7456
围 墙</w> 7455
生命 权</w> 7455
商 会</w> 7452
官 方 7452
奥 克兰</w> 7451
褐 色</w> 7451
卡 罗</w> 7450
en z 7449
上 瘾</w> 7445
尼古 拉斯</w> 7445
y st 7444
环境 影响</w> 7442
奈 尔</w> 7440
车 上</w> 7440
15 2</w> 7438
Dist r</w> 7438
金 伯利</w> 7436
射 线</w> 7436
内政 部长</w> 7436
卡 森</w> 7434
景 象</w> 7433
攻 势</w> 7432
诺 夫</w> 7431
加 的 7431
修道 院</w> 7431
无 知</w> 7430
渥 太 7430
E M 7429
特 鲁 7429
上 周日</w> 7429
索 取</w> 7427
萧 条</w> 7424
蓝 军</w> 7420
中 为</w> 7419
塞 州</w> 7418
联 苏</w> 7418
贪 婪</w> 7416
圣 地</w> 7415
刑事 犯罪</w> 7415
供 给</w> 7414
做 过</w> 7413
威斯康 星 7412
核 心 7409
界 面</w> 7409
兔 子</w> 7408
减 灾</w> 7407
高 风险</w> 7406
海 运</w> 7406
经 社</w> 7406
统 治 7406
渥太 华</w> 7406
医 务</w> 7404
16 5</w> 7404
媒体 报道</w> 7403
密切 相关</w> 7401
竞争 性</w> 7400
阿 什</w> 7399
充分 考虑</w> 7399
老 兵</w> 7398
飙 升</w> 7396
6 000</w> 7395
仆 人</w> 7393
操作 系统</w> 7393
幼儿 园</w> 7393
布赖 恩</w> 7392
S ub 7391
意 味</w> 7391
轮 椅</w> 7389
领导 者</w> 7389
曝 光</w> 7388
丽 丝</w> 7386
周 边</w> 7383
Car l 7383
山 姆</w> 7380
图 片 7380
实 用 7380
丑 陋</w> 7380
14 9</w> 7380
1 1%</w> 7379
烧 伤</w> 7379
冲 浪</w> 7378
ul t 7378
妇女 组织</w> 7377
想 过</w> 7376
生产 性</w> 7376
害 人</w> 7373
半 小时</w> 7372
焚 烧</w> 7372
永 恒</w> 7371
立 方 7371
次 要</w> 7371
er o</w> 7370
而 成</w> 7368
教 士</w> 7364
S ou 7358
原 型</w> 7357
莎 拉</w> 7356
回 事</w> 7355
牲 畜</w> 7355
对 称</w> 7354
方济 各</w> 7351
I v 7349
通知 书</w> 7349
波 恩</w> 7348
普遍 认为</w> 7348
哈 兹</w> 7347
运 载</w> 7345
保持 一致</w> 7345
妓 女</w> 7344
行 者</w> 7342
继承 人</w> 7342
兰 州</w> 7341
珍 妮</w> 7341
A f 7339
总 计</w> 7339
欺 凌</w> 7339
公 会</w> 7337
首 位</w> 7336
Ab u</w> 7336
斯 诺</w> 7335
在 世界 7333
反 思</w> 7333
在世界 上</w> 7333
布雷 顿</w> 7332
中 欧</w> 7331
导 向</w> 7330
19 59</w> 7328
St e 7328
奥 拉</w> 7327
二 十年</w> 7326
平 常</w> 7323
睡 着</w> 7323
公 职</w> 7322
B O</w> 7320
夹 克</w> 7320
A p 7319
失 调</w> 7319
爱 好</w> 7319
拘 禁</w> 7319
14 8</w> 7319
有 效率</w> 7318
间 隔</w> 7318
收 藏 7317
副 作用</w> 7315
教育 权</w> 7315
调查 表</w> 7313
北 欧</w> 7312
瑙 鲁</w> 7311
高 效率</w> 7310
广 阔</w> 7306
减 税</w> 7305
15 8</w> 7305
同 情 7304
获 胜者</w> 7304
迪 亚</w> 7303
注 明</w> 7303
严格 遵守</w> 7303
资 讯 7301
最 坏</w> 7299
希 德</w> 7298
ur a</w> 7298
渐 渐</w> 7297
第 一份</w> 7296
戴 着</w> 7295
出 席会议</w> 7295
oo m 7295
价格 上涨</w> 7295
民 调</w> 7294
眼 前</w> 7294
市场 经济</w> 7294
兴 起</w> 7293
化学 物质</w> 7293
桌 上</w> 7292
竞技 场</w> 7292
米 特</w> 7291
出 资</w> 7291
评 为</w> 7290
脾 气</w> 7290
滚 动</w> 7289
付 给</w> 7288
三 方</w> 7287
2 80</w> 7286
继 任 7286
下 雨</w> 7284
两 只</w> 7282
i ri 7280
伊 德</w> 7279
理 工 7278
马萨诸 塞州</w> 7278
芭 蕾 7277
骗 子</w> 7277
污 水</w> 7277
科罗拉 多 7277
附 注</w> 7276
一 向</w> 7272
酋 长</w> 7272
九 月</w> 7271
强制 执行</w> 7270
安全 措施</w> 7269
偏 远</w> 7268
公 用 7267
G B</w> 7266
无 限期</w> 7263
K al 7262
反 射</w> 7262
均 匀</w> 7261
纺 织 7259
停 滞</w> 7258
创造 力</w> 7257
第三 章</w> 7256
稍 微</w> 7255
l d</w> 7254
别 墅</w> 7254
户 外</w> 7254
教 导</w> 7254
懂 得</w> 7254
痴 呆</w> 7253
监督 机构</w> 7253
博 特</w> 7249
man n</w> 7249
盖 茨</w> 7248
疏 忽</w> 7248
两 大</w> 7247
特别 法庭</w> 7247
牛 顿</w> 7246
顶 峰</w> 7246
贯 彻</w> 7244
ir a</w> 7243
银 行业</w> 7241
G C</w> 7240
民族 和解</w> 7240
换 成</w> 7236
加 迪 7235
打 球</w> 7234
坠 机</w> 7234
艾 利斯</w> 7231
南斯拉 夫 7228
高 昂</w> 7227
相 似 7226
不足 道</w> 7224
c a</w> 7223
生 动</w> 7223
熊 猫</w> 7220
阿拉 斯加</w> 7219
附 有</w> 7218
德 福</w> 7215
I X</w> 7215
湖 区</w> 7215
平 原</w> 7214
王 朝</w> 7212
都 会</w> 7211
市 政府</w> 7208
i x</w> 7205
各项 规定</w> 7203
摇滚 乐</w> 7203
加的 夫</w> 7203
保 养</w> 7202
军 备 7201
第十 条</w> 7200
误 差</w> 7198
量 级</w> 7197
16 1</w> 7197
一致 意见</w> 7196
一 股</w> 7194
从 业 7194
胀 率</w> 7194
军备 竞赛</w> 7194
外 国 7193
短 语</w> 7193
19 56</w> 7191
st er</w> 7191
美国 国会</w> 7190
C C</w> 7189
佩 雷斯</w> 7188
继续 下去</w> 7187
主管 机构</w> 7186
对 照</w> 7185
病 情</w> 7185
应 得</w> 7184
致 电</w> 7184
不 在乎</w> 7184
卡 洛斯</w> 7183
赛 因</w> 7183
微 不足道</w> 7183
避难 所</w> 7183
购物 中心</w> 7182
千 万</w> 7181
注 销</w> 7181
14 %</w> 7180
天文 台</w> 7180
格 森</w> 7178
数十 亿美元</w> 7178
特立尼 达 7178
D E 7177
G i 7176
废 料</w> 7174
评 分</w> 7173
停 火 7173
徘 徊</w> 7173
ro id</w> 7171
管 局</w> 7170
第四 个</w> 7166
罗 伯</w> 7165
油 漆</w> 7165
即 时</w> 7165
O liv 7164
六 月</w> 7162
善 意</w> 7162
放 大</w> 7162
检察 院</w> 7162
反对 者</w> 7162
收 缩</w> 7161
种 植 7160
G A</w> 7159
增 效</w> 7159
述 及</w> 7158
估 价</w> 7158
舍 尔</w> 7157
崇 高</w> 7157
友 善</w> 7157
融 化</w> 7157
业 界</w> 7156
朱 利 7155
该 次</w> 7155
侵 略 7155
罗 伊</w> 7154
流 浪 7152
侯 赛因</w> 7151
呼 叫</w> 7151
小 岛</w> 7150
太 大</w> 7150
出人 意料</w> 7150
分 配 7148
制 备</w> 7148
多 方面</w> 7144
L ou 7143
T el 7142
杰 斯</w> 7140
东 南</w> 7139
修 订 7139
侵 权 7138
罗 宾</w> 7137
2 25</w> 7137
养 育</w> 7137
度 假 7136
评 审</w> 7135
天文 学家</w> 7135
莉 亚</w> 7132
大 片</w> 7130
承 运人</w> 7130
珊 瑚</w> 7130
基 尼</w> 7129
商品 价格</w> 7129
兑 换</w> 7125
航天 器</w> 7122
对 峙</w> 7121
背 包</w> 7120
世界 冠军</w> 7120
一 期</w> 7118
医 师</w> 7118
罗 姆</w> 7117
和 多巴哥</w> 7114
歌 剧</w> 7114
特立尼达 和多巴哥</w> 7114
卡罗 尔</w> 7113
遵 约</w> 7111
航 线</w> 7110
ic t 7107
简 历</w> 7106
恶 魔</w> 7106
投票 权</w> 7104
20 1</w> 7103
19 47</w> 7103
w ay</w> 7099
公 司 7099
盖 蒂</w> 7098
南 海</w> 7098
莱 索托</w> 7097
19 54</w> 7096
电话 号码</w> 7094
结 算</w> 7092
ak e</w> 7092
v er 7091
学 徒</w> 7091
通 向</w> 7089
奥 会</w> 7089
先 驱</w> 7089
亚 洲 7087
应 是</w> 7087
代 谢</w> 7086
走 开</w> 7086
uc k 7086
戴 维 7085
谣 言</w> 7085
is on</w> 7085
附 表</w> 7083
概 括</w> 7083
珠 宝</w> 7082
三 明治</w> 7081
对 本</w> 7081
医 学院</w> 7080
寡 妇</w> 7075
哈 马斯</w> 7072
莱 纳</w> 7072
珍 贵</w> 7072
赞 助 7072
d en</w> 7071
l ine</w> 7070
可 信 7070
你 好</w> 7069
以 使</w> 7068
沃 森</w> 7067
自 闭 7067
骨 骼</w> 7066
工作 日</w> 7066
格 莱 7065
圣 保罗</w> 7065
自闭 症</w> 7064
托 人</w> 7063
死 于</w> 7063
印 机</w> 7063
V I</w> 7062
Geor ge</w> 7061
U K 7060
纽约 州</w> 7058
阿布 哈兹</w> 7057
氛 围</w> 7056
利 用 7054
和 政</w> 7054
萎 缩</w> 7053
仿 真</w> 7053
广播 电台</w> 7052
2. 3</w> 7051
et s</w> 7050
地下 室</w> 7050
Ju li 7049
之 二</w> 7047
后 备</w> 7046
克莱 尔</w> 7046
被 告 7045
时 髦</w> 7044
外 汇 7044
开 除</w> 7043
密 封</w> 7042
笔 记</w> 7042
继任 者</w> 7041
民主 化</w> 7039
迪 斯</w> 7038
珊瑚 礁</w> 7037
暴 雨</w> 7036
升 起</w> 7034
4 5%</w> 7032
救 出</w> 7032
特 曼</w> 7031
it al</w> 7031
承 办</w> 7030
H a 7028
蝙 蝠 7028
身 穿</w> 7025
拜 登</w> 7024
偷 走</w> 7024
股 息</w> 7023
西班牙 文</w> 7023
措 词</w> 7022
奥 兰 7021
传 染</w> 7021
P o 7020
渔 船</w> 7020
流 血</w> 7020
商 界</w> 7019
从 此</w> 7018
三 维</w> 7015
u p 7015
导 者</w> 7014
变 形</w> 7013
避 难</w> 7012
里士 满</w> 7011
打 交道</w> 7010
低 下</w> 7010
武装 力量</w> 7010
预 审</w> 7009
运动 场</w> 7009
B us 7006
G C. 7004
行政 长官</w> 7004
ust in</w> 7004
斯 旺 7002
溯 到</w> 7002
美术 馆</w> 7002
卢 克</w> 7001
四 场</w> 7001
L E 7000
基 州</w> 6999
兼 职</w> 6999
否 是</w> 6999
S S</w> 6997
蝙蝠 侠</w> 6997
T A</w> 6995
小 麦</w> 6995
比 作</w> 6995
假 释</w> 6994
是 否是</w> 6994
求 助</w> 6993
it ed</w> 6993
联合 行动</w> 6992
el le</w> 6991
加 利</w> 6988
营 运</w> 6988
致 力</w> 6988
汇 集</w> 6988
适 应 6987
法 学</w> 6983
om e</w> 6982
皮 埃尔</w> 6981
沿 海地区</w> 6980
T ed</w> 6979
当 晚</w> 6979
出 血</w> 6979
转 身</w> 6979
可 乐</w> 6978
黄 油</w> 6978
听 力</w> 6975
九 年</w> 6974
尼克 松</w> 6974
扣 留</w> 6973
攻击 性</w> 6973
国际 贸易 6972
射 手</w> 6971
伯 里</w> 6970
来 临</w> 6969
And roid</w> 6968
肯塔 基州</w> 6968
小 偷</w> 6966
附 加 6966
w ard</w> 6963
国 有 6963
巴 拉克</w> 6963
照 明</w> 6962
写 信 6962
有 形</w> 6961
高度 重视</w> 6961
加迪 沙</w> 6961
法 斯特</w> 6960
评 委</w> 6960
贝尔 法斯特</w> 6960
领 带</w> 6959
大 都会</w> 6958
真 空</w> 6956
祷 告</w> 6956
第十 三届</w> 6956
罗 宾 6954
之 友</w> 6954
发 票</w> 6951
产 值</w> 6950
届 满</w> 6949
不 时</w> 6948
常任 理事</w> 6948
肉 类</w> 6947
M as 6946
区域 间</w> 6945
鲁 斯</w> 6943
发生 变化</w> 6943
杰 西卡</w> 6942
创 新 6942
军 用</w> 6941
糖 果</w> 6941
手 持</w> 6940
更 是</w> 6939
而 定</w> 6939
O C</w> 6938
克 制</w> 6938
集 体 6938
SN P</w> 6938
冰 川</w> 6937
h i</w> 6936
sk y</w> 6936
l a 6935
t r 6935
卫生 间</w> 6935
叶 子</w> 6934
总 人口</w> 6931
飞 船</w> 6930
渗 透</w> 6929
弗朗 西斯</w> 6929
机 会 6928
人 行道</w> 6928
R A 6927
难 忘</w> 6927
st on</w> 6926
施加 压力</w> 6924
撤 退</w> 6921
信 服</w> 6920
雨 量</w> 6919
橡 胶</w> 6919
交 存</w> 6919
人 能</w> 6918
多 数 6917
部长 会议</w> 6916
特里 萨</w> 6915
归 者</w> 6914
每 场</w> 6913
就 读</w> 6913
感 恩 6912
以色列 政府</w> 6912
保持 沉默</w> 6910
新 奥尔良</w> 6909
魔 鬼</w> 6908
辩 解</w> 6906
免 税</w> 6906
尼 派</w> 6905
相 连</w> 6905
不 能 6905
第二 年</w> 6905
摩 加迪沙</w> 6904
努力 实现</w> 6903
开 展 6902
葡萄 牙 6902
必要 条件</w> 6902
深 处</w> 6900
专 栏</w> 6898
无家可 归者</w> 6898
Am er 6897
科罗拉多 州</w> 6896
公 安 6894
召 唤</w> 6894
en e</w> 6894
帕 尔 6893
司 令</w> 6892
爵 士 6890
犯罪 者</w> 6890
西 海岸</w> 6889
虫 剂</w> 6889
18 5</w> 6888
T or 6886
G ri 6886
运 载 6886
地 球 6885
充满 活力</w> 6884
因 于</w> 6882
教 材</w> 6882
犹 豫</w> 6881
J an 6880
远 处</w> 6880
牛 津 6879
这 辆</w> 6879
不 定</w> 6878
日 刊</w> 6877
d o</w> 6877
极 为重要</w> 6877
3 3 6876
差 旅</w> 6876
网络 安全</w> 6875
W G</w> 6874
期 货</w> 6874
停 职</w> 6874
of f</w> 6874
莫 里森</w> 6872
辞 去</w> 6872
西 蒙 6870
陌 生</w> 6869
中 西部</w> 6868
以 内</w> 6868
电 气</w> 6866
塔 尼亚 6864
倡 导者</w> 6862
劳动 法</w> 6862
威斯康星 州</w> 6862
贯 穿</w> 6861
合 金</w> 6860
取 缔</w> 6858
逊 尼派</w> 6857
世界 粮食 6857
世界粮食 计划署</w> 6857
向 上</w> 6856
美 奖</w> 6856
潜 水</w> 6855
矿 工</w> 6855
棍 球</w> 6855
沃 尔</w> 6852
不 动产</w> 6852
体 操</w> 6852
事实 证明</w> 6852
振 动</w> 6849
乔 希</w> 6848
脑 震荡</w> 6848
2 500</w> 6847
里 亚 6847
赋 权</w> 6847
通 行</w> 6846
巨 额</w> 6846
侵权 行为</w> 6845
写信 给</w> 6845
感恩 节</w> 6844
答 辩</w> 6843
介 绍 6842
好 转</w> 6841
含 水 6840
o x 6839
扶 贫</w> 6839
佛 得 6837
发表 意见</w> 6831
电 流</w> 6830
第六十 六</w> 6830
as e</w> 6826
爱德 华 6826
处理 器</w> 6826
效 忠</w> 6825
几 百 6823
大 自然</w> 6821
高 温</w> 6821
受到 限制</w> 6821
被 害人</w> 6819
详细 资料</w> 6819
15 9</w> 6818
表 述</w> 6817
卫 者</w> 6816
相 成</w> 6815
直 接 6815
发言 稿</w> 6815
17 %</w> 6813
平等 权利</w> 6813
殖民 主义</w> 6812
过 滤</w> 6810
20 8</w> 6810
贵 国</w> 6809
叙利亚 人</w> 6809
归 类</w> 6805
电 动 6804
报 名</w> 6804
追 溯到</w> 6802
哈 蒙德</w> 6801
近 来</w> 6801
积 分</w> 6801
Dan iel</w> 6801
C ro 6800
风 力</w> 6799
对 联</w> 6798
相 辅 6797
联 委会</w> 6797
外 长</w> 6796
患 病</w> 6796
社会 保险</w> 6795
检 方</w> 6794
3 70</w> 6793
调 用</w> 6793
伦 理</w> 6792
相辅 相成</w> 6791
一 代人</w> 6790
老 化</w> 6790
荷 兰 6790
仅 为</w> 6789
可 笑</w> 6788
大 海</w> 6786
精 度</w> 6783
大 家庭</w> 6782
放 进</w> 6781
租 户</w> 6780
平 稳</w> 6779
吹 嘘</w> 6778
医 药</w> 6778
曲 棍球</w> 6777
型 号</w> 6777
实 话</w> 6777
应 收款</w> 6775
科罗拉 多</w> 6775
控制 系统</w> 6773
肠 道</w> 6771
站 点</w> 6770
协商 会议</w> 6770
上 半场</w> 6769
离 岸</w> 6769
e i</w> 6765
消费 量</w> 6764
山 谷</w> 6762
大 奖 6758
夸 大</w> 6758
电 信 6757
第一 场</w> 6757
法 学院</w> 6755
多边 贸易</w> 6753
现 况</w> 6752
Ros e</w> 6752
击 手</w> 6751
海 里</w> 6749
19 2</w> 6748
市政 厅</w> 6745
读 书</w> 6744
一 节</w> 6743
大奖 赛</w> 6741
休 息 6737
索 尼</w> 6736
恐怖 组织</w> 6735
土 豆</w> 6734
弗 格森</w> 6733
次 于</w> 6733
Mat th 6732
c ol 6731
复 合</w> 6731
莫 斯</w> 6730
亲 王</w> 6730
ik a</w> 6725
K im</w> 6724
星 际</w> 6724
小 费</w> 6723
教科 书</w> 6723
德 尔 6722
出 入</w> 6722
不 管 6722
处 死刑</w> 6722
分 支 6721
姿 势</w> 6721
19 55</w> 6719
骗 局</w> 6718
16 7</w> 6718
公 职人员</w> 6716
哈 德</w> 6715
商业 银行</w> 6715
侧 面</w> 6714
I A</w> 6713
H um 6711
水 手</w> 6710
I B 6708
陷 阱</w> 6708
建 立 6704
没 事</w> 6701
欧洲 议会</w> 6701
L A 6700
波 罗 6700
惩 戒</w> 6700
文 盲</w> 6699
社 区 6697
A . 6696
不 知 6695
影 像</w> 6692
流 向</w> 6692
i i</w> 6691
多 尼亚</w> 6685
油 田</w> 6685
选 中</w> 6685
借 款</w> 6684
粉 碎</w> 6683
防 空</w> 6683
时 应</w> 6681
内 塔尼亚 6680
新 一代</w> 6680
奏 效</w> 6680
内塔尼亚 胡</w> 6680
吸 入</w> 6677
梵 蒂 6677
性 健康</w> 6676
被 动</w> 6675
19 9</w> 6674
库 斯</w> 6673
传 来</w> 6673
联 盟 6672
19 57</w> 6672
el a</w> 6672
d ie</w> 6671
和平 部队</w> 6671
固 体</w> 6670
e h 6669
稍 后</w> 6669
中 以</w> 6668
欧洲 央行</w> 6667
三 场</w> 6665
斯 通</w> 6665
四 月</w> 6664
合 同 6663
出版 商</w> 6663
w ell</w> 6662
非 裔</w> 6662
获 利</w> 6661
握 手</w> 6660
龄 化</w> 6659
分支 机构</w> 6659
鼓 掌</w> 6658
2 51</w> 6657
上 方</w> 6657
预 料</w> 6657
十字 架</w> 6656
搅 拌</w> 6655
长 的</w> 6652
悠 久</w> 6652
D un 6651
第二十 三届</w> 6651
H an 6650
航 运</w> 6650
裁 撤</w> 6650
审 慎</w> 6650
内 向</w> 6647
共 鸣</w> 6645
5 50</w> 6643
家 务</w> 6642
葡 萄</w> 6642
为 时 6642
薪 资</w> 6639
这 点</w> 6639
德 意志 6638
职 者</w> 6637
专业 人士</w> 6636
裸 体</w> 6634
下 届</w> 6633
19 52</w> 6633
老 龄化</w> 6632
书记 官</w> 6632
P i 6631
奉 行</w> 6629
社会 工作者</w> 6627
洛 佩 6623
山 上</w> 6623
八 月</w> 6622
转 而</w> 6622
海 平面</w> 6621
众 议员</w> 6621
激 活</w> 6620
忙 碌</w> 6619
C. 4</w> 6619
50 000</w> 6619
D F</w> 6618
k in</w> 6616
二 苯 6616
空 中 6616
臀 部</w> 6613
宗教 自由</w> 6613
千 克</w> 6611
M y 6610
科 伊</w> 6610
波 特兰</w> 6610
摇 滚</w> 6608
et a</w> 6608
t er 6607
天 生</w> 6607
这 段</w> 6604
党 员</w> 6603
ig ht</w> 6603
Com p 6603
奔 跑</w> 6602
爱 国</w> 6600
表示 遗憾</w> 6600
抵 御</w> 6599
路 边</w> 6598
一 并</w> 6598
重 型</w> 6598
合理 化</w> 6598
京 群岛</w> 6597
还 给</w> 6597
生育 率</w> 6597
湖 泊</w> 6596
T om</w> 6595
氧 气</w> 6595
国际 足联</w> 6595
兵 力</w> 6591
应 力</w> 6590
存 货</w> 6589
战 机</w> 6588
所 定</w> 6588
共 用</w> 6588
抽 象</w> 6587
am p 6586
4. 5</w> 6586
P re 6585
研究 院</w> 6585
资讯 科技</w> 6585
诺 曼</w> 6584
动 植物</w> 6582
充 电</w> 6582
第二十 届</w> 6582
伯 顿</w> 6581
4 .1</w> 6581
随 之</w> 6581
撤 消</w> 6581
E N 6580
g ers</w> 6580
安 吉 6578
顶 尖</w> 6578
交 战</w> 6577
首 府</w> 6576
斯 皮 6574
光 灯</w> 6573
饮 水</w> 6573
2 13</w> 6572
哈 佛</w> 6571
产 地</w> 6570
图 斯</w> 6569
棉 花</w> 6568
环境 卫生</w> 6567
第八 条</w> 6566
Willi am</w> 6564
平 线</w> 6563
仿 佛</w> 6562
飞 离</w> 6561
直 觉</w> 6561
所 起</w> 6561
哈 尔</w> 6560
L or 6560
该 处</w> 6560
库尔德 人</w> 6559
战略 方针</w> 6558
购 买 6557
波 罗</w> 6554
强 奸 6552
语 言 6552
阿 尔</w> 6551
克 斯坦共和国</w> 6550
女 工</w> 6550
底 线</w> 6550
H en 6549
首 选</w> 6549
药物 滥用</w> 6546
承包 者</w> 6545
潮 流</w> 6543
T ar 6542
C an 6541
乐 器</w> 6541
合 办</w> 6541
负 债 6540
改 建</w> 6539
装 满</w> 6539
基 文</w> 6537
筹备 会议</w> 6536
刹 车</w> 6535
精 灵</w> 6534
哀 悼</w> 6534
St re 6534
有所 改善</w> 6533
幽 灵</w> 6532
可 取</w> 6531
嘴 唇</w> 6531
申请 者</w> 6531
未 成年</w> 6529
执行 机构</w> 6529
牛津 大学</w> 6529
18 %</w> 6528
16 4</w> 6528
蓬 勃 6527
减 至</w> 6527
专业 知识</w> 6527
重 力</w> 6526
判 处死刑</w> 6526
4. 2</w> 6525
便利 化</w> 6525
携 手</w> 6524
地下 水</w> 6524
袋 子</w> 6522
尺 度</w> 6522
制 度 6522
遗 弃</w> 6520
从 根本 6520
腹 部</w> 6520
从根本 上</w> 6520
平 壤</w> 6519
何 处</w> 6518
教 员</w> 6517
20 30</w> 6517
N ational</w> 6515
甜 蜜</w> 6515
维尔 京群岛</w> 6515
潘 基文</w> 6514
精 心</w> 6513
技术 人员</w> 6513
炎 热</w> 6511
C oo 6510
a p</w> 6510
而 战</w> 6510
景 点</w> 6509
am e</w> 6509
人 造</w> 6508
姆 森</w> 6506
广 义</w> 6506
西 南部</w> 6506
P S 6505
连 锁</w> 6504
战略 规划</w> 6504
日本 政府</w> 6504
下 车</w> 6503
昆士 兰州</w> 6503
西 区</w> 6502
口 径</w> 6502
煤 矿</w> 6502
停 顿</w> 6502
Ro ber 6502
不 符</w> 6501
好 友</w> 6500
关键 因素</w> 6500
培训 中心</w> 6500
连 锁 6498
出 局</w> 6498
佛得 角</w> 6498
H u 6496
钢 铁 6495
者 之间</w> 6495
铲 除</w> 6494
喀 里 6493
m e</w> 6492
矩 阵</w> 6492
管理 部</w> 6491
二苯 醚</w> 6491
庄 严</w> 6490
财 产 6490
喀里 多尼亚</w> 6490
3 D</w> 6488
制 定 6488
硅 谷</w> 6488
m er</w> 6487
光 谱</w> 6487
金 属 6487
9 5%</w> 6486
发展 部</w> 6486
译 员</w> 6485
空 军 6484
残 骸</w> 6484
物 理学</w> 6482
不 论 6482
传 单</w> 6481
Le e</w> 6481
A y 6477
A z 6477
改 良</w> 6477
装 修</w> 6475
I b 6474
新 英格兰</w> 6474
阿 鲁 6471
雄 心</w> 6471
精 致</w> 6470
M S</w> 6469
起 床</w> 6469
统计 资料</w> 6468
里 格斯</w> 6466
蓬勃 发展</w> 6466
刺 伤</w> 6463
节 余</w> 6463
国家 统计局</w> 6463
不 上</w> 6462
终 点</w> 6460
盆 地</w> 6457
内 尔</w> 6456
北 极 6455
旗 下</w> 6454
f t</w> 6453
两 条</w> 6453
紧 紧</w> 6453
分 项</w> 6451
保 人</w> 6450
第十二 条</w> 6450
L isa</w> 6449
电 讯</w> 6449
牌 照</w> 6449
老 挝 6448
介 意</w> 6445
翻 修</w> 6445
催化 剂</w> 6445
斯托 克</w> 6443
尾 巴</w> 6440
然 不同</w> 6440
_ _ 6440
凯 尔特</w> 6439
首 个</w> 6439
猛 虎</w> 6438
资 企业</w> 6437
紧 要</w> 6437
土地 利用</w> 6437
不 相同</w> 6436
E SP 6435
见 过</w> 6435
余 留</w> 6434
一 行</w> 6434
研究 者</w> 6434
ation s</w> 6433
消耗 性</w> 6433
老 挝</w> 6432
人民 代表大会</w> 6431
通 行 6430
西 汉姆</w> 6430
仅 次于</w> 6430
布 林 6429
摩 罗</w> 6427
长 长的</w> 6424
一无 所知</w> 6424
拉 夫</w> 6423
官 僚</w> 6423
阿拉 巴马州</w> 6423
大陆 架</w> 6423
成 像</w> 6422
上 将</w> 6422
综 述</w> 6422
6 50</w> 6421
工作 岗位</w> 6421
疗 效</w> 6420
燃 油</w> 6420
司法 程序</w> 6420
C P</w> 6419
d er 6417
ra h 6417
S B</w> 6415
奢 侈</w> 6415
深 夜</w> 6414
暴风 雨</w> 6412
卖 掉</w> 6411
护 送</w> 6411
军 团</w> 6410
8 000</w> 6409
加勒比 海</w> 6407
培 育</w> 6406
16 3</w> 6404
失 控</w> 6403
热 衷 6402
Pl ay 6400
T im</w> 6399
差 额</w> 6399
ann a</w> 6399
雨 水</w> 6398
核 对</w> 6398
斯 马 6396
原 件</w> 6396
制 剂</w> 6396
第二 项</w> 6396
p ro 6395
脑 海</w> 6395
g h</w> 6390
17 2</w> 6388
击 队</w> 6386
CO P. 6386
增 大</w> 6385
处 分</w> 6385
香 蕉</w> 6382
财 力</w> 6382
显 示 6382
b or 6379
傲 慢</w> 6379
活动 分子</w> 6379
波罗 的 6379
Sc ott</w> 6378
战略 目标</w> 6377
老挝 人民 6377
波 尔</w> 6376
门 户</w> 6376
A pp 6375
田 径</w> 6375
热衷 于</w> 6375
致 函</w> 6374
装 甲 6374
二 条</w> 6373
体 积</w> 6373
震 动</w> 6373
第四 章</w> 6373
宪 政</w> 6372
18 9</w> 6372
习惯 法</w> 6371
温 格</w> 6370
西 奥</w> 6370
国家 计划</w> 6370
既 有</w> 6369
罗斯 福</w> 6367
关 怀</w> 6364
澳 洲 6364
分 阶段</w> 6364
台 风</w> 6363
评论 员</w> 6363
梅 西</w> 6362
ov ic</w> 6362
W est</w> 6361
2 42</w> 6361
数 码</w> 6360
伯 利兹</w> 6359
集 资金</w> 6357
筹 集资金</w> 6357
as t</w> 6356
16 8</w> 6356
S U 6354
卡 利</w> 6354
萨 克</w> 6354
谷 物</w> 6354
尔 登</w> 6353
草 拟</w> 6352
指 着</w> 6352
联 队</w> 6352
一 千 6351
无 须</w> 6351
N a 6350
考 古 6350
C F 6349
动 词</w> 6349
e a</w> 6347
牛 仔 6346
A R</w> 6344
浓 缩</w> 6344
缘 故</w> 6344
三 世</w> 6343
归 因于</w> 6341
使 团</w> 6341
IM F</w> 6341
帕 特</w> 6340
澳洲 人</w> 6340
拉 尔</w> 6339
J ar 6337
全 都</w> 6337
赫 勒</w> 6336
马 车</w> 6336
路 口</w> 6335
普遍 存在</w> 6335
失 效</w> 6332
元 前</w> 6331
怀 疑 6331
街 日报</w> 6331
华尔 街日报</w> 6331
纳 尔逊</w> 6330
a e</w> 6330
中 是</w> 6330
一 案</w> 6330
对 外 6330
临 近</w> 6330
逾 期</w> 6330
Steph en</w> 6330
尔 夫</w> 6329
救 生 6329
主 党</w> 6329
等 国</w> 6328
L C</w> 6327
真 主党</w> 6327
侦察 机</w> 6327
迎 来</w> 6326
为 人 6326
尸 官</w> 6323
验 尸官</w> 6323
S E</w> 6322
20 . 6322
解 体</w> 6320
聚 焦</w> 6319
救 护</w> 6317
口 音</w> 6316
R ad 6315
付 钱</w> 6315
光 学</w> 6314
六 十 6314
羽 毛</w> 6311
尼 西亚 6310
3 30</w> 6310
弄 清楚</w> 6310
老挝人民 民主共和国</w> 6310
增 添</w> 6309
修 女</w> 6309
积 压</w> 6309
快 船</w> 6309
窒 息</w> 6308
Jon es</w> 6308
猴 子</w> 6307
2. 4</w> 6307
em y</w> 6307
18 3</w> 6305
科 林</w> 6304
可 观</w> 6304
首 领</w> 6304
五 天</w> 6303
第二 期</w> 6303
手 势</w> 6302
苦 苦</w> 6302
它 会</w> 6302
帮 派</w> 6298
H or 6296
16 %</w> 6295
本 能</w> 6294
分 化</w> 6294
俄勒 冈</w> 6294
时 分</w> 6293
敌 方</w> 6293
田纳 西州</w> 6293
降 级</w> 6292
降 雨</w> 6292
危险 废物</w> 6292
H P</w> 6291
王 室</w> 6291
奉 献</w> 6291
宽 恕</w> 6291
点 球</w> 6288
捍 卫者</w> 6288
福 克</w> 6286
性 取向</w> 6286
C T 6285
海 港</w> 6285
限 定</w> 6285
克里 斯蒂</w> 6282
审 判 6281
2 11</w> 6280
坚 强</w> 6279
沃 德</w> 6278
造 林</w> 6278
结 成</w> 6277
弗 莱 6276
非 盟</w> 6276
构成 威胁</w> 6275
毫 克</w> 6274
阿 联 6272
测 试 6272
公用 事业</w> 6272
阿联 酋</w> 6272
F BI</w> 6271
渐 进</w> 6270
梵蒂 冈</w> 6268
分析 家</w> 6266
书 店</w> 6265
看 电视</w> 6264
我 方</w> 6263
生物 武器</w> 6262
建 于</w> 6261
诺 德</w> 6260
T ri 6259
道 夫</w> 6259
联 体</w> 6258
s w 6257
一 章</w> 6257
格 蒂</w> 6256
那 边</w> 6256
诚 意</w> 6252
E li 6251
节 点</w> 6251
at h</w> 6251
育 儿</w> 6250
发言 权</w> 6249
此 人</w> 6248
Kh an</w> 6248
克 什 6247
农 田</w> 6247
埋 葬</w> 6247
横 向</w> 6246
客 机</w> 6243
子 宫</w> 6239
有 机 6239
越 境</w> 6239
s a</w> 6238
管理 工作</w> 6238
交通 运输</w> 6237
传 闻</w> 6235
配 方</w> 6235
S ain 6234
分 部</w> 6231
以 东</w> 6231
绕 过</w> 6231
下 达</w> 6230
带 给</w> 6230
ol d</w> 6229
跨 部门</w> 6228
充 斥</w> 6227
19 44</w> 6227
露 西</w> 6225
1 200</w> 6224
法 拉 6224
亚 瑟</w> 6223
六 种</w> 6223
言 语</w> 6223
急 救</w> 6223
外科 医生</w> 6223
五 十</w> 6222
五 岁</w> 6222
同情 心</w> 6222
上 下</w> 6221
情 愿</w> 6221
哺乳 动物</w> 6221
铁 矿石</w> 6220
英 格兰 6219
r ic 6217
i h 6217
S er 6217
学 业</w> 6217
看 不见</w> 6217
事务 局</w> 6217
穆 尔</w> 6215
人 家</w> 6215
不 顾</w> 6215
检 索</w> 6215
赖 斯</w> 6214
时 常</w> 6214
赛 道</w> 6213
地 平线</w> 6212
科 学院</w> 6210
国际 委员会</w> 6210
红十字 国际委员会</w> 6210
国 歌</w> 6208
离 去</w> 6208
斯蒂 文</w> 6207
严重 威胁</w> 6207
鲸 鱼</w> 6206
德 雷 6205
西 撒</w> 6204
拍 卖 6202
委 任</w> 6201
S an 6199
外 科</w> 6199
工人 党</w> 6199
一 眼</w> 6198
耗 尽</w> 6197
i um</w> 6195
宫 殿</w> 6195
禁 产</w> 6195
好 战</w> 6194
咱 们</w> 6194
获得 者</w> 6193
M E 6192
时 段</w> 6192
分 裂 6192
重 计</w> 6189
费尔 南 6189
原 定</w> 6188
利害 关系</w> 6187
8 226</w> 6186
成 瘾</w> 6186
学 期</w> 6186
一 时</w> 6186
十 七届</w> 6186
光 滑</w> 6184
一 月份</w> 6183
战 时</w> 6183
范 例</w> 6181
彗 星</w> 6181
第六 十</w> 6180
第二 节</w> 6179
罗 杰斯</w> 6178
贝 克 6178
标 语</w> 6177
克 罗</w> 6176
3. 3</w> 6175
高 科技</w> 6173
独 联体</w> 6170
州 立大学</w> 6169
切 斯</w> 6168
Re d 6167
带 上</w> 6166
含水 层</w> 6165
2 27</w> 6163
取 出</w> 6163
ot t 6161
生产 国</w> 6160
N ov 6159
节 能</w> 6159
S O 6158
有 钱</w> 6157
主 题 6157
科 摩罗</w> 6156
国 主义</w> 6156
配 件</w> 6156
直 径</w> 6154
17 3</w> 6154
挥 舞</w> 6152
u t</w> 6150
超 级 6150
瑟 尔</w> 6150
双 重 6150
分 工</w> 6150
表 决权</w> 6150
e ar 6149
坚 持 6148
奥 尼尔</w> 6147
3 80</w> 6146
定 稿</w> 6145
划 定</w> 6144
一 共</w> 6143
集 结</w> 6143
发 售</w> 6142
露 天</w> 6142
电 网</w> 6142
黑 洞</w> 6141
企 鹅</w> 6140
摩 擦</w> 6139
人 性</w> 6139
消 极 6137
拓 展</w> 6136
杀 人 6136
时 所</w> 6135
圣诞 老人</w> 6134
争 斗</w> 6133
第七 章</w> 6133
v ille</w> 6132
J enn 6132
百 慕 6132
唐 宁 6132
柜 台</w> 6130
陪审 员</w> 6130
继续 加强</w> 6130
车 厢</w> 6129
极 了</w> 6129
冒 犯</w> 6129
C le 6127
字 符</w> 6127
自由 民主党</w> 6127
围 栏</w> 6126
洛 夫</w> 6125
辖 区</w> 6124
靴 子</w> 6123
彩 票</w> 6122
直 线</w> 6121
斯特 拉</w> 6121
政 体</w> 6119
顽 固</w> 6119
10 000</w> 6119
优先 权</w> 6119
新 喀里多尼亚</w> 6116
这 套</w> 6116
克 隆</w> 6115
P an 6115
加 班</w> 6115
出 任</w> 6115
水 源</w> 6114
参 阅</w> 6113
卢 卡斯</w> 6111
和 发展 6111
联合国 贸易 6111
和发展 会议</w> 6111
联合国贸易 和发展会议</w> 6111
弗 洛 6110
近 距离</w> 6109
双 语</w> 6109
容 许</w> 6108
检 讨</w> 6108
s h</w> 6107
掩 饰</w> 6107
1. 3</w> 6107
乃 至</w> 6106
载 入</w> 6106
申请 书</w> 6106
波罗的 海</w> 6106
世 俗</w> 6104
副 总裁</w> 6104
陷入 困境</w> 6104
底 下</w> 6103
至 迟</w> 6102
m ar 6101
人 类 6101
榴 弹</w> 6101
参 赛 6100
颗 粒</w> 6099
20 2</w> 6099
卫生 部门</w> 6099
艾 美</w> 6098
诅 咒</w> 6098
法 则</w> 6097
效 能</w> 6096
注 册 6096
已 久</w> 6095
草 原</w> 6094
明 书</w> 6094
开 通</w> 6093
鸡 尾 6093
淋 浴</w> 6093
科 林斯</w> 6092
电 源</w> 6092
海 滨</w> 6091
搭 档</w> 6091
南斯拉夫 联盟 6091
南斯拉夫联盟 共和国</w> 6091
荣 耀</w> 6088
海 岸 6087
G al 6085
可 图</w> 6085
经 受</w> 6083
娃 娃</w> 6082
铁 路 6081
C ra 6080
说 谎</w> 6079
果 断</w> 6078
参 谋 6078
T C</w> 6077
外 线</w> 6077
特 许 6076
审 前</w> 6076
拉 丁</w> 6075
过 敏</w> 6073
口 粮</w> 6072
ow n</w> 6072
领导 层</w> 6071
k i</w> 6069
下 一代</w> 6069
例 句</w> 6069
留 下来</w> 6067
橙 色</w> 6066
母 语</w> 6065
稳 固</w> 6065
并不 一定</w> 6065
兰 特</w> 6063
正 直</w> 6063
服务 提供者</w> 6062
备 受</w> 6061
杀 虫剂</w> 6057
联 阿</w> 6057
波 黑</w> 6056
S ant 6055
堡 垒</w> 6055
B T</w> 6054
司 令 6053
集 成</w> 6053
米 德尔</w> 6052
天 气 6051
规 范 6051
厄 尔</w> 6050
节 性</w> 6050
弗 吉尼亚</w> 6049
高 档</w> 6049
偏 好</w> 6049
2 37</w> 6048
内 衣</w> 6048
卢 西亚</w> 6047
邮 政 6045
两 架</w> 6044
宏 观</w> 6043
尼 克斯</w> 6042
b e</w> 6041
十 一</w> 6041
中 介</w> 6040
对 立</w> 6040
收 盘</w> 6040
Ma h 6039
康 纳</w> 6038
迷 恋</w> 6038
再 说</w> 6038
洛杉 矶 6037
野 外</w> 6036
乐 园</w> 6033
加 索</w> 6033
照 射</w> 6033
试 验 6032
适 度</w> 6031
转 达</w> 6031
信用 证</w> 6031
市场 份额</w> 6029
F el 6027
开 创</w> 6027
除 名</w> 6027
过 高</w> 6026
0. 5%</w> 6026
导 游</w> 6025
说 服 6025
难 度</w> 6024
室 外</w> 6023
齿 轮</w> 6023
加 油 6021
函 件</w> 6021
20 3</w> 6020
以 求</w> 6018
吉 斯</w> 6017
手 腕</w> 6017
臭 氧 6017
国 债</w> 6016
居 室</w> 6014
看 守</w> 6014
竞争 法</w> 6014
球 赛</w> 6013
评 选</w> 6012
威 慑</w> 6011
呼 声</w> 6011
考 克斯</w> 6009
增 值</w> 6009
前 体</w> 6009
博 览会</w> 6008
湿 地</w> 6008
负 有 6007
投票 率</w> 6007
维多 利亚 6006
AC T</w> 6006
说服 力</w> 6006
面 谈</w> 6005
8 5%</w> 6004
联 大</w> 6004
终 生</w> 6004
键 盘</w> 6003
解 读</w> 6003
布什 总统</w> 6003
人 节</w> 6002
传 记</w> 6001
预 备</w> 6001
不 该</w> 6000
第二 款</w> 6000
多 克</w> 5999
画 像</w> 5999
加 以 5996
卡梅 隆</w> 5996
比 萨</w> 5995
史蒂 芬</w> 5994
来 访者</w> 5993
禁 区</w> 5993
复 活</w> 5993
有 点 5992
加 达</w> 5991
K er 5990
临 床 5990
放 慢</w> 5990
塞浦路 斯 5990
Ne w</w> 5988
in son</w> 5987
神 父</w> 5986
负有 责任</w> 5986
i z</w> 5985
堪 萨斯州</w> 5984
夺 得</w> 5983
收 容 5983
2 48</w> 5980
弹 头</w> 5980
s c 5979
武 库</w> 5979
堵 塞</w> 5979
离 任</w> 5979
否 决权</w> 5979
基 伍</w> 5978
独 裁</w> 5978
Mat t</w> 5978
可 悲</w> 5977
数 千 5977
花 钱</w> 5976
来 信</w> 5976
房 地</w> 5976
ac t 5976
罪 恶</w> 5974
u x</w> 5973
讲 师</w> 5973
饲 料</w> 5973
阳 性</w> 5972
数 次</w> 5972
不 止</w> 5972
统治 者</w> 5972
尼 诺</w> 5971
安 盟</w> 5971
奢 侈 5970
M A 5968
去 过</w> 5968
20 5</w> 5968
篮 子</w> 5963
y s</w> 5962
投票 站</w> 5961
收容 所</w> 5961
不 限</w> 5959
蜡 烛</w> 5959
碰 到</w> 5959
援 国</w> 5958
汉普 郡</w> 5958
P P</w> 5956
扩 充</w> 5956
an y</w> 5956
音 机</w> 5954
转 录</w> 5953
资源 分配</w> 5952
PR ST</w> 5952
ic al</w> 5951
L uc 5950
创 收</w> 5950
外 籍</w> 5949
全 力支持</w> 5949
争 辩</w> 5949
哈 佛 5947
国 立</w> 5947
it h 5946
Willi ams</w> 5945
贪 污</w> 5944
坐 标</w> 5944
V i 5942
现 出</w> 5942
少 年 5941
受 援国</w> 5941
伤 残</w> 5940
高 端</w> 5939
住 民</w> 5938
罚 球</w> 5938
背 上</w> 5936
ing s</w> 5936
扩 建</w> 5934
r on 5933
应 收</w> 5931
整 整</w> 5931
马 里 5930
律师 协会</w> 5930
3 4 5929
誓 言</w> 5929
D ou 5928
不 远</w> 5927
缩 写</w> 5927
2 14</w> 5926
索 偿</w> 5926
默 认</w> 5925
足 迹</w> 5925
掠 夺</w> 5925
私 下</w> 5922
享 年</w> 5922
氯 化 5922
奢侈 品</w> 5922
死 因</w> 5921
伯 克</w> 5920
J ac 5919
营 造</w> 5919
逮捕 令</w> 5919
一 夜</w> 5918
登记 处</w> 5918
日 向</w> 5917
履 约</w> 5917
臭氧 层</w> 5915
脉 冲</w> 5913
ow er</w> 5913
多 于</w> 5911
投 机</w> 5911
人工 智能</w> 5911
茅 斯</w> 5909
唐宁 街</w> 5909
辛 辛 5907
分 居</w> 5907
正常 化</w> 5907
黎 明</w> 5906
病 学</w> 5906
霍 克</w> 5905
阿 兰</w> 5905
公 正 5905
感 冒</w> 5905
搭 配</w> 5904
大 坝</w> 5903
尔 蒙</w> 5903
难 者</w> 5903
举 止</w> 5902
阿姆斯特 丹</w> 5902
D ev 5901
z z 5901
裂 缝</w> 5901
康 涅 5901
石 棉</w> 5901
收 音机</w> 5900
坦 帕</w> 5899
拒绝 接受</w> 5899
部 族</w> 5898
Kh al 5897
C oun 5895
买 下</w> 5895
这 片</w> 5895
理 智</w> 5894
控制 措施</w> 5894
I D</w> 5893
g o</w> 5893
埃弗 顿</w> 5893
达科 他州</w> 5893
2 90</w> 5892
小 国</w> 5891
跨 境</w> 5890
表 现 5889
康涅 狄 5889
索 引</w> 5887
Con n 5886
阿 布</w> 5885
ou d</w> 5885
Cl ar 5884
清 晨</w> 5883
男 生</w> 5883
赤 道 5882
仲裁 庭</w> 5882
第 一项</w> 5881
联合 声明</w> 5881
推 向</w> 5880
米 斯</w> 5879
帕 拉</w> 5877
es e</w> 5876
宁 静</w> 5874
比 基尼</w> 5873
造 福</w> 5873
归 来</w> 5873
19 53</w> 5873
M un 5872
迫 击 5872
费 尔</w> 5871
蒸 汽</w> 5871
浏 览 5871
缉 获</w> 5871
涨 幅</w> 5871
瀑 布</w> 5868
17 4</w> 5867
肝 脏</w> 5866
夸 张</w> 5865
出 国</w> 5865
相 对 5864
克里 米亚</w> 5864
海 拔</w> 5861
帕 默</w> 5861
笑 声</w> 5859
胡 安</w> 5858
一 门</w> 5858
首 发</w> 5854
第二 名</w> 5851
控制 器</w> 5851
参与 性</w> 5851
甲 烷</w> 5850
母 乳 5848
母乳 喂养</w> 5848
胚 胎</w> 5846
茨 海 5845
00 000</w> 5845
扼 杀</w> 5844
Pa ul 5843
先 知</w> 5842
跟 上</w> 5842
17 1</w> 5842
新闻 媒体</w> 5841
健康 权</w> 5841
阿卜杜 拉</w> 5841
保 管</w> 5840
军 用 5840
妊 娠</w> 5840
局 限于</w> 5839
阿尔 茨海 5839
圣 母</w> 5838
舞 弊</w> 5838
and a</w> 5838
ri d 5837
原 油价格</w> 5834
车 库</w> 5833
三 国</w> 5832
民 用 5832
剪 辑</w> 5831
宣 扬</w> 5830
荒 唐</w> 5828
太平 洋 5828
减 去</w> 5827
土 族</w> 5826
翻 新</w> 5826
付 诸 5826
列 明</w> 5825
性 人</w> 5825
骑 手</w> 5825
数 月</w> 5824
ann e</w> 5824
斯 普 5823
地 为</w> 5823
变 换</w> 5823
我 来</w> 5823
ch er</w> 5823
雅 加达</w> 5822
后 退</w> 5822
上 传</w> 5822
提高 效率</w> 5822
联络 小组</w> 5821
勒 索</w> 5819
理 事 5819
手 上</w> 5819
三 倍</w> 5818
转 为</w> 5817
耶 夫</w> 5816
200 00</w> 5815
应 计</w> 5814
右 手</w> 5814
在 政治 5813
灌 溉</w> 5813
在政治 上</w> 5813
不 负 5812
轨 迹</w> 5812
理事 国</w> 5810
H ill</w> 5809
B B 5809
U FC</w> 5809
高 校</w> 5809
炮 击</w> 5809
有 何</w> 5806
每 届</w> 5803
电视 机</w> 5802
o y</w> 5801
缺 失</w> 5800
利 马</w> 5799
长 久</w> 5799
死 后</w> 5799
er n</w> 5799
正 教</w> 5798
百慕 大</w> 5797
法 制</w> 5796
公 元</w> 5796
开 出</w> 5795
漫 步</w> 5795
颠 覆</w> 5795
第二 季度</w> 5795
Ar m 5794
罗德 里格斯</w> 5794
奥兰 多</w> 5794
菲 斯</w> 5793
称 号</w> 5793
电子 游戏</w> 5793
G h 5792
向 下</w> 5792
皮 革</w> 5791
3 6 5790
切实 有效</w> 5790
牛仔 裤</w> 5790
列 报</w> 5789
平 板</w> 5788
野 兽</w> 5788
日益 增长</w> 5786
字 幕</w> 5785
供 电</w> 5784
18 6</w> 5784
i re 5782
B ay</w> 5782
俄 语</w> 5782
快 餐</w> 5782
墨西哥 城</w> 5782
ot h 5781
安 提 5780
上 级</w> 5780
免疫 系统</w> 5780
商 学院</w> 5778
大 得多</w> 5777
基 亚</w> 5777
8 50</w> 5776
邓 迪</w> 5776
转 入</w> 5775
斯坦 福 5775
人 则</w> 5774
巡逻 队</w> 5774
武 器 5773
吸 烟 5773
减 排</w> 5773
Univers ity</w> 5773
19 1</w> 5772
基础 教育</w> 5772
克什 米尔</w> 5772
大 力支持</w> 5771
片 段</w> 5771
周 边 5770
奥 特</w> 5769
小 计</w> 5769
维 亚 5769
New s</w> 5769
普 雷 5768
被 盗</w> 5767
瞄 准</w> 5767
19 5</w> 5766
Le w 5765
叛 乱 5764
亲 人</w> 5764
立法 者</w> 5763
调解 人</w> 5763
教 派</w> 5762
随 函</w> 5762
邮 局</w> 5761
杰 弗里</w> 5760
带 薪</w> 5760
不论 是</w> 5760
E ur 5759
系列 片</w> 5759
彩 色</w> 5758
总 署</w> 5758
行 长</w> 5758
敏感 性</w> 5758
迪 逊</w> 5757
B M 5757
凶 手</w> 5757
眼 光</w> 5757
卡 特尔</w> 5755
Re g 5755
历 来</w> 5754
备 份</w> 5754
演 讲 5751
18 1</w> 5750
艺 人</w> 5749
数 学 5748
18 4</w> 5748
相似 之处</w> 5747
无 所 5746
新 秀</w> 5745
满 贯</w> 5745
G O 5743
U l 5743
丽 莎</w> 5742
歌 唱</w> 5742
喜 悦</w> 5741
两 者之间</w> 5741
al ia</w> 5741
下 个月</w> 5740
监 测 5740
登 录</w> 5739
修 斯</w> 5739
演 唱 5739
巴 顿</w> 5738
原 住民</w> 5738
古 典</w> 5737
珍 妮弗</w> 5736
头 条</w> 5736
蒂 尔</w> 5735
引 诱</w> 5735
切 除</w> 5734
荷 尔蒙</w> 5734
17 7</w> 5734
寄 宿</w> 5733
公共 秩序</w> 5733
总 杯</w> 5732
诋 毁</w> 5730
公 元前</w> 5729
组 成员</w> 5729
异 性</w> 5728
爵士 乐</w> 5727
低 调</w> 5726
麦克 唐纳</w> 5726
南 安 5725
S t</w> 5724
时 任</w> 5723
时 钟</w> 5723
摇 晃</w> 5723
女 同性恋</w> 5721
马 德 5720
外 人</w> 5720
审计 报告</w> 5720
制度 化</w> 5719
洛 克 5718
国 情</w> 5718
保护 环境</w> 5718
退 回</w> 5717
巨 星</w> 5716
追 查</w> 5716
短 期内</w> 5715
受 限制</w> 5714
ESP N</w> 5714
希 思 5713
销售 量</w> 5712
雕 刻</w> 5711
扰 乱</w> 5710
D om 5709
侦 察</w> 5708
捆 绑</w> 5708
g u 5706
高 等</w> 5706
不 准</w> 5706
Par k</w> 5706
东 非</w> 5704
深 表</w> 5704
伦 萨</w> 5702
本 项</w> 5702
预 约</w> 5702
真实 性</w> 5702
高 大</w> 5700
完 毕</w> 5700
哈 里森</w> 5699
不同 寻常</w> 5699
太 晚</w> 5698
am ed</w> 5698
N ik 5697
德 比</w> 5696
资 发</w> 5696
R O 5695
夏洛 特</w> 5694
海洋 生物</w> 5693
阿 诺德</w> 5692
巴 德</w> 5691
公 营</w> 5690
未 婚 5690
消 化</w> 5690
主管 机关</w> 5690
这 块</w> 5689
独裁 者</w> 5689
亿 人</w> 5688
赛 跑</w> 5687
基本 法</w> 5686
ay l 5684
技术 咨询</w> 5684
加油 站</w> 5684
5 9 5680
阿 图</w> 5680
重 债</w> 5680
同 一天</w> 5680
开 头</w> 5679
威 士 5678
电 动</w> 5678
截 然不同</w> 5677
新 德里</w> 5676
民 权</w> 5676
不负 责任</w> 5676
以 致</w> 5674
连锁 店</w> 5674
转 运</w> 5673
往 返</w> 5673
巧 合</w> 5672
k h 5670
头 盔</w> 5670
决 不</w> 5670
金融 体系</w> 5670
第七 次</w> 5670
数字 化</w> 5670
定 型</w> 5669
四 项</w> 5669
凭 借</w> 5669
奥 古 5668
短 片</w> 5668
书 写</w> 5668
ha t</w> 5668
履行 职责</w> 5668
建立 联系</w> 5668
捐 赠 5666
夫 斯</w> 5664
国 在</w> 5664
中 心 5664
更 快</w> 5664
断 定</w> 5664
账 目</w> 5663
新 手</w> 5661
国家 主权</w> 5661
新 任</w> 5659
人 队</w> 5659
善 于</w> 5657
20 6</w> 5657
令人 信服</w> 5657
辣 椒</w> 5656
研 训</w> 5656
d y</w> 5655
机 上</w> 5655
交流 信息</w> 5655
手 提 5654
起 因</w> 5654
E T</w> 5653
17 8</w> 5652
加拿大 人</w> 5652
克 萨斯</w> 5651
哲 学家</w> 5651
排 序</w> 5651
说 实话</w> 5651
受 伤害</w> 5651
蝙 蝠</w> 5651
第一 次世界大战</w> 5650
会议 厅</w> 5650
衍 生</w> 5649
摇 摆</w> 5649
足 总杯</w> 5647
ut e</w> 5647
佛罗 伦萨</w> 5647
坦 率</w> 5646
负 荷</w> 5646
促 销</w> 5646
教 廷</w> 5645
协 力</w> 5645
Ad am</w> 5645
康 奈尔</w> 5644
衬 衣</w> 5643
戈 尔 5642
悲 观</w> 5641
当 成</w> 5640
指 纹</w> 5640
义务 教育</w> 5640
---------------------------------------------------------------- ---------------- 5639
布里斯 托尔</w> 5638
轮 流</w> 5637
逗 留</w> 5637
G il 5636
住 户</w> 5636
几 家</w> 5635
野 心</w> 5634
O b 5633
3 7 5633
暴 徒</w> 5632
勃 朗</w> 5631
炸 毁</w> 5631
往 常</w> 5631
T M 5630
圣 节</w> 5629
奇 异</w> 5629
魁 北 5629
墨 菲</w> 5628
一个 多</w> 5627
专 利 5626
C. 6</w> 5626
存 档</w> 5625
化妆 品</w> 5624
2 2%</w> 5623
入 选</w> 5623
概 率</w> 5623
格兰 人</w> 5622
效 仿</w> 5621
格 莱德</w> 5621
祝 愿</w> 5621
贝尔 格莱德</w> 5621
亮 点</w> 5620
17 6</w> 5620
毫无 意义</w> 5620
环 绕</w> 5619
更 少</w> 5619
恳 求</w> 5618
闪 烁</w> 5617
苏 格兰人</w> 5616
不 动</w> 5615
坏 消息</w> 5615
里 夫</w> 5613
切实 可行</w> 5613
杰 拉德</w> 5612
格 局</w> 5611
来 讲</w> 5611
青 春 5610
与 否</w> 5610
务 局</w> 5609
情 绪 5609
大 满贯</w> 5608
微 弱</w> 5607
V II</w> 5606
m l</w> 5603
布 宜 5602
信 仰 5602
健 身 5602
板 凳</w> 5602
山 坡</w> 5601
该 镇</w> 5601
19 20</w> 5600
el s</w> 5599
香 槟</w> 5598
奥斯 陆</w> 5598
辛辛 那 5597
H el 5596
万 圣节</w> 5595
L ar 5592
单 纯</w> 5592
it z</w> 5589
尼古 拉</w> 5589
一无 二</w> 5588
储 备金</w> 5587
程序 性</w> 5587
苏里 南</w> 5587
民 法</w> 5586
流 亡</w> 5586
副 手</w> 5586
史蒂 文</w> 5586
美 属</w> 5585
美 食</w> 5585
圣 路易斯</w> 5585
演 示</w> 5585
条 纹</w> 5585
腐 蚀</w> 5585
Brow n</w> 5585
广 州</w> 5584
满 意 5583
警 车</w> 5582
外科 手术</w> 5582
独 一无二</w> 5581
欧 盟 5580
圣 马 5580
欧盟 委员会</w> 5580
奈 特</w> 5579
20 7</w> 5579
萨 米</w> 5578
利 润 5578
强 国</w> 5578
现 存</w> 5578
布宜 诺斯 5578
大 雨</w> 5577
东 欧国家</w> 5576
大 事</w> 5575
所罗 门 5575
Mik e</w> 5571
纳 波利斯</w> 5570
E R</w> 5570
G o 5570
赞 成 5570
季 节性</w> 5570
警察 局长</w> 5570
格雷 戈</w> 5570
娜 塔 5569
地 质 5569
耗 资</w> 5568
Cap ital</w> 5568
S ec 5567
道 德 5567
er e</w> 5567
il y</w> 5567
感染 者</w> 5567
那 条</w> 5566
事 例</w> 5566
Mar k 5566
预 警 5565
注 释</w> 5565
en ko</w> 5565
重 罪</w> 5564
海岸 线</w> 5564
检 疫</w> 5563
急 切</w> 5563
密西西 比</w> 5563
太 空 5562
七 月</w> 5562
过渡 政府</w> 5561
接收 器</w> 5561
不 已</w> 5560
微 博</w> 5560
被告 人</w> 5560
硕 士</w> 5557
海 湾 5556
躲 避</w> 5556
常务 委员会</w> 5556
u b</w> 5555
L e</w> 5555
晚 宴</w> 5555
el e</w> 5555
以 防</w> 5554
AC. 109</w> 5553
表演 者</w> 5553
饥 荒</w> 5552
或 非</w> 5551
18 7</w> 5551
各项 措施</w> 5551
国 集团</w> 5550
与 非</w> 5550
搬 到</w> 5550
刑事 案件</w> 5548
A L</w> 5547
问 问</w> 5545
士 兰</w> 5543
回忆 录</w> 5542
连 接 5540
旁 观者</w> 5540
饱 和</w> 5540
桑 切斯</w> 5539
红 柿</w> 5539
保护 主义</w> 5539
达 斯</w> 5538
高 血压</w> 5538
装 甲</w> 5538
19 41</w> 5536
L ov 5534
新 人</w> 5534
音 频</w> 5534
面 粉</w> 5534
在 实践 5533
定 向</w> 5533
请 愿 5533
查 验</w> 5532
来 源于</w> 5532
三 级</w> 5531
西 红柿</w> 5531
19 6</w> 5531
Cor b 5531
厄 尔 5530
鳄 鱼</w> 5530
H BO</w> 5529
卡 塔 5527
东 海岸</w> 5527
思 路</w> 5527
尼 卡</w> 5526
北 朝鲜</w> 5526
摩 西</w> 5526
请愿 书</w> 5526
R uss 5525
塔 斯马 5523
山 顶</w> 5523
核 电站</w> 5522
剧 烈</w> 5522
勤 人员</w> 5522
就 任</w> 5522
Mohamm ed</w> 5522
巴 巴</w> 5521
思 想 5521
2 22</w> 5520
差 旅费</w> 5520
优 惠 5520
威 尔斯</w> 5520
科 目</w> 5519
法 定 5519
台 湾 5518
关 掉</w> 5518
倾 倒</w> 5514
心 碎</w> 5513
互 利</w> 5513
缓 刑</w> 5512
一 带</w> 5511
盎 司</w> 5511
1. 4</w> 5511
国家 组织</w> 5511
美洲 国家组织</w> 5511
瓦 努 5510
以色列 国防军</w> 5509
整 修</w> 5508
个人 资料</w> 5507
根 据 5506
深 海</w> 5506
好 象</w> 5505
零 部件</w> 5505
西班牙 人</w> 5505
自 制</w> 5504
化 疗</w> 5504
有线 电视</w> 5502
金正 恩</w> 5502
桑 托斯</w> 5501
UK IP</w> 5501
R om 5500
中国 人民 5500
上 年</w> 5499
括 号</w> 5499
19 3</w> 5499
领 养</w> 5498
in c 5498
谈 判 5497
印第安 纳州</w> 5497
斯威 士兰</w> 5497
赤道 几内亚</w> 5497
格 陵 5496
罗 纳德</w> 5493
上 演</w> 5493
电 压</w> 5493
通 信 5492
3 10</w> 5492
热 潮</w> 5492
恶 作 5491
禁 试</w> 5490
夺 走</w> 5490
哈 维</w> 5487
D u 5487
及 早</w> 5487
横 跨</w> 5486
滑 雪 5486
不 堪</w> 5485
子 里</w> 5484
凉 爽</w> 5484
匆 忙</w> 5484
N C</w> 5483
28 . 5483
猜 想</w> 5480
签 下</w> 5480
赞成 票</w> 5480
杆 菌</w> 5477
相 等</w> 5476
漂 浮</w> 5476
吉布 森</w> 5476
项目 管理</w> 5476
公 立</w> 5475
超 重</w> 5474
君 主</w> 5474
编 程</w> 5474
res s</w> 5473
共 处</w> 5471
有利 可图</w> 5471
拿 下</w> 5470
午 饭</w> 5469
此 基础</w> 5469
巴勒斯坦 国</w> 5469
恶作 剧</w> 5469
通 报 5468
可 耻</w> 5468
结 婚 5466
不 及</w> 5466
ill a</w> 5466
PV . 5466
鲍 威尔</w> 5465
肯 尼</w> 5465
一 线</w> 5464
小 鸟</w> 5463
瞻 性</w> 5463
干 部</w> 5462
选举 法</w> 5462
车 手</w> 5461
条 中</w> 5461
C D 5460
东 正教</w> 5459
Mar c 5459
em ent</w> 5459
亲 吻</w> 5458
19 4</w> 5458
精神 疾病</w> 5458
2 18</w> 5457
尽 头</w> 5457
乳 房</w> 5457
奥斯 卡 5456
万 吨</w> 5455
动 力学</w> 5454
机 动</w> 5454
残 奥会</w> 5454
18 8</w> 5454
C T</w> 5453
B as 5453
G S</w> 5452
2 33</w> 5452
昏 迷</w> 5452
索 菲 5451
静 止</w> 5451
前 瞻性</w> 5451
一 整天</w> 5450
公共 交通</w> 5450
Cor p</w> 5450
阿卜杜 勒</w> 5449
车 轮</w> 5448
e o</w> 5447
核 设施</w> 5447
X V</w> 5446
几 何</w> 5446
服 饰</w> 5445
保险 费</w> 5445
沃 尔特</w> 5444
落 入</w> 5444
充 实</w> 5443
备 用</w> 5443
放 宽</w> 5443
致 意</w> 5442
房 主</w> 5441
水 晶</w> 5440
2 15</w> 5438
触 及</w> 5438
好 人</w> 5437
德 温</w> 5436
咨询 机构</w> 5436
日 落</w> 5435
莱 士</w> 5435
深 受</w> 5435
跌 倒</w> 5434
图 拉</w> 5432
D em 5431
病 房</w> 5431
阿拉伯 文</w> 5431
朝鲜 半岛</w> 5430
孟 加拉</w> 5429
澳 门 5429
全 美</w> 5425
录 像 5425
考 古</w> 5424
希 族</w> 5423
两 类</w> 5423
加勒比 地区</w> 5423
制定 者</w> 5423
感 知</w> 5422
化 物</w> 5422
预 测 5422
辛辛那 提</w> 5422
汇 总</w> 5421
数百 万美元</w> 5421
前 身</w> 5420
悼 念</w> 5420
17 9</w> 5420
印 刷 5418
通行 证</w> 5418
农 作物</w> 5417
便 士</w> 5417
投 手</w> 5417
S us 5416
圣 卢西亚</w> 5416
同 类</w> 5416
赛 场</w> 5415
股 本</w> 5415
山 羊</w> 5414
扫 雷</w> 5414
摄 入</w> 5411
沉 没</w> 5411
抬 头</w> 5411
公共 安全</w> 5411
每 隔</w> 5409
倒 闭</w> 5407
参赛 者</w> 5404
伦 敦 5403
王 星</w> 5403
马尼 拉</w> 5403
共同 点</w> 5402
超 人</w> 5401
19 8</w> 5401
Cam er 5401
德 州</w> 5400
未 遂</w> 5399
A D 5398
掌 权</w> 5398
平等 待遇</w> 5398
贝 格</w> 5397
托 德</w> 5396
重 伤</w> 5396
第一 部</w> 5395
粗 糙</w> 5394
勉 强</w> 5394
切 斯特</w> 5392
R ah 5392
厄尔 尼诺</w> 5392
华 莱士</w> 5391
执 政党</w> 5391
光 彩</w> 5390
纺织 品</w> 5390
鲁 尼</w> 5389
泽 尔</w> 5389
第二十 四届</w> 5389
升 值</w> 5387
楼 上</w> 5386
发 行 5385
别 处</w> 5384
士 尼</w> 5384
人 事 5384
犹太 主义</w> 5383
吃 掉</w> 5382
发生 率</w> 5382
特许 权</w> 5382
太阳 系</w> 5381
布伦 特</w> 5381
5. 5</w> 5380
卡 路 5378
语 气</w> 5378
逐 出</w> 5377
迪 士尼</w> 5374
偏 远地区</w> 5374
摩尔多 瓦</w> 5372
废 水</w> 5371
所 处</w> 5370
只 好</w> 5370
瑜 伽</w> 5370
高 中 5369
电 线</w> 5367
迪 亚 5366
排 行 5365
布拉 德利</w> 5365
平方 英尺</w> 5365
火 山 5364
美 容</w> 5363
ra y</w> 5363
改 名</w> 5362
rig ht</w> 5362
斯威 夫特</w> 5362
排行 榜</w> 5362
波 斯</w> 5361
有 序</w> 5361
搜 集</w> 5359
一 集</w> 5358
19 39</w> 5358
p c</w> 5357
or s</w> 5357
性 爱</w> 5356
敲 定</w> 5356
开 门</w> 5355
年 会</w> 5355
马 利</w> 5353
轻 型</w> 5353
爱德华 兹</w> 5352
难 得</w> 5351
变 性人</w> 5351
捐赠 者</w> 5351
失 事</w> 5350
率 地</w> 5350
弗 吉 5349
E c 5346
R u 5345
凡 是</w> 5345
台 阶</w> 5345
伍 兹</w> 5344
气象 局</w> 5344
H ouse</w> 5343
L .1</w> 5343
地 铁 5342
杰 明</w> 5342
丰 田</w> 5342
转 到</w> 5342
一 步 5341
匮 乏</w> 5341
沃尔 夫</w> 5341
违 规</w> 5340
有效 期</w> 5340
某 项</w> 5339
继续 执行</w> 5339
伤 性</w> 5336
录 取</w> 5335
暴 乱</w> 5335
外交 关系</w> 5335
T y 5334
发 型</w> 5334
板 块</w> 5334
收 支</w> 5332
饲 养</w> 5332
大 亨</w> 5331
好 了</w> 5331
完全 符合</w> 5329
朱利 安</w> 5329
攀 登</w> 5328
除 去</w> 5328
萨 卡</w> 5327
特 斯</w> 5327
汉 语</w> 5327
停 战</w> 5327
更 名</w> 5326
Char les</w> 5326
浏览 器</w> 5326
2 6. 5325
桑 德兰</w> 5325
电 厂</w> 5324
骑 马</w> 5324
迈 进</w> 5323
Jer emy</w> 5323
上 司</w> 5322
主 宰</w> 5322
借 此</w> 5322
2 43</w> 5321
Ab b 5321
所罗门 群岛</w> 5321
动 乱</w> 5320
输 送</w> 5320
教 养</w> 5319
紧 迫 5319
外 套</w> 5318
原 材料</w> 5317
庆 典</w> 5317
理 应</w> 5317
调 度</w> 5317
20 9</w> 5317
名 声</w> 5315
st ein</w> 5314
安全 部</w> 5313
t we 5312
栅 栏</w> 5312
哈 桑</w> 5311
爱 丽丝</w> 5310
过 失</w> 5310
B ill</w> 5309
执行 长</w> 5309
理 论 5308
禽 流感</w> 5307
结构 调整</w> 5307
N as 5305
演唱 会</w> 5305
用 户 5302
二 月</w> 5301
嫉 妒</w> 5301
国际 奥委会</w> 5301
韦 德</w> 5300
县 级</w> 5300
之 急</w> 5299
萨 拉 5298
年龄 段</w> 5298
3 9 5297
胜 任</w> 5297
洗 衣 5297
两 边</w> 5297
C ast 5296
麦 迪逊</w> 5296
点 头</w> 5296
退 还</w> 5296
日 语</w> 5295
打 碎</w> 5295
第二十 六条</w> 5294
介绍 性</w> 5294
j a</w> 5293
史 诗</w> 5293
曼 宁</w> 5293
乌 斯</w> 5292
王 后</w> 5292
遗 嘱</w> 5292
辈 子</w> 5292
得 益于</w> 5291
ing er</w> 5291
全 身</w> 5289
巴 特勒</w> 5288
分 辨 5288
萨 赫勒</w> 5287
维 京</w> 5287
国际 金融</w> 5287
非 暴力</w> 5286
犯 规</w> 5286
十 个</w> 5285
C as 5284
高 点</w> 5284
打 扮</w> 5284
总 产值</w> 5284
不 前</w> 5284
鸡尾 酒</w> 5284
E S 5283
全 氟</w> 5283
卡路 里</w> 5283
u p</w> 5282
私 立学校</w> 5282
说 唱</w> 5282
F a 5279
道 琼斯</w> 5279
主 机</w> 5279
柠 檬</w> 5279
e en</w> 5278
A A</w> 5278
R D</w> 5277
挤 满</w> 5277
六 次</w> 5276
p r 5275
诺 丁 5275
红 新 5275
公 关</w> 5275
19 42</w> 5275
维 克 5274
面 上</w> 5274
着 重于</w> 5273
流 传</w> 5272
希思 罗</w> 5272
邦 德</w> 5271
情 况 5271
产 科</w> 5269
号 召</w> 5268
J av 5265
海 姆</w> 5263
在实践 中</w> 5263
名 人 5261
就 算</w> 5261
急 于</w> 5260
ol e</w> 5260
9 11</w> 5259
第六十 九</w> 5259
地 表</w> 5257
小 狗</w> 5256
戴 夫</w> 5256
四 方</w> 5256
逃 犯</w> 5256
普 顿</w> 5255
T re 5255
疲 惫</w> 5255
特别 强调</w> 5254
D J</w> 5253
柔 软</w> 5253
低 迷</w> 5253
5. 2</w> 5253
负债 表</w> 5253
阿卜 耶 5252
o k</w> 5250
佩 林</w> 5250
运 费</w> 5249
5 .1</w> 5248
达 姆</w> 5248
说 来</w> 5248
短 时间</w> 5247
空军 基地</w> 5247
瓦努 阿图</w> 5247
定 位 5245
发 援</w> 5245
实 施 5245
小 于</w> 5244
银 牌</w> 5244
Wor ld</w> 5244
氏 度</w> 5243
极 好</w> 5242
卡 扎 5241
打 印机</w> 5241
降 雨量</w> 5241
叛乱 分子</w> 5241
威士 忌</w> 5241
剑 桥 5240
孟 买</w> 5240
ol og 5240
了 不起</w> 5239
三 年期</w> 5238
D a 5238
托 特 5238
身 亡</w> 5238
弗吉 尼亚州</w> 5238
加 息</w> 5237
米 莉</w> 5236
套 房</w> 5234
俄克拉何 马</w> 5234
评 判</w> 5233
D al 5232
就 此 5231
赶 走</w> 5231
九 龙</w> 5230
友 好 5229
太 好了</w> 5228
区 政府</w> 5228
ri st 5228
P M 5227
宾 州</w> 5226
在 我 5226
E T 5225
维 特</w> 5225
极 其 5225
胆 固醇</w> 5225
挤 压</w> 5225
舞 者</w> 5224
菜 肴</w> 5224
典 范</w> 5224
韦 伯</w> 5223
第三 节</w> 5223
效 用</w> 5221
马 库斯</w> 5221
D e</w> 5220
塞 克斯</w> 5220
布 局</w> 5219
维 持 5219
坚 果</w> 5219
东 北 5218
原 创</w> 5217
交 响 5217
K at 5215
5 5%</w> 5212
多 家</w> 5212
点 钟</w> 5212
签 署 5212
适用 范围</w> 5212
弗 莱</w> 5211
雷 曼</w> 5209
胜 出</w> 5209
第十 七条</w> 5209
车 间</w> 5208
att a</w> 5208
如 说</w> 5207
反 感</w> 5207
南安 普敦</w> 5207
N H 5206
自 私</w> 5206
升 至</w> 5205
追 赶</w> 5205
机 枪</w> 5205
格 勒</w> 5203
2 3%</w> 5203
推 到</w> 5203
跌 幅</w> 5202
国际 性</w> 5202
安 南</w> 5201
触 摸</w> 5199
8 0 5198
不 合 5197
St ew 5197
Gar y</w> 5197
展 览会</w> 5194
4. 3</w> 5194
A D</w> 5193
随 著</w> 5193
控 诉</w> 5193
表 彰</w> 5192
维多利亚 州</w> 5192
蝴 蝶</w> 5191
发展 局</w> 5191
大 主教</w> 5188
定 量</w> 5188
滥 用 5187
B ir 5185
英 文 5184
疏 远</w> 5184
蜘 蛛</w> 5183
男 童</w> 5182
转 折 5182
侵 权</w> 5181
屁 股</w> 5181
2 3. 5180
校 友</w> 5180
防 线</w> 5180
调 和</w> 5178
海 边</w> 5177
布宜诺斯 艾利斯</w> 5177
Mar co</w> 5175
签署 国</w> 5175
石 块</w> 5174
至 多</w> 5174
塞 舌 5173
0. 7%</w> 5172
农业 部门</w> 5172
覆盖 率</w> 5172
哈佛 大学</w> 5172
把 手</w> 5171
4 9 5170
洋 葱</w> 5170
从业 人员</w> 5170
20 4</w> 5169
ac e 5169
缓 冲 5168
高 压</w> 5167
检 察</w> 5167
机 理</w> 5166
斗 牛 5165
审 问</w> 5164
多 夫</w> 5163
表示 满意</w> 5163
平 息</w> 5160
骑 士 5160
膨 胀率</w> 5160
O N 5158
ern and 5158
粗 暴</w> 5157
该 省</w> 5157
水 库</w> 5156
er man</w> 5154
7 000</w> 5153
E st 5153
按 摩</w> 5153
ig h</w> 5153
二十 世纪</w> 5152
病 毒 5151
现实 生活</w> 5151
虚拟 现实</w> 5151
州 州 5149
恩 说</w> 5148
奥斯 汀</w> 5148
木 星</w> 5146
各 届</w> 5146
倒 下</w> 5146
28 %</w> 5146
佳 士 5145
合 计</w> 5145
宏 伟</w> 5144
率 为</w> 5144
法律 依据</w> 5143
庄 园</w> 5142
风 速</w> 5142
克 莉 5141
Un ited</w> 5141
k ins</w> 5140
城 里</w> 5140
性 犯罪</w> 5140
法律 义务</w> 5140
M ir 5139
其 为</w> 5139
披 头 5139
起 诉 5138
个 世纪</w> 5138
al i</w> 5138
利润 率</w> 5138
巴 厘</w> 5136
十 五</w> 5136
陛 下</w> 5135
知名 度</w> 5135
另 一方</w> 5132
谋 生</w> 5131
来 回</w> 5130
韦 斯特</w> 5129
特 利</w> 5129
精 子</w> 5129
Be y 5129
哥伦比亚 特区</w> 5129
佩 斯</w> 5128
市 值</w> 5128
手 下</w> 5128
报 警</w> 5128
我 爱 5128
无法 控制</w> 5128
杠 杆</w> 5127
富 有 5126
中 等教育</w> 5126
沉 积 5126
肺 炎</w> 5126
10 0000</w> 5126
新闻 自由</w> 5126
住 宅 5125
A B 5123
当 务 5123
递 解</w> 5123
S B 5122
饱 受</w> 5122
自然 人</w> 5121
磨 损</w> 5120
第五 章</w> 5120
b l 5119
信 赖</w> 5119
几 秒钟</w> 5118
赞 美</w> 5117
纸 张</w> 5117
当务 之急</w> 5117
CA T</w> 5115
希 斯</w> 5114
前 赛</w> 5114
身 为</w> 5114
普 拉 5112
基 辅</w> 5111
巴 拉</w> 5109
拆 毁</w> 5109
量 子</w> 5109
谦 虚</w> 5107
其 管辖</w> 5106
好 运</w> 5106
经 纪</w> 5106
高 水平</w> 5105
二 次</w> 5105
守 卫</w> 5105
比 起</w> 5104
冷 漠</w> 5104
敌 军</w> 5104
T ran 5102
一 夜 5101
芭蕾 舞</w> 5101
公正 性</w> 5101
w ick</w> 5100
两 起</w> 5100
3 40</w> 5098
Stew art</w> 5098
失 败 5097
干 细胞</w> 5097
萝 卜</w> 5097
休 会</w> 5096
西 非国家</w> 5095
四 大</w> 5095
消防 队员</w> 5094
科 利</w> 5093
无 国界</w> 5093
标 本</w> 5093
大 奖</w> 5091
万 年</w> 5091
头 顶</w> 5090
通货 膨胀率</w> 5090
Tes la</w> 5089
H un 5088
S erv 5088
Moh amed</w> 5088
分辨 率</w> 5088
米 切尔</w> 5087
图片 说明</w> 5086
车 里</w> 5085
il a</w> 5085
掌 控</w> 5084
档 案 5084
数以百 万计</w> 5084
大 理 5083
E A</w> 5083
N P 5083
丰 厚</w> 5083
相关 者</w> 5083
中 性</w> 5082
6 0 5080
伙 计</w> 5080
盟 军</w> 5080
挪 威 5080
19 %</w> 5080
I an</w> 5079
博 士学位</w> 5079
性 传播</w> 5079
外 壳</w> 5078
喉 咙</w> 5078
第四十 九届</w> 5078
不 下</w> 5077
堪 萨斯 5076
堪萨斯 城</w> 5076
加 仑</w> 5075
G ab 5074
K a 5074
安德 鲁斯</w> 5074
Ahm ed</w> 5074
麦卡 锡</w> 5074
出 价</w> 5073
该 科</w> 5073
移民 局</w> 5073
学 士学位</w> 5072
红 利</w> 5072
真 人 5069
联络 点</w> 5069
分 泌</w> 5068
ig ht 5068
信仰 自由</w> 5068
驻 科</w> 5067
老 实</w> 5067
H ill 5066
施 瓦 5066
波 利 5066
彭 斯</w> 5066
埃 利 5066
起 源于</w> 5066
香 料</w> 5065
傍 晚</w> 5065
众 人</w> 5065
马 丁 5064
班 级</w> 5064
D o 5063
ay ne</w> 5062
转折 点</w> 5062
热 心</w> 5061
情报 机构</w> 5061
澳大利亚 政府</w> 5061
加 倍</w> 5060
中 型</w> 5060
头 巾</w> 5060
极 少</w> 5060
闪 亮</w> 5060
w in</w> 5059
2 1. 5059
钞 票</w> 5059
虚 伪</w> 5058
没 能</w> 5058
小 屋</w> 5055
供 其</w> 5055
订 婚</w> 5054
笔记 本</w> 5054
本 杰明</w> 5053
拿 破 5053
尔 瓦</w> 5052
视 图</w> 5051
礼 品</w> 5051
T al 5050
礼 仪</w> 5050
更 进一步</w> 5050
ep h</w> 5050
恋 童</w> 5049
底 层</w> 5049
沉 浸</w> 5048
抵 触</w> 5048
四 种</w> 5048
袋 鼠</w> 5047
彩 虹</w> 5045
废 止</w> 5045
小 队</w> 5044
中 向</w> 5044
M os 5042
门 将</w> 5042
下 表</w> 5042
机 车</w> 5041
倾 销</w> 5041
罂 粟</w> 5041
里 安</w> 5040
结 社 5040
观察 家</w> 5040
服务 员</w> 5039
折 叠</w> 5038
阻 力</w> 5038
记 忆 5037
法 克斯</w> 5036
亚利桑 那</w> 5036
蓝 图</w> 5035
经济 区</w> 5035
霍 恩</w> 5034
地铁 站</w> 5033
2 21</w> 5032
各 不相同</w> 5032
商 用</w> 5031
结社 自由</w> 5031
证 据 5030
心 血管</w> 5030
十 多年</w> 5030
军 舰</w> 5029
族 人</w> 5029
象征 性</w> 5027
细 胞 5026
拿破 仑</w> 5026
颈 部</w> 5025
探 险 5025
剑桥 大学</w> 5025
2 28</w> 5024
献 给</w> 5024
以 西</w> 5024
G O</w> 5023
塞舌 尔</w> 5022
清 算</w> 5019
小组 会议</w> 5019
重 要 5017
面 对面</w> 5017
赔偿 金</w> 5017
两 岸</w> 5015
游 戏 5014
下 班</w> 5014
St an 5014
y s 5013
变 异</w> 5012
法律 法规</w> 5012
二 人</w> 5011
受 雇</w> 5010
奶 奶</w> 5010
季 前赛</w> 5009
n e 5008
2 41</w> 5008
创造 条件</w> 5008
弗 雷德</w> 5007
阿 肯 5006
力 图</w> 5006
I l 5005
十 年代</w> 5005
票 据</w> 5005
N o 5004
无 关 5004
说 家</w> 5004
退 款</w> 5004
马 路</w> 5003
水 分</w> 5003
参 选</w> 5003
唤 醒</w> 5003
调查 报告</w> 5003
And y</w> 5003
北 美洲</w> 5001
香港 特别行政区</w> 5001
预 备 5000
施 压</w> 4999
螺 旋</w> 4999
因 涉嫌</w> 4998
请 问</w> 4998
防 扩散</w> 4998
爱 玛</w> 4997
灾 后</w> 4997
re y</w> 4997
沃尔 玛</w> 4997
社 群</w> 4995
肾 脏</w> 4995
出口 国</w> 4995
内 务 4994
传 唤</w> 4994
外 勤人员</w> 4994
苹果 公司</w> 4994
ad o</w> 4993
一 瓶</w> 4992
I CC 4991
相 遇</w> 4991
青春 期</w> 4991
交通 事故</w> 4990
3 8 4989
现 今</w> 4988
平均 数</w> 4988
洛佩 兹</w> 4988
别 无 4987
充分 发挥</w> 4987
极其 重要</w> 4987
银 色</w> 4986
为 首</w> 4986
7. 5</w> 4986
出 差</w> 4985
奢 华</w> 4985
刑 警</w> 4984
管理 处</w> 4982
牢 固</w> 4981
探 险</w> 4981
多 大</w> 4979
园 艺</w> 4979
马 刺</w> 4978
一 职</w> 4978
脑 部</w> 4978
两 岁</w> 4977
拇 指</w> 4977
负责 管理</w> 4977
付 诸</w> 4975
时 效</w> 4974
服 兵役</w> 4974
3 3%</w> 4973
罗 比</w> 4972
之 害</w> 4971
索 尔</w> 4971
集中 营</w> 4969
希 伯 4968
贝 卡</w> 4968
当 今 4967
口 语</w> 4967
蜂 蜜</w> 4967
公 海</w> 4966
厉 害</w> 4966
生物 学家</w> 4966
基 米尔</w> 4965
小 型 4965
公 吨</w> 4965
卡扎 菲</w> 4965
非 法行为</w> 4964
笨 拙</w> 4964
多米 尼克</w> 4964
塔斯马 尼亚</w> 4964
中华 民国</w> 4963
莱 尔</w> 4962
物理 学家</w> 4961
发 音</w> 4960
屋 里</w> 4959
坚 固</w> 4959
一 双</w> 4959
E le 4958
不 成 4958
管理 制度</w> 4958
舌 头</w> 4957
a o</w> 4956
分 销</w> 4956
f f</w> 4953
建 模</w> 4953
跟 进</w> 4953
从 没</w> 4952
识 字</w> 4952
今天 下午</w> 4952
u a</w> 4950
会 场</w> 4950
og an</w> 4950
19 7</w> 4949
大理 石</w> 4949
科 夫</w> 4948
尚 待</w> 4948
加 盟</w> 4947
从 那 4946
发电 厂</w> 4946
体 检</w> 4945
在此 之前</w> 4945
H ug 4944
名人 堂</w> 4944
晚 饭</w> 4943
绅 士</w> 4943
岁 月</w> 4943
私 权</w> 4941
19 00</w> 4941
克里 姆 4941
伯 恩 4940
壁 画</w> 4938
运 往</w> 4938
加州 大学 4937
冠军 联赛</w> 4937
条 所</w> 4936
巡回 演出</w> 4936
2 4. 4935
经济 衰退</w> 4935
财务 管理</w> 4935
Sim on</w> 4935
普 罗 4934
视 频 4934
未 曾</w> 4934
个 性化</w> 4934
在我 看来</w> 4934
W in 4933
劳 伦</w> 4933
比 奥</w> 4933
使用 权</w> 4933
斯 卡 4932
冈 州</w> 4932
佳士 得</w> 4932
权 衡</w> 4931
牙 医</w> 4931
描 写</w> 4931
保持 联系</w> 4931
联络 处</w> 4931
RE S</w> 4931
纳 米</w> 4929
传 教士</w> 4929
祖 父母</w> 4929
非洲 统一 4928
非洲统一 组织</w> 4928
筛 查</w> 4927
提 琴</w> 4925
爱 上</w> 4925
A I 4924
谢 尔 4923
觉 醒</w> 4923
省 长</w> 4923
Pat rick</w> 4923
保 姆</w> 4922
低 点</w> 4922
投资 银行</w> 4922
Kell y</w> 4922
拉 拉</w> 4921
M P</w> 4921
很 强</w> 4921
热带 风暴</w> 4921
阿卜耶 伊</w> 4921
缅 甸 4920
Ma c</w> 4920
音乐 剧</w> 4920
2 16</w> 4919
房 东</w> 4919
据 点</w> 4919
住 房 4918
举 例 4918
击 落</w> 4918
农业 部</w> 4918
阿 桑 4917
此 刻</w> 4917
N at 4916
不 易</w> 4916
场 面</w> 4916
克 朗</w> 4915
人 有</w> 4915
不 善</w> 4915
办公 厅</w> 4915
方 形</w> 4914
后 方</w> 4914
借 款人</w> 4914
指挥 部</w> 4914
欧 冠</w> 4912
两 部</w> 4912
弗拉 基米尔</w> 4912
科 尔曼</w> 4911
Sub .2</w> 4911
I r 4910
奥 斯</w> 4910
欣 慰</w> 4910
猪 肉</w> 4910
装 运</w> 4910
y er</w> 4907
这 幅</w> 4907
初 中</w> 4906
导 体</w> 4906
即 决</w> 4906
枢 纽</w> 4906
避孕 药</w> 4905
真人 秀</w> 4905
B i 4904
欧 共体</w> 4904
青 春</w> 4903
V III</w> 4903
酸 盐</w> 4903
速 效</w> 4903
好 看</w> 4903
ag a</w> 4903
富 豪</w> 4902
参谋 长</w> 4902
二 年</w> 4901
脱 落</w> 4900
说 是</w> 4900
健身 房</w> 4900
兰 开 4899
推 理</w> 4899
话 语</w> 4899
树 枝</w> 4898
泛 滥</w> 4898
言 不 4898
这 样 4898
案 中</w> 4898
撒 切尔</w> 4897
台 上</w> 4896
边 界 4895
哥伦比亚 大学</w> 4895
伯 拉 4894
长 者</w> 4894
显示 器</w> 4894
T on 4893
情 人节</w> 4892
政治 化</w> 4892
香 味</w> 4891
塞浦路斯 共和国</w> 4891
I CE 4890
兼 容</w> 4890
un d</w> 4890
警 员</w> 4885
谋杀 案</w> 4885
5 5 4884
杰 里</w> 4884
at es</w> 4884
迪 西</w> 4883
霍 奇 4882
突 变</w> 4882
磁 场</w> 4881
oo l</w> 4881
我爱 你</w> 4881
嘉 莉</w> 4880
光 盘</w> 4880
致 死</w> 4880
辖 市</w> 4878
天主 教徒</w> 4877
霍 普 4876
降 到</w> 4876
S ur 4873
斯 勒</w> 4872
周 期 4872
视 听</w> 4872
栖 息 4872
棵 树</w> 4871
根本 性</w> 4871
id a</w> 4870
太阳 报</w> 4870
加 西亚</w> 4869
世 纪 4869
意 见 4869
2 55</w> 4868
详细 情况</w> 4868
切尔 诺 4867
无关 紧要</w> 4867
al s</w> 4866
居民 区</w> 4866
机会 均等</w> 4866
起 码</w> 4865
解 救</w> 4864
亨 德森</w> 4863
集 群</w> 4863
年龄 组</w> 4863
Dav id 4862
训练 营</w> 4862
准 军事</w> 4861
妇 人</w> 4861
不 然</w> 4860
隐 私权</w> 4860
为 数 4859
联合 体</w> 4859
夏 绿 4857
一 则</w> 4857
同 酬</w> 4857
俄勒 冈州</w> 4857
净 化</w> 4855
一 顿</w> 4854
洛杉矶 分校</w> 4854
贯 彻 4853
Jos eph</w> 4852
组 装</w> 4850
邮 箱</w> 4850
访问 团</w> 4850
加 薪</w> 4849
增 列</w> 4849
长 寿</w> 4849
格里 芬</w> 4849
时 才</w> 4848
天 基</w> 4848
水 质</w> 4848
不 容</w> 4848
职 司</w> 4848
悬 而 4848
悬而 未决</w> 4848
2 1%</w> 4847
爆炸 事件</w> 4847
坦 率地</w> 4846
竞 技</w> 4844
南 太平洋</w> 4844
总 表</w> 4844
弗雷 泽</w> 4844
栖息 地</w> 4844
C ent 4843
2 75</w> 4842
衰 竭</w> 4842
功 于</w> 4841
不结 盟</w> 4840
平 时</w> 4839
O m 4838
宽 度</w> 4838
票 数</w> 4838
服务 公司</w> 4838
6 5%</w> 4837
M ot 4837
再 次 4837
品 尝</w> 4836
摆 在</w> 4836
年 时</w> 4834
斯 本</w> 4833
2 7%</w> 4833
五 分钟</w> 4833
回 头</w> 4833
归 功于</w> 4833
提出 申请</w> 4833
三 岁</w> 4830
亚 特</w> 4830
ew s</w> 4830
绳 子</w> 4829
英国 首相</w> 4829
Mu h 4829
b ox</w> 4828
补 充 4828
2. 6</w> 4828
默 多克</w> 4827
埃塞 克斯</w> 4827
R I</w> 4826
收 录</w> 4826
偿 付</w> 4826
安大 略 4826
相 撞</w> 4825
书 中</w> 4825
几 小时</w> 4825
可 可</w> 4824
与 发展 4824
哮 喘</w> 4824
哥伦 布</w> 4824
经济合作 与发展 4824
经济合作与发展 组织</w> 4824
反对 票</w> 4822
任 天堂</w> 4821
奖 章</w> 4821
军事 化</w> 4821
温 泉</w> 4820
里 尔</w> 4820
贝克 汉姆</w> 4820
J as 4819
覆盖 面</w> 4819
利 特</w> 4818
海 事 4817
本 应</w> 4816
立法 机关</w> 4815
天 线</w> 4814
总体 而言</w> 4814
公 牛</w> 4813
避 税</w> 4813
流浪 者</w> 4813
B ill 4812
描 绘 4812
文 凭</w> 4811
M ak 4810
2 66</w> 4810
带 入</w> 4810
特 洛伊</w> 4809
阴 道</w> 4809
执 导</w> 4809
危 急</w> 4809
较 少</w> 4809
法律 效力</w> 4808
加州大学 洛杉矶分校</w> 4808
汤 加</w> 4807
启 示</w> 4806
v an</w> 4805
司令 部</w> 4805
A M</w> 4804
普 拉</w> 4802
酒 厂</w> 4801
让 人</w> 4801
近 乎</w> 4800
河 谷</w> 4800
几 点</w> 4800
回 升</w> 4800
A S</w> 4799
精神 药物</w> 4799
斯 密斯</w> 4797
天 性</w> 4797
0. 1%</w> 4797
大 地</w> 4795
过 期</w> 4795
詹 妮弗</w> 4794
2 69</w> 4793
s e 4792
驱 动 4792
est er</w> 4792
方 言</w> 4791
户 主</w> 4791
疲 力 4791
an ia</w> 4790
会议 记录</w> 4790
合作 项目</w> 4790
应 立即</w> 4789
后 院</w> 4789
联合 政府</w> 4789
初 等教育</w> 4788
铜 牌</w> 4788
科 隆</w> 4787
瑞 斯</w> 4787
毒 者</w> 4787
前 列 4786
带 头</w> 4786
食 者</w> 4786
内 存</w> 4785
嘉 宾</w> 4785
d el</w> 4783
连 续 4783
转 动</w> 4783
Add. 3</w> 4783
惠 特 4781
蒙 古 4779
I TV</w> 4778
2 17</w> 4778
修 补</w> 4777
竟 然</w> 4777
关键 性</w> 4777
日益 严重</w> 4777
基因 组</w> 4776
学 历</w> 4775
犯罪 人</w> 4774
国民 经济</w> 4773
Gri ff 4772
出口 商</w> 4771
地 缘</w> 4770
成 本 4770
上 游</w> 4770
新 高</w> 4769
晴 朗</w> 4768
抱 负</w> 4768
认 真 4767
多 媒体</w> 4766
瓦 卢</w> 4765
数据 中心</w> 4765
前 沿</w> 4764
此 一</w> 4764
保护 法</w> 4764
位 居</w> 4763
里 斯本</w> 4763
19 43</w> 4763
政府 军</w> 4763
比 较 4762
焊 接</w> 4762
18 00</w> 4762
尔 茨</w> 4761
洛 奇</w> 4761
2 65</w> 4760
上 议院</w> 4760
一 书</w> 4759
轮 廓</w> 4759
盲 人</w> 4759
很 酷</w> 4758
迪 奥拉</w> 4757
B ou 4757
黑 帮</w> 4757
我 愿</w> 4757
民主 联盟</w> 4756
Mit ch 4756
其 所</w> 4755
人 种</w> 4755
嘴 里</w> 4754
比 重</w> 4752
2 64</w> 4750
火 箭 4750
空 局</w> 4750
第十 九届</w> 4750
中国 共产党</w> 4749
p son</w> 4748
士 气</w> 4748
第 纳尔</w> 4748
女 神</w> 4748
谢 赫</w> 4747
自 发</w> 4747
en g 4747
强 力</w> 4746
公共 场所</w> 4746
I N</w> 4745
F IF 4745
胰 岛 4745
恢复 正常</w> 4745
J ay</w> 4744
人身 安全</w> 4744
无 能 4743
吻 合</w> 4743
阿肯 色 4741
日 于</w> 4739
之 声</w> 4739
一 栋</w> 4739
各个 领域</w> 4739
无 尽</w> 4738
时 会</w> 4736
瓦 拉</w> 4736
限 性</w> 4736
莉 莉</w> 4734
v a</w> 4733
百 万富翁</w> 4733
不管 怎样</w> 4733
康 沃尔</w> 4732
联 发援</w> 4732
图 瓦卢</w> 4730
闪 光</w> 4729
夏绿 蒂</w> 4729
私 立</w> 4728
交 由</w> 4725
替 补</w> 4725
速 率</w> 4724
较 长</w> 4724
密歇 根</w> 4724
全 人类</w> 4723
人员 编制</w> 4723
林 奇</w> 4722
金 星</w> 4722
围 困</w> 4722
植 被</w> 4722
和平 谈判</w> 4722
罗 恩</w> 4721
市 议会</w> 4721
6. 5</w> 4721
地理 信息系统</w> 4721
数 个</w> 4720
民用 航空</w> 4720
小 熊</w> 4719
L A</w> 4718
上 台</w> 4718
管 制 4717
猎 物</w> 4717
阿尔 卑 4717
失败 者</w> 4717
科 研</w> 4716
雄 性</w> 4716
手 法</w> 4716
随 即</w> 4716
外国 投资</w> 4716
梅 森</w> 4715
人 来</w> 4715
密 苏里 4714
精 算</w> 4714
19 36</w> 4714
亚 尔</w> 4712
伯 恩斯</w> 4712
恋 爱</w> 4712
跌 至</w> 4712
代 之</w> 4710
出 缺</w> 4709
阿肯色 州</w> 4708
外 情况</w> 4707
一 辆车</w> 4707
空 前</w> 4707
例 外情况</w> 4707
卡拉 巴赫</w> 4707
失 衡</w> 4706
橡 树</w> 4706
星 人</w> 4705
本 港</w> 4701
同 志</w> 4701
斯坦 利</w> 4701
3 8%</w> 4700
拘 留 4700
交换 意见</w> 4700
W a 4698
产 业 4698
为 力</w> 4698
T om 4697
颖 而出</w> 4697
脱 颖而出</w> 4697
英国 皇家 4697
叫 声</w> 4696
青年 党</w> 4696
常 识</w> 4695
亚 伯拉 4693
来 访</w> 4693
占领 军</w> 4693
亚伯拉 罕</w> 4693
一 时期</w> 4692
全 明星</w> 4691
演 化</w> 4691
卷 风</w> 4691
6. 2</w> 4691
城 乡</w> 4690
逐 字</w> 4689
卫 星 4689
两 分钟</w> 4689
信息 管理</w> 4689
告 诫</w> 4688
2 4%</w> 4687
圣 彼得 4687
远 见</w> 4687
斯旺 西</w> 4687
南 美</w> 4686
镇 上</w> 4686
警 觉</w> 4685
哈 里 4684
奥斯 丁</w> 4684
F A</w> 4683
使 该</w> 4683
致 辞</w> 4682
亵 渎</w> 4682
马 里奥</w> 4681
借 用</w> 4681
布拉 格</w> 4681
托特 纳姆</w> 4681
国 营</w> 4680
人 次</w> 4680
满意 度</w> 4679
科 普</w> 4678
政 见</w> 4678
鸦 片</w> 4678
蹒 跚</w> 4678
直 辖市</w> 4677
网 路</w> 4677
凝 聚 4676
角 度 4676
又 称</w> 4676
少 校</w> 4675
平 价</w> 4675
巴尔 干</w> 4675
分 会</w> 4674
无能 为力</w> 4674
钦 佩</w> 4672
起 步</w> 4672
民事 诉讼</w> 4672
格林纳 达</w> 4672
农 发</w> 4671
很 久 4671
Cam p 4671
辛 基</w> 4670
本 函</w> 4670
四 处</w> 4670
绝 佳</w> 4669
监督 管理</w> 4668
二 十</w> 4667
公民 投票</w> 4667
吉 利</w> 4666
T 恤</w> 4666
龙 卷风</w> 4666
牙 科</w> 4666
Je an</w> 4666
M ol 4665
十 大</w> 4665
诚 信</w> 4665
咳 嗽</w> 4665
Ch ap 4665
商业 性</w> 4665
特 种 4664
转 基因</w> 4663
水 管</w> 4662
慰 问</w> 4661
Lew is</w> 4661
2 76</w> 4660
Dec . 4660
2 38</w> 4659
福 克兰 4657
分 心</w> 4657
预警 系统</w> 4657
19 29</w> 4656
K n 4655
珍 惜</w> 4653
0. 2%</w> 4653
K am 4652
神 职人员</w> 4652
分 类 4652
2 53</w> 4651
生 日 4651
杂 项</w> 4651
报 率</w> 4651
y e</w> 4650
IB M</w> 4650
打 造</w> 4649
督 察</w> 4649
信息 中心</w> 4649
噩 梦</w> 4648
共同 利益</w> 4648
多 亏</w> 4647
l an</w> 4647
A li 4647
局 限性</w> 4647
不可 逆转</w> 4647
斯 说</w> 4646
下 游</w> 4646
海 豹</w> 4645
当 日</w> 4645
感 谢 4643
恶 性 4641
T T 4640
涂 鸦</w> 4640
选举 权</w> 4640
彻底 消除</w> 4640
取 而 4639
想 象 4639
评 定</w> 4639
邮 寄</w> 4639
乙 烯</w> 4638
着 迷</w> 4638
4 2%</w> 4637
清 洁 4637
跳 跃</w> 4636
5 7 4635
An th 4635
宝 马</w> 4634
碧 昂 4633
论 者</w> 4633
丹 利</w> 4632
取而 代之</w> 4632
提 振</w> 4631
恋 者</w> 4631
特 雷 4630
达尔 文</w> 4630
重大 贡献</w> 4630
刊 物</w> 4629
华 人</w> 4628
领导 力</w> 4627
年 满</w> 4626
身 分</w> 4625
2 24</w> 4624
温 斯顿</w> 4624
疑 虑</w> 4624
售 出</w> 4624
ic o</w> 4624
承 包</w> 4623
客 车</w> 4623
归 属</w> 4623
埃 迪</w> 4622
越 南 4622
圆 满 4621
奥斯卡 奖</w> 4621
n y</w> 4620
屋 子</w> 4620
标 明</w> 4620
ec t</w> 4620
检查 和</w> 4620
地 被</w> 4619
菲 尼克斯</w> 4619
台 北</w> 4619
农 夫</w> 4619
母 婴</w> 4618
断 言</w> 4618
搬 家</w> 4618
or a</w> 4618
l am</w> 4617
十 月</w> 4617
歌 剧院</w> 4617
13 25</w> 4616
L o 4615
松 散</w> 4615
气 压</w> 4615
吸烟 者</w> 4615
想象 力</w> 4615
河 畔</w> 4614
模 具</w> 4614
伊利 诺 4614
方 程式</w> 4613
小 伙 4613
路 障</w> 4612
稳 定 4612
害 羞</w> 4612
3 65</w> 4611
约 克</w> 4611
亲 切</w> 4611
印度 人</w> 4611
B on 4610
应 于</w> 4609
最终 目标</w> 4609
A B</w> 4608
科 特</w> 4607
一 号</w> 4607
回 报率</w> 4607
辍 学</w> 4607
回忆 起</w> 4607
拘留 所</w> 4606
存 入</w> 4605
钻 井</w> 4605
失 明</w> 4604
You n 4604
2. 5%</w> 4603
角度 看</w> 4603
佛 蒙特</w> 4602
狐 狸</w> 4602
与 众 4601
非 线性</w> 4600
大 米</w> 4599
加 倍 4599
阴 茎</w> 4599
第十 一条</w> 4599
加倍 努力</w> 4599
广 为</w> 4597
想 像</w> 4597
福克兰 群岛</w> 4597
am i</w> 4596
特 郡</w> 4595
树 脂</w> 4594
In f 4594
安 道尔</w> 4593
Mon t 4593
F i</w> 4592
胰岛 素</w> 4592
与众 不同</w> 4592
同 性 4591
Stre et</w> 4591
溶 液</w> 4590
隔 壁</w> 4590
Ale x</w> 4590
2 31</w> 4588
改 正</w> 4588
续 集</w> 4588
就此 结束</w> 4588
马 绍 4587
打 击 4587
N athan</w> 4585
总统 大选</w> 4584
上 市 4582
g r 4581
工 资 4580
补 给</w> 4580
林 宫</w> 4579
灰 尘</w> 4579
朱 莉</w> 4578
推 断</w> 4578
贬 低</w> 4578
引 述</w> 4577
可 达</w> 4576
滚 石</w> 4575
写 给</w> 4575
皮 书</w> 4574
外 围</w> 4574
场 馆</w> 4574
纪念 活动</w> 4574
Inst it 4574
麦当 娜</w> 4574
来 文 4573
织 物</w> 4573
看 似</w> 4573
投 标 4573
政策 措施</w> 4573
凯 恩斯</w> 4572
那 一刻</w> 4572
攀 升</w> 4572
税 收 4572
N ick</w> 4571
持续 增长</w> 4571
末 日</w> 4569
病 假</w> 4569
Te ch 4569
欠 款</w> 4568
D es 4567
小伙 子</w> 4567
阿 波罗</w> 4566
金 沙 4566
拿 走</w> 4565
景 色</w> 4565
噪 声</w> 4565
上市 公司</w> 4565
步 兵</w> 4563
视 察 4562
主 观</w> 4562
同性 恋者</w> 4561
H D</w> 4559
交 火</w> 4559
今年 年底</w> 4559
埃利 奥特</w> 4559
圣 文森特</w> 4558
合 伙</w> 4558
犯罪 现场</w> 4558
最低 点</w> 4558
大 鼠</w> 4557
3. 4</w> 4557
谋杀 罪</w> 4557
因 州</w> 4556
灯 塔</w> 4556
约 合</w> 4556
公民 自由</w> 4556
根本 原因</w> 4556
汤 米</w> 4555
肯 特</w> 4555
并 用</w> 4555
加 布里 4554
母 公司</w> 4554
洁 净</w> 4554
工 地</w> 4554
该 校</w> 4554
规划 系统</w> 4554
加布里 埃尔</w> 4554
i P 4553
药 性</w> 4552
强 硬 4552
价格 指数</w> 4552
C B 4551
S av 4551
局 限</w> 4551
恐怖 活动</w> 4550
K an 4549
莱 利</w> 4549
编 剧</w> 4549
Bri d 4549
机 动 4548
迪 卡</w> 4547
F ox 4547
发 明 4547
照 亮</w> 4547
ou t</w> 4547
1. 5%</w> 4547
互 补</w> 4546
收 缴</w> 4546
圣 多 4545
路 程</w> 4545
一 看</w> 4545
第十 五届</w> 4545
贸易 谈判</w> 4545
富 国 4544
首 演</w> 4544
收 拾</w> 4544
C S</w> 4543
h an</w> 4543
贾 森</w> 4542
on t 4542
查 找</w> 4541
主 厨</w> 4540
十 周年</w> 4540
---------------------------------------------------------------- -------------------------------- 4540
多 德</w> 4538
接 壤</w> 4537
淹 死</w> 4536
华 沙</w> 4535
W W 4534
D re 4533
管 弦 4533
约 法</w> 4533
缅 因州</w> 4533
馅 饼</w> 4533
i ra 4532
互 联 4532
混 合 4532
法 例</w> 4531
审 案</w> 4530
开展 业务</w> 4530
林 赛</w> 4529
凯 丽</w> 4528
4 4 4528
最 大 4528
矿 产</w> 4528
i f</w> 4527
玛 利亚</w> 4527
U s 4527
布 置</w> 4527
肖 像</w> 4527
坚 定 4527
u ri 4525
菲 茨</w> 4525
马 戏 4525
按 计划</w> 4524
富国 银行</w> 4524
依 旧</w> 4523
法兰 克 4523
苯 丙 4522
好 评</w> 4522
吓 坏</w> 4522
Al an</w> 4522
保留 意见</w> 4522
2 32</w> 4521
暴风 雪</w> 4521
患 上</w> 4520
犹太 教</w> 4519
兰 斯</w> 4517
Sar ah</w> 4517
德意志 银行</w> 4517
杰 尔</w> 4516
无 礼</w> 4516
苍 白</w> 4516
字 体</w> 4516
监察 组</w> 4516
肺 癌</w> 4515
人民 党</w> 4515
理 所 4514
菲 德尔</w> 4513
增 订</w> 4513
奇 特</w> 4512
in es</w> 4512
2 52</w> 4511
上 届</w> 4511
狭 隘</w> 4511
2 58</w> 4510
移 居</w> 4510
our n 4510
德 约</w> 4509
波 浪</w> 4509
过 失 4508
第十 六届</w> 4508
金融 时报</w> 4508
加 泰 4506
见 度</w> 4506
阿拉 木 4506
为时 过早</w> 4506
坏 人</w> 4505
用 地</w> 4505
oo k 4505
ab le</w> 4505
大 通</w> 4504
土 穆</w> 4504
水 量</w> 4504
南 极 4502
工 艺 4501
B ut 4500
伯 纳德</w> 4500
喀 土穆</w> 4500
留 住</w> 4500
新 书</w> 4499
大 笑</w> 4498
妮 可</w> 4498
并 购</w> 4498
这 部分</w> 4498
佣 金</w> 4498
规范 性</w> 4498
之 路</w> 4497
迈 尔斯</w> 4497
限 内</w> 4497
2 7. 4496
袜 子</w> 4496
2 23</w> 4495
做 成</w> 4493
or ia</w> 4493
G on 4492
能 为</w> 4492
抽 烟</w> 4492
五 日</w> 4491
利 奥</w> 4490
威 利</w> 4490
巴布 达</w> 4490
电动 汽车</w> 4490
2 39</w> 4489
三角 洲</w> 4489
那 场</w> 4488
an k</w> 4488
主 权 4487
那 不 4487
[...]
