t h 92687091
i n 65504433
th e</w> 58447077
a n 56924522
t i 51916541
r e 48837700
e n 41641441
e r 41234392
o n 38969626
o n</w> 36404151
o f</w> 34392543
e d</w> 33927734
a r 31771628
o r 30366900
an d</w> 29765172
in g</w> 28715932
t o</w> 27829780
o u 27181625
i t 26508229
e r</w> 24676234
e s</w> 24316450
i n</w> 22566493
s t 21931254
a ti 21480463
a l 20829103
a t 20540491
r o 20499892
a l</w> 20142486
p o 17875121
e c 16882979
i c 16669019
o m 15913821
o r</w> 15815813
a t</w> 15688297
a c 15485228
s i 15416568
a s</w> 14910674
e l 14115245
i s</w> 14019863
i l 13733117
a n</w> 13339238
i s 13003758
q u 12828572
po s 12481652
o t 12393374
m en 12315729
h e</w> 11891298
e s 11837804
u r 11153620
a s 10905223
& a 10803384
r i 10740426
ati on</w> 10702123
&a pos 10676526
e n</w> 10413324
v e</w> 10210136
- @</w> 9952727
@ -@</w> 9952727
p ro 9826099
p l 9774657
f or</w> 9589372
t s</w> 9457865
o l 9236070
&apos ; 9107677
c on 8804802
th at</w> 8761590
l y</w> 8748535
on s</w> 8746656
r a 8731799
h a 8645754
qu ot 8520797
u n 8504519
& quot 8473549
&quot ;</w> 8473549
d e 8254366
s u 8246140
w h 8063980
l i 8031415
T he</w> 7778598
c e</w> 7615012
men t</w> 7579950
ti on</w> 7410530
a g 7372940
l e 7312760
d i 7250200
a b 7126758
u s 6972816
re s 6926765
v i 6844312
a d 6740630
c om 6683640
it h</w> 6513846
e m 6267844
l o 6263993
&apos; s</w> 6238531
o p 6214975
ou n 6196218
a m 6168597
w ith</w> 6136091
b e 6131402
c h 5976076
l e</w> 5965516
v er 5936943
e x 5838854
c i 5790370
th e 5743254
g h 5689195
f or 5639885
i t</w> 5639764
t er 5601087
n o 5513863
a i 5409917
b y</w> 5381145
w as</w> 5373047
it y</w> 5364254
u l 5226993
p or 5195305
a y</w> 5116206
b e</w> 5001189
at e</w> 4924518
er e</w> 4805802
s h 4800929
f f 4792665
n e 4735762
ar e</w> 4717895
er s</w> 4704811
a p 4692658
l d</w> 4653350
en t</w> 4645679
on al</w> 4502648
a r</w> 4491357
p ar 4487817
ati ons</w> 4447129
i m 4349350
s e 4343975
t ed</w> 4282472
2 0 4263810
t r 4148410
f i 4043509
u c 3991144
p er 3957073
a k 3936471
t e 3920794
p e 3828427
b u 3786664
th er</w> 3777246
s t</w> 3770215
ou ld</w> 3742569
ro m</w> 3706674
m e 3673954
f rom</w> 3601855
d ing</w> 3554456
u m 3545908
w or 3498356
al l</w> 3491499
t er</w> 3428421
st r 3395432
ha ve</w> 3382350
d s</w> 3375671
T h 3360063
t h</w> 3342961
si on</w> 3340236
ou t</w> 3281475
it s</w> 3240933
c l 3207007
re n 3161012
m o 3143778
c o 3106330
h as</w> 3098993
a in 3098729
w e 3085789
re d</w> 3050479
no t</w> 3043829
m e</w> 3042584
ar y</w> 3016077
g i 2971028
s e</w> 2962168
h i 2960429
v el 2953931
ati onal</w> 2924359
g o 2880255
ai d</w> 2856444
d e</w> 2843367
i r</w> 2832880
s o</w> 2825809
s p 2820226
t ing</w> 2800820
S t 2782876
ti c 2768136
a y 2719227
gh t</w> 2714305
at ed</w> 2714242
il l</w> 2700532
an ce</w> 2696442
ti es</w> 2696031
on e</w> 2669663
d er</w> 2667837
em b 2647074
t y</w> 2625537
v er</w> 2623362
ur e</w> 2618305
ou r 2594710
s aid</w> 2572718
U n 2571867
es s</w> 2530429
con t 2517740
p re 2501114
o w 2498863
g e 2489667
c h</w> 2476031
d ed</w> 2470507
the ir</w> 2458095
m in 2455229
c oun 2451811
h is</w> 2444398
th is</w> 2440221
ou r</w> 2428235
o u</w> 2419064
ic h</w> 2402201
y e 2401915
i z 2353773
m an 2331322
v e 2328278
in g 2319535
f e 2312286
e p 2307151
r ou 2301712
d is 2289666
o o 2283774
C om 2281790
w ill</w> 2273071
20 0 2268816
it ed</w> 2264864
n ational</w> 2263625
ha d</w> 2262351
an t</w> 2254863
wh ich</w> 2244149
al ly</w> 2220320
re c 2193602
ic e</w> 2193321
por t</w> 2192085
g h</w> 2181547
ec i 2172552
ti ons</w> 2168658
o c 2166683
for m 2163908
I n 2160470
or e</w> 2140638
ab le</w> 2137846
i r 2136486
h e 2129987
be en</w> 2107103
w ere</w> 2099270
at es</w> 2085894
g e</w> 2061867
cl u 2056117
d uc 2027574
s ec 2009940
pl e</w> 2004505
m it 1999241
vel op 1988963
y ou</w> 1982532
v en 1963524
1 9 1957329
I n</w> 1931584
men ts</w> 1925476
in ter 1915293
a f 1904330
u b 1886548
ag e</w> 1865758
t u 1858365
en er 1854787
p res 1837658
g ra 1834104
d ay</w> 1830580
as t</w> 1819911
en ce</w> 1807520
es t</w> 1803357
s er 1795911
om e</w> 1790095
Un ited</w> 1788216
al so</w> 1786563
o ther</w> 1784932
the y</w> 1765744
l a 1747125
f in 1746499
d er 1743055
C on 1737556
ver n 1723933
bu t</w> 1719534
I t</w> 1715591
ar d</w> 1709841
20 1 1708374
i c</w> 1701666
p r 1699130
m ore</w> 1693662
t en 1686050
C h 1683305
t o 1670034
t ra 1664099
a d</w> 1663486
m is 1663398
t ri 1661403
w ould</w> 1644468
d u 1638364
pl e 1631503
es s 1624304
on g</w> 1623679
r u 1618525
ti ve</w> 1618258
c re 1616017
k e 1605944
us t</w> 1595435
wh o</w> 1588106
re s</w> 1586259
ou s</w> 1585165
de velop 1578948
i es</w> 1573322
&apos ;</w> 1568849
ac e</w> 1561228
ak e</w> 1554837
s o 1554048
k ing</w> 1545137
a u 1542002
k s</w> 1541040
g u 1540444
h o 1533555
e v 1522912
u p</w> 1517364
e st 1504519
en t 1501412
in clu 1498276
g n 1491886
al l 1490398
c es</w> 1486576
h er</w> 1479386
us e</w> 1478204
a in</w> 1476147
ec t</w> 1470185
men t 1460427
c an</w> 1451821
s ti 1447635
w i 1441010
in e</w> 1431924
ac c 1431801
fi r 1429831
pro vi 1429522
m on 1426710
re t 1424824
o ff 1421651
p ri 1411300
w e</w> 1393270
ar s</w> 1383185
g r 1382928
su p 1380115
c ri 1377000
f u 1373654
N ations</w> 1362656
o ple</w> 1359439
ener al</w> 1355243
am e</w> 1351200
l ic 1345507
al s</w> 1344475
m s</w> 1341733
u t</w> 1330340
gh ts</w> 1326836
e ment</w> 1323595
ab out</w> 1321484
el l</w> 1317644
as e</w> 1313501
emb er</w> 1313499
wor k</w> 1307795
&apos; t</w> 1307556
te e</w> 1303672
i d 1298016
st e 1297553
ci al</w> 1296637
g an 1296018
t w 1295221
i a</w> 1288945
o b 1287711
oun d</w> 1285457
v es</w> 1282594
k e</w> 1281664
u s</w> 1281352
d o 1280674
en ti 1276758
es e</w> 1266897
ay s</w> 1262012
e w</w> 1259157
S ec 1251909
or s</w> 1250513
mit tee</w> 1248482
v ed</w> 1246464
ac k</w> 1234560
ti me</w> 1232592
u d 1228416
an y</w> 1223349
m il 1223315
i st 1220880
m ar 1220260
or y</w> 1205447
ol d</w> 1205249
s y 1204645
lo w 1195718
res p 1195086
pe ople</w> 1194238
A n 1193000
ati ve</w> 1183553
b o 1181800
in to</w> 1181246
v ing</w> 1178813
t ec 1177874
ar i 1177765
op er 1173504
su b 1165379
R e 1162542
ing s</w> 1160358
is h 1153903
ye ar</w> 1150493
an s</w> 1147974
il l 1142370
Com mittee</w> 1141123
sh ould</w> 1140761
ic al</w> 1138033
el y</w> 1134580
i ties</w> 1129613
th an</w> 1125256
H e</w> 1121628
re l 1119504
p en 1111956
re g 1108682
0 0</w> 1107879
re e</w> 1107420
at ing</w> 1107118
St ates</w> 1104221
re qu 1104118
an d 1102525
ic i 1100526
o d</w> 1098779
f ac 1097030
G eneral</w> 1091940
ow n</w> 1091765
ne w</w> 1089577
af ter</w> 1087306
P ro 1084002
ad e</w> 1080191
com m 1072916
be t 1066274
e f 1064805
w om 1063149
W h 1061053
ol u 1060631
t e</w> 1059497
b ec 1054908
e ar 1053633
c er 1048713
ver y</w> 1047635
o se</w> 1044790
vern ment</w> 1042952
a re 1040957
k ed</w> 1040732
il e</w> 1040692
th ere</w> 1040028
n ing</w> 1036408
pro c 1035632
tw o</w> 1034957
no w</w> 1033518
inter national</w> 1033490
gan iz 1031787
um an</w> 1030803
h el 1030198
as s 1027159
s he</w> 1026847
si d 1026555
it e</w> 1022080
p h 1018300
wh en</w> 1015073
s el 1012236
f t</w> 1009710
b le</w> 1006609
t ure</w> 1006206
gra m 1005522
19 9 1004195
li c</w> 1003879
o ver</w> 1003183
u e</w> 993989
a v 991978
l l</w> 979127
ub lic</w> 979055
C oun 977655
com p 975579
b er</w> 974195
fir st</w> 972582
tri es</w> 970356
w ay</w> 966915
m y</w> 966553
su ch</w> 964879
a il 964374
e d 962176
e l</w> 961287
ur ing</w> 960403
si ons</w> 960098
i ght</w> 954884
ac h</w> 946116
g en 944202
D e 943876
v ic 941923
por t 941838
develop ment</w> 941671
st s</w> 939006
r an 937298
a m</w> 931434
u p 931089
il ity</w> 931051
m an</w> 926161
sh i 925096
tr y</w> 922667
u m</w> 921372
ac ti 920138
G o 919502
re gi 916560
le g 914112
n o</w> 911718
e y</w> 910807
su l 909679
U N 908937
the m</w> 908758
as ed</w> 905826
th rou 904468
un der</w> 904324
e t</w> 903379
ch il 899659
d re 898592
c ould</w> 897512
s ome</w> 894806
coun tries</w> 890444
per s 890074
inclu ding</w> 890047
ur ity</w> 889361
c ap 887964
m ade</w> 887912
in v 886605
in form 885492
b i 884797
ge t</w> 883087
for e</w> 879528
A s 878008
es ti 872592
mo st</w> 872501
wi th 872321
e g 870200
ch an 866532
lo c 865720
or d 864496
tr an 864233
p er</w> 860770
ye ars</w> 860598
e ff 860532
on om 855646
con si 852510
W e</w> 850595
wom en</w> 846630
ri ghts</w> 838494
d o</w> 836257
per i 834371
t ak 833197
cont in 832145
ci l</w> 831571
Th is</w> 829621
re port</w> 827563
ab l 821397
h n 819566
d el 818700
e t 817690
P ar 816647
an c 815265
f un 814233
im ple 813198
a st 812824
A f 811586
i f</w> 810501
s ed</w> 810139
c ent</w> 808706
r e</w> 808041
si gn 806857
on ly</w> 806754
ain st</w> 806030
is su 805993
l in 803810
tic al</w> 803003
n ed</w> 801247
w ell</w> 799236
m at 798203
ap pro 796401
d eci 795746
us ed</w> 794725
sp eci 793912
throu gh</w> 793383
r on 792571
r ic 792437
e i 792154
sti tu 791238
we en</w> 790585
li ke</w> 790158
at er</w> 788367
ag ainst</w> 786984
mis sion</w> 786803
Coun cil</w> 782845
ec onom 782742
p s</w> 782250
is h</w> 781173
ec ted</w> 781163
olu tion</w> 773498
at t 773260
resp on 772766
fe ren 772759
B ut</w> 771816
re por 767701
wh at</w> 764913
en ts</w> 764595
f ic 764249
bet ween</w> 762063
en d</w> 761480
m er 761162
r it 759620
or ganiz 758376
sup port</w> 757860
pro gram 755114
in i 753797
th ose</w> 751305
t or</w> 749559
o f 749078
o g 747105
d ra 745085
vi ew</w> 744505
f ol 741300
l and</w> 740818
g n</w> 740462
a use</w> 735687
m es</w> 735035
res s</w> 732897
l ed</w> 729179
ven tion</w> 728280
hi m</w> 726784
ste m</w> 726496
th ing</w> 726350
ren t</w> 725672
pl o 722207
h uman</w> 722196
s c 721250
man y</w> 720705
m a 719787
g re 719568
rou p</w> 719389
ter s</w> 717197
re m 714272
is t</w> 714133
str uc 712570
m ay</w> 711658
In ter 710670
un der 709503
d ic 709443
A c 708345
St ate</w> 706774
c ur 706296
en c 705285
c ol 705089
ro w 704524
t ly</w> 703719
inform ation</w> 702186
wh ere</w> 701741
in ce</w> 700513
ti onal</w> 699596
is e</w> 699132
j ust</w> 696818
comm un 695928
ri ght</w> 695875
A u 695271
lo w</w> 692905
as si 692555
be ing</w> 692343
n um 691110
Sec ret 689869
A r 688416
s ur 686556
in cre 686282
po in 684680
j o 684113
N o 683797
si s</w> 683465
f o 680963
y our</w> 680369
coun try</w> 678054
f ul 670707
t ur 670521
l ar 670071
di ff 669392
th ou 668529
M ar 667502
fu l</w> 667202
Ch in 667026
dre n</w> 666418
li on</w> 664644
f l 663875
m p 663759
ac h 663475
con cer 662363
w s</w> 662279
g es</w> 659531
sy stem</w> 658961
y ing</w> 658625
ou t 656618
par t 654918
c or 654532
v en</w> 652062
pro duc 651023
m ed</w> 650608
th ese</w> 650466
ar ds</w> 649976
be fore</w> 648183
t ake</w> 647904
R ep 647149
com e</w> 646707
s es 646091
f e</w> 645971
ul ar</w> 645584
in te 645495
ve l</w> 644644
al i 644335
s ure</w> 644310
st an 642202
ac t</w> 642062
ot e</w> 641945
b el 638116
A d 636306
ment ation</w> 635481
u t 633181
u res</w> 632973
shi p</w> 632220
s ch 630364
A l 628086
E n 625502
tran s 623748
l ast</w> 622656
al ity</w> 622230
lo o 620519
po l 619483
po lic 618096
res olution</w> 616656
feren ce</w> 615611
il y</w> 614511
& # 613463
m ake</w> 612405
st ed</w> 611741
t on</w> 610801
oo d</w> 610091
com men 609762
tec hn 609071
As s 608938
est abl 608284
t re 607133
ec ts</w> 603796
we e 603588
bu il 603534
v is 601719
on d</w> 601523
d ec 601011
M r 600704
ex t</w> 600385
&# 9 599111
f am 597741
an n 597476
g ed</w> 595605
th en</w> 595461
en d 593689
th ree</w> 592186
ment al</w> 591796
ol og 590953
chil dren</w> 590819
so ci 590163
1 0</w> 589771
ci p 589633
al th</w> 589348
oper ation</w> 586598
si de</w> 585358
W or 585341
im port 583129
si ble</w> 582657
ec tive</w> 582454
d uring</w> 581689
s ing</w> 580724
el l 580491
man ag 580132
sid ent</w> 579783
an ts</w> 578724
e qu 578350
au th 578001
me as 576573
ai r 576258
emb ly</w> 574932
si ve</w> 574806
T r 574637
st at 574571
ex p 573242
P re 573223
S p 573032
la w</w> 572596
en tr 572049
wh ile</w> 570692
wor ld</w> 570481
ot h</w> 570187
r is 570114
p p 567169
oo k</w> 566341
s en 565967
re le 564015
ho w</w> 563529
is m</w> 563015
or der</w> 562102
, 0 561625
ver s 559397
b r 559259
b ack</w> 558727
ish ed</w> 556983
e ting</w> 556022
m i 553738
tic le</w> 553329
c lo 553289
om e 553221
Ass embly</w> 552184
C o 551784
A mer 550172
ec tion</w> 549700
ne ed</w> 548845
sh o 548376
Amer ic 548021
po si 548000
ses sion</w> 546255
po li 545138
sel f</w> 544416
num ber</w> 544251
ri bu 543157
c ar 543009
re sul 542114
d on</w> 541911
Go vernment</w> 539976
s s</w> 539788
k no 538017
ch ar 537942
par tic 537196
bec ause</w> 536230
vic es</w> 536083
d es 535439
h an 535347
I s 535060
v ice</w> 534641
D ec 533399
st ance</w> 533207
u ro 532913
Mr .</w> 532785
vi ties</w> 532304
a ff 531703
fol low 530317
uc h</w> 529344
l an 528106
p ublic</w> 527250
Th ey</w> 526931
se t</w> 526361
g er</w> 525769
ain ed</w> 524594
m ak 522972
th er 522523
um p</w> 522081
Secret ary</w> 521411
re commen 521345
c our 521151
ef for 520735
s on</w> 519651
par t</w> 519186
ou th</w> 518327
d y</w> 517783
g o</w> 517146
le ar</w> 517141
vi ol 516918
H o 516192
ar ly</w> 515609
our ces</w> 515341
se e</w> 514865
ab ility</w> 514642
sec urity</w> 513038
for m</w> 512822
ap pl 511536
,0 00</w> 511126
a w 510860
re pres 508508
c all 507621
me di 506391
Inter national</w> 505967
par ti 505764
acti vities</w> 505302
D i 503996
go vernment</w> 502937
imple mentation</w> 501409
R i 500914
pro b 500114
b er 497924
t ro 497891
o ver 496491
s es</w> 494765
s it 492690
ra p 492096
A s</w> 491029
econom ic</w> 491026
j ect</w> 490860
L e 490685
E x 490605
Com mission</w> 490096
E uro 488844
d own</w> 488803
pl ay 487398
st ar 487023
N ew</w> 486443
m emb 485110
d oc 484956
d es</w> 482408
f ur 482006
or i 481503
requ i 480458
an cial</w> 480264
Con vention</w> 478818
l ine</w> 478698
di rec 478516
s a 478186
mil lion</w> 476230
me eting</w> 476179
Th ere</w> 475600
Af ric 475456
lo b 473999
ag re 472669
contin u 472033
re ad 470993
ap pe 470299
An d</w> 468975
b an 466366
st ud 465719
par ty</w> 465296
ev en</w> 464979
O ff 464473
of f</w> 464268
M o 463709
le vel</w> 463262
Tr ump</w> 462580
un i 462117
b il 460999
L i 460861
ad op 460416
kno w 459794
r y</w> 459232
b oth</w> 458327
li fe</w> 457954
p ur 457890
m ust</w> 457790
al e</w> 457617
di d</w> 457435
s ince</w> 457294
al iz 456461
we ver</w> 456125
th in 455502
as es</w> 454194
g in 454131
f ra 454042
t en</w> 452862
ti c</w> 452447
so cial</w> 452304
le ad 451580
n e</w> 451170
h ol 449541
in ing</w> 449208
tak en</w> 449054
go ing</w> 447358
c am 447161
s ame</w> 446938
pl ace</w> 446919
s ome 446357
P e 445897
n i 445192
ac tion</w> 444330
Chin a</w> 444049
i str 443753
u ation</w> 442791
go od</w> 441691
sti ll</w> 441297
cri min 440958
l ong</w> 440943
J o 438540
meas ures</w> 438441
ad d 437890
2 0</w> 437127
diff e 437075
Un i 436705
hi gh</w> 436504
p ul 436486
b a 435992
ne e 434599
proc ess</w> 434520
res t</w> 433622
S he</w> 432605
pro pos 432515
b ased</w> 432469
vi ron 431991
cont ro 431941
ke t</w> 431696
im pro 431223
chan ge</w> 431148
m uch</w> 431126
n er</w> 430798
ati c</w> 430189
B o 430041
e duc 429763
go vern 429658
h ou 429304
c ul 426705
memb ers</w> 426667
ac coun 426477
li m 426267
ag es</w> 425736
l ing</w> 425550
ac k 425441
p a 425380
fin ancial</w> 424820
he alth</w> 421303
i e 421110
l ess</w> 421028
b us 420010
hi gh 419921
parti cip 418875
v al 418507
fi c</w> 418361
h ar 417391
or ity</w> 417078
3 0</w> 415847
ser vices</w> 415806
s ays</w> 415052
n ot 414814
program me</w> 414417
i d</w> 414325
regi onal</w> 414232
sh all</w> 412132
com ple 411845
min istr 411491
cont ribu 411449
effor ts</w> 411164
pl an 411134
in ci 410442
with in</w> 410147
fi ed</w> 409645
1 2</w> 409083
n on</w> 408683
l es</w> 408627
em s</w> 408172
oo l</w> 408160
rec ei 407825
fur ther</w> 407796
it al</w> 407514
A t</w> 407425
pol ice</w> 405986
poli tical</w> 405949
I f</w> 405944
1 5</w> 405688
in ation</w> 405263
O r 405229
u al</w> 405128
c u 404707
s m 404581
provi de</w> 404467
b ro 404177
pen d 403883
t le</w> 403328
af f</w> 402726
F e 402449
De velop 401835
com pl 401132
leg al</w> 398696
d ate</w> 397835
po w 397738
P ol 396268
issu es</w> 396208
organiz ations</w> 394734
il i 393861
p e</w> 393821
co operation</w> 393697
ati on 392322
g g 391896
vel y</w> 391539
M on 391368
pro tec 391014
el d</w> 391012
s ol 390992
e ach</w> 390787
res ources</w> 390699
import ant</w> 390629
off ici 390321
t ors</w> 389238
ti on 389202
d at 388962
f ound</w> 388762
di vi 388340
deci sion</w> 388129
er i 387303
prob le 387199
th s</w> 386922
t old</w> 386541
hel d</w> 385875
lob al</w> 383705
k now</w> 383547
s pe 381429
cl ai 380283
w ays</w> 380088
h al 379613
a ve</w> 379604
c ha 378874
O n</w> 378540
plo y 378427
t ain</w> 378400
olog y</w> 378313
ad di 377866
Pre sident</w> 377613
par ag 376818
g roup</w> 375613
in d</w> 375575
ac e 375446
b re 375200
in ess</w> 374942
ren g 374536
S y 374250
p ai 374081
ou s 373464
sec ond</w> 373046
si a</w> 372894
Con ference</w> 372641
C ha 371405
mit ted</w> 371320
c a 370622
are as</w> 370233
Y ou</w> 370049
c y</w> 369901
st ate</w> 369743
ar ound</w> 369719
re co 369644
em p 369306
c ed</w> 369171
F or 369127
n ec 368997
ma j 368996
s k 368667
i l</w> 368301
st ri 368116
fam ily</w> 367968
as s</w> 367689
c ase</w> 366624
F or</w> 366536
c an 365909
T o</w> 365716
en sure</w> 365567
t al 365306
c us 365166
Sec urity</w> 364936
col l 364681
doc u 364022
with out</w> 363880
n er 363398
re i 363386
pl es</w> 362822
h ome</w> 362523
m ain 362113
Th at</w> 362022
bu d 361587
g row 361560
N or 361290
I m 361213
Rep ublic</w> 360764
thou gh</w> 360572
st aff</w> 360178
am ong</w> 359690
ex am 359198
ati ves</w> 358463
1 1</w> 358076
str at 358038
ent ly</w> 357584
manag ement</w> 357409
thin k</w> 357267
wh e 357209
follow ing</w> 356656
as on</w> 356379
peri od</w> 356316
m ul 356222
b ility</w> 355559
w ar 355313
c c 355288
in stitu 355072
wor king</w> 354339
pr is 353813
ro ss</w> 353672
Develop ment</w> 352886
n s</w> 352269
en g 352244
wor k 352172
polic y</w> 352085
- -</w> 351034
un e</w> 350522
ac hi 350445
&apos; re</w> 350443
e m</w> 350419
at ten 350157
S o 350136
us ti 350084
o m</w> 349387
1 0 349006
f er 348784
ec ti 348555
e p</w> 347898
s ay</w> 347663
M r</w> 346397
b en 345921
al y 345336
l it 344985
ad v 344957
f our</w> 344859
t or 344098
dra ft</w> 344009
en viron 343776
con f 343684
or ities</w> 343561
provi ded</w> 343270
rel ated</w> 342475
G roup</w> 342452
el ec 342309
J u 342282
hel p</w> 342040
pl ac 341851
ec u 341565
s ha 341105
ini ti 340017
st reng 339768
str y</w> 339514
di es</w> 339355
call ed</w> 339294
o p</w> 339291
esti g 338091
ve st 337713
at h</w> 337277
educ ation</w> 336191
p ut</w> 335544
ic ation</w> 335397
an t 334558
n ext</w> 334334
enc y</w> 334257
inv ol 334042
Ri ghts</w> 333938
g ress</w> 333704
ir d</w> 333463
b l 333298
g l 332914
assi stance</w> 332873
Dec ember</w> 332281
loc al</w> 331939
rap h</w> 331183
f il 330035
read y</w> 329148
el e 328832
f ri 328386
b ur 328292
repres ent 328263
commun ity</w> 328033
de red</w> 327862
e ver 327791
ep t 326806
qu es 326511
Off ice</w> 326361
dis cus 326220
j ud 326099
ke y</w> 325985
m en</w> 325616
su cc 325397
rele v 325027
s po 324493
ar ticle</w> 323980
N ational</w> 323625
Sp eci 322671
wee k</w> 322637
tic s</w> 322375
buil ding</w> 322285
pro m 322163
pos sible</w> 321650
it ary</w> 321488
g ing</w> 321280
v ari 321247
ex peri 321039
su m 320915
es p 320765
an other</w> 320607
M in 320052
are a</w> 319934
contin ue</w> 319869
S outh</w> 319022
M e 319004
H e 318663
off ic 318420
tra ining</w> 318357
w ater</w> 318002
n ess</w> 317279
P er 316950
de f 316376
ain s</w> 316104
ro le</w> 315866
p ic 315844
d n</w> 315510
develop ing</w> 315252
ful l</w> 315092
R us 314891
vi e 313964
partic ular</w> 313776
id enti 313738
en ing</w> 313706
sup por 313466
r ac 313352
1 4</w> 313231
fi ve</w> 312594
cap ac 312367
S er 312174
a k</w> 312014
recommen d 311832
con di 311107
w ant</w> 310541
I I</w> 310309
b est</w> 308841
parag raph</w> 308751
im p 307472
h ere</w> 307061
Wor ld</w> 306983
i ed</w> 306699
1 ;</w> 306240
&#9 1;</w> 306240
se ver 306133
O c 305989
pro f 305857
dat a</w> 305502
uc lear</w> 305349
to o</w> 305236
inv estig 305169
ou ra 304472
Au str 304355
sh ow 304209
H uman</w> 303867
at ur 303846
w in 303524
relev ant</w> 302872
d ri 302784
vers ity</w> 302647
n or 302463
pri v 302226
l at 301792
t ow 301771
consi der 301342
he ad</w> 301276
hal f</w> 301226
e ty</w> 300977
te am</w> 300407
de pend 299870
ret ur 299713
tr ac 299633
ex c 299363
diffe rent</w> 299332
ai l</w> 299185
u r</w> 298677
comp any</w> 298656
as h 298522
al ia</w> 298310
J une</w> 298232
fic ation</w> 298196
f oc 298181
posi tion</w> 298170
th ers</w> 298103
li ght</w> 297662
ir e</w> 297570
part ment</w> 296279
5 0</w> 295954
1 3</w> 295852
am es</w> 295792
1 8</w> 295742
fi eld</w> 295677
ai r</w> 295610
program mes</w> 295276
re view</w> 294917
Speci al</w> 294742
t a 294505
d ays</w> 294344
1 6</w> 294037
ve ment</w> 293846
g lobal</w> 293482
sit uation</w> 293322
h um 293226
rei gn</w> 293226
us ing</w> 293216
M ay</w> 293213
res ear 293037
3 ;</w> 292871
&#9 3;</w> 292871
ti mes</w> 292665
N e 292303
in dic 291941
nec ess 291911
speci al</w> 291492
ex pres 289405
t ook</w> 289261
repor ts</w> 289140
G u 288756
acc ess</w> 288151
st ing</w> 287939
re li 287492
l s</w> 287384
o s</w> 287279
at ely</w> 287141
pers on</w> 287140
vi sion</w> 286982
av ail 286805
le ft</w> 286604
str ic 286567
tre at 285736
st and 285598
tur al</w> 285593
Wh en</w> 284845
inte gr 284810
er ing</w> 284786
vi l</w> 284592
po pul 284497
mak ing</w> 284200
del eg 283336
ous ly</w> 283118
s h</w> 282984
h op 282067
par ties</w> 282047
mar ket</w> 281792
Euro pe 281389
ter min 281091
m ight</w> 280978
bo dy</w> 280768
in vest 280649
reg ul 280620
bus iness</w> 280516
e very</w> 280463
p ed</w> 280377
rec or 280214
ou gh</w> 279837
a z 278934
R o 278856
g rou 278386
2 5</w> 277961
p ub 277566
de b 277507
es day</w> 277381
d ge</w> 277013
contro l</w> 276863
si an</w> 276653
bet ter</w> 276641
ar t</w> 276161
protec tion</w> 275958
w ard</w> 275530
M an 275527
d om 275445
eff ective</w> 275420
f a 275231
com pe 275146
Ho wever</w> 274940
gi ven</w> 274931
do es</w> 274828
g ener 274709
en s</w> 274571
Ju ly</w> 274361
Europe an</w> 273988
ch all 273882
st ain 273730
pl ay</w> 273508
y oun 273436
Or ganiz 273315
c entr 273131
m or 272469
enti al</w> 272462
di st 272272
J an 272213
si bility</w> 271968
ben ef 271645
200 8</w> 271632
pers ons</w> 271464
n al</w> 271382
pl y</w> 271159
&apos; m</w> 271080
our s</w> 270675
. . 270465
s ci 269976
d ence</w> 269729
pe ace</w> 269712
acc or 269625
C ol 269109
t ot 268638
poin t</w> 268578
an aly 268538
in es</w> 268421
d en</w> 268249
de m 267919
at ure</w> 267887
an y 267761
con sul 267740
cam pai 267738
g y</w> 267378
si c</w> 266838
sch ool</w> 266730
ear ly</w> 266384
fu ture</w> 266369
del i 266313
li g 266231
S e 266224
usti ce</w> 266116
r or 265727
a red</w> 265425
grou ps</w> 265053
s w 264916
at s</w> 264746
O b 264522
c ases</w> 264363
establ ished</w> 264282
ec han 264193
ne ver</w> 264151
is ed</w> 263805
S u 263695
adop ted</w> 263625
1 7</w> 263464
C our 263345
g eneral</w> 263251
t y 263216
mil itary</w> 263070
in ed</w> 262948
requ est 262946
ep t</w> 262890
capac ity</w> 262672
ter m</w> 262634
or ing</w> 262601
appro pri 262179
ist er</w> 262044
G re 261797
in du 261767
mi gr 261764
tra de</w> 261522
b ed</w> 261459
r ul 260660
whe ther</w> 260543
O ne</w> 260478
maj or</w> 260277
B ri 260252
chil d</w> 259765
U S</w> 259645
pl an</w> 259481
sm all</w> 259415
v ot 259407
ad ministr 259183
Americ an</w> 259086
per form 259061
ci es</w> 259037
201 0</w> 259004
n uclear</w> 258948
an g 258513
fac il 258500
f ace</w> 258445
No v 258253
divi du 257805
&apos; ve</w> 257712
su ff 257560
L a 257527
ari at</w> 257395
de t 257072
ti l</w> 256861
ar ing</w> 256844
issu e</w> 256588
Mar ch</w> 256440
g s</w> 256003
pres ent</w> 255899
iz ed</w> 255567
em ploy 255359
ful ly</w> 255309
th re 254679
in ten 254466
nee ds</w> 254334
1 . 254266
proc e 253992
th em 253815
in t</w> 253437
se e 253261
incre ase</w> 253173
st ory</w> 253064
ic ations</w> 252950
viol ence</w> 252839
P al 252722
inclu de</w> 252577
gre at</w> 252561
form er</w> 252404
g an</w> 252009
e ver</w> 251760
c ent 251688
v al</w> 251679
se t 251589
i fic 251420
d ro 251268
j ects</w> 251199
or t</w> 251138
ul t</w> 250913
li k 250663
reg ard</w> 250642
con duc 250470
Y or 250447
b ri 250290
o ve</w> 250261
z e</w> 250179
mon ths</w> 250117
C ar 250112
acc ord 250069
bec ome</w> 250005
ay ing</w> 249972
avail able</w> 249779
th ird</w> 249673
resp ect</w> 249359
m ing</w> 249352
regi on</w> 249273
200 5</w> 249204
chall en 249197
Afric a</w> 249186
ser vice</w> 249138
ag end 249003
at or</w> 248646
S ept 248446
qu ar 248358
le ast</w> 248329
c are</w> 248265
D is 248153
st er</w> 248017
fe w</w> 247898
go t</w> 247883
sever al</w> 247836
Sept ember</w> 247780
in dividu 247670
tak ing</w> 247576
do m</w> 247353
c ity</w> 247324
ol s</w> 247315
for ce</w> 247283
g ame</w> 247246
200 9</w> 246476
i de 246376
st or 246323
l ater</w> 246246
201 2</w> 246175
201 1</w> 246140
w el 246113
port un 246082
200 6</w> 245685
accor ding</w> 245639
al ready</w> 245555
2 1</w> 245534
ke ep 245104
C entr 244990
ex ist 244915
d ers</w> 244908
conf lic 244804
n ight</w> 244436
sy st 244418
ser v 244360
H i 244273
Oc to 244236
f y</w> 244187
si onal</w> 244056
cur rent</w> 244023
co ord 243967
ur y</w> 243958
Nov ember</w> 243804
Octo ber</w> 243804
at ors</w> 243751
re ally</w> 243719
reco gn 243329
str u 243052
sign ific 242968
T ra 242754
e ments</w> 242498
agend a</w> 242453
S c 242407
re duc 241998
is l 241943
the re 241902
sho w</w> 241548
le vel 241446
Wh at</w> 241318
19 8 241266
gi ve</w> 241241
necess ary</w> 241219
t ar 241130
F in 241040
lit tle</w> 240994
Pro gram 240872
ari an</w> 240839
c le 240799
as h</w> 240531
ic s</w> 240520
ex per 240108
1 9</w> 240074
pro gress</w> 240017
c r 239447
a way</w> 239226
p ast</w> 239073
1 8 239024
200 7</w> 238988
U . 238817
am oun 238366
I C 238102
Cour t</w> 238048
ati s 237944
G er 237880
un til</w> 237856
pow er</w> 237653
we ap 237520
ever y 237277
stat ement</w> 237193
K o 237072
repor ted</w> 236902
b or 236842
of ten</w> 236758
y s</w> 236567
2 4</w> 236451
D em 236315
ish ment</w> 236064
p ass 235812
d en 235747
R ec 235663
he ad 235575
f ar</w> 235562
our ce</w> 235475
m echan 235445
201 4</w> 235328
op portun 234855
sign ed</w> 234775
t able</w> 234723
pro ject</w> 234650
com es</w> 234544
bud get</w> 234116
stan ding</w> 234047
com mit 233908
ecu tive</w> 233686
W ith</w> 233474
A pri 233198
Apri l</w> 233095
e ven 233056
w a 233045
2 2</w> 232822
gi r 232791
it ing</w> 232768
ch ed</w> 232589
f ree</w> 232533
accord ance</w> 232378
gen der</w> 232377
me ans</w> 232066
ag ain</w> 231984
m un 231741
know n</w> 231726
Organiz ation</w> 231584
w rit 231543
ain ing</w> 231487
ti al</w> 231121
Yor k</w> 230800
ne l</w> 230739
ter ror 230595
m it</w> 230550
er n</w> 230483
k ill 230466
loo k</w> 230435
com b 230342
fun c 230080
continu ed</w> 230038
recommend ations</w> 229947
du e</w> 229808
rec ent</w> 229798
Is ra 229708
u ary</w> 229531
Program me</w> 229117
f ood</w> 228929
struc tion</w> 228867
r un 228843
en ni 228795
ge ther</w> 228789
e gi 228473
F i 228363
an k</w> 228345
pr inci 228161
B e 228013
en ces</w> 227860
ti m 227724
201 3</w> 227657
gen cy</w> 227579
ris k</w> 227465
Q u 227327
al ways</w> 227238
C an 226823
A ll</w> 226721
P l 226565
De partment</w> 226554
Jan uary</w> 226233
f re 226025
resul t</w> 226002
me th 225939
d on 225853
ba sis</w> 225797
mon ey</w> 225468
an it 225036
ul arly</w> 224985
al low 224982
In di 224701
st re 224697
con clu 224690
Go vern 224633
stud y</w> 224351
se qu 224140
stain able</w> 223985
en ted</w> 223862
si x</w> 223803
R es 223603
ab ly</w> 223529
consul t 223407
em er 223379
p i 223262
le t 223232
H is</w> 223220
c ame</w> 222846
Ar ticle</w> 222800
polic ies</w> 222056
pro per 222039
si on 222034
lar ge</w> 221830
appropri ate</w> 221720
M is 221505
ex pl 221502
mon th</w> 221412
ic k</w> 221368
accoun t</w> 221314
S .</w> 221111
p ing</w> 221028
in c 220994
200 4</w> 220920
air s</w> 220877
pre vi 220825
techn ical</w> 220508
ge t 220315
Afric an</w> 220174
ri ed</w> 219811
enc oura 219761
priv ate</w> 219622
de termin 219512
2 3</w> 219408
ag o</w> 219329
mon it 218996
ess es</w> 218984
consi dered</w> 218844
C lin 218725
youn g</w> 218647
develop ed</w> 218534
ti sh</w> 218401
auth orities</w> 218348
M ember</w> 218099
ne y</w> 218035
pr ac 218001
con om 217871
v ol 217656
partic ularly</w> 217609
E conom 217449
to gether</w> 217357
per cent</w> 217225
v o 217172
level s</w> 217083
in j 216876
b all</w> 216617
leg isl 216527
medi a</w> 215989
l y 215714
n ers</w> 215354
201 5</w> 215048
P h 214820
techn ology</w> 214794
T ur 214542
w it 214416
ser i 214347
ic k 214192
resear ch</w> 213693
ass ess 213596
d ru 213508
tot al</w> 213475
3 1</w> 213376
b ru 213314
recei ved</w> 213183
ab ove</w> 212701
Chin ese</w> 212538
hou se</w> 212438
ha ving</w> 212249
it em</w> 212186
se en</w> 212184
on es</w> 211915
m er</w> 211689
Th ese</w> 211639
m ember</w> 211616
institu tions</w> 211413
comp an 211278
se ason</w> 211146
pers on 210852
Bo ard</w> 210749
b al 210560
vic ti 210560
ve red</w> 210432
2 . 210413
to p</w> 210223
F o 210198
Americ a</w> 209887
sp ace</w> 209867
lo t</w> 209764
tro duc 209729
ci r 209600
wom an</w> 209369
up on</w> 209315
de fin 209298
exp ected</w> 209245
ab or 208964
W om 208805
requi re 208729
du ce</w> 208696
soci ety</w> 208672
condi tions</w> 208550
d ly</w> 208479
s al 208441
con c 208437
ot ing</w> 208414
a vi 208274
ac y</w> 208210
ex ten 208111
et ings</w> 208075
m u 208046
cour t</w> 208045
si gn</w> 208017
tu al</w> 207999
S h 207980
en sive</w> 207942
le ar 207844
c lear</w> 207829
co st</w> 207809
p u 207804
fin d</w> 207545
speci fic</w> 207542
pos ed</w> 207361
resul ts</w> 207184
o ds</w> 206726
F un 206709
grow th</w> 206708
w at 206676
concer ned</w> 206553
c o</w> 206524
com ing</w> 206508
Dem oc 206478
popul ation</w> 206127
me work</w> 206115
d a</w> 206085
s ing 206041
in a</w> 205995
campai gn</w> 205962
govern mental</w> 205822
diff ic 205674
ap er</w> 205659
propos ed</w> 205352
Clin ton</w> 205084
ar ri 205064
c at 204980
lik ely</w> 204798
on g 204362
Af ter</w> 204158
anc ing</w> 203988
4 0</w> 203978
en ed</w> 203947
fac t</w> 203825
bel ie 203692
N o</w> 203559
gr ound</w> 203486
tu ally</w> 203460
res sed</w> 203427
mat eri 203412
th ings</w> 203137
us es</w> 203085
f ail 202463
imp act</w> 202307
s ite</w> 202136
know le 201980
c ou 201952
w on</w> 201872
m ary</w> 201828
fu ge 201804
de ath</w> 201636
at ory</w> 201515
op en</w> 201258
requi red</w> 200916
ac ross</w> 200663
A b 200478
sec tor</w> 200205
ol e</w> 200177
Wh ile</w> 199969
w ent</w> 199836
er al</w> 199530
some thing</w> 199323
crimin ation</w> 199272
h ard</w> 199254
U. S.</w> 199089
ad ded</w> 199026
vari ous</w> 199010
Uni on</w> 198997
des cri 198896
ren tly</w> 198832
ag ed</w> 198784
ther n</w> 198713
r ate</w> 198409
2 6</w> 198326
ro w</w> 198075
b ook</w> 197946
add ress</w> 197592
ques tion</w> 197571
struc ture</w> 197526
I D 197364
me etings</w> 197262
v ity</w> 197160
am a</w> 196951
So cial</w> 196829
not ed</w> 196586
ob j 196562
en h 196544
200 0</w> 196498
olu tions</w> 196452
keep ing</w> 196418
Wom en</w> 196181
achi e 196155
200 3</w> 196148
s ex 196114
strat egi 196114
le y</w> 195645
o gra 195600
cu st 195461
d r 195144
en cies</w> 194972
equ i 194773
Democ r 194552
esp eci 194515
anit arian</w> 194349
po ten 194289
d ent</w> 194126
S o</w> 194104
A ra 194101
especi ally</w> 193961
Sc ot 193930
e f</w> 193899
in s</w> 193248
Sy ri 192801
in depend 192800
.. .</w> 192715
sec u 192671
Econom ic</w> 192465
off ice</w> 192270
2 8</w> 192118
M a 191955
ver age</w> 191764
as ked</w> 191275
el s</w> 191062
m ain</w> 190778
n am 190558
gu e</w> 190544
2 7</w> 190479
V i 190357
oper ations</w> 190341
J ap 190291
proble ms</w> 190185
ne t 190176
o thers</w> 190107
h er 189755
qu ality</w> 189694
a de 189522
offici als</w> 189512
l ack</w> 189393
F ri 189380
su sp 189322
bi g</w> 189311
p at 189240
1 5 189202
ab il 189167
ak ing</w> 189155
pe ace 189113
addi tion</w> 189106
ci vil</w> 189059
fin al</w> 188888
re as 188876
Par ties</w> 188825
tow ards</w> 188764
proble m</w> 188567
ast er</w> 188464
ne w 188446
syst ems</w> 188348
clo se</w> 188285
di t</w> 187877
ye t</w> 187806
6 0</w> 187771
to day</w> 187759
go ti 187701
si t</w> 187688
de al</w> 187654
200 2</w> 187636
conflic t</w> 187559
G e 187463
mul ti 187434
er y</w> 187297
e vi 187208
g ust</w> 187129
sa fe 186864
atten tion</w> 186559
appro ach</w> 186519
por ts</w> 186385
exam ple</w> 186207
C ri 186131
p ay</w> 186006
mo ve</w> 185621
pos t</w> 185608
T u 185462
C or 185437
M c 185345
agre ed</w> 185291
ann oun 185184
star t</w> 185067
d one</w> 184844
st u 184836
. 1</w> 184596
S i 184445
am s</w> 184315
s .</w> 184142
ing ly</w> 183977
f er</w> 183930
S ome</w> 183762
me d 183551
c op 183529
pos e</w> 183452
provi sions</w> 183379
ar ti 183170
Au gust</w> 183170
a ren 183059
fo reign</w> 182969
on ce</w> 182920
ver s</w> 182885
ab our</w> 182834
it ation</w> 182753
cour se</w> 182625
su g 182598
Fe bru 182575
Febru ary</w> 182308
re al</w> 182169
co sts</w> 182079
produc tion</w> 181961
la un 181936
iz ation</w> 181777
ener gy</w> 181709
ac tions</w> 181659
L on 181640
A p 181562
ru n</w> 181544
&apos; ll</w> 181425
A n</w> 181281
wor ks</w> 181244
ho wever</w> 181130
h ours</w> 181050
Austr alia</w> 180880
om s</w> 180781
imple men 180364
rul es</w> 180100
le t</w> 180066
n ame</w> 180038
form s</w> 179834
Uni versity</w> 179685
prom ote</w> 179584
consider ation</w> 179578
esti m 179495
import ance</w> 179469
w in</w> 179447
en ds</w> 179425
ist an</w> 179180
ne goti 179110
olog ical</w> 179093
b an</w> 179017
S ch 179008
or ies</w> 178888
b oo 178801
as k</w> 178574
comm on</w> 178568
re fl 178538
pro jects</w> 178503
pre h 178427
200 1</w> 178346
I ra 178277
wi de</w> 178104
C O 178054
Pal est 177936
di dn</w> 177915
incre ased</w> 177794
ev ed</w> 177734
w ar</w> 177638
ob lig 177518
reg ar 177388
ac ks</w> 177302
H ar 177271
ne t</w> 177185
incre as 177150
la w 177067
ha pp 176944
inte re 176928
le ad</w> 176899
bo dies</w> 176505
B ar 176392
addi tional</w> 176310
ter ms</w> 176305
t em 176077
v ote</w> 176013
P r 175876
esti c</w> 175809
l u 175798
inclu ded</w> 175723
oun d 175603
eg y</w> 175529
st ra 175311
el ection</w> 175162
y s 175101
S up 175031
E l 175008
Nor th</w> 174993
enni um</w> 174984
Euro pe</w> 174830
P ri 174690
ist s</w> 174533
st and</w> 174437
r ing</w> 174294
d ou 174136
201 6</w> 173679
qu i 173631
su stainable</w> 173599
treat ment</w> 173551
Ch ar 173487
inte rest</w> 173337
poin ts</w> 173253
tra ff 173251
S te 173188
an ted</w> 173159
i gh 173149
econom y</w> 173105
ro om</w> 172986
pro t 172839
in troduc 172827
pl ans</w> 172764
si m 172335
2 9</w> 172322
weap ons</w> 172090
fra mework</w> 172031
tra di 171770
for ces</w> 171695
ti z 171594
e red</w> 171580
n ote</w> 171556
c all</w> 171431
ic es</w> 171422
nee ded</w> 171389
in fl 171366
La w</w> 171261
Th e 170994
b ia</w> 170823
gu id 170746
a th 170741
f el 170668
di ed</w> 170598
bel i 170598
respon se</w> 170559
t led</w> 170531
organiz ation</w> 170509
amoun t</w> 170399
li ving</w> 170397
ke ep</w> 170342
Fun d</w> 170192
po ver 170129
aliz ed</w> 170066
C am 169735
offici al</w> 169684
s ent</w> 169682
U K</w> 169574
tu res</w> 169552
t ory</w> 169550
environ ment</w> 169281
19 7 169189
Lon don</w> 169184
lan gu 169067
plac ed</w> 169040
char ac 168926
0 ,000</w> 168896
pr acti 168884
con stitu 168729
c ar</w> 168683
require ments</w> 168622
signific ant</w> 168588
S un 168522
Min ister</w> 168476
M ic 168343
perform ance</w> 168301
en ter</w> 168170
1 3 168151
s ou 168116
h old</w> 168110
chan ges</w> 168102
aliz ation</w> 167906
c e 167776
ach ed</w> 167395
ex plo 167369
ag encies</w> 167221
ish ing</w> 167160
ru p 166972
impro ve</w> 166782
ke ts</w> 166765
sec ret 166662
B ra 166402
deci ded</w> 166377
thou ght</w> 166325
re fuge 165854
for ward</w> 165845
Hi gh</w> 165844
mat ter</w> 165823
pur su 165815
ag ue</w> 165781
Rus sian</w> 165465
li ve</w> 165273
d le</w> 165231
concer n</w> 165185
stat us</w> 165048
str ong</w> 164714
c are 164685
experi ence</w> 164683
pover ty</w> 164630
mis sions</w> 164233
li a 164142
consi der</w> 164084
h un 163846
Pe ople</w> 163771
H ou 163687
as soci 163622
fi f 163517
hum anitarian</w> 163402
de l</w> 163393
c lim 163245
Wor king</w> 163229
lo ve</w> 163194
ap poin 163137
er c 162972
agre ement</w> 162792
con tr 162606
ac ts</w> 162248
dom estic</w> 162221
d am 162208
w al 162203
out side</w> 162136
T o 162131
p ay 162015
I V</w> 161934
en ter 161933
de mo 161795
en ough</w> 161739
D on 161569
l ist</w> 161530
Bri tish</w> 161501
k ind</w> 161431
ut es</w> 161272
der al</w> 161249
sel ves</w> 161232
wh y</w> 161103
belie ve</w> 161102
cer tain</w> 161016
invol ved</w> 161013
deleg ation</w> 160986
D P</w> 160849
compan ies</w> 160722
E ast</w> 160654
h om 160446
pre par 160409
sub stan 160407
ch ing</w> 160373
lar ation</w> 160184
is ing</w> 159657
jo b</w> 159528
form ation</w> 159441
mo ther</w> 159427
con n 159399
o w</w> 159283
particip ation</w> 159222
oc c 159161
s em 159084
h and</w> 159079
pre sident</w> 159020
work ers</w> 159015
ro ad</w> 158763
employ ment</w> 158674
P o 158664
ra ft</w> 158633
z ed</w> 158622
pp ed</w> 158439
compe ti 158369
W il 158300
ter rit 158191
fir e</w> 158097
G en 158056
b it</w> 158018
er ship</w> 158013
in f 157996
sub mitted</w> 157781
re ly</w> 157664
W e 157638
i or</w> 157571
preh ensive</w> 157561
l on 157450
anc ed</w> 157282
l am 157201
T er 157079
r an</w> 157002
199 9</w> 156789
vie ws</w> 156640
evi dence</w> 156595
high er</w> 156532
d ated</w> 156511
f av 156469
e y 156316
invest ment</w> 156286
M I 156229
me et</w> 156186
in come</w> 156137
ar ma 156122
1 7 156054
retur n</w> 155992
ser ies</w> 155980
Jo h 155963
oun ds</w> 155946
ali an</w> 155633
h u 155576
can di 155531
n ation 155389
crimin al</w> 155352
al ong</w> 155327
re a</w> 155312
Pol ice</w> 155275
en ding</w> 155226
A m 155174
bil lion</w> 154890
in t 154836
f ron 154813
qu e</w> 154805
c al 154612
stud ents</w> 154419
person nel</w> 154034
en ded</w> 154009
proper ty</w> 153957
requ est</w> 153881
j ustice</w> 153835
g a 153827
li er</w> 153802
B u 153716
lan ds</w> 153715
pre v 153657
ev al 153620
con fi 153607
shi ps</w> 153302
docu ment</w> 153244
d ates</w> 153187
poten tial</w> 153175
l ate</w> 153137
tic es</w> 153074
Secret ariat</w> 153061
Fri day</w> 152986
seri ous</w> 152937
m om 152934
vis ory</w> 152934
ex t 152734
ch es</w> 152695
M al 152629
al d</w> 152615
si mil 152514
fe el</w> 152428
ne ar</w> 152353
ot s</w> 152217
vie w 152041
ac i 151894
d ol 151672
al most</w> 151604
b it 151543
ici al</w> 151542
con ven 151520
eff ecti 151517
op s</w> 151301
S en 151292
arma ment</w> 151283
Ac tion</w> 151141
mo tion</w> 151105
r a</w> 151087
respon sibility</w> 151068
iz e</w> 150870
le ave</w> 150777
sub ject</w> 150708
g in</w> 150618
re ad</w> 150522
streng th 150268
dis crimination</w> 150193
ch o 150100
pub l 149989
ar ms</w> 149919
sug ge 149918
n atur 149882
al o 149776
val ue</w> 149775
exist ing</w> 149754
co l</w> 149751
h on 149713
M y</w> 149672
0 s</w> 149670
do ing</w> 149594
c ement</w> 149332
1 00</w> 149314
a di 149225
eff ect</w> 149214
ar med</w> 149192
foc us</w> 149114
fer red</w> 149058
ne x</w> 148970
to col</w> 148834
fun ds</w> 148747
succ ess 148726
legisl ation</w> 148662
vi de 148509
rou ght</w> 148366
A ff 148298
gen ous</w> 148274
establ ishment</w> 148241
repor ting</w> 148098
victi ms</w> 148058
st ep 147978
be gan</w> 147973
al leg 147963
Mon day</w> 147907
i m</w> 147889
stand ards</w> 147826
ur al</w> 147791
man ent</w> 147759
ci v 147673
ub lic 147610
k er</w> 147604
indu stry</w> 147600
appl ication</w> 147553
j u 147332
sch o 147284
1 4 147194
ac tive</w> 147148
bec ame</w> 147138
cont ext</w> 147124
vel op</w> 146758
B rit 146745
h and 146739
abil ities</w> 146688
Di rec 146488
ill s</w> 146339
eff ici 146278
R ap 146124
o l</w> 146109
or gan 145965
ra ther</w> 145915
p ment</w> 145832
F r 145828
an ti 145655
att emp 145574
b un 145305
ru le</w> 145276
ori gin 145171
W est</w> 145126
in stru 145081
our th</w> 144965
an ces</w> 144940
1 6 144916
d ow 144663
h ind</w> 144589
199 8</w> 144548
g ar 144529
practi ce</w> 144494
oc k</w> 144485
T ri 144448
f f</w> 144445
E U</w> 144433
Mis sion</w> 144423
Ch il 144217
s aying</w> 144210
Re gi 144166
Tu esday</w> 144104
cor por 144101
previ ous</w> 144052
en s 143927
pa ren 143920
lar g 143907
rel ation 143802
t ain 143788
ar ran 143727
spo k 143662
expres sed</w> 143614
F ren 143593
t le 143471
B y</w> 143397
ad a</w> 143369
wh ole</w> 143365
Ac t</w> 142999
a h</w> 142928
represent atives</w> 142883
ho sp 142812
por te 142809
T im 142745
sex ual</w> 142716
C ity</w> 142555
t om 142546
im medi 142427
ha p 142317
request ed</w> 142257
c y 142011
en jo 141963
fol low</w> 141959
there fore</w> 141940
ne ws</w> 141843
e th 141839
le a 141729
fa ther</w> 141648
h y 141379
environ mental</w> 141366
b ir 141270
m id 141237
la ws</w> 141231
b ack 141194
ge ts</w> 141140
all s</w> 141129
reg ular</w> 140995
plan ning</w> 140915
O p 140780
occ up 140752
facil it 140555
cri me</w> 140547
fo ot 140488
cri sis</w> 140439
star ted</w> 140390
can not</w> 140310
a u</w> 140255
li gh 140227
p aper</w> 140214
h or 140207
Joh n</w> 140179
play ed</w> 140111
offic ers</w> 140092
Democr atic</w> 140054
hi story</w> 140039
lo st</w> 140024
ing ton</w> 139783
res olutions</w> 139747
sh ort</w> 139515
cont ained</w> 139396
stric t</w> 139212
Palest ini 139188
Im age</w> 139152
cap ital</w> 139066
u es</w> 138949
ann ual</w> 138891
W ed 138874
reli gi 138804
Govern ments</w> 138783
Th ur 138609
ar re 138574
Rep ublic 138385
ho to</w> 138223
monit oring</w> 138198
be hind</w> 138038
att ack</w> 137991
de velop</w> 137825
te red</w> 137685
D uring</w> 137678
hap pen 137655
o il</w> 137624
is ms</w> 137588
p aid</w> 137518
low er</w> 137481
rem ains</w> 137321
re f 137194
ob ser 137191
challen ges</w> 137081
ta x</w> 136938
Re port</w> 136898
as p 136755
gu ar 136754
se par 136744
ch e 136727
an a</w> 136534
ade qu 136524
represent ative</w> 136521
ag ement</w> 136480
u su 136458
rem ain</w> 136366
loo king</w> 136288
T A 136260
du res</w> 136056
re st 136043
i tion</w> 135958
cl es</w> 135894
safe ty</w> 135881
en n 135870
in e 135825
&apos; d</w> 135766
kill ed</w> 135656
Fren ch</w> 135592
strat egy</w> 135564
br ing</w> 135534
Cha ir 135516
s day</w> 135512
recor d</w> 135403
knowle dge</w> 135403
res ent 135318
k a</w> 135230
fun ding</w> 135082
M or 135062
x im 134981
En gl 134861
provi des</w> 134820
h im 134738
b ul 134730
man date</w> 134671
l er</w> 134619
det ail 134587
sh are</w> 134506
M i 134438
Thur sday</w> 134238
cul tural</w> 134201
tr u 134087
M ini 134020
ab s 133976
ex erc 133903
Wed n 133859
diffic ult</w> 133781
sing le</w> 133772
Ob ama</w> 133690
w r 133652
sci enti 133599
st ates</w> 133575
cur rently</w> 133417
provi ding</w> 133304
T re 133247
Aff airs</w> 133167
Ac cor 133118
dra w 132978
th y</w> 132941
Wedn esday</w> 132932
deci sions</w> 132930
se ts</w> 132624
wh ose</w> 132588
il ies</w> 132570
ren ce</w> 132564
Ad ministr 132548
C . 132505
med ical</w> 132456
Mini stry</w> 132446
st age</w> 132283
analy sis</w> 132178
M s.</w> 132167
res er 132120
B el 132085
Ho w</w> 131997
com prehensive</w> 131959
B C</w> 131880
simil ar</w> 131725
pre sid 131682
ner ship</w> 131656
d a 131552
Sun day</w> 131497
b and</w> 131467
d i</w> 131378
co vered</w> 131373
Fr ance</w> 131350
individu al</w> 131251
I O 131168
them selves</w> 131073
pro gra 130998
ie f</w> 130985
prac tices</w> 130977
ran ge</w> 130958
hop e</w> 130910
prof es 130907
ph ys 130904
pr ice</w> 130876
Engl ish</w> 130876
vi a</w> 130837
natur al</w> 130712
mak es</w> 130598
wee ks</w> 130587
respon sible</w> 130495
Ira q</w> 130485
Isra el</w> 130420
me t</w> 130396
Jap an</w> 130303
clai ms</w> 130289
concer ning</w> 130284
i an</w> 130245
r ace</w> 130030
ic king</w> 130030
B ank</w> 129981
fre e 129952
mis sion 129821
con fir 129771
p an 129761
D avi 129646
No w</w> 129603
Ser vice</w> 129588
Ex ecutive</w> 129582
Ge or 129484
t ou 129418
fil m</w> 129367
proce dures</w> 129339
O n 129312
con trac 129296
equ ality</w> 129291
dru g</w> 129167
h ic 129023
ei ther</w> 128982
an g</w> 128919
ci tiz 128826
porte ur</w> 128806
streng then</w> 128799
mo der 128798
3 . 128784
I S 128751
B er 128751
d ings</w> 128721
h it</w> 128488
de st 128405
si x 128386
ques tions</w> 128317
S ub 128310
Pro tocol</w> 128185
A sia</w> 128139
tu red</w> 128118
Brit ain</w> 128021
al low</w> 127971
ev ent</w> 127946
con struction</w> 127761
all ing</w> 127760
av o 127677
in ated</w> 127659
pre ci 127642
O ther</w> 127610
docu ments</w> 127587
gg est</w> 127276
produc ts</w> 127274
Par ty</w> 127228
tur n</w> 127142
y p 127127
for ced</w> 127125
car ried</w> 127111
rele ased</w> 127077
sa w</w> 126961
prev ent</w> 126959
&a mp 126858
&amp ;</w> 126858
fron t</w> 126789
equi pment</w> 126672
gh ter</w> 126631
P an 126593
m ag 126548
j our 126503
f em 126343
1 , 126340
E S 126337
rel ating</w> 126314
ste ad</w> 126224
re form</w> 126208
tr ying</w> 126200
paren ts</w> 125902
princi ples</w> 125850
terror ism</w> 125820
opportun ity</w> 125649
civ ili 125624
investig ation</w> 125589
H ol 125567
T ran 125563
ic ally</w> 125537
cir c 125513
Accor ding</w> 125461
c ru 125444
p un 125432
v ation</w> 125392
imple ment</w> 125387
se ven</w> 125382
Rap porteur</w> 125349
ou l 125323
sp ec 125308
S atur 125270
o d 125237
su per 125190
provi sion</w> 125147
regar ding</w> 125115
show s</w> 124943
men d 124844
r ates</w> 124701
Rep resent 124662
so on</w> 124625
S um 124560
lin es</w> 124295
scho ols</w> 124209
coord ination</w> 124089
a verage</w> 124081
F ir 124067
gir ls</w> 124049
ear lier</w> 123832
Centr al</w> 123775
t ation</w> 123749
it self</w> 123694
clim ate</w> 123523
aff ected</w> 123506
s co 123496
w anted</w> 123384
issu ed</w> 123090
ach ing</w> 123052
bo ard</w> 123022
sur ve 122891
re ve 122876
f lo 122811
auth or</w> 122729
alo gue</w> 122699
p ati 122677
3 5</w> 122669
us h 122631
dist ribu 122622
gre ater</w> 122500
wor ds</w> 122451
i al</w> 122418
r ati 122324
t est</w> 122248
b rought</w> 122187
concer ns</w> 122180
Dec laration</w> 122136
ment ary</w> 121938
vide o</w> 121937
s qu 121880
re sid 121850
T w 121762
him self</w> 121716
s af 121700
L . 121620
pro mis 121589
In stitu 121576
fam ilies</w> 121411
enti tled</w> 121368
mo ved</w> 121357
Don ald</w> 121355
b ra 121286
administr ative</w> 121160
M us 120897
mechan isms</w> 120897
us h</w> 120749
u te</w> 120660
announ ced</w> 120638
ve hic 120621
m a</w> 120540
in ter</w> 120388
pub lic 120366
b ers</w> 120306
emp ha 120302
par ts</w> 120290
Is lam 120289
add ressed</w> 120286
ar gu 120219
in di 120124
min d</w> 120014
lim ited</w> 120003
play ers</w> 119985
bro ad 119916
assess ment</w> 119892
T ec 119849
ric ul 119848
b s</w> 119802
19 6 119730
t own</w> 119689
buil d</w> 119567
lon ger</w> 119490
er ia</w> 119446
i e</w> 119247
Satur day</w> 118921
an im 118913
prot ect</w> 118784
4 5</w> 118622
F ran 118559
Centr e</w> 118504
Ara b</w> 118495
G i 118491
quar ters</w> 118474
g res 118446
o ples</w> 118395
get ting</w> 118337
cust om 118221
do es 118156
o t</w> 118050
m ess 118038
w ish</w> 117995
pri mary</w> 117978
rec ently</w> 117975
contribu tions</w> 117961
gh out</w> 117913
proc ed 117905
commit ment</w> 117865
ec ting</w> 117702
c anc 117689
n om 117626
suppor ted</w> 117467
sec tion</w> 117350
ant i</w> 117349
dis e 117235
t in 117204
n ature</w> 117171
exper ts</w> 117134
st op</w> 117073
C i 116944
el ines</w> 116870
ach es</w> 116869
e ts</w> 116859
mor ning</w> 116746
mo d 116718
Palestini an</w> 116695
lead ers</w> 116649
administr ation</w> 116609
ra ised</w> 116566
con ference</w> 116545
elec tr 116506
st y 116504
An g 116472
bel ow</w> 116472
tion ed</w> 116441
S ince</w> 116273
n ia</w> 116259
N i 116178
Com mun 116159
deb ate</w> 116114
langu age</w> 116100
mat ters</w> 116081
li ves</w> 116068
re ach</w> 115960
does n</w> 115825
lo ss</w> 115704
ter n 115702
o gi 115675
sc en 115472
ba sic</w> 115462
No .</w> 115433
mo del</w> 115430
W est 115429
pa red</w> 115401
Hou se</w> 115391
cre ate</w> 115387
F ur 115383
posi tive</w> 115249
lead ing</w> 115241
oblig ations</w> 115168
b lo 115157
stan ces</w> 115157
establ ish</w> 115129
benef its</w> 114960
infl u 114748
A t 114651
wi fe</w> 114625
As soci 114566
he ard</w> 114542
independ ent</w> 114504
se a</w> 114483
step s</w> 114449
Rus sia</w> 114409
d in 114310
po or</w> 114283
direc t</w> 114233
min utes</w> 114212
N A 114148
exp an 114122
spok es 114073
it er 114046
mp i 114016
I II</w> 113957
pr ices</w> 113931
UN C 113914
U S 113887
r ound</w> 113839
e ight</w> 113747
Ger many</w> 113738
c ut</w> 113678
go al</w> 113648
v ul 113610
clo s 113605
ac ked</w> 113545
al ed</w> 113537
T V</w> 113529
S a 113519
let ter</w> 113467
fri end</w> 113452
ar ies</w> 113374
Davi d</w> 113269
de sign</w> 113239
c ause</w> 113206
y a</w> 113175
jo int</w> 113173
att acks</w> 113141
se x</w> 113102
En g 113073
f le 112982
er ous</w> 112920
com mitted</w> 112886
fi ght</w> 112885
dol l 112774
Indi a</w> 112743
g ave</w> 112693
4 . 112569
compl ain 112364
go als</w> 112252
even ts</w> 112190
arran ge 112045
S tr 111871
ch ief</w> 111860
ex change</w> 111691
des p 111647
re ment</w> 111594
ex ic 111553
u ti 111428
b ar 111324
Fir st</w> 111310
nor m 111300
pers onal</w> 111292
k y</w> 111256
t a</w> 111244
conduc t</w> 111230
u red</w> 111091
commun ities</w> 111086
centr al</w> 111021
M exic 110986
E m 110974
he av 110863
ch ec 110840
indi genous</w> 110796
B ur 110753
no thing</w> 110711
publ ished</w> 110657
fri ends</w> 110527
be gin 110510
descri bed</w> 110423
he art</w> 110368
relation ship</w> 110354
UN DP</w> 110247
st ant</w> 110211
aff ir 110179
si tion</w> 110143
M at 110092
bl ack</w> 110078
oun ded</w> 110041
p . 109829
achie ve</w> 109802
tra vel</w> 109787
B r 109759
me an 109523
t es</w> 109420
vi sit</w> 109331
f ourth</w> 109305
adequ ate</w> 109222
ul ation</w> 109185
adop tion</w> 109154
M any</w> 109112
not es</w> 109112
Ko rea</w> 109070
as n</w> 109005
M ill 108932
de mon 108890
appro ved</w> 108831
In formation</w> 108818
migr ation</w> 108753
ph ot 108729
ord in 108659
He alth</w> 108634
Tec hn 108591
Ad visory</w> 108533
co ver</w> 108403
W al 108373
clai m</w> 108345
an ds</w> 108287
row n</w> 108235
re duce</w> 108230
tak es</w> 108225
increas ing</w> 108223
pen s 108117
m em 108068
wh ite</w> 108067
ste p</w> 107986
z er 107976
refuge es</w> 107824
for d</w> 107764
pri ority</w> 107644
over all</w> 107622
ell s</w> 107543
sh or 107500
pre pared</w> 107482
B i 107477
desp ite</w> 107474
effor t</w> 107431
mar k</w> 107409
Can ada</w> 107380
consi st 107317
throu ghout</w> 107268
ec h</w> 107260
ro te</w> 107242
indu stri 107211
b as 107197
y ed</w> 107188
grow ing</w> 107124
bor n</w> 107122
a si 107112
guar an 107056
com mittee</w> 107017
part ners</w> 107009
al ing</w> 106939
em plo 106904
ha m</w> 106827
ra di 106789
identi fied</w> 106619
R ob 106520
0 . 106497
199 7</w> 106413
strength ening</w> 106406
vol un 106385
W ash 106370
under standing</w> 106362
t i</w> 106330
organiz ed</w> 106264
opportun ities</w> 106230
Austr alian</w> 106130
O ly 106054
w rote</w> 106024
ver si 106001
op e</w> 105972
Tre at 105945
Af gh 105927
R el 105881
J ustice</w> 105840
al though</w> 105708
cl ass</w> 105579
pres s</w> 105567
integr ation</w> 105521
b ab 105454
ecti ves</w> 105405
ch em 105398
der ation</w> 105398
pur pose</w> 105381
5 5</w> 105346
g ames</w> 105318
ne igh 105316
en ty</w> 105253
m y 105221
J e 105127
C ub 105122
ide a</w> 105056
f all</w> 105042
f ying</w> 105022
ven ess</w> 104992
pre vention</w> 104974
st ated</w> 104884
comm er 104842
I N 104762
Wash ington</w> 104714
initi atives</w> 104688
199 6</w> 104659
ogra ph 104561
ro c 104496
R ic 104482
ban k</w> 104451
off er</w> 104393
materi al</w> 104383
m .</w> 104329
de sign 104140
ex ecutive</w> 104083
l and 103996
t ment</w> 103969
t ell</w> 103930
bec om 103889
facil ities</w> 103817
direc tly</w> 103706
Ad d 103705
we b 103671
Direc tor</w> 103607
vul ner 103550
Eng land</w> 103550
in fra 103540
b order</w> 103501
sho t</w> 103405
H C 103373
comple te</w> 103372
succ ess</w> 103355
3 3</w> 103349
thou s 103294
fi gh 103282
consult ations</w> 103255
discus sion</w> 103190
ai med</w> 103184
individu als</w> 103147
secret ariat</w> 103068
call s</w> 103036
eff ects</w> 103015
tri al</w> 102884
dem and</w> 102845
Oly mp 102807
fel t</w> 102661
di alogue</w> 102624
char ge</w> 102438
stat ements</w> 102406
ag ency</w> 102354
C E 102242
3 2</w> 102131
wor ked</w> 102120
adv ant 102112
re ason</w> 102051
Islam ic</w> 102040
cre ated</w> 101980
ri st 101880
contr act</w> 101777
pres sure</w> 101756
b our 101670
inclu des</w> 101563
cul ture</w> 101501
ten tion</w> 101497
dou b 101462
H a 101415
ca used</w> 101282
reduc tion</w> 101248
acti vity</w> 101209
request s</w> 101207
T e 101178
Syri an</w> 101119
ad s</w> 101070
for cement</w> 101062
ne arly</w> 101061
as y</w> 100995
S m 100981
w w 100980
in no 100864
c ro 100810
pos es</w> 100739
recommen ded</w> 100666
on line</w> 100659
4 8</w> 100593
se ar 100487
ac tually</w> 100467
loc k</w> 100332
s cre 100285
mission er</w> 100272
c ele 100259
s la 100240
commun ication</w> 100180
vis ed</w> 100138
strategi c</w> 100132
r ural</w> 100079
proced ure</w> 100051
ph one</w> 100046
comp u 100022
allow ed</w> 100001
ol ogi 99933
su s</w> 99917
direc tor</w> 99903
any thing</w> 99892
ec e</w> 99867
suff ici 99861
ess ential</w> 99857
hol ders</w> 99780
be half</w> 99688
Y e 99651
net work</w> 99645
in ate</w> 99545
el im 99520
en se</w> 99399
aw aren 99372
lead er</w> 99366
f ar 99319
dis armament</w> 99280
clu b</w> 99275
equ al</w> 99248
conduc ted</w> 99212
princi ple</w> 99200
C ap 99197
y ond</w> 99186
introduc ed</w> 99159
traff icking</w> 99119
M id 99111
pres ented</w> 99111
d au 99073
play ing</w> 99060
Isra el 99051
b om 99047
C N 99001
l or 98974
pr ise</w> 98966
s ource</w> 98922
i ti 98915
H IV</w> 98911
le ge</w> 98758
Bra z 98741
v in 98712
awaren ess</w> 98691
circ um 98566
coll abor 98533
th us</w> 98527
ap preci 98483
mom ent</w> 98440
i de</w> 98409
some one</w> 98265
run ning</w> 98240
C hi 98152
st ation</w> 98109
F rom</w> 97827
peace keeping</w> 97808
5 00</w> 97777
maj ority</w> 97762
o di 97743
agre ements</w> 97723
min im 97647
199 4</w> 97629
mar kets</w> 97567
stitu tion</w> 97467
U N</w> 97465
re ached</w> 97353
a ther</w> 97332
com ments</w> 97313
pro motion</w> 97293
tradi tional</w> 97290
r ise</w> 97241
H er 97155
re pe 97155
propos al</w> 97129
tur ned</w> 97084
Un der</w> 97039
Al though</w> 96963
benef it</w> 96957
on ed</w> 96811
anc y</w> 96810
cri tical</w> 96782
O per 96721
St at 96710
prom oting</w> 96697
success ful</w> 96686
ve ments</w> 96646
e ful</w> 96618
bun al</w> 96513
p h</w> 96510
iz ing</w> 96470
al ities</w> 96466
k ers</w> 96445
free dom</w> 96419
sen se</w> 96409
auth ority</w> 96405
L abour</w> 96395
exerc ise</w> 96340
appe ared</w> 96301
Represent ative</w> 96272
offic es</w> 96257
al tern 96150
A le 96119
demon str 96094
st ar</w> 96017
de signed</w> 96009
St re 95935
S ci 95922
Di vision</w> 95827
fem ale</w> 95752
Republic an</w> 95730
pe oples</w> 95729
7 0</w> 95728
3 4</w> 95724
viol ations</w> 95695
sp i 95685
lin ed</w> 95660
show ed</w> 95580
t op 95549
vers al</w> 95544
R om 95473
at ures</w> 95435
op ini 95346
ver sion</w> 95322
w ood</w> 95298
ab use</w> 95289
H am 95283
par a</w> 95281
c li 95251
199 5</w> 95248
ex pen 95197
3 6</w> 95171
it ems</w> 95157
oper ational</w> 95091
buil t</w> 94996
6 5</w> 94992
fun da 94978
ID S</w> 94883
5 7</w> 94842
E ar 94810
ell ing</w> 94752
fun d</w> 94726
ob s</w> 94719
in k</w> 94683
thre at</w> 94681
man u 94626
B l 94560
t ext</w> 94499
res sing</w> 94464
de ploy 94420
sen ior</w> 94419
si ze</w> 94350
H er</w> 94342
ty pe</w> 94149
cat eg 94138
E C 94116
an e</w> 94115
in st 94110
st atis 94104
Institu te</w> 94039
te en 94012
b ad</w> 94000
ne g 93976
cent ury</w> 93976
strategi es</w> 93950
po sts</w> 93875
p es</w> 93872
3 7</w> 93861
sc ale</w> 93858
B re 93819
trans fer</w> 93819
wor d</w> 93741
j ected</w> 93710
on ic</w> 93683
t ren 93675
clo sed</w> 93646
n ation</w> 93583
presid ential</w> 93544
c le</w> 93513
H ong</w> 93496
t al</w> 93494
t ely</w> 93446
el ess</w> 93422
saf e</w> 93419
re si 93364
propos als</w> 93323
mu sic</w> 93247
u ations</w> 93244
treat y</w> 93206
deb t</w> 93196
emer gency</w> 93161
m us 93148
a head</w> 93108
5 8</w> 93092
s mo 93053
wee k 93026
infra structure</w> 93014
negoti ations</w> 93007
E F</w> 92939
pro secu 92938
y er</w> 92927
care er</w> 92879
chan ged</w> 92835
su mp 92824
ag ricul 92763
challen ge</w> 92752
5 . 92737
ill ing</w> 92716
ver se</w> 92700
comp ared</w> 92686
pend it 92656
t ained</w> 92513
implemen ted</w> 92455
Man agement</w> 92442
inform ed</w> 92408
Tw o</w> 92406
b att 92395
C A 92288
in side</w> 92254
estim ated</w> 92252
al le 92250
compl i 92221
ut ting</w> 92186
an ia</w> 92083
c raft</w> 92081
ori al</w> 92055
migr ants</w> 92041
mechan ism</w> 92041
me an</w> 91932
pre ven 91920
W i 91908
m ur 91839
1 2 91826
sur vi 91805
O ur</w> 91797
qu ite</w> 91749
R A 91746
6 3</w> 91723
min ist 91714
continu es</w> 91707
conn ection</w> 91698
por ary</w> 91622
K ong</w> 91615
loo ked</w> 91612
M il 91600
S ha 91596
set tle 91577
it able</w> 91575
al ist</w> 91550
centr e</w> 91529
ail y</w> 91521
ast ern</w> 91455
5 2</w> 91450
x ed</w> 91426
i ds</w> 91413
pow er 91400
ad or</w> 91332
an nex</w> 91317
P A</w> 91297
Com missioner</w> 91285
con sequ 91276
is tic</w> 91267
b ot 91259
E duc 91232
im pl 91224
enh ance</w> 91132
Israel i</w> 91132
bre ak</w> 91121
p hi 91060
p il 91012
6 . 90994
P ublic</w> 90974
A gency</w> 90893
bal ance</w> 90855
eval uation</w> 90848
ad es</w> 90809
ch i 90745
ch ers</w> 90691
cer tain 90640
ex ecu 90620
A IDS</w> 90619
st er 90582
ex clu 90577
larg est</w> 90541
stand ard</w> 90510
cri mes</w> 90484
aci fic</w> 90453
clai med</w> 90445
K ing 90423
tec tion</w> 90411
loc ated</w> 90401
cele br 90399
S ud 90387
emplo ye 90344
regi ons</w> 90337
ast e</w> 90287
st ay</w> 90219
loc ation</w> 90201
G lobal</w> 90197
M s</w> 90168
5 9</w> 90145
M ed 90101
Tra de</w> 90019
t un 89962
every one</w> 89959
ur ban</w> 89932
on y</w> 89919
fe deral</w> 89918
under stand</w> 89904
8 0</w> 89888
phys ical</w> 89880
re stric 89878
sp ent</w> 89866
er t</w> 89848
sup ply</w> 89845
rup tion</w> 89814
every thing</w> 89741
st ers</w> 89691
be yond</w> 89680
P acific</w> 89678
e th</w> 89583
rel ations</w> 89577
follow ed</w> 89479
e k</w> 89457
5 3</w> 89444
inter nal</w> 89443
s atis 89420
lia ment</w> 89375
5 1</w> 89303
progra m</w> 89202
j ur 89201
c au 89160
uc k</w> 89135
A .</w> 89129
bi ennium</w> 89077
intere sts</w> 89036
Li ber 89032
s le 88972
en forcement</w> 88894
tri bu 88777
s we 88733
qu ick 88731
sol id 88677
sci ence</w> 88667
hou sing</w> 88641
sty le</w> 88618
lat est</w> 88589
ak es</w> 88563
Th en</w> 88517
y l 88409
Tran s 88399
hosp ital</w> 88354
writ ten</w> 88333
Ne ws</w> 88325
car ry</w> 88318
4 9</w> 88254
arrange ments</w> 88215
oc cur 88170
En viron 88157
S al 88156
F ol 88139
laun ched</w> 88031
assi st</w> 87992
ra ise</w> 87978
h ood</w> 87973
rele ase</w> 87919
Ch rist 87903
auth or 87884
recei ve</w> 87822
C l 87801
in sur 87748
sho p</w> 87723
pris on</w> 87683
Chair man</w> 87652
mo vement</w> 87643
instru ments</w> 87592
gi ving</w> 87541
sup pl 87508
do or</w> 87494
gra du 87429
h us 87400
implemen ting</w> 87354
func tions</w> 87314
I ran</w> 87260
cou ple</w> 87253
sugge sted</w> 87194
fail ed</w> 87093
5 4</w> 87085
proc esses</w> 87057
si l 86980
3 8</w> 86971
ro r</w> 86963
I S</w> 86941
ev a</w> 86934
se ems</w> 86922
D ay</w> 86895
be ha 86858
v ill 86840
A gen 86793
er a</w> 86747
t on 86736
5 6</w> 86727
m ach 86700
stru gg 86699
b y 86686
po p 86684
b ing</w> 86638
tr ue</w> 86567
origin al</w> 86562
requ ire</w> 86541
s ources</w> 86489
obj ectives</w> 86438
re ferred</w> 86416
af ter 86393
man ner</w> 86380
pro te 86370
tal k</w> 86360
ri es</w> 86357
l abour</w> 86352
M ore</w> 86263
Co ven 86226
fo re 86204
g as</w> 86180
dam age</w> 86152
comp on 86127
guid elines</w> 86115
territ ory</w> 86032
j obs</w> 85993
Tur key</w> 85975
Le ague</w> 85940
Treat y</w> 85937
ill ed</w> 85927
it es</w> 85823
I T 85727
du m</w> 85711
Mexic o</w> 85708
tri ed</w> 85695
ven ue</w> 85691
B ro 85685
rec ru 85650
l a</w> 85612
as hi 85559
3 9</w> 85553
com pens 85523
li es</w> 85503
ch ance</w> 85446
materi als</w> 85384
an sw 85378
feren ces</w> 85377
prob ably</w> 85371
Ger man</w> 85368
regul ations</w> 85353
w ise</w> 85350
elec tions</w> 85333
Re view</w> 85311
facilit ate</w> 85301
P hoto</w> 85288
h ot 85268
em ed</w> 85218
4 4</w> 85134
asp ects</w> 85095
ti ci 85090
ob serv 85085
C ali 85068
Stre et</w> 85047
l ess 85002
3 0 84982
i er</w> 84975
gir l</w> 84969
p ain 84931
tor al</w> 84841
meth od</w> 84838
ag ing</w> 84837
effecti vely</w> 84807
L eg 84708
re ference</w> 84706
gu n</w> 84684
ri age</w> 84661
A N 84642
199 3</w> 84608
t our 84562
contribu te</w> 84561
rem ained</w> 84463
op ening</w> 84462
E N 84405
cap tion</w> 84360
L u 84334
Qu e 84321
no ti 84284
nam ed</w> 84168
at eral</w> 84077
ens uring</w> 84044
avo id</w> 84013
citiz ens</w> 83977
op ened</w> 83963
men tioned</w> 83923
fin ancing</w> 83898
Syri a</w> 83871
immedi ately</w> 83844
M el 83806
on going</w> 83794
wa it</w> 83717
it ors</w> 83676
qu ali 83615
circum stances</w> 83586
f ast</w> 83583
E d 83469
reas ons</w> 83390
9 0</w> 83388
happ y</w> 83350
S ou 83326
plac es</w> 83323
k in 83288
est s</w> 83258
c row 83238
20 0</w> 83209
ak e 83128
cor rec 83119
go ods</w> 83117
comple ted</w> 83050
wor th</w> 83043
Scot land</w> 83034
4 7</w> 83001
lead ership</w> 82931
in de 82889
all ed</w> 82883
ro l 82867
usu ally</w> 82851
view ed</w> 82820
funda mental</w> 82804
6 4</w> 82787
y al</w> 82781
Mo st</w> 82776
ex pendit 82740
beha vi 82660
as sets</w> 82657
an tly</w> 82652
con sum 82634
commun ications</w> 82615
form al</w> 82609
li min 82605
min ister</w> 82529
S and 82516
competi tion</w> 82472
pop ular</w> 82472
Im ple 82437
4 2</w> 82414
S we 82382
reg im 82365
4 1</w> 82355
religi ous</w> 82320
ser ve</w> 82303
ha m 82278
jud icial</w> 82239
e asi 82212
mat ch</w> 82209
ord ers</w> 82107
dau ghter</w> 82104
es sion</w> 82095
b ase</w> 82082
bi ggest</w> 82074
recogn ized</w> 82061
k es</w> 82057
Wil li 82002
pre dic 81948
6 1</w> 81902
4 6</w> 81890
play er</w> 81880
Cali for 81827
h our</w> 81826
tran sp 81814
r is</w> 81799
manu fac 81730
recommend ation</w> 81693
achi eved</w> 81671
Fo reign</w> 81666
in stead</w> 81662
quar ter</w> 81630
n ine</w> 81627
As si 81620
hel ped</w> 81564
web site</w> 81509
be au 81508
sum mer</w> 81480
di a</w> 81479
6 2</w> 81474
West ern</w> 81469
Gen eva</w> 81466
ste red</w> 81464
fir m</w> 81460
appl ic 81450
hi stor 81369
sal es</w> 81360
Coven ant</w> 81342
For ce</w> 81317
acc used</w> 81276
appl y</w> 81159
trans port</w> 81158
out come</w> 81114
ho st</w> 81072
ati c 81013
pr in 81012
tar get</w> 80992
b ly</w> 80967
a . 80965
E ven</w> 80879
c ash</w> 80823
Par is</w> 80812
King dom</w> 80809
P or 80792
offic er</w> 80781
ta x 80745
cre dit</w> 80691
meth ods</w> 80643
h ur 80624
li ber 80600
ra y</w> 80576
C re 80549
Pl an</w> 80537
contribu tion</w> 80511
vot ers</w> 80492
j ing</w> 80487
D o 80456
V ic 80440
associ ated</w> 80436
beli eved</w> 80414
el ected</w> 80377
stu dies</w> 80374
ha el</w> 80346
min al</w> 80296
n ar 80294
ess or</w> 80279
st ood</w> 80269
Le ban 80250
c ore</w> 80241
bil ities</w> 80181
de tention</w> 80171
S im 80159
high est</w> 80106
ha ps</w> 80073
arti cles</w> 80066
A gre 80033
f air</w> 80025
begin ning</w> 79974
w asn</w> 79965
Associ ation</w> 79953
quick ly</w> 79866
is on</w> 79854
ep tion</w> 79848
inter pre 79835
fac tors</w> 79825
R u 79813
lat eral</w> 79766
Res ear 79702
O f</w> 79663
f low 79642
g ure</w> 79633
Ter rit 79617
ro b 79598
sec on 79578
profes sional</w> 79573
te es</w> 79538
Tri bunal</w> 79493
s anc 79467
w ards</w> 79462
num bers</w> 79455
al one</w> 79402
abl es</w> 79383
oper ating</w> 79372
en able</w> 79361
Al so</w> 79343
suffici ent</w> 79332
sh own</w> 79306
4 3</w> 79286
t ary</w> 79261
st ly</w> 79238
l ab 79116
si bilities</w> 79110
I s</w> 79056
B ec 79049
C a 79025
E g 78969
6 6</w> 78936
S uch</w> 78924
han ds</w> 78870
Agen da</w> 78839
Califor nia</w> 78835
acc ep 78823
ph s</w> 78811
A no 78789
Pan el</w> 78715
sp on 78713
under taken</w> 78713
Fe deration</w> 78698
e an</w> 78682
el i 78677
appe ar 78655
confir med</w> 78636
Mill ennium</w> 78620
Per manent</w> 78614
pl om 78574
ele vision</w> 78543
e asy</w> 78539
G O 78456
P ak 78442
Ser vices</w> 78431
- - 78407
indic ated</w> 78405
str ation</w> 78354
arre sted</w> 78307
exper t</w> 78277
fif th</w> 78270
de ad</w> 78201
T H 78179
Sup port</w> 78144
impro ved</w> 78092
manag er</w> 78091
p m</w> 78081
produc ed</w> 78041
ad vice</w> 78027
hus band</w> 78027
happen ed</w> 77958
te ams</w> 77936
t an 77932
Ano ther</w> 77917
ele ments</w> 77914
ev ing</w> 77876
B ei 77847
ess ing</w> 77843
posi tions</w> 77821
op tion</w> 77820
T a 77813
Pri me</w> 77751
thre at 77714
integr ated</w> 77682
sha red</w> 77665
eth n 77636
ound ation</w> 77634
produc t</w> 77613
ses sions</w> 77558
ati vely</w> 77545
R C</w> 77462
est er</w> 77436
ologi es</w> 77377
Pol i 77363
Ang el 77294
moder n</w> 77228
s olution</w> 77214
compli ance</w> 77203
sid es</w> 77177
plan ned</w> 77046
cont act</w> 76957
mo ving</w> 76942
cle arly</w> 76939
UN O 76912
ou ght</w> 76904
thous ands</w> 76904
re ti 76897
d ar 76855
res ource</w> 76835
sump tion</w> 76757
li fer 76681
us ers</w> 76635
previ ously</w> 76629
f ell</w> 76620
ver ing</w> 76598
tra vel 76584
Mic hael</w> 76515
impro ving</w> 76492
C y 76491
oo t</w> 76478
y ers</w> 76476
n u 76451
6 7</w> 76414
ti an</w> 76391
pro hi 76390
Cri minal</w> 76387
a ur 76369
H un 76351
7 . 76345
d ents</w> 76271
recommen ds</w> 76235
appe al</w> 76234
fi el 76233
ten ance</w> 76217
p sy 76205
pre c 76146
we ight</w> 76087
gin e 76078
ci ties</w> 76060
W ar</w> 75958
ter nal</w> 75958
commer cial</w> 75949
fi gu 75885
appe ar</w> 75849
char ged</w> 75835
dre w</w> 75791
pai r</w> 75780
Par k</w> 75753
x i 75723
Au th 75674
Bei jing</w> 75659
m oun 75634
bo y</w> 75630
vi r 75587
t aining</w> 75543
ban ks</w> 75519
off ered</w> 75516
appl ied</w> 75510
m ic 75504
w on 75468
M ac 75426
Wh ite</w> 75412
l in</w> 75389
prepar ation</w> 75382
f requ 75354
lea ving</w> 75331
cre d 75306
m ass</w> 75304
Th ose</w> 75294
Chil dren</w> 75286
f ru 75283
particip ants</w> 75260
in si 75242
is land</w> 75201
z one</w> 75164
particip ate</w> 75143
air craft</w> 75115
Per s 75114
de ep</w> 75098
sim ply</w> 75074
dow n 75014
confi dence</w> 74997
suppor ting</w> 74977
s l 74975
B en 74973
tr a</w> 74973
inci dent</w> 74973
No t</w> 74968
c ing</w> 74954
he al 74925
hu ge</w> 74901
dise ase</w> 74896
pris on 74885
bre ak 74852
an ese</w> 74710
g one</w> 74662
M u 74609
k en</w> 74575
deleg ations</w> 74513
jur is 74504
appoin ted</w> 74501
foc used</w> 74428
wi d 74425
Braz il</w> 74402
lifer ation</w> 74389
Co operation</w> 74340
au di 74313
b ran 74302
E R 74301
bit r 74293
pur poses</w> 74292
pati ents</w> 74229
enti re</w> 74192
il legal</w> 74181
retur ned</w> 74160
sub sequ 74143
I tal 74142
pri or</w> 74117
terror ist</w> 74114
Eg yp 74073
B a 74063
comb at</w> 73998
m ay 73992
C .</w> 73978
deli very</w> 73965
ur ch</w> 73964
opini on</w> 73949
foot ball</w> 73931
w ants</w> 73914
r ying</w> 73912
see k</w> 73890
any one</w> 73877
ra phs</w> 73856
an ger</w> 73852
ur g 73849
c ast</w> 73831
go es</w> 73814
s or 73787
Afgh an 73780
bu y</w> 73778
K en 73759
min e</w> 73751
condi tion</w> 73695
Char ter</w> 73627
Str at 73606
n on 73599
Educ ation</w> 73596
some times</w> 73583
Jo hn 73566
ar ity</w> 73559
un g</w> 73529
d ang 73522
oper ate</w> 73522
wr ong</w> 73513
fe el 73500
bus in 73493
char ges</w> 73490
ad ap 73449
o red</w> 73387
s ound</w> 73362
Afghan istan</w> 73351
J ames</w> 73343
Imple mentation</w> 73337
sp ir 73302
IC EF</w> 73266
oo ds</w> 73243
B ud 73172
Regi onal</w> 73167
e ding</w> 73158
lo g 73154
S om 73104
candi date</w> 73078
identi fy</w> 73072
comple x</w> 73062
au l</w> 73060
commit ments</w> 73035
vulner able</w> 73032
per f 72988
ev es</w> 72932
c ross</w> 72909
D u 72880
un its</w> 72853
rac y</w> 72847
cha ir 72839
initi al</w> 72799
so f 72769
cri p 72702
k new</w> 72656
G r 72639
res ol 72626
re t</w> 72609
blo od</w> 72579
com ed</w> 72575
Sud an</w> 72530
S an</w> 72513
pris es</w> 72508
sub si 72506
ei gh 72503
pp ing</w> 72465
and a</w> 72452
al ism</w> 72449
For um</w> 72406
p ter</w> 72377
co m</w> 72377
Ital y</w> 72369
dic tion</w> 72349
v a</w> 72330
cl ass 72283
li ons</w> 72274
dru gs</w> 72241
charac ter 72234
W el 72206
tic ally</w> 72197
al ty</w> 72180
rel and</w> 72149
tr ust</w> 72112
A C 72087
F ace 72055
G od</w> 72047
D ar 72023
wel comed</w> 71926
H ill 71808
o s 71779
candi dates</w> 71741
le ase</w> 71719
rel ation</w> 71713
n a</w> 71662
diffic ul 71649
pur ch 71597
continu ing</w> 71565
is n</w> 71559
spokes man</w> 71545
E P</w> 71531
P R 71527
spe ak 71523
Pro tection</w> 71519
C ru 71513
cent res</w> 71462
R oo 71455
tran sition</w> 71405
do w</w> 71377
insur ance</w> 71371
encoura ge</w> 71338
Fe deral</w> 71303
loo ks</w> 71270
li z 71242
main tain</w> 71230
nor th</w> 71217
pass ed</w> 71205
func tion</w> 71204
st ake 71159
li ghts</w> 71124
tar ge 71115
tr ack</w> 71104
sit es</w> 71056
I reland</w> 71051
am ing</w> 71029
A ir 70994
Face book</w> 70978
Re g 70965
cont ent</w> 70945
y right</w> 70941
gre at 70813
distribu tion</w> 70808
S A 70766
g ent 70761
ed ings</w> 70754
acc ept 70729
T i 70642
sub mit</w> 70624
Fi f 70548
de pen 70524
W at 70507
O R 70490
2 , 70385
con serv 70372
Co de</w> 70371
il s</w> 70354
sk ills</w> 70345
mess age</w> 70328
D o</w> 70269
pres ence</w> 70252
d ged</w> 70249
discus sions</w> 70237
g ol 70227
Ch ris 70223
adv oc 70220
st on</w> 70199
neg ative</w> 70199
sch em 70197
Sch ool</w> 70126
enc ed</w> 70076
Un it</w> 70075
pursu ant</w> 70038
meas ure</w> 70020
mo vi 69931
I ts</w> 69930
pl at 69918
canc er</w> 69898
hol ding</w> 69790
D esp 69777
di plom 69773
T wit 69754
st ock</w> 69699
Con stitution</w> 69696
Me eting</w> 69686
enti ties</w> 69669
obj ective</w> 69666
govern ance</w> 69652
detail s</w> 69630
The ir</w> 69623
contro l 69622
w est</w> 69620
e al 69576
form ed</w> 69565
M ad 69557
guid ance</w> 69532
Sec ond</w> 69531
dra w</w> 69519
V al 69479
jour n 69437
sit uations</w> 69423
un it</w> 69396
J ud 69379
con vic 69369
N on</w> 69329
UN ICEF</w> 69302
sc ope</w> 69287
Pro f 69283
discus sed</w> 69256
gener ally</w> 69253
oc ca 69237
mid dle</w> 69222
eri al</w> 69214
G ar 69192
st ability</w> 69187
s li 69167
por ting</w> 69106
Agre ement</w> 69102
appro val</w> 69084
w il 69063
com par 69054
inform al</w> 69054
Desp ite</w> 69045
initi ative</w> 69009
Wh y</w> 68998
per manent</w> 68987
figu res</w> 68956
s outh</w> 68952
produc tive</w> 68943
Mid dle</w> 68937
d y 68883
L o 68883
inter view</w> 68836
scienti fic</w> 68825
Ph ili 68818
t ask</w> 68814
an ish</w> 68811
end or 68801
scen e</w> 68793
reve aled</w> 68787
Off ic 68737
doll ars</w> 68737
ac king</w> 68702
com ment</w> 68698
increas ingly</w> 68672
ti n</w> 68654
k ept</w> 68591
Twit ter</w> 68563
Geor ge</w> 68552
L ast</w> 68462
ven th</w> 68403
Ci vil</w> 68399
spe ak</w> 68376
institu tional</w> 68365
de man 68305
tim ate</w> 68291
civili an</w> 68291
Con gress</w> 68276
al ists</w> 68234
cop yright</w> 68221
dest ro 68220
coun ter</w> 68205
ad ju 68198
n a 68190
de si 68144
el lig 68133
re r</w> 68118
aliz e</w> 68089
th ir 68078
form ul 68074
st op 68049
techn ologies</w> 67967
D C</w> 67960
sec tors</w> 67909
wh om</w> 67897
mar riage</w> 67866
cl assi 67845
ext ent</w> 67816
t elevision</w> 67807
reco very</w> 67801
7 5</w> 67783
g ri 67780
f are</w> 67769
spe ech</w> 67750
inv ited</w> 67740
Cub a</w> 67724
aw are</w> 67689
el se</w> 67678
Ex per 67653
d ney</w> 67649
high ly</w> 67605
I A 67563
low ing</w> 67546
requi res</w> 67542
em is 67491
v oc 67477
re pl 67454
flo or</w> 67417
ati n</w> 67392
A sian</w> 67376
P en 67351
t uring</w> 67310
di e</w> 67304
y outh</w> 67293
B an 67288
i i</w> 67280
follow s</w> 67276
K u 67249
f ans</w> 67224
bri ef 67199
effici ency</w> 67191
multi lateral</w> 67178
ar ch 67173
B al 67156
an ge</w> 67152
B BC</w> 67148
consist ent</w> 67142
mo di 67118
de partment</w> 67087
ra ising</w> 67065
ethn ic</w> 67027
jud ge</w> 67024
ac ted</w> 67010
proce edings</w> 66995
n or</w> 66929
hou se 66910
sh aring</w> 66891
regim e</w> 66875
li e</w> 66867
Sec tion</w> 66861
oc k 66853
Gre at</w> 66851
respon d</w> 66829
fin ance</w> 66823
du ty</w> 66779
D el 66732
6 8</w> 66721
pre p 66716
main tenance</w> 66674
alleg ed</w> 66606
s en</w> 66585
ac ci 66578
ey es</w> 66576
ac tors</w> 66557
oul dn</w> 66552
ser ved</w> 66483
effecti veness</w> 66448
li st 66437
spo ke</w> 66435
vic tory</w> 66414
Mus li 66395
get ary</w> 66376
S am 66360
appe ars</w> 66356
sen sus</w> 66340
J er 66331
b ass 66321
Coun ty</w> 66306
tra in</w> 66294
sear ch</w> 66271
be an</w> 66250
dec ades</w> 66249
ai m</w> 66245
fac ed</w> 66236
sol di 66211
dis aster</w> 66204
Chi ef</w> 66153
s ell</w> 66134
pr e</w> 66131
8 . 66128
Americ ans</w> 66124
ul es</w> 66112
compu ter</w> 66068
determin ed</w> 65990
Sum mit</w> 65981
charac ter</w> 65969
Pak istan</w> 65943
separ ate</w> 65935
it or</w> 65917
figh ting</w> 65917
coll ection</w> 65914
conclu ded</w> 65909
accoun ts</w> 65906
T O</w> 65883
D ef 65868
dis abilities</w> 65850
empha si 65818
ti tle</w> 65803
ess ed</w> 65780
C ul 65774
lear ning</w> 65739
m as</w> 65648
op position</w> 65638
Sy dney</w> 65609
pre gn 65607
ing ing</w> 65588
surve y</w> 65587
s old</w> 65563
mon y</w> 65562
v ince</w> 65549
th an 65499
Poli tical</w> 65489
k ra 65475
compens ation</w> 65429
Hill ary</w> 65420
C C 65406
Cri me</w> 65406
ur ies</w> 65392
9 . 65358
i o</w> 65312
sp ending</w> 65305
lo s 65226
G ra 65225
jo ined</w> 65190
cha mpi 65176
fi gure</w> 65151
N ic 65143
ac qui 65134
encoura ged</w> 65089
peace ful</w> 65046
M ay 65043
P aul</w> 65010
bi tion</w> 64964
te dly</w> 64936
bir th</w> 64890
he ar</w> 64883
5 0 64836
resid ents</w> 64807
UNC TA 64747
fin e</w> 64733
employe es</w> 64723
provi sional</w> 64710
ris ks</w> 64681
hom es</w> 64606
cho ice</w> 64590
UNCTA D</w> 64590
develop ments</w> 64563
reduc ed</w> 64558
writ ing</w> 64532
G ol 64527
ex tra 64496
prac tical</w> 64489
parag raphs</w> 64487
Sm ith</w> 64440
rem aining</w> 64404
custom ers</w> 64397
ow er</w> 64368
win ning</w> 64367
settle ment</w> 64313
em o 64312
g ree</w> 64305
part nership</w> 64281
me dic 64274
mar ks</w> 64191
con struc 64161
is ation</w> 64127
Resear ch</w> 64122
A l</w> 64120
u rement</w> 64117
pre me</w> 64113
T or 64085
re au</w> 64028
me t 64022
inten ded</w> 63988
re in 63959
tem porary</w> 63954
se em</w> 63940
tor ture</w> 63913
t ability</w> 63898
invol ving</w> 63879
diffe ren 63837
collabor ation</w> 63835
co ach</w> 63830
ti tu 63822
is es</w> 63782
im age</w> 63753
is tics</w> 63751
as su 63741
ari b 63738
dem ic</w> 63722
um s</w> 63721
C up</w> 63714
C al 63692
set ting</w> 63679
ther more</w> 63616
p. m.</w> 63613
govern ments</w> 63605
n y</w> 63602
ecti vely</w> 63564
influ ence</w> 63535
spe aking</w> 63498
main ly</w> 63476
I F 63452
v ac 63452
ish es</w> 63423
ol er 63422
re vised</w> 63392
attemp t</w> 63365
legisl ative</w> 63358
UN F 63355
lin ked</w> 63343
ac ting</w> 63310
mil es</w> 63188
phi c</w> 63172
demo cr 63152
stud ent</w> 63150
star ting</w> 63143
cre ation</w> 63139
mor t 63126
t ty</w> 63115
part ner</w> 63107
T IO 63101
z ing</w> 63062
pro duce</w> 63022
g eria</w> 63006
um b 62967
pay ment</w> 62925
K e 62898
199 2</w> 62842
L os</w> 62830
fail ure</w> 62798
he ar 62776
ow ned</w> 62769
tri c</w> 62766
an i 62758
pro por 62715
dou ble</w> 62715
recor ds</w> 62668
po ol</w> 62652
fac ing</w> 62599
be gin</w> 62566
F re 62559
industri al</w> 62552
P at 62512
Cam er 62504
independ ence</w> 62488
di g 62474
heav y</w> 62474
ad y</w> 62456
ty pes</w> 62456
c en 62400
ol der</w> 62388
pri orities</w> 62382
L atin</w> 62368
e ds</w> 62337
clos ely</w> 62313
substan tive</w> 62311
cour ts</w> 62301
week end</w> 62274
ul ts</w> 62138
rei gn 62133
r ich</w> 62127
k o 62074
def ence</w> 62062
lo se</w> 62050
depend ent</w> 62050
lear n</w> 62019
Inter net</w> 62015
respon sibilities</w> 62005
corpor ate</w> 62001
G oo 61933
la u 61919
mi d</w> 61916
hol ds</w> 61911
au tom 61908
G l 61886
uni versal</w> 61856
I P 61817
sh ire</w> 61792
re v 61791
victi m</w> 61783
campai gn 61767
S au 61766
F am 61758
N et 61737
K y 61710
po st 61705
norm al</w> 61704
B oth</w> 61676
sch ed 61658
el led</w> 61644
n ings</w> 61626
C arib 61591
see king</w> 61565
sen si 61534
Administr ation</w> 61532
oun ding</w> 61517
Y u 61503
D ep 61500
B .</w> 61496
odi c</w> 61493
fe ar</w> 61481
ch oo 61460
C ur 61452
j i 61413
mak ers</w> 61410
U kra 61387
traff ic</w> 61373
o ther 61348
g old</w> 61331
boo ks</w> 61326
f ting</w> 61319
effici ent</w> 61298
ma xim 61295
m al 61292
ex tre 61280
Carib bean</w> 61277
resp ective</w> 61215
H u 61198
stre et</w> 61179
A R 61154
op tions</w> 61146
d aily</w> 61130
Tur k 61106
becom ing</w> 61099
inj ury</w> 61061
is c 61043
p ass</w> 61034
recor ded</w> 61013
stake holders</w> 61002
suff ered</w> 60996
tr ou 60973
qu ir 60933
w all</w> 60915
tem per 60913
Pe ace</w> 60868
fri end 60856
Sand ers</w> 60853
Pe ace 60851
e e</w> 60844
pos sibility</w> 60842
minim um</w> 60805
si ght</w> 60794
bu s</w> 60784
bab y</w> 60769
b ill</w> 60765
ph ase</w> 60688
lit er 60685
li sted</w> 60684
ti l 60672
cor ruption</w> 60671
Tim es</w> 60667
vot ed</w> 60646
weap on</w> 60644
Min ist 60643
7 7</w> 60638
B ul 60626
sim ple</w> 60610
g ation</w> 60603
alleg ations</w> 60536
f light</w> 60468
Ye ar</w> 60459
b at 60458
re ality</w> 60453
dec re 60450
ca uses</w> 60442
Ac c 60427
re al 60417
Ne w 60393
sanc tions</w> 60369
detail ed</w> 60355
as ks</w> 60347
econom ies</w> 60287
conc ept</w> 60280
in ating</w> 60261
vehic les</w> 60234
dec la 60233
So ci 60217
as tic</w> 60214
ec tions</w> 60195
reas on 60176
O F</w> 60164
advant age</w> 60092
Sp ain</w> 60078
lear ned</w> 60059
spe ed</w> 60032
P lease</w> 60029
tal ks</w> 60019
altern ative</w> 60019
Environ ment</w> 59984
achi eving</w> 59948
de gree</w> 59936
p on 59884
coun ter 59882
no on</w> 59869
ar bitr 59866
b loc 59780
He ad 59763
do g</w> 59759
po sted</w> 59755
a mend 59744
ag ree</w> 59718
dri ve</w> 59712
don e 59688
determin ation</w> 59657
add ressing</w> 59636
tw are</w> 59628
K ar 59593
fif ty</w> 59593
ec t 59585
re iter 59573
S w 59546
com for 59512
determin e</w> 59504
sh ops</w> 59500
indic ators</w> 59495
tion ally</w> 59452
. com</w> 59435
consequ ences</w> 59421
S ur 59417
C ro 59412
answ er</w> 59406
wat ch</w> 59397
Fur thermore</w> 59375
en try</w> 59345
beli eves</w> 59343
Z eal 59334
ur ged</w> 59290
exten ded</w> 59252
jud ges</w> 59187
vehic le</w> 59185
discus s</w> 59146
repres ented</w> 59086
pres sion</w> 59078
ad vis 59075
ach ers</w> 59064
fin ally</w> 59048
compe t 59048
In done 59043
diffe rence</w> 59043
oc ks</w> 59033
r o</w> 59008
demo c 59006
c ra 59001
Olymp ic</w> 58990
wel come</w> 58970
C O</w> 58925
speci fic 58924
appl ications</w> 58910
S ing 58882
resear chers</w> 58877
cer ti 58876
tion ing</w> 58837
M ur 58824
volun tary</w> 58812
ic a</w> 58798
sen ten 58775
D en 58767
Jap anese</w> 58751
ex ternal</w> 58726
happ en</w> 58719
wal k</w> 58701
thin king</w> 58700
r s</w> 58695
direc tion</w> 58686
en gine 58682
ar m</w> 58680
accep ted</w> 58591
sec ure</w> 58581
mis sing</w> 58562
ext rem 58532
dre ds</w> 58529
th i 58527
in o</w> 58525
m ist 58520
adv ance</w> 58482
bo ys</w> 58479
3 00</w> 58474
per sp 58449
arri ved</w> 58421
Administr ative</w> 58421
g ain</w> 58383
pro mp 58362
f ish</w> 58353
s ale</w> 58339
c rit 58315
Th om 58294
fu el</w> 58246
qu esti 58238
a ult</w> 58234
str ong 58210
201 7</w> 58204
tw enty</w> 58196
T ha 58170
inj ured</w> 58166
D on</w> 58125
call ing</w> 58101
Pol ic 58096
Roo m</w> 58070
p age</w> 58030
Par liament</w> 58015
se emed</w> 57975
dri ving</w> 57974
educ ational</w> 57963
it ch</w> 57962
refuge e</w> 57950
si vely</w> 57925
pat ter 57900
L et</w> 57892
adop t</w> 57857
gr ounds</w> 57844
ex port</w> 57841
l d 57826
immedi ate</w> 57817
sh ar 57794
TH E</w> 57794
D eci 57773
poli tics</w> 57759
exp ect</w> 57753
6 9</w> 57744
am m 57744
Christ mas</w> 57744
six th</w> 57734
c ell 57730
re over</w> 57690
L or 57679
ber g</w> 57664
rest aur 57660
reli ef</w> 57652
Bec ause</w> 57623
Con go</w> 57616
Zeal and</w> 57575
re new 57574
R E 57560
UN EP</w> 57557
consult ation</w> 57549
viol ation</w> 57546
impro vement</w> 57511
plac ement</w> 57487
ul ed</w> 57485
Re qu 57472
es tions</w> 57436
resul ting</w> 57407
jo in</w> 57398
C enter</w> 57345
J ust</w> 57330
Nor thern</w> 57302
civili ans</w> 57291
pro liferation</w> 57279
Angel es</w> 57274
D r 57262
UN HC 57245
val ues</w> 57237
dis sem 57221
le gi 57151
ati es</w> 57105
des er 57092
dec ade</w> 57089
ol a</w> 57082
establ ishing</w> 57080
a po 57063
con sensus</w> 57058
read ing</w> 57058
R ev 57049
sel ling</w> 57047
b on 57045
199 0</w> 57040
Su preme</w> 57036
statis tics</w> 57030
ri t</w> 57015
op h 56993
invest ors</w> 56990
to ols</w> 56981
g le</w> 56980
UNHC R</w> 56977
cre te</w> 56906
en tered</w> 56860
Se a</w> 56853
ro se</w> 56850
p ack 56841
pre tty</w> 56826
pic ture</w> 56812
An nex</w> 56789
n ames</w> 56766
ra in</w> 56757
il le</w> 56751
Go als</w> 56748
st one</w> 56718
enjo y</w> 56714
acc ept</w> 56689
ash ed</w> 56669
To day</w> 56669
M er 56642
f res 56640
fin dings</w> 56596
as ing</w> 56551
it ch 56525
ac tual</w> 56509
V ir 56502
mis sed</w> 56489
inter governmental</w> 56483
emb ar 56469
appear ance</w> 56462
cre ating</w> 56432
ellig ence</w> 56415
gi ves</w> 56403
ail s</w> 56384
mar ried</w> 56375
re feren 56361
id a</w> 56351
mo del 56335
c ars</w> 56328
de struction</w> 56325
c oura 56281
Jo int</w> 56279
bro ther</w> 56264
S pe 56253
e ing</w> 56232
comple tely</w> 56228
all er</w> 56203
pu ts</w> 56203
P s</w> 56189
on to</w> 56116
Bre x 56100
ar di 56073
l ying</w> 55998
ap s</w> 55994
sou ght</w> 55990
fiel ds</w> 55976
abl ed</w> 55965
ap p 55962
D oc 55947
o k 55915
2 8 55906
Chil d</w> 55883
gre en</w> 55877
enn a</w> 55854
pl ant</w> 55851
ac knowle 55802
ti ves</w> 55792
defin ed</w> 55784
laun ch</w> 55751
7 3</w> 55744
draw n</w> 55743
chan ging</w> 55737
ha bil 55736
ar ily</w> 55719
bro ad</w> 55691
cent age</w> 55673
ver i 55652
w aste</w> 55628
ic ity</w> 55576
manag ed</w> 55562
we ather</w> 55548
m ot 55542
syst em 55536
res ses</w> 55519
ci pl 55482
bo x</w> 55459
appro xim 55446
le ague</w> 55427
ast ers</w> 55400
speci alized</w> 55392
Fin ancial</w> 55388
y an</w> 55356
Ri o</w> 55348
dis h</w> 55344
so ve 55319
refl ected</w> 55319
V ol 55318
B ill</w> 55295
achie vement</w> 55265
Wh ere</w> 55251
I t 55229
a men 55226
con solid 55212
d ary</w> 55193
5 ,000</w> 55163
deploy ment</w> 55157
per haps</w> 55124
bour ne</w> 55118
lic it</w> 55098
gener ation</w> 55087
new sp 55086
g un 55069
ac her</w> 55046
we alth</w> 55044
oblig ation</w> 55039
sh e 55030
he aring</w> 55030
par k</w> 55018
lim it</w> 55018
In v 55016
tal king</w> 55014
s end</w> 54991
intere sted</w> 54984
ex ac 54973
au t 54947
monit or</w> 54946
dang erous</w> 54940
de part 54936
beau ti 54934
J am 54915
bri dge</w> 54901
st ations</w> 54897
ple ase</w> 54882
cri tic 54878
tro ops</w> 54872
sy n 54817
H ere</w> 54814
John son</w> 54803
a i</w> 54790
s un 54781
it i</w> 54766
aff ect</w> 54753
wid ely</w> 54733
de fe 54727
dis placed</w> 54710
l eng 54708
democ racy</w> 54706
199 1</w> 54687
plan e</w> 54657
gu il 54653
cro s 54630
we ak 54621
Sau di</w> 54599
refl ect</w> 54578
en ary</w> 54550
acc ur 54545
multi ple</w> 54537
Scot tish</w> 54535
m ale</w> 54529
ad ed</w> 54527
A S 54481
l dn</w> 54480
su st 54469
se l</w> 54469
K ing</w> 54437
com mod 54397
bi d</w> 54383
m ers</w> 54357
b on</w> 54346
port ation</w> 54339
im ag 54338
Ear th</w> 54336
g en</w> 54329
decla red</w> 54312
Sy stem</w> 54308
car rying</w> 54307
aren cy</w> 54304
appreci ation</w> 54269
f ted</w> 54250
t el 54227
coun t</w> 54220
vo ice</w> 54214
ordin ary</w> 54199
f la 54198
Brex it</w> 54184
gh t 54172
un able</w> 54159
mur der</w> 54106
us eful</w> 54098
prep are</w> 54087
fe et</w> 54086
ap ers</w> 54075
dri ver</w> 54070
d ance</w> 54066
certain ly</w> 54029
dro p</w> 54022
poli tici 54021
su it</w> 54008
pl ays</w> 53998
emb ers</w> 53943
sof tware</w> 53875
st o 53867
ad d</w> 53864
ob vi 53827
at trac 53805
ic ate</w> 53799
cou ldn</w> 53796
g ger</w> 53768
end ers</w> 53747
sp read</w> 53746
busin esses</w> 53734
tar gets</w> 53692
ti vity</w> 53691
am bi 53681
ner ships</w> 53676
val u 53672
M ag 53669
ad ver 53662
contribu ted</w> 53654
Wi th 53602
tow ard</w> 53566
peri odic</w> 53549
dr in 53541
fo rest</w> 53486
w ing</w> 53467
mo bil 53426
cru cial</w> 53425
expl ained</w> 53418
D r</w> 53398
de a 53396
Head quarters</w> 53394
teen th</w> 53336
g ment</w> 53331
pi ece</w> 53308
al a</w> 53305
B as 53259
streng th</w> 53252
W ell</w> 53208
gr at 53187
shor t 53187
Egyp t</w> 53151
pres er 53148
F lor 53145
agricul tural</w> 53129
N ote</w> 53123
assi ve</w> 53115
d ur 53111
D A 53096
atic ally</w> 53065
n esses</w> 53044
4 0 53026
Sp anish</w> 53024
at ell 53018
Mo reover</w> 53013
fe atures</w> 52953
V er 52943
sa ve</w> 52941
m atic</w> 52928
y n 52916
v o</w> 52884
ac a 52876
whe re 52860
bil ateral</w> 52846
z z 52841
c ard</w> 52830
di ag 52811
tre ated</w> 52760
M O 52705
pro sp 52699
k ids</w> 52610
techn i 52608
dis pu 52607
ke t 52601
juris diction</w> 52599
Geor gi 52586
Bu reau</w> 52574
cal cul 52572
eng aged</w> 52525
c enter</w> 52486
larg ely</w> 52480
cy cle</w> 52477
cap e</w> 52474
nation ally</w> 52470
aff airs</w> 52469
bra in</w> 52467
ho t</w> 52451
con centr 52442
E ver 52441
democr atic</w> 52417
gu ard</w> 52399
el ine</w> 52383
Coun tries</w> 52356
cl in 52337
ey e</w> 52331
st ressed</w> 52328
p ush 52283
deci de</w> 52277
de ad 52274
ici p 52267
Di strict</w> 52249
appoin tment</w> 52247
R a 52240
Ar gent 52238
L an 52237
ent ation</w> 52224
li ved</w> 52218
V en 52209
L in 52205
abs ence</w> 52131
P i 52118
appro aches</w> 52116
regi stered</w> 52109
head s</w> 52103
R ed</w> 52076
h a</w> 52062
Cha ir</w> 52061
In te 52038
feel ing</w> 52009
batt le</w> 52000
cur ren 51996
il ed</w> 51971
acti vely</w> 51941
n ations</w> 51931
cam p</w> 51927
sp end</w> 51913
uni versity</w> 51888
abs olu 51860
fi re 51838
c old</w> 51809
tra ding</w> 51809
du le</w> 51805
Auth ority</w> 51797
psy ch 51795
sha res</w> 51780
s ports</w> 51759
suppor ters</w> 51743
um e</w> 51719
t ack 51709
p hoto</w> 51699
y our 51688
ili ation</w> 51626
per pe 51618
memb ership</w> 51602
st able</w> 51561
ul ti 51560
T ex 51546
der ing</w> 51534
con crete</w> 51524
Con tro 51501
satis fac 51480
Y et</w> 51466
sur face</w> 51457
har d 51422
Mel bourne</w> 51395
e um</w> 51388
even tually</w> 51383
ay ed</w> 51332
estim ates</w> 51322
or g</w> 51313
off ers</w> 51311
f low</w> 51307
s ent 51295
ap pa 51285
Rec alling</w> 51266
A F 51258
expendit ure</w> 51237
impl ications</w> 51236
S ol 51222
on a</w> 51213
me ant</w> 51199
di strict</w> 51196
Techn ology</w> 51189
L oc 51183
B ol 51182
g lob 51178
r i</w> 51171
ti ally</w> 51169
o dy</w> 51137
recogn ition</w> 51136
Vi enna</w> 51119
min ute</w> 51117
st ore</w> 51103
for tun 51061
thre ats</w> 51060
2 9 50974
3 , 50953
applic able</w> 50944
te sts</w> 50928
re affir 50886
S ever 50879
identi ty</w> 50865
. .</w> 50856
fin ding</w> 50855
enter prises</w> 50824
mean ing</w> 50823
fac tor</w> 50817
invol vement</w> 50811
high ligh 50810
in th</w> 50806
f it</w> 50801
fac es</w> 50797
W ar 50783
conclu sion</w> 50778
e ded</w> 50759
sur pris 50749
Commun ity</w> 50709
se venth</w> 50705
S ar 50697
struc tures</w> 50692
sh el 50661
at a</w> 50641
reduc ing</w> 50627
radi o</w> 50604
st ag 50595
electr onic</w> 50592
O ver</w> 50572
Dis armament</w> 50570
vill age</w> 50556
G et 50541
dis cipl 50541
power ful</w> 50528
mo b 50516
accoun tability</w> 50511
P . 50498
speci es</w> 50495
F ar 50488
conflic ts</w> 50484
j usti 50478
L ou 50469
com mission</w> 50451
m ar</w> 50425
D ru 50411
pro ved</w> 50410
rem ember</w> 50401
heal thy</w> 50401
Fran c 50395
occur red</w> 50394
sy m 50390
movi e</w> 50388
Su stainable</w> 50371
co de</w> 50364
chem ical</w> 50320
as c 50305
A ir</w> 50303
usu al</w> 50299
g ate</w> 50295
dis covered</w> 50233
te achers</w> 50222
ad ding</w> 50202
approxim ately</w> 50199
ag u 50196
w . 50192
hel ping</w> 50192
medi um</w> 50186
atten ded</w> 50186
Pre vention</w> 50180
u ally</w> 50165
m its</w> 50150
sent ence</w> 50116
tre aties</w> 50088
signific antly</w> 50069
n it 50024
ag gres 50016
ot ed</w> 50004
F ac 49995
Pro vi 49967
sur r 49967
de aling</w> 49962
re p 49957
H um 49944
soldi ers</w> 49896
fam ous</w> 49873
men ted</w> 49855
poin ted</w> 49836
rou gh</w> 49807
7 2</w> 49806
s n 49775
ar rest</w> 49759
sched uled</w> 49739
bu t 49735
cle an</w> 49732
g ers</w> 49725
langu ages</w> 49722
Pe ter</w> 49692
war ning</w> 49678
be at</w> 49658
difficul ties</w> 49642
ex tra</w> 49636
main stre 49630
Y our</w> 49625
crit eria</w> 49617
ide as</w> 49568
Flor ida</w> 49565
head quarters</w> 49536
Phili pp 49530
beauti ful</w> 49527
lin k</w> 49505
ar my</w> 49495
rac ial</w> 49487
z a</w> 49467
dist inc 49457
pen alty</w> 49450
hun dreds</w> 49439
my self</w> 49438
Mar k</w> 49407
ag er</w> 49367
col lege</w> 49345
lar ger</w> 49339
deli vered</w> 49318
resul ted</w> 49316
J ord 49306
after noon</w> 49299
buil dings</w> 49281
ac compl 49246
deli ber 49213
gr and 49204
urg ent</w> 49189
N S 49185
sou thern</w> 49169
rel atively</w> 49140
ha ir</w> 49136
cau ght</w> 49129
Ap ple</w> 49126
str on 49121
el er 49109
kill ing</w> 49106
an ci 49099
uni on</w> 49097
R w 49094
mul ti</w> 49092
mob ile</w> 49080
T ot 49078
Sp ace</w> 49064
mo stly</w> 49059
nor thern</w> 49053
Leban on</w> 49037
don ors</w> 49032
ww w. 49022
T E 49012
emer ging</w> 49005
extrem ely</w> 48988
s pl 48980
regi stration</w> 48971
six ty</w> 48971
a p</w> 48963
show ing</w> 48949
war ned</w> 48947
cor respon 48931
P op 48902
mil lions</w> 48897
un less</w> 48876
ing u 48862
Ro ad</w> 48816
run s</w> 48815
f ashi 48802
con sumption</w> 48789
F er 48773
e ast</w> 48767
us er</w> 48761
hot el</w> 48718
se as</w> 48716
N ot 48697
Pr ince</w> 48692
I r 48689
the ory</w> 48675
B I</w> 48663
pay ments</w> 48657
re habil 48656
st ern</w> 48653
au dit</w> 48613
transp arency</w> 48613
los ses</w> 48609
con ferences</w> 48590
Dis crimination</w> 48588
esti val</w> 48580
o x 48558
ti se</w> 48551
es h</w> 48529
chec k</w> 48528
prof it</w> 48517
br inging</w> 48510
s av 48502
ha z 48491
as yl 48448
duc tion</w> 48444
den ied</w> 48432
Col om 48429
Car ol 48423
inj uries</w> 48369
atten d</w> 48362
c ast 48344
re forms</w> 48311
Bel gi 48301
Cha m 48297
B us 48273
see ing</w> 48268
an i</w> 48220
consider ing</w> 48218
vot ing</w> 48202
fin ished</w> 48164
dis crimin 48124
sub mission</w> 48122
St an 48113
Turk ish</w> 48087
er gy</w> 48067
tri p</w> 48045
observ ations</w> 48030
t ains</w> 48007
Swe den</w> 48005
gra de</w> 47998
bass ador</w> 47995
Offic er</w> 47986
suff ering</w> 47983
Cru z</w> 47979
Ar my</w> 47974
E ach</w> 47963
gi ble</w> 47960
gr anted</w> 47948
net works</w> 47941
sho oting</w> 47931
. org</w> 47908
fun ded</w> 47898
even ing</w> 47876
f illed</w> 47864
Pers ons</w> 47861
or ation</w> 47827
4 00</w> 47826
Ro yal</w> 47781
J ones</w> 47751
re an</w> 47735
E st 47727
H el 47714
wor ld 47709
CN . 47704
Polic y</w> 47704
im posed</w> 47696
S hi 47626
D om 47626
S wit 47622
M embers</w> 47619
g row</w> 47616
Ukra ine</w> 47614
uni que</w> 47609
co verage</w> 47594
asyl um</w> 47587
ow ner</w> 47581
ord ination</w> 47554
ch er</w> 47553
9 9</w> 47541
D raft</w> 47534
sp here</w> 47529
depart ments</w> 47520
instru ment</w> 47477
wr ite</w> 47477
targe ted</w> 47476
Indone sia</w> 47473
se y</w> 47472
cont ains</w> 47449
s olutions</w> 47440
dea ths</w> 47424
pl us</w> 47415
are n</w> 47412
quir y</w> 47367
migr ant</w> 47328
sco red</w> 47328
Is land</w> 47309
f oot</w> 47283
part nerships</w> 47246
z es</w> 47239
employ ed</w> 47229
M y 47225
dat ab 47223
per centage</w> 47222
pl enary</w> 47218
con vention</w> 47189
Fol lowing</w> 47173
Th ird</w> 47166
en ting</w> 47144
mar ked</w> 47127
Ira q 47123
expres s</w> 47120
b ar</w> 47119
occup ied</w> 47104
fle xi 47094
te sting</w> 47091
ser ving</w> 47072
Fur ther</w> 47055
UNF PA</w> 47044
Requ ests</w> 47042
Th ree</w> 47026
sever e</w> 47026
referen dum</w> 46984
man i 46974
exist ence</w> 46963
er ad 46958
P S</w> 46947
F ra 46933
dro pped</w> 46903
proc urement</w> 46902
co he 46891
Leg al</w> 46886
trans l 46877
C u 46865
spi rit</w> 46859
diag no 46828
other wise</w> 46827
Me an 46824
pic tured</w> 46824
k il 46823
y m 46810
ph en 46796
ai re</w> 46782
e at</w> 46769
ow ing</w> 46758
Sever al</w> 46758
explo itation</w> 46757
b le 46750
et ary</w> 46747
Sen ate</w> 46746
On ly</w> 46729
li qu 46726
ici de</w> 46699
s am 46698
pow ers</w> 46693
contrac ts</w> 46681
to m</w> 46642
hop es</w> 46613
V ice</w> 46595
on ia</w> 46583
Indi an</w> 46579
Rec o 46575
resp ectively</w> 46562
defin ition</w> 46556
1 ,000</w> 46534
Op tional</w> 46496
I M 46462
z e 46450
tim ely</w> 46447
T ai 46438
eigh th</w> 46400
eval u 46397
de al 46396
ris ing</w> 46377
wor st</w> 46338
T able</w> 46313
c as 46311
perf ect</w> 46305
spo t</w> 46295
ap ar 46267
categ ory</w> 46259
H R</w> 46245
su b</w> 46243
experi enced</w> 46211
di men 46195
ep h 46195
ri c</w> 46186
stra ight</w> 46168
F A 46152
easi ly</w> 46137
stan ds</w> 46121
ce re 46121
anc ement</w> 46072
doub t</w> 46070
persp ective</w> 46051
pic k</w> 46047
W in 46041
neigh b 46019
am ed</w> 46012
min ing</w> 45971
p ain</w> 45964
Lor d</w> 45897
su gg 45871
ex ist</w> 45851
F ood</w> 45825
recei ving</w> 45823
no w 45819
Op en</w> 45816
El ec 45815
fo rec 45786
specific ally</w> 45776
mar ine</w> 45771
s ort</w> 45770
in sp 45744
s tic 45723
C an</w> 45717
N uclear</w> 45697
cl ari 45694
Au stri 45679
we stern</w> 45665
compon ent</w> 45652
emis sions</w> 45618
w ouldn</w> 45612
pri mar 45612
ch ester</w> 45610
U r 45603
per c 45597
sy mp 45584
mu tual</w> 45549
in stance</w> 45516
Com p 45514
Is lands</w> 45511
tren d</w> 45511
tradi tion</w> 45500
dar k</w> 45488
s mar 45482
air port</w> 45480
U p 45459
sid ers</w> 45451
allow s</w> 45443
contribu ting</w> 45442
guaran tee</w> 45423
doc tors</w> 45422
pri me</w> 45410
ail ed</w> 45376
bl ue</w> 45372
experi ences</w> 45368
Som alia</w> 45346
is o 45303
im migration</w> 45292
th ly</w> 45260
ru s</w> 45236
Bo s 45229
re viewed</w> 45207
wa iting</w> 45206
sign s</w> 45203
complain ts</w> 45201
schem e</w> 45190
expres sion</w> 45161
il and</w> 45159
th u 45124
te en</w> 45115
tw ice</w> 45072
qu anti 45065
sk in</w> 45050
sk y</w> 45038
choo se</w> 45028
iz es</w> 45023
your self</w> 45021
E l</w> 45020
te acher</w> 45007
mic ro 45003
promis e</w> 44996
off ences</w> 44995
proc essing</w> 44993
secret ary</w> 44952
v ital</w> 44946
allow ing</w> 44944
ref used</w> 44940
s low 44936
tru th</w> 44909
n ur 44887
re su 44860
int elligence</w> 44849
T om</w> 44843
s atell 44841
it ment</w> 44823
Ch ris</w> 44792
de v 44786
so ft</w> 44781
ga p</w> 44751
ag g 44742
v ations</w> 44737
pre mi 44737
stop ped</w> 44736
le ts</w> 44715
Swit zer 44715
e . 44712
oler ance</w> 44705
Col lege</w> 44704
il licit</w> 44703
k o</w> 44695
at tribu 44676
har mon 44667
E limin 44664
vot es</w> 44652
E A</w> 44640
un c 44627
st ress</w> 44624
Switzer land</w> 44618
Cha mpi 44617
Gu ine 44589
sem in 44588
eng ers</w> 44586
strong ly</w> 44571
9 5</w> 44561
The re 44548
er ies</w> 44535
exc ept</w> 44534
In du 44532
sugge sts</w> 44526
in ven 44522
l ers</w> 44514
comb ined</w> 44510
E S</w> 44508
crow d</w> 44508
un ity</w> 44504
stri ke</w> 44484
m assive</w> 44481
ai ms</w> 44465
per form</w> 44448
Par t 44447
control led</w> 44447
loc ations</w> 44445
h an</w> 44430
scienti sts</w> 44425
ent al</w> 44423
f al 44418
UN ID 44412
M ari 44404
con ver 44392
er o 44382
coun cil</w> 44379
i ded</w> 44377
Si x 44355
seri ously</w> 44339
qu es</w> 44327
On ce</w> 44315
ic ated</w> 44304
S han 44301
7 1</w> 44298
at ever</w> 44289
In cre 44288
B et 44282
Mean while</w> 44278
her self</w> 44271
t ool</w> 44229
pro per</w> 44222
author ized</w> 44218
w an</w> 44205
n inth</w> 44192
be l</w> 44192
in corpor 44189
num erous</w> 44180
religi on</w> 44167
Pro c 44141
cir cul 44136
enter prise</w> 44128
R esp 44125
7 4</w> 44117
con dem 44100
Co ordination</w> 44098
An y</w> 44084
Y es</w> 44079
Can adi 44078
sur g 44071
Be fore</w> 44064
nu tri 44046
4 , 44044
Tex as</w> 44040
p utting</w> 44000
ra m</w> 43972
P rem 43964
lo ad</w> 43959
acc eler 43956
fic ations</w> 43952
Camer on</w> 43939
them e</w> 43926
repor tedly</w> 43913
s low</w> 43897
world wide</w> 43890
P a 43887
gu ards</w> 43882
min ority</w> 43868
C s</w> 43865
def ense</w> 43855
se at</w> 43854
H en 43825
do z 43823
P A 43791
perform ed</w> 43765
doll ar</w> 43757
v an</w> 43747
F oundation</w> 43723
1 st</w> 43717
P ic 43713
su ggest</w> 43709
ori gin</w> 43702
G az 43683
UN MI 43675
ob tained</w> 43667
pol lu 43665
P lan 43650
investig ations</w> 43650
bud getary</w> 43642
back ground</w> 43629
O ri 43626
obser ved</w> 43620
hosp it 43613
is s</w> 43610
exper tise</w> 43604
re venue</w> 43603
v als</w> 43579
ge ment</w> 43574
kno ws</w> 43567
d ges</w> 43563
It alian</w> 43550
hou ses</w> 43549
expan sion</w> 43542
represent ation</w> 43536
plat form</w> 43534
e x</w> 43521
ann i 43479
8 5</w> 43477
capac ities</w> 43473
hon our</w> 43465
de dic 43428
c el 43426
b ound</w> 43422
F u 43410
7 6</w> 43410
anim als</w> 43399
leg ally</w> 43397
Ne ther 43392
per si 43364
Exper ts</w> 43362
adju st 43357
Pro secu 43350
i day</w> 43320
p ical</w> 43314
S ome 43311
eng age</w> 43299
dig ital</w> 43285
ad mitted</w> 43233
maxim um</w> 43205
regul arly</w> 43202
p ath</w> 43199
I L 43168
or dered</w> 43159
b es</w> 43127
S ource</w> 43077
di ary</w> 43066
st ars</w> 43062
deli ver</w> 43059
del ay</w> 43055
re rs</w> 43052
adv anced</w> 43051
particip ated</w> 43050
li mit 43034
M A 43025
Fam ily</w> 43000
m ail</w> 42994
an ity</w> 42987
ch urch</w> 42981
Territ ory</w> 42963
L et 42954
Tr ust</w> 42952
Sou thern</w> 42946
S el 42942
An n 42940
lo sing</w> 42938
enh anced</w> 42936
ye ster 42929
Oper ations</w> 42923
Ever y 42912
b ol 42903
cip al</w> 42903
ic als</w> 42900
Mar tin</w> 42884
Dep u 42878
te aching</w> 42875
p t</w> 42859
b in 42833
S lo 42817
vis its</w> 42776
ou d</w> 42767
we ar</w> 42754
S A</w> 42745
sel ected</w> 42718
Iraq i</w> 42712
Nether lands</w> 42711
Tra ining</w> 42699
becom es</w> 42697
s port</w> 42671
en em 42657
exten d</w> 42656
ed ly</w> 42650
b arri 42649
st ac 42647
s ong</w> 42611
GO s</w> 42611
Georgi a</w> 42608
Nor way</w> 42594
subsequ ent</w> 42590
ass ess</w> 42589
En ergy</w> 42588
N a 42562
at titu 42559
ac tor</w> 42528
reason able</w> 42507
Goo gle</w> 42500
coll ap 42497
bro ken</w> 42490
S T 42487
St u 42484
Po st</w> 42439
ge dly</w> 42435
mach ine</w> 42432
In de 42425
guil ty</w> 42425
in ts</w> 42421
go sla 42416
Dr .</w> 42387
ti ll</w> 42384
w ind</w> 42380
N F 42372
Jord an</w> 42363
coll ective</w> 42337
Yu gosla 42327
d ress</w> 42326
Ad di 42298
occup ation</w> 42297
M P</w> 42294
St atis 42287
Con si 42283
f ran 42264
w illing</w> 42229
th or 42222
im pe 42221
ali tion</w> 42220
re y</w> 42218
im ages</w> 42216
eng agement</w> 42211
indic ate</w> 42192
P ress</w> 42183
repres ent</w> 42181
C B 42180
e di 42178
protec ted</w> 42173
pun ishment</w> 42170
dec lined</w> 42160
con vers 42156
yester day</w> 42143
el a</w> 42141
accoun ting</w> 42139
St ud 42118
i ther</w> 42098
ul ations</w> 42083
si bly</w> 42065
el abor 42057
ph y</w> 42042
stor ies</w> 42039
W A</w> 42036
f ts</w> 42023
in struc 42017
enh ancing</w> 42012
vari ety</w> 42011
sum mary</w> 42001
ow ners</w> 41987
chil d 41960
Z i 41933
differen ces</w> 41925
vis ited</w> 41908
G ames</w> 41906
suppor ts</w> 41898
regul ation</w> 41897
stor m</w> 41895
mis si 41891
tr act</w> 41885
ur s</w> 41884
ric k</w> 41884
rehabil itation</w> 41881
bur g</w> 41860
e u 41844
substan tial</w> 41826
re conc 41821
re moved</w> 41814
cour ses</w> 41814
perpe tr 41762
as king</w> 41760
adver ti 41756
spon s 41746
Mal ay 41745
al es</w> 41742
es tion</w> 41741
secon dary</w> 41740
Guine a</w> 41728
exc e 41726
dec line</w> 41681
out standing</w> 41679
Sci enti 41673
we aring</w> 41663
ligh tly</w> 41663
prohi b 41655
progra ms</w> 41644
mun icip 41633
assess ments</w> 41631
sp ring</w> 41621
B or 41603
N GOs</w> 41573
re n</w> 41569
law yer</w> 41566
recru itment</w> 41547
re min 41531
e astern</w> 41520
Hi gh 41495
B rown</w> 41480
Fi eld</w> 41475
v ated</w> 41473
gu ide</w> 41461
ter ri 41438
lat ter</w> 41435
Ph il 41429
ex hi 41411
Scot t</w> 41390
I l 41381
Wh o</w> 41377
j e 41376
doc tor</w> 41354
pro vin 41353
Musli m</w> 41348
hop ed</w> 41345
0 0 41333
sec ret</w> 41327
fl u 41327
te m</w> 41322
dise ases</w> 41315
ain t</w> 41293
highligh ted</w> 41291
Ri ver</w> 41286
t ac 41280
ro oms</w> 41270
in sul 41267
am i</w> 41266
alle gedly</w> 41259
elec toral</w> 41257
it ting</w> 41248
s a</w> 41243
integr ity</w> 41237
br ary</w> 41234
op en 41224
constitu tional</w> 41223
an o</w> 41214
Argent ina</w> 41188
m on</w> 41171
pro ve</w> 41169
inci dents</w> 41169
O ut 41165
u d</w> 41159
Contro l</w> 41138
E astern</w> 41128
St aff</w> 41108
H on 41103
Elimin ation</w> 41099
sle ep</w> 41096
om en 41083
Fin ally</w> 41079
cr ash</w> 41074
organ s</w> 41073
don or</w> 41065
exac tly</w> 41049
conclu sions</w> 41031
su stain 41000
Ob j 40997
exam ination</w> 40987
sm aller</w> 40955
pil ot</w> 40944
fir ms</w> 40940
ter y</w> 40927
a por 40926
mit ting</w> 40926
sub regional</w> 40925
e ply</w> 40908
There fore</w> 40903
pl i 40885
Pro ject</w> 40878
loc ked</w> 40877
por ted</w> 40873
chair man</w> 40848
audi ence</w> 40843
M E 40825
Techn ical</w> 40822
sup ple 40816
f air 40766
he at</w> 40734
acc es 40715
B lack</w> 40711
p. m</w> 40708
f ill</w> 40695
i gn 40688
UNID O</w> 40688
diplom atic</w> 40680
Govern ing</w> 40666
si ster</w> 40656
exp ect 40649
dispu te</w> 40645
ha ven</w> 40633
L A 40632
suppl ies</w> 40627
squ are</w> 40622
amoun ts</w> 40609
6 00</w> 40589
bro ke</w> 40588
At lan 40581
C D</w> 40559
mil it 40546
In stead</w> 40537
R ules</w> 40521
main tained</w> 40514
ni e</w> 40513
su d 40496
sel ection</w> 40496
el ement</w> 40487
m ir 40482
Wal es</w> 40482
ut ors</w> 40480
aw ard</w> 40476
Gre en</w> 40466
ro ll</w> 40456
restric tions</w> 40456
Get ty</w> 40433
I C</w> 40425
rap id</w> 40403
uc k 40398
z u 40393
sh op 40387
sensi tive</w> 40387
b ought</w> 40376
institu tion</w> 40362
vers ary</w> 40358
strength ened</w> 40357
Republic ans</w> 40350
compon ents</w> 40338
fe ature</w> 40326
investig ate</w> 40302
model s</w> 40302
i ous</w> 40287
Rob ert</w> 40278
l ay 40266
accept able</w> 40263
ac compan 40246
coord inated</w> 40220
th ank</w> 40215
fav our</w> 40210
gr ant</w> 40177
newsp aper</w> 40177
min es</w> 40172
work shops</w> 40165
off ering</w> 40140
com man 40133
less ons</w> 40124
Ch ic 40103
t elling</w> 40102
al ties</w> 40092
Ko rean</w> 40089
on ing</w> 40071
adi um</w> 40068
ed oms</w> 40059
Li ke</w> 40052
great est</w> 40040
incre ases</w> 40017
Bu il 40014
Th us</w> 40007
de vices</w> 39995
fres h</w> 39982
direc ted</w> 39966
E very</w> 39956
t ough</w> 39937
Add . 39936
pan el</w> 39933
man dates</w> 39927
St and 39916
S he 39898
ou red</w> 39890
wor se</w> 39879
ti e</w> 39865
te sted</w> 39861
R em 39857
S O 39851
mat ely</w> 39845
s on 39842
ob stac 39838
7 8</w> 39823
require ment</w> 39817
p ush</w> 39813
c ue</w> 39790
re jected</w> 39756
dy nam 39715
H all</w> 39711
Am ong</w> 39702
Strat egy</w> 39692
t ree</w> 39689
conf ron 39673
Rec om 39673
L ab 39671
behavi our</w> 39668
ad ing</w> 39662
extre me</w> 39658
bel on 39655
A P</w> 39649
inclu sion</w> 39614
cont ain</w> 39610
Depu ty</w> 39601
l un 39535
co o 39495
t asks</w> 39492
inter ven 39479
5 , 39475
arch it 39475
In iti 39466
prepar ing</w> 39465
under stood</w> 39448
al co 39407
Par t</w> 39387
ade my</w> 39383
in ations</w> 39378
p aying</w> 39374
man age</w> 39368
al bu 39363
fi xed</w> 39361
sust ained</w> 39356
der i 39353
t our</w> 39344
ar a</w> 39313
wel comes</w> 39312
out comes</w> 39290
We ap 39287
agricul ture</w> 39287
par lia 39282
Reco gn 39263
Se e</w> 39255
pe ti 39246
Sci ence</w> 39246
val ent</w> 39239
ve y</w> 39235
s man</w> 39231
co vering</w> 39212
si mul 39209
Man chester</w> 39207
Gre ece</w> 39202
under take</w> 39195
anim al</w> 39192
e dule</w> 39171
em ail</w> 39169
cap it 39161
friend ly</w> 39160
particip ating</w> 39149
recogn ize</w> 39145
obser vers</w> 39142
ar m 39120
cont aining</w> 39115
ef ul 39091
y i 39076
Olymp ics</w> 39069
f ile</w> 39051
viol ent</w> 39020
Carol ina</w> 39018
t ;</w> 39008
est ate</w> 39008
Me dia</w> 38996
clos er</w> 38992
w age</w> 38986
struc k</w> 38979
j an</w> 38978
empha sis</w> 38965
a h 38948
a. m.</w> 38937
emphasi zed</w> 38931
expl ain</w> 38907
sk i</w> 38900
li fe 38888
inter nationally</w> 38881
en ger</w> 38874
elim inate</w> 38840
ab ol 38839
repres ents</w> 38795
c utting</w> 38792
fi red</w> 38790
tren ds</w> 38788
encoura ges</w> 38783
P ower</w> 38776
S il 38769
Soci ety</w> 38767
fil ed</w> 38758
er ra</w> 38755
ul l</w> 38744
cle an 38744
fa ith</w> 38734
B ush</w> 38733
hol iday</w> 38732
scre en</w> 38730
Assi stance</w> 38723
fac ts</w> 38718
S ir</w> 38717
Add .1</w> 38708
Cul tural</w> 38703
Canadi an</w> 38695
Rw anda</w> 38688
respon ses</w> 38686
fu n</w> 38669
Tot al</w> 38668
k m</w> 38659
H S</w> 38659
Ku wait</w> 38642
P ur 38638
Palest ine</w> 38638
u ters</w> 38635
car bon</w> 38625
volun te 38588
Vi ol 38586
categ ories</w> 38586
k ill</w> 38581
respon ded</w> 38578
ab road</w> 38541
rec alled</w> 38541
Fif th</w> 38540
primar ily</w> 38540
en der</w> 38518
sel s</w> 38507
v ille</w> 38490
mar ke 38483
curren cy</w> 38481
Ko so 38477
ser ver</w> 38465
gn ed</w> 38450
docu mentation</w> 38450
noti ce</w> 38448
z y</w> 38440
ow nership</w> 38440
writ er</w> 38436
de p 38434
t ex 38404
mi ti 38403
ob tain</w> 38396
exp and</w> 38384
Democr ats</w> 38373
For mer</w> 38363
work shop</w> 38362
Rel ated</w> 38360
be ar</w> 38345
ma p</w> 38340
re aching</w> 38339
im pres 38339
D es 38331
mil e</w> 38328
co operate</w> 38317
roc k</w> 38298
bot tom</w> 38280
E r 38267
di versity</w> 38267
D A</w> 38266
tra ined</w> 38244
D .</w> 38231
H aw 38227
f alling</w> 38227
re placed</w> 38217
m aster</w> 38203
ak ed</w> 38203
d enti 38193
V I</w> 38191
pass engers</w> 38171
thi op 38169
am p 38149
c ells</w> 38147
ab and 38132
invest ments</w> 38128
clo sure</w> 38122
ob ject</w> 38120
O ver 38080
Chris tian</w> 38069
E thiop 38045
dec laration</w> 38032
b ound 38004
a x 37995
Philipp ines</w> 37989
E .</w> 37964
gre w</w> 37963
de ter 37951
con sent</w> 37949
dow s</w> 37949
Gen der</w> 37943
cha pter</w> 37940
t ress</w> 37911
conven tions</w> 37906
j um 37894
de vice</w> 37865
vi rus</w> 37859
u n</w> 37856
P O 37838
Ph ot 37829
g or 37822
har m</w> 37802
8 00</w> 37794
ag ues</w> 37791
g ross</w> 37770
acci dent</w> 37762
let ters</w> 37737
con stra 37728
sit ting</w> 37717
w er</w> 37711
Por tu 37709
8 7</w> 37708
br and</w> 37707
Que en</w> 37696
min orities</w> 37687
TIO N</w> 37687
ha i</w> 37674
7 9</w> 37673
lin ks</w> 37667
win dow</w> 37651
al li 37647
In vest 37639
de tec 37633
b lock</w> 37632
ab in 37626
mem ory</w> 37622
cu ts</w> 37617
oper ative</w> 37610
tu m</w> 37606
b ad 37600
A re</w> 37587
sec utors</w> 37583
ot a</w> 37546
T S</w> 37545
Ch an 37533
consider able</w> 37519
T y 37517
restaur ant</w> 37500
popul ations</w> 37492
dri ven</w> 37491
expen sive</w> 37483
gr y</w> 37475
expen ses</w> 37468
phen omen 37444
D ra 37439
Willi ams</w> 37412
I .</w> 37409
T ru 37380
t t 37366
regul atory</w> 37366
at mo 37349
wat ching</w> 37345
manag ers</w> 37335
ex plan 37323
ass ault</w> 37317
belie f</w> 37290
Loc al</w> 37287
than ks</w> 37280
ri ver</w> 37262
introduc tion</w> 37260
l or</w> 37244
I L</w> 37239
E C</w> 37234
competi tive</w> 37234
ing er</w> 37231
Ma j 37228
constitu te</w> 37221
lea ves</w> 37214
c ents</w> 37200
Can ber 37199
rul ing</w> 37181
dom in 37180
top ic</w> 37172
Con serv 37168
pl ants</w> 37159
ho l</w> 37151
Tha iland</w> 37143
Im ages</w> 37138
Koso vo</w> 37133
mo ti 37129
Chic ago</w> 37119
tin y</w> 37118
O h</w> 37109
fashi on</w> 37107
con siders</w> 37104
Ha ving</w> 37091
up dated</w> 37090
r are</w> 37085
S an 37074
ne ar 37069
destro yed</w> 37064
pre ad</w> 37062
ici ary</w> 37054
th r 37048
Br us 37045
rap e</w> 37036
ten d</w> 37032
Colom bia</w> 37024
territ ories</w> 37021
lo ved</w> 37019
conn ected</w> 37019
Ric hard</w> 37016
ec h 37012
mag az 37011
aliz ing</w> 36991
co c 36989
ro les</w> 36962
g a</w> 36949
cont ing 36944
ep iso 36944
ec ture</w> 36939
v .</w> 36910
am e 36888
ic ul 36879
bo at</w> 36873
I tem</w> 36868
fel low</w> 36867
de gra 36863
In troduc 36859
pro gres 36854
gu y</w> 36850
Ni geria</w> 36810
Thom as</w> 36808
au d 36782
Mr s</w> 36779
Sa fe 36779
contro ls</w> 36775
ri d</w> 36766
g ro 36757
interpre tation</w> 36731
encoura ging</w> 36726
ogra ph</w> 36723
et c</w> 36714
compet ent</w> 36705
fre edoms</w> 36695
sc ore</w> 36691
limin ary</w> 36683
fe at 36678
B ow 36677
g y 36671
Si erra</w> 36662
it ely</w> 36657
govern ing</w> 36654
di stance</w> 36652
qu ake</w> 36625
stre ets</w> 36622
du ties</w> 36606
succ e 36598
the red</w> 36586
Brus sels</w> 36585
co ast</w> 36562
ol es 36546
win ner</w> 36543
d anger</w> 36531
shi ft</w> 36531
St ar</w> 36512
in form</w> 36488
su n</w> 36482
Resp on 36477
M oun 36465
ear th 36459
k i</w> 36450
Ha iti</w> 36432
prison ers</w> 36425
de eply</w> 36423
Willi am</w> 36423
ca using</w> 36408
pati ent</w> 36401
fac ility</w> 36400
consum er</w> 36398
nom ine 36390
figh ters</w> 36389
att le</w> 36388
Mor oc 36386
A gr 36372
in ary</w> 36365
leng th</w> 36332
cap able</w> 36325
off ence</w> 36313
G ood</w> 36307
H ab 36279
le agues</w> 36270
M an</w> 36263
8 3</w> 36261
exc ell 36260
preven ting</w> 36257
comple tion</w> 36255
e z</w> 36252
c ell</w> 36247
C he 36246
row ing</w> 36223
un employment</w> 36221
wel fare</w> 36202
dr ink</w> 36191
C ath 36182
o es</w> 36181
uc ky</w> 36180
se ment</w> 36166
pos ing</w> 36165
Le e</w> 36155
pen ding</w> 36134
J ack 36113
ill u 36109
ment ally</w> 36106
st a</w> 36104
ne ither</w> 36104
B ay</w> 36099
emer ged</w> 36073
win ter</w> 36070
An drew</w> 36069
design ated</w> 36046
near by</w> 36039
Bus iness</w> 36029
hel ps</w> 36022
datab ase</w> 36017
anti cip 36011
fu r</w> 35997
W ill</w> 35996
D un 35974
v or 35959
inter n 35949
Ho sp 35944
qu ick</w> 35941
initi ally</w> 35933
anni versary</w> 35929
for um</w> 35895
S t</w> 35894
Re fuge 35846
gen e 35846
i ding</w> 35834
ro ads</w> 35833
Co ordin 35832
fer ring</w> 35813
prosecu tion</w> 35786
sav ings</w> 35781
isc al</w> 35778
K im</w> 35770
cha ir</w> 35768
k y 35760
im possible</w> 35755
Ara bia</w> 35752
Inte gr 35734
8 8</w> 35729
f oun 35718
st aff 35717
lim its</w> 35716
reign ty</w> 35714
R ight</w> 35702
tion ary</w> 35693
mar gin 35691
m el 35687
deman ds</w> 35679
H or 35674
re place</w> 35674
v ative</w> 35658
pollu tion</w> 35652
flow s</w> 35650
F ourth</w> 35649
ag ent</w> 35645
expan ded</w> 35644
il ing</w> 35620
ici ous</w> 35620
for th</w> 35615
campaign s</w> 35603
s y</w> 35594
Canber ra</w> 35589
exten sive</w> 35577
nam ely</w> 35572
ra id</w> 35566
pursu e</w> 35563
phot ograph 35541
pr o</w> 35526
ell ec 35525
ad visory</w> 35505
C R 35502
de ep 35495
identi fication</w> 35488
f ounded</w> 35461
Am bassador</w> 35455
st an</w> 35453
ti ous</w> 35431
Y oun 35430
for ty</w> 35413
speci fied</w> 35387
success fully</w> 35382
p ra 35378
ur ges</w> 35370
histor ical</w> 35366
consum ers</w> 35360
for d 35337
Mi ke</w> 35321
protec ting</w> 35316
s lightly</w> 35314
R en 35313
a uc 35302
ti s 35294
n d</w> 35292
m ate</w> 35287
fe es</w> 35287
law yers</w> 35286
on ship</w> 35278
th eless</w> 35261
um n</w> 35249
re move</w> 35244
avail ability</w> 35240
K ur 35239
8 1</w> 35233
ar d 35221
prec ed 35195
Weap ons</w> 35187
inde ed</w> 35139
organiz ational</w> 35132
ef s</w> 35093
N um 35080
cu r</w> 35075
L at 35054
draw ing</w> 35052
r y 35051
divi sion</w> 35051
prin cipal</w> 35047
Gre ek</w> 35042
ge ograph 35041
UN A 35038
or al</w> 35037
ad o</w> 35035
sove reignty</w> 35035
ra dic 35027
IS IS</w> 35026
Net work</w> 35025
wi des 35022
st ret 35021
Ab out</w> 35014
public ation</w> 35014
su res</w> 35008
comb ating</w> 35006
tur ning</w> 35003
gl ass</w> 34997
cha in</w> 34994
st ocks</w> 34990
Li fe</w> 34975
profes sion 34975
9 8</w> 34965
Minist ers</w> 34949
infl ation</w> 34944
b acked</w> 34943
Pol and</w> 34928
abin et</w> 34920
Liber ia</w> 34913
Austri a</w> 34904
tour ism</w> 34903
a o</w> 34900
apor e</w> 34898
R yan</w> 34881
endor sed</w> 34881
fin ish</w> 34876
ed y</w> 34863
t ative</w> 34858
Sing apore</w> 34857
dis ability</w> 34854
8 6</w> 34848
aut onom 34844
gi c</w> 34826
N U 34811
F O 34806
pos ite</w> 34801
A g 34799
Obj ective</w> 34788
d ry</w> 34782
8 2</w> 34777
gh ly</w> 34772
inclu sive</w> 34752
wides pread</w> 34733
6 0 34727
der ly</w> 34725
st ages</w> 34702
co ff 34697
T ar 34694
n ice</w> 34691
it age</w> 34684
ac qu 34672
r at 34664
lin ing</w> 34648
K el 34639
fam ili 34632
attemp ts</w> 34625
di ble</w> 34614
sha pe</w> 34606
head ed</w> 34606
statis tical</w> 34606
C H 34604
prot est</w> 34591
wal king</w> 34591
Cham ber</w> 34588
poten tially</w> 34586
In stag 34583
main taining</w> 34577
ad ults</w> 34558
J our 34552
D ani 34543
promis ed</w> 34540
8 4</w> 34535
neigh bour 34529
9 6</w> 34506
dre am</w> 34503
op pon 34497
ph il 34465
ap ping</w> 34452
legi timate</w> 34450
f loo 34441
10 . 34425
territ orial</w> 34425
Indi genous</w> 34421
mat er 34420
S har 34418
proper ties</w> 34417
ple as 34402
C er 34401
associ ation</w> 34401
Re uters</w> 34386
correc t</w> 34379
sti mul 34373
d ness</w> 34364
su icide</w> 34349
HC HR</w> 34344
temper ature</w> 34340
pro vince</w> 34336
d ad</w> 34306
new ly</w> 34305
Ven e 34299
P I</w> 34285
se ats</w> 34280
AN D</w> 34276
Cha pter</w> 34275
do gs</w> 34269
g ged</w> 34265
ris es</w> 34262
politici ans</w> 34242
bre aking</w> 34239
f ly</w> 34233
is ol 34224
f all 34215
pat ri 34215
p rou 34212
ly wood</w> 34212
satell ite</w> 34203
may be</w> 34197
t esti 34189
resol ve</w> 34189
inten tion</w> 34180
argu ed</w> 34165
6 , 34161
trans portation</w> 34158
l aid</w> 34154
war m</w> 34149
se as 34139
ther ap 34136
S T</w> 34131
K er 34128
Ste ph 34107
ha bit 34105
ain e</w> 34105
id ly</w> 34103
deploy ed</w> 34097
Territ ories</w> 34084
O HCHR</w> 34080
Fra mework</w> 34077
or row</w> 34067
histor ic</w> 34058
g ains</w> 34053
prof ile</w> 34052
susp ected</w> 34051
youn ger</w> 34038
f an</w> 34035
ex ports</w> 34027
gl ad 34017
auth ors</w> 34015
C o</w> 34013
tor ia</w> 34000
decre ase</w> 34000
Prem ier</w> 33990
n one</w> 33986
p up 33981
func tioning</w> 33968
ak er</w> 33960
St reng 33956
drin king</w> 33951
satisfac tion</w> 33950
de par 33943
K i 33941
re cip 33936
A ud 33920
Instag ram</w> 33905
A zer 33903
In dependent</w> 33903
b ai 33902
t les</w> 33898
f oundation</w> 33898
ur o</w> 33881
W he 33875
Gi ven</w> 33873
compl y</w> 33858
repor ters</w> 33849
r ub 33845
e ties</w> 33831
E qu 33831
cam era</w> 33825
Ale x 33821
strugg le</w> 33821
rac ism</w> 33815
T ay 33812
Gaz a</w> 33810
aca demic</w> 33807
l ong 33802
9 2</w> 33796
la m</w> 33790
ar ded</w> 33787
equ ity</w> 33778
sch edule</w> 33770
Peace keeping</w> 33768
we b</w> 33755
mar i 33748
far mers</w> 33745
purch ase</w> 33732
pic tures</w> 33727
sign ing</w> 33695
ag ents</w> 33663
de als</w> 33661
C lu 33646
exc ep 33638
tre es</w> 33636
l ay</w> 33584
vi c</w> 33570
s crip 33548
trou ble</w> 33548
t wee 33525
enti rely</w> 33517
gi ant</w> 33504
Vic toria</w> 33491
ep ing</w> 33487
Agr icul 33483
cont em 33481
Malay sia</w> 33460
complain t</w> 33459
v ast</w> 33457
Te am</w> 33454
ail ing</w> 33451
con sci 33444
B en</w> 33440
acknowle dged</w> 33437
s per 33435
Let ter</w> 33434
susp ended</w> 33424
ag s</w> 33412
re views</w> 33411
inde x</w> 33410
Ap pe 33407
ra d 33406
bur gh</w> 33403
lead s</w> 33396
d red</w> 33392
head ing</w> 33387
th es</w> 33384
exten sion</w> 33383
wh atever</w> 33366
boo st</w> 33364
ong side</w> 33355
Pre sid 33352
w ishes</w> 33346
ou ts</w> 33346
det ained</w> 33344
propor tion</w> 33340
M un 33333
happen s</w> 33331
f at 33327
N P 33316
rem ote</w> 33313
R adi 33300
p al 33293
W H 33293
ear th</w> 33288
Bur un 33288
proper ly</w> 33286
go v 33280
dri vers</w> 33279
view ing</w> 33270
dis p 33258
Con sul 33257
at edly</w> 33252
abl ing</w> 33235
pres entation</w> 33194
we ak</w> 33192
grow n</w> 33180
min ent</w> 33176
stu died</w> 33167
rou te</w> 33137
in quiry</w> 33136
th ro 33135
rel ative</w> 33126
Par ti 33101
ve ter 33098
pen sion</w> 33092
enjo y 33082
Ken ya</w> 33080
Cy pr 33042
relation ships</w> 33038
Co ast</w> 33024
Tim e</w> 33024
pregn ant</w> 33024
surg ery</w> 33017
av y</w> 33008
assess ed</w> 33006
fi es</w> 33004
de pu 32999
Tai wan</w> 32986
fil ms</w> 32957
att ached</w> 32955
albu m</w> 32955
b ow 32951
quali fied</w> 32945
tax es</w> 32934
re sident</w> 32924
em en</w> 32922
Cypr us</w> 32914
Azer bai 32909
minist ers</w> 32908
easi er</w> 32897
o re 32845
lo ans</w> 32824
j a</w> 32813
fav or 32812
mis s</w> 32808
Al l 32805
tou ch</w> 32785
Assi stant</w> 32778
Inv estig 32764
di gn 32758
li sts</w> 32751
o o</w> 32747
Mo sco 32737
Le one</w> 32720
inten si 32719
Pop ulation</w> 32715
nor ms</w> 32711
E ff 32706
gu ys</w> 32699
over sight</w> 32690
Fin ancing</w> 32683
dedic ated</w> 32679
kno c 32673
9 3</w> 32639
H y 32638
In ter</w> 32629
critic ism</w> 32617
valu able</w> 32606
rati fication</w> 32591
character istics</w> 32581
Fo x</w> 32580
mess ages</w> 32568
journ alists</w> 32553
pic ally</w> 32548
fin ds</w> 32535
ut ation</w> 32532
han ded</w> 32517
gra ve</w> 32515
id ity</w> 32510
guaran te 32502
uti n</w> 32498
convic ted</w> 32486
y ards</w> 32480
7 , 32467
en e</w> 32456
sur prise</w> 32450
Doc u 32442
C lar 32441
con nec 32438
Ap pl 32435
Hol lywood</w> 32434
9 7</w> 32423
vol ume</w> 32413
H al 32395
pre liminary</w> 32393
exam ined</w> 32393
cust ody</w> 32390
mon d</w> 32381
frequ ently</w> 32380
St .</w> 32379
ec es</w> 32378
Belgi um</w> 32373
se where</w> 32372
Mil itary</w> 32370
threat ened</w> 32369
alco hol</w> 32328
Ter ror 32327
g ained</w> 32320
m ac 32317
Mosco w</w> 32307
tro duce</w> 32305
ch ron 32282
inter net</w> 32282
bur den</w> 32277
min or</w> 32252
al em</w> 32249
Ma ur 32248
Bos nia</w> 32246
desi re</w> 32245
co ast 32242
pre ne 32222
im mun 32209
P utin</w> 32208
7 00</w> 32203
inno vation</w> 32193
ph ones</w> 32191
bi gger</w> 32166
susp ect</w> 32166
pp o</w> 32162
g ot 32152
wi der</w> 32149
f iscal</w> 32144
stron ger</w> 32143
cat ch</w> 32132
exam ine</w> 32131
ti s</w> 32126
exam ples</w> 32126
fe els</w> 32119
expl ore</w> 32119
B A</w> 32116
Ban glad 32116
att or 32112
re medi 32111
Cre dit</w> 32106
f ers</w> 32105
ou ter</w> 32100
d less</w> 32094
An aly 32094
e ating</w> 32083
Re affir 32076
ir ing</w> 32074
p apers</w> 32073
origin ally</w> 32073
engine ering</w> 32073
pos sibly</w> 32072
Inter nal</w> 32071
E mer 32070
Jer us 32065
re fer</w> 32057
am az 32055
8 9</w> 32050
dep th</w> 32050
out put</w> 32047
Bi g</w> 32039
ri de</w> 32038
9 1</w> 32026
cere mony</w> 32009
a rent</w> 31988
un likely</w> 31976
Safe ty</w> 31942
sal ary</w> 31938
re action</w> 31925
sol id</w> 31906
ed ge</w> 31894
Vene zu 31883
Pre par 31882
comfor table</w> 31874
co al</w> 31872
versi ties</w> 31869
Jerus alem</w> 31858
retur ns</w> 31855
Introduc tion</w> 31854
F our</w> 31845
bo ss</w> 31841
repe atedly</w> 31833
conven ed</w> 31832
techn ological</w> 31824
Que ens 31814
dis play</w> 31813
vis itors</w> 31808
Recom mend 31786
chem icals</w> 31778
impro vements</w> 31776
broad er</w> 31771
confi dent</w> 31769
m ates</w> 31761
v it 31741
B ased</w> 31736
ev ol 31736
2 nd</w> 31729
intere sting</w> 31727
1 1 31707
es sive</w> 31707
hur t</w> 31683
x ing</w> 31667
P u 31659
S P 31657
Hun g 31646
manufac turing</w> 31638
s si 31629
b n</w> 31627
H ome</w> 31621
f ish 31614
stor age</w> 31584
a sts</w> 31583
re mo 31580
trans ferred</w> 31573
sh oul 31571
p ace</w> 31564
pro p 31556
Cro ati 31551
power ment</w> 31549
deleg ates</w> 31548
ex pe 31544
to x 31538
C ra 31530
k id 31527
as ser 31525
9 4</w> 31522
equi valent</w> 31517
5 0,000</w> 31512
col leagues</w> 31512
cre w</w> 31511
bor ne</w> 31501
ili an</w> 31499
re productive</w> 31495
Parti cip 31492
pul led</w> 31488
ob jects</w> 31483
Cath ol 31483
speak ers</w> 31470
Hosp ital</w> 31468
subsequ ently</w> 31467
divi ded</w> 31465
N E 31453
mort ality</w> 31445
b a</w> 31438
sti c</w> 31431
ven ues</w> 31430
ti fication</w> 31429
T est</w> 31419
nation ality</w> 31418
R ome</w> 31414
prof essor</w> 31401
al i</w> 31398
expendit ures</w> 31397
co vers</w> 31395
heav ily</w> 31393
si tional</w> 31384
struc tural</w> 31379
t ells</w> 31377
CO P</w> 31369
subsi diary</w> 31362
enter ing</w> 31359
Res ources</w> 31355
O r</w> 31354
U gan 31353
par liament</w> 31351
sp ac 31318
Th rough</w> 31315
coord in 31315
Par ag 31311
al ongside</w> 31292
Ru le</w> 31290
C z 31286
T an 31284
Qu estions</w> 31282
defin itely</w> 31279
g .</w> 31253
Jam a 31253
expect ations</w> 31238
bir th 31237
ish ments</w> 31209
up date</w> 31208
elim ination</w> 31195
ill a</w> 31187
el ect</w> 31186
gen u 31185
ple ased</w> 31171
pack age</w> 31159
v ate</w> 31151
Leban ese</w> 31147
rap idly</w> 31146
Ac ademy</w> 31113
mon thly</w> 31110
F il 31106
Inde ed</w> 31094
198 9</w> 31093
H ot 31082
se es</w> 31081
J ack</w> 31078
b ac 31074
g ur 31067
h i</w> 31031
enem y</w> 31026
ste el</w> 31022
ellec tual</w> 30975
g al</w> 30956
For ces</w> 30955
Strat egi 30952
ste in</w> 30951
m ad</w> 30946
hun dred</w> 30938
repres enting</w> 30930
Prosecu tor</w> 30929
dis asters</w> 30927
B ir 30925
Hum anitarian</w> 30920
vin ced</w> 30905
be gun</w> 30904
contro versi 30902
certi fic 30897
vi et</w> 30895
set t 30889
Un der 30868
achie vements</w> 30866
L aw 30863
ash ing</w> 30860
Har ry</w> 30829
spi red</w> 30828
star ts</w> 30825
be red</w> 30822
po ll</w> 30801
Pr inci 30801
Ethiop ia</w> 30793
wit nesses</w> 30779
Prof essor</w> 30775
f ishing</w> 30765
w are</w> 30762
oc cur</w> 30755
s par 30754
1 50</w> 30754
la sting</w> 30752
gg ing</w> 30752
Stat us</w> 30752
IA EA</w> 30749
di o</w> 30747
So viet</w> 30740
hy dro 30735
imp acts</w> 30730
accompan ied</w> 30726
B est</w> 30718
elec tric</w> 30715
det ail</w> 30710
aff ecting</w> 30707
Wor k</w> 30700
I G 30696
eful ly</w> 30695
w ine</w> 30688
col or</w> 30687
E mp 30685
commit tees</w> 30682
ali d</w> 30676
Comp any</w> 30669
c ot 30668
stri kes</w> 30663
H an 30652
depend ence</w> 30646
charac ters</w> 30638
certain ty</w> 30633
j i</w> 30630
hol der</w> 30626
tre at</w> 30620
Ale ppo</w> 30608
phot os</w> 30597
l ity</w> 30583
over seas</w> 30583
Yugosla via</w> 30579
inter vention</w> 30574
R O 30571
ti eth</w> 30565
ho sti 30554
t ments</w> 30548
peri ods</w> 30544
b orders</w> 30542
arti st</w> 30540
custom er</w> 30538
R T</w> 30537
as set</w> 30523
h in 30522
ent re 30516
CN N</w> 30516
Vol un 30516
att acked</w> 30513
a c</w> 30512
d ding</w> 30506
mor al</w> 30506
H ill</w> 30494
y es</w> 30481
H ist 30473
clo thes</w> 30473
W ater</w> 30469
R ub 30466
ev ac 30463
ash es</w> 30452
am id</w> 30449
sh ir 30444
pass ing</w> 30437
A ri 30425
dev ast 30425
d ating</w> 30423
st om 30423
i g 30417
thir ty</w> 30408
ec o 30403
fortun ately</w> 30401
jo in 30386
fi l</w> 30380
Hab it 30379
reconc iliation</w> 30370
ari o</w> 30361
initi ated</w> 30351
Deci des</w> 30349
ori an</w> 30345
ulti mately</w> 30344
din ner</w> 30332
win s</w> 30330
or m 30322
Lab or</w> 30321
for cing</w> 30273
inno vative</w> 30263
clo sing</w> 30252
rul ed</w> 30249
house hold</w> 30227
ber t</w> 30225
Youn g</w> 30222
defe at</w> 30215
not ing</w> 30211
C le 30186
r ally</w> 30185
in troduce</w> 30175
J .</w> 30171
ra il 30164
wal ked</w> 30162
dis abled</w> 30161
fe a 30158
absolu tely</w> 30154
Burun di</w> 30148
inter im</w> 30146
2 ,000</w> 30121
secon ds</w> 30121
tran sit</w> 30120
Moroc co</w> 30118
W all</w> 30108
pre mis 30108
w ave</w> 30104
senten ced</w> 30095
transp arent</w> 30088
es sional</w> 30082
ter ing</w> 30082
cap abilities</w> 30082
manag ing</w> 30079
My an 30065
re alization</w> 30061
cap tured</w> 30059
L im 30043
en abling</w> 30040
attemp ted</w> 30020
anci ent</w> 30019
atmo sphere</w> 30010
S aint</w> 30009
hol e</w> 30007
D aily</w> 30006
s at</w> 29983
Myan mar</w> 29980
sing er</w> 29977
Habit at</w> 29972
usti n</w> 29968
distribu ted</w> 29968
magaz ine</w> 29968
Banglad esh</w> 29967
fra ud</w> 29966
Ch urch</w> 29949
over come</w> 29940
c ards</w> 29939
pos ure</w> 29920
amend ment</w> 29920
op ho 29919
Me as 29917
techni ques</w> 29910
s in 29901
Col l 29900
bom b</w> 29896
Ch ile</w> 29887
b its</w> 29884
comb ination</w> 29868
tru ly</w> 29865
at en</w> 29864
N A</w> 29855
L ar 29850
Ad option</w> 29837
Shan g 29835
pos al</w> 29831
so il</w> 29827
bin ding</w> 29812
C P 29807
t ons</w> 29790
D ou 29787
nomine e</w> 29787
N S</w> 29785
y ard</w> 29782
Chair person</w> 29778
fe wer</w> 29777
tur ns</w> 29776
k in</w> 29774
ic op 29763
amend ments</w> 29760
coun ts</w> 29757
Con clu 29756
public ly</w> 29734
enjoy ment</w> 29734
Reg ulations</w> 29727
sh ore</w> 29713
ci de</w> 29707
fl ying</w> 29707
an der</w> 29679
ge l</w> 29679
fl at</w> 29674
sh r 29668
C at 29662
jour ney</w> 29649
announ cement</w> 29639
be t</w> 29633
work er</w> 29615
S till</w> 29608
t ap 29605
patter n</w> 29605
argu ment</w> 29604
NS W</w> 29597
Sum mary</w> 29589
lo an</w> 29588
L ist</w> 29575
invol ve</w> 29575
uti liz 29572
spo t 29571
L D 29519
foc using</w> 29509
R am 29503
prou d</w> 29496
sw im 29485
.. ..</w> 29483
tack le</w> 29471
accur ate</w> 29459
ful fil</w> 29417
M ol 29414
un .org</w> 29404
fa x</w> 29399
tom orrow</w> 29398
e .</w> 29386
is s 29384
pi eces</w> 29380
b all 29379
conc ep 29371
ar ts</w> 29366
Char les</w> 29359
trans actions</w> 29354
har ass 29337
them atic</w> 29337
bi o 29334
car ri 29331
Ste ve</w> 29325
k ne 29315
r on</w> 29299
k istan</w> 29287
cam ps</w> 29286
Mis s</w> 29286
Queens land</w> 29279
ha u 29270
B is 29258
adap tation</w> 29244
f alls</w> 29241
val uation</w> 29235
meth od 29235
Zi ka</w> 29231
ic ked</w> 29230
conserv ative</w> 29218
ther ing</w> 29205
Med ical</w> 29205
convers ation</w> 29202
mak er</w> 29190
stu ff</w> 29174
disp utes</w> 29173
reser vations</w> 29171
Sim il 29170
electr icity</w> 29167
Cam bo 29164
le g</w> 29158
plan et</w> 29151
T ake</w> 29140
L E 29138
ar ising</w> 29134
be ach</w> 29132
quar ter 29128
enti ty</w> 29123
I P</w> 29111
ad ult</w> 29110
J es 29099
G DP</w> 29086
op posed</w> 29071
s wi 29066
hospit als</w> 29046
U se</w> 29040
ge red</w> 29031
eph one</w> 29025
P lat 29018
spok en</w> 29015
sti pul 29013
marke ting</w> 29007
as signed</w> 29006
industri es</w> 29006
Vir gin 29001
Her ze 28999
bri ef</w> 28997
e ous</w> 28993
contr ast</w> 28990
form ulation</w> 28983
res cue</w> 28977
demonstr ated</w> 28974
ty pically</w> 28973
gov ina</w> 28964
Gr and</w> 28960
el low</w> 28954
pro secutors</w> 28952
viol ated</w> 28948
met res</w> 28946
pic ked</w> 28935
bul l</w> 28928
op tim 28926
form ing</w> 28925
be aring</w> 28918
retur ning</w> 28910
Shang hai</w> 28908
L a</w> 28907
e ase</w> 28906
pro of</w> 28902
clu bs</w> 28900
expl ic 28888
intern ally</w> 28884
Uni versal</w> 28881
Herze govina</w> 28880
hor se</w> 28872
amen ded</w> 28866
entre prene 28863
let es</w> 28861
conven tional</w> 28861
produc ing</w> 28853
refl ects</w> 28847
there by</w> 28845
M ary</w> 28840
program ming</w> 28840
col on 28835
hum anity</w> 28835
Fol low</w> 28802
s ity</w> 28794
L A</w> 28783
m outh</w> 28778
F C</w> 28775
Con tin 28770
f ro 28765
is co</w> 28759
reti rement</w> 28755
ter ror</w> 28738
sum mit</w> 28726
9 , 28719
surr ounding</w> 28717
Mr s.</w> 28707
bi an</w> 28699
Virgin ia</w> 28695
e es</w> 28692
equ itable</w> 28688
conclu ding</w> 28683
fra me</w> 28677
Mon it 28666
h ate</w> 28661
den ly</w> 28661
form ity</w> 28652
system atic</w> 28647
Dar fur</w> 28645
wit ness</w> 28631
rati fied</w> 28621
et tle 28616
ES CO</w> 28611
lab or</w> 28603
ear ned</w> 28596
en a</w> 28590
cri bed</w> 28575
com missions</w> 28567
comm and</w> 28564
y n</w> 28561
reli able</w> 28556
M A</w> 28555
M S 28552
excell ent</w> 28550
me works</w> 28539
coll ected</w> 28534
substan ces</w> 28531
&apos; I 28530
D av 28529
li ability</w> 28529
Bol i 28528
fla g</w> 28520
wat ers</w> 28517
cli ents</w> 28514
d d 28506
x es</w> 28500
p tion</w> 28493
investig ating</w> 28492
re integration</w> 28489
s . 28476
obvi ous</w> 28468
f ant 28464
stan tly</w> 28456
199 0s</w> 28444
CO M 28443
j unc 28440
champi on</w> 28438
Jo e</w> 28433
C lim 28426
char ity</w> 28425
har m 28421
C ross</w> 28413
di vor 28413
ban king</w> 28407
identi fying</w> 28404
Afgh an</w> 28404
apar tment</w> 28399
acces sible</w> 28390
complain ant</w> 28381
eng ine</w> 28378
d ging</w> 28377
mar k 28376
dissem ination</w> 28365
id ation</w> 28361
il li 28359
el sewhere</w> 28330
al located</w> 28328
re marks</w> 28326
tor ate</w> 28322
es cape</w> 28320
Sm all</w> 28312
Azerbai jan</w> 28301
WH O</w> 28295
Statis tics</w> 28285
obstac les</w> 28285
R ac 28276
en de 28273
w ake</w> 28268
r d</w> 28262
ris on</w> 28260
ven ture</w> 28256
T ro 28255
A ma 28255
prom oted</w> 28255
G ir 28254
la h</w> 28253
uti li 28250
vo ire</w> 28214
no tic 28194
cam p 28190
e. g.</w> 28190
behavi or</w> 28189
Dec ade</w> 28185
ass es</w> 28184
join tly</w> 28183
gra phic</w> 28176
ba g</w> 28173
be dro 28171
sec tions</w> 28160
Initi ative</w> 28156
Monit oring</w> 28156
aw arded</w> 28143
equ ally</w> 28142
g ence</w> 28138
por tra 28133
necess arily</w> 28123
tor ies</w> 28115
glob alization</w> 28110
f li 28100
9 00</w> 28087
Com b 28087
sub stance</w> 28076
g on 28062
al location</w> 28060
&apos;I voire</w> 28050
L ove</w> 28042
fal se</w> 28041
h asn</w> 28036
famili ar</w> 28026
ex posed</w> 28025
B on 28023
foot age</w> 28017
ak h 28013
cho sen</w> 28009
UN ESCO</w> 28001
fall en</w> 28001
wil d</w> 28000
N ep 27997
al lies</w> 27994
bal anced</w> 27993
the ast</w> 27988
indic ates</w> 27987
a side</w> 27986
sub programme</w> 27978
estim ate</w> 27977
re bel 27966
Terror ism</w> 27960
care fully</w> 27958
coff ee</w> 27946
ap p</w> 27940
fra g 27938
201 8</w> 27933
Refuge es</w> 27925
public ations</w> 27914
em an</w> 27909
M D 27897
n es</w> 27896
wh el 27884
Tay lor</w> 27884
govern or</w> 27879
insp ection</w> 27873
M echan 27869
emo tional</w> 27865
S qu 27860
Re porting</w> 27849
G ri 27843
suff er</w> 27843
reser vation</w> 27837
terror ists</w> 27825
A h 27823
norm ally</w> 27821
Ori gin 27816
kin ds</w> 27815
Est abl 27810
Ch el 27806
st ro 27794
execu tion</w> 27789
uni versities</w> 27781
se ized</w> 27778
s ac 27764
a sion</w> 27763
co alition</w> 27736
Addi tional</w> 27730
T reas 27728
Def ence</w> 27726
do ors</w> 27723
C ô 27722
per mit</w> 27718
Re ad</w> 27710
Fin land</w> 27702
dam aged</w> 27702
su itable</w> 27695
sc ru 27684
Ugan da</w> 27678
k i 27673
sh oc 27673
mo vements</w> 27670
H ave</w> 27669
sup posed</w> 27669
F A</w> 27667
great ly</w> 27658
ear nings</w> 27656
pl enty</w> 27655
O s 27648
reser ve</w> 27646
M Ps</w> 27640
de fic 27632
bu ying</w> 27628
medic ine</w> 27625
O hi 27621
Fi ve</w> 27621
198 8</w> 27615
deal t</w> 27612
cor ner</w> 27611
Mo vement</w> 27607
acqui sition</w> 27599
Th ough</w> 27593
cap tain</w> 27585
C E</w> 27577
sch ol 27577
Buil ding</w> 27562
sustain ability</w> 27559
T om 27558
nom ination</w> 27555
mot or 27554
10 ,000</w> 27535
par as</w> 27531
gr an 27526
pos s 27524
Ch em 27496
f at</w> 27490
gar den</w> 27488
h at 27487
ac commod 27482
Cô te</w> 27482
N oting</w> 27481
con stant</w> 27474
shor tly</w> 27470
resid ence</w> 27450
appa rently</w> 27449
Air port</w> 27438
Su n</w> 27423
sug ar</w> 27421
we red</w> 27396
C el 27393
V II</w> 27393
controversi al</w> 27391
oc ols</w> 27380
Ar men 27374
Part nership</w> 27373
S pr 27372
re construction</w> 27370
ass ur 27368
Ac ti 27359
conserv ation</w> 27355
Ohi o</w> 27346
mem or 27343
T aking</w> 27338
on e 27335
s s 27331
G al 27330
me tal</w> 27330
c in 27327
ri val</w> 27324
sc and 27321
organ is 27320
Res er 27318
moun tain</w> 27308
occa sion</w> 27294
fil es</w> 27293
El ection</w> 27293
fra meworks</w> 27286
S E 27276
Vi et 27260
Mus eum</w> 27257
bran ch</w> 27250
O P 27236
Su per 27226
spl it</w> 27222
re vi 27221
j ail</w> 27217
hand ling</w> 27211
ath letes</w> 27209
tour na 27209
advoc acy</w> 27209
u tr 27207
. C.</w> 27205
re ver 27203
Scienti fic</w> 27182
off ensive</w> 27178
5 th</w> 27177
0 1</w> 27169
enjo yed</w> 27164
ap art</w> 27162
Or gan 27158
D ut 27152
hel icop 27147
1 2. 27141
Li b 27141
ad mis 27131
no vel</w> 27129
CE O</w> 27125
settle ments</w> 27120
pe t</w> 27115
Com mer 27114
L ong</w> 27113
Den mark</w> 27108
K az 27100
ow ed</w> 27086
nutri tion</w> 27080
at re</w> 27078
v an 27077
b ling</w> 27069
N G 27063
Sup er</w> 27039
prof its</w> 27038
presid ency</w> 27032
prison ment</w> 27030
st y</w> 27025
sol ve</w> 27023
Dani el</w> 27011
reiter ated</w> 27008
dign ity</w> 26992
E rit 26987
G ul 26978
mo on</w> 26968
s lo 26961
r ant</w> 26954
Clu b</w> 26952
anit ation</w> 26947
s ons</w> 26939
ten ed</w> 26925
parti al</w> 26921
gr ants</w> 26917
bi ological</w> 26910
in spired</w> 26906
I ran 26905
T al 26903
perform ing</w> 26900
shop ping</w> 26899
po c 26898
Venezu ela</w> 26890
accept ance</w> 26888
coun ty</w> 26882
f lights</w> 26881
ei ved</w> 26878
en orm 26875
mi xed</w> 26870
En coura 26868
Princi ples</w> 26864
Al li 26863
patter ns</w> 26842
Con ven 26840
im port</w> 26838
hand le</w> 26835
D am 26832
b ic</w> 26823
St ar 26823
investig ated</w> 26813
wor ry</w> 26811
prote sts</w> 26805
Sa har 26799
B e</w> 26794
g am 26790
sto res</w> 26789
regar ded</w> 26780
Cz ech</w> 26780
un t</w> 26772
1 1. 26771
Mo del</w> 26754
ar ia</w> 26749
pres sing</w> 26746
O k 26721
we igh 26714
I V 26713
IL O</w> 26710
Clim ate</w> 26708
Gu id 26703
persi st 26699
ban ned</w> 26693
offici ally</w> 26693
y u 26690
f it 26689
inst all 26684
mo thers</w> 26681
A sh 26674
O ld</w> 26672
v acc 26666
Num ber</w> 26659
ou se</w> 26658
UNO DC</w> 26648
Cathol ic</w> 26648
begin s</w> 26646
de pos 26633
Con cer 26631
Dru gs</w> 26626
Bel ar 26624
Mat the 26622
Plan ning</w> 26620
em powerment</w> 26611
C A</w> 26603
z ation</w> 26588
min g 26566
eli gible</w> 26565
d or 26557
gre es</w> 26555
af ford 26547
cust oms</w> 26542
ke l</w> 26537
pol ls</w> 26534
Trans port</w> 26529
lic en 26527
geograph ical</w> 26526
Fin ance</w> 26525
af ford</w> 26520
br ings</w> 26503
house holds</w> 26498
erad ication</w> 26495
Oper ation</w> 26493
agg reg 26491
Develop ing</w> 26486
dra fting</w> 26479
ali ve</w> 26462
recommen d</w> 26455
s now</w> 26454
d est</w> 26450
abs or 26449
form at</w> 26447
coord inate</w> 26442
3 rd</w> 26437
il ateral</w> 26435
vis iting</w> 26424
S ri</w> 26419
tain ment</w> 26414
im prisonment</w> 26408
wat ched</w> 26408
vi sible</w> 26399
Bud get</w> 26399
up s</w> 26388
I R 26368
veri fication</w> 26365
fe ars</w> 26362
FA O</w> 26347
w ast 26344
lin e 26344
E v 26341
M ain 26340
J on 26338
L it 26336
RA L</w> 26331
gener ated</w> 26329
our selves</w> 26328
sh ut</w> 26324
S R 26322
phenomen on</w> 26321
hop ing</w> 26312
ex posure</w> 26306
in spec 26300
L and</w> 26291
explan ation</w> 26291
ho p</w> 26284
h o</w> 26282
Prof essional</w> 26276
wor ried</w> 26273
foun der</w> 26273
b lin 26268
en sion</w> 26267
8 , 26266
con vinced</w> 26248
ga thered</w> 26240
Mur ray</w> 26227
hum ans</w> 26216
m ly</w> 26200
men tion</w> 26197
cop y</w> 26179
g t;</w> 26166
& gt;</w> 26166
appe als</w> 26161
wat er 26153
pos session</w> 26144
parlia mentary</w> 26136
construc tive</w> 26134
o v</w> 26130
in i</w> 26130
re alize</w> 26128
ur ities</w> 26122
Franc isco</w> 26119
Tra ff 26116
bur y</w> 26114
i . 26109
a b</w> 26099
IC T</w> 26094
i ent</w> 26088
Streng th 26085
bus y</w> 26073
guaran tees</w> 26068
resol ved</w> 26061
push ed</w> 26060
over whel 26054
Per u</w> 26052
class es</w> 26049
Val ley</w> 26039
discrimin atory</w> 26027
earth quake</w> 26024
z h 26011
vi sts</w> 26010
Gu ardi 26009
Atlan tic</w> 26008
. 2</w> 26002
Pl aying</w> 25999
En ter 25995
g by</w> 25986
spokes woman</w> 25976
Co sta</w> 25973
sub jected</w> 25958
N ai 25957
C lo 25950
St ock 25944
plac ing</w> 25943
dist ur 25940
ill ance</w> 25937
trans mitted</w> 25934
Indu stri 25930
Strategi c</w> 25925
oper ated</w> 25920
E cu 25915
law ful</w> 25915
clai ming</w> 25911
Fo ot 25910
Al geria</w> 25909
exc eption</w> 25909
sen s 25905
zer o</w> 25899
ul ate</w> 25889
pl ate</w> 25886
Bl ue</w> 25877
int ellectual</w> 25870
nation als</w> 25866
re ts</w> 25862
pa rent</w> 25858
C C</w> 25853
rup t</w> 25852
del ays</w> 25849
re ply</w> 25846
de grees</w> 25831
tic ket</w> 25830
chan n 25828
reti red</w> 25828
pregn ancy</w> 25826
facilit ating</w> 25814
cur y</w> 25808
sen ding</w> 25805
episo de</w> 25793
Environ mental</w> 25789
thous and</w> 25785
F BI</w> 25779
with draw 25773
T ony</w> 25768
tel ephone</w> 25766
Bar ack</w> 25761
fin ed</w> 25754
top ics</w> 25749
s ick</w> 25743
T em 25737
ogra phic</w> 25737
fav our 25725
Li ver 25724
tec h</w> 25721
Rob er 25721
With out</w> 25710
3 ,000</w> 25702
h all</w> 25701
at em 25684
conduc ting</w> 25678
barri ers</w> 25674
u de</w> 25671
t oms</w> 25662
Jud ge</w> 25660
sol ar</w> 25658
S us 25649
oo d 25623
k ins</w> 25621
Steph en</w> 25617
out lined</w> 25611
en vis 25609
profession als</w> 25592
comm it</w> 25590
St ation</w> 25575
Coun try</w> 25571
Is su 25567
o to</w> 25565
mainstre aming</w> 25558
des per 25549
o on</w> 25547
m m</w> 25547
repl ied</w> 25534
b right</w> 25521
com mon 25515
Pro motion</w> 25515
apo lo 25512
d u</w> 25508
se gment</w> 25503
itch en</w> 25494
si zed</w> 25493
perpetr ators</w> 25489
sy l 25488
sm u 25485
sha re 25485
contr ary</w> 25466
ten sion</w> 25459
bo y 25451
P un 25440
acqui red</w> 25440
im migrants</w> 25439
N HS</w> 25434
employe e</w> 25431
Ch ange</w> 25424
the tic</w> 25421
as e 25420
con formity</w> 25416
il ton</w> 25401
o ke</w> 25392
M et 25390
ear n</w> 25377
C S 25367
enc ing</w> 25357
m ol 25354
f ail</w> 25349
commod ity</w> 25342
uni or</w> 25338
constra ints</w> 25337
ne utr 25328
func tional</w> 25315
sequ ently</w> 25309
Rec or 25307
With in</w> 25300
ush ed</w> 25294
birth day</w> 25289
0 5</w> 25278
an k 25267
ak s</w> 25248
B ris 25245
sh ots</w> 25242
regar dless</w> 25237
A P 25223
a e</w> 25216
for get</w> 25207
Represent atives</w> 25196
p in 25176
coast al</w> 25171
happen ing</w> 25169
C alls</w> 25164
ori ented</w> 25163
sc ar 25155
sum mar 25152
bud gets</w> 25151
d um 25149
psych ological</w> 25147
expan ding</w> 25146
cl ing</w> 25145
cop ies</w> 25142
comp ati 25140
1 20</w> 25128
Croati a</w> 25127
P ow 25115
soci o</w> 25110
GO P</w> 25107
s in</w> 25105
su red</w> 25100
an s 25092
c ited</w> 25091
Res olution</w> 25085
deter i 25084
F ree</w> 25073
pul l</w> 25070
T uni 25068
pr int</w> 25061
k ni 25050
du al</w> 25047
sc ra 25044
beau ty</w> 25044
mo ves</w> 25038
missi le</w> 25027
th row</w> 25020
ban e</w> 25019
repe ated</w> 25015
b acks</w> 25010
li ft</w> 25009
ex emp 25005
10 0,000</w> 25001
may or</w> 24985
t olerance</w> 24982
tra ge 24981
UN IF 24981
Sel f</w> 24979
Ad v 24975
cli ent</w> 24972
ici an</w> 24965
Not es</w> 24959
Musli ms</w> 24956
af raid</w> 24954
A li 24950
safe guards</w> 24943
Jour nal</w> 24941
Gu atem 24939
obser ver</w> 24939
Cor by 24932
sh ock</w> 24929
pol y 24929
der son</w> 24926
up per</w> 24901
re placement</w> 24899
Ber lin</w> 24894
han g</w> 24886
Cor por 24882
f estival</w> 24880
Jack son</w> 24878
dynam ic</w> 24876
I A</w> 24875
ad ds</w> 24873
Liver pool</w> 24871
gener ate</w> 24869
attor ney</w> 24868
z ones</w> 24865
resi stance</w> 24859
enni al</w> 24858
sugg estions</w> 24852
chan ces</w> 24839
g aps</w> 24837
pl ed</w> 24834
Le w 24830
aw a 24829
strugg ling</w> 24828
en rol 24821
sign al</w> 24820
continu ous</w> 24811
i. e.</w> 24805
Com prehensive</w> 24795
oc ean</w> 24790
un known</w> 24775
S em 24766
restric ted</w> 24765
ref ers</w> 24763
com position</w> 24761
ti ed</w> 24756
y e</w> 24746
O u 24739
S ant 24729
pres ents</w> 24729
Del eg 24723
er ror</w> 24719
ende av 24717
list en</w> 24716
produc tivity</w> 24715
l ots</w> 24696
com posed</w> 24691
el derly</w> 24687
po t 24675
f illing</w> 24674
neigh bor 24662
ann a</w> 24659
w an 24655
super vision</w> 24651
jud iciary</w> 24648
far m</w> 24646
N ever 24638
M ul 24638
cri tici 24638
prohib ited</w> 24635
G ab 24627
associ ations</w> 24625
an gry</w> 24621
stic k</w> 24600
Tur n 24593
4 th</w> 24590
ul ated</w> 24583
y l</w> 24577
descri be</w> 24577
P age</w> 24575
am p</w> 24566
ho sted</w> 24556
mom ents</w> 24544
squ ad</w> 24540
solid arity</w> 24539
fru it</w> 24538
fo ster</w> 24536
Commun ications</w> 24533
def end</w> 24505
Wh it 24486
Kel ly</w> 24486
demonstr ate</w> 24483
co ol</w> 24476
Tim or</w> 24475
Corby n</w> 24468
adjust ment</w> 24462
M en</w> 24457
s anitation</w> 24456
ric h 24455
the sis</w> 24450
L au 24435
surpris ed</w> 24427
Portu gal</w> 24419
obvi ously</w> 24408
el ed</w> 24407
mil k</w> 24407
phil os 24406
fe e</w> 24405
por tion</w> 24402
depu ty</w> 24397
j ury</w> 24390
UN D 24382
E liz 24371
ur ge</w> 24370
sa ving</w> 24362
grat eful</w> 24362
Ser bia</w> 24361
dra ma</w> 24357
Acc ord 24357
resu med</w> 24340
peti tion</w> 24336
pres sed</w> 24329
assi sting</w> 24322
de voted</w> 24316
cast ing</w> 24316
sub jects</w> 24313
invol ves</w> 24308
T ask</w> 24303
ff s</w> 24287
Ap pro 24277
Per haps</w> 24273
correspon ding</w> 24272
cur ricul 24267
i um</w> 24263
inv itation</w> 24261
cop e</w> 24255
employ ers</w> 24243
dist ingu 24238
Viol ence</w> 24223
enti ally</w> 24217
pass enger</w> 24217
tal ent</w> 24212
Sub committee</w> 24211
ol l</w> 24206
ar i</w> 24203
Radi o</w> 24201
Chel sea</w> 24196
regi ster</w> 24195
He ad</w> 24193
vi ation</w> 24189
ap ped</w> 24186
j ac 24184
ri sts</w> 24184
sor ry</w> 24182
Com mit 24179
un usual</w> 24172
fail ing</w> 24172
contin ent</w> 24169
Nep al</w> 24159
set tled</w> 24157
d den</w> 24156
pro sper 24153
we dding</w> 24153
Ju li 24151
Mic ro 24150
For ms</w> 24147
O sc 24139
smu gg 24139
Accord ingly</w> 24139
p ages</w> 24135
Em ploy 24133
bur n</w> 24113
D ub 24110
g er 24109
guarante ed</w> 24105
W TO</w> 24103
un d 24103
at ar</w> 24098
foc al</w> 24094
op posite</w> 24088
n ity</w> 24083
see ks</w> 24083
premis es</w> 24078
a. m</w> 24077
reve al</w> 24075
lu x 24072
citiz en</w> 24068
con grat 24061
com pris 24059
re la 24057
pat ro 24046
Off icial</w> 24045
ev in</w> 24032
at e 24022
Cambo dia</w> 24019
f aster</w> 24016
questi on 24014
det ain 24012
signific ance</w> 24010
remedi es</w> 24003
illu str 23999
bound ary</w> 23990
de emed</w> 23986
Lib ya</w> 23983
cre ative</w> 23976
staff ing</w> 23973
exist s</w> 23962
preven tive</w> 23957
C. 2</w> 23947
under ing</w> 23945
20 20</w> 23944
mean ing 23940
ang ers</w> 23934
Y emen</w> 23932
gr and</w> 23928
g ay</w> 23927
lik es</w> 23922
ur a</w> 23920
soci eties</w> 23920
Belar us</w> 23917
fac tory</w> 23916
got ten</w> 23916
survi v 23915
slow ly</w> 23908
broad cast</w> 23907
gi es</w> 23904
A S</w> 23895
confir m</w> 23894
DA W</w> 23894
Bris bane</w> 23872
au ght</w> 23869
w ill 23866
ai de</w> 23857
L y 23856
O S</w> 23851
Regi on</w> 23848
G ran 23844
requ iring</w> 23839
secu red</w> 23833
vulner ability</w> 23832
b o</w> 23822
7 0 23820
withdraw al</w> 23817
uc ks</w> 23806
tro op</w> 23806
mat ches</w> 23803
re mark 23800
w ounded</w> 23798
Iran ian</w> 23791
me at</w> 23785
Je wish</w> 23779
ous ness</w> 23774
D a 23772
harass ment</w> 23771
An ti</w> 23770
attitu de</w> 23767
L ake</w> 23761
ab eth</w> 23758
in er</w> 23749
her itage</w> 23748
won der 23735
ill ness</w> 23734
b la 23731
rob i</w> 23730
E le 23723
arrange ment</w> 23721
a ver 23720
CB S</w> 23718
Nai robi</w> 23718
F air 23716
Com m 23712
aw ards</w> 23707
rec all</w> 23699
o cide</w> 23697
sem i</w> 23696
Ir ish</w> 23693
in put</w> 23690
appa rent</w> 23689
l ot 23686
compar ison</w> 23686
CE DAW</w> 23682
son gs</w> 23682
tr uck</w> 23671
as er</w> 23670
fair ly</w> 23662
Fre e 23660
extra ordinary</w> 23659
remo val</w> 23658
Exper t</w> 23657
he re 23643
dis co 23636
Ham p 23629
ac tress</w> 23617
G o</w> 23616
Y ou 23610
Ama z 23607
J ac 23606
om mun 23604
abor tion</w> 23602
S am</w> 23594
I T</w> 23587
ci a</w> 23580
assi stant</w> 23577
F estival</w> 23571
Never theless</w> 23567
stre am</w> 23565
targe ting</w> 23554
po p</w> 23553
chan nel</w> 23546
B each</w> 23541
O x 23536
asp ect</w> 23522
C as 23518
fe ed</w> 23518
i ii</w> 23510
rep utation</w> 23501
I . 23499
row s</w> 23499
reg ards</w> 23486
ve sted</w> 23482
surve illance</w> 23482
coll ect</w> 23476
in ner</w> 23475
ra il</w> 23474
A wards</w> 23466
man dated</w> 23464
Gol d 23462
i red</w> 23461
par tly</w> 23461
me rely</w> 23455
low est</w> 23453
n ic 23451
thin ks</w> 23449
inf ection</w> 23445
del ayed</w> 23442
b id 23439
t ab 23432
H ow 23427
every body</w> 23420
w ished</w> 23403
arri ve</w> 23398
re alized</w> 23391
uni tion</w> 23386
adverti sing</w> 23380
dec lar 23370
sud denly</w> 23369
produc ers</w> 23360
incorpor ated</w> 23360
en tum</w> 23353
v is</w> 23345
priv il 23341
see kers</w> 23340
H ur 23339
Sw iss</w> 23337
2 50</w> 23330
ti mis 23330
n t</w> 23329
Recogn izing</w> 23324
ph r 23323
Stan ding</w> 23323
M EN 23319
prepar atory</w> 23317
acti vists</w> 23312
IO S</w> 23308
p ill 23306
pl astic</w> 23297
eng ing</w> 23293
manufac tu 23286
May be</w> 23286
Gre en 23285
shar p</w> 23284
O cc 23282
J an</w> 23282
P res 23277
O m 23275
mom entum</w> 23274
t une</w> 23272
uni ons</w> 23271
Ear lier</w> 23271
D ow 23262
w ron 23261
he l</w> 23257
Hot el</w> 23251
F D 23250
P ort</w> 23245
Ar med</w> 23244
cont est</w> 23241
Y outh</w> 23237
pr ic 23236
qui et</w> 23235
w ages</w> 23232
defin e</w> 23225
land s 23223
di verse</w> 23219
ro ot</w> 23200
b al</w> 23195
dis missed</w> 23187
provi ders</w> 23183
Ex cell 23175
threat ening</w> 23175
assi sted</w> 23174
Wat ch</w> 23173
Hen ry</w> 23169
child hood</w> 23166
Oc ean</w> 23164
dis cre 23159
advant ages</w> 23159
genu ine</w> 23157
K in 23153
ann ually</w> 23149
amaz ing</w> 23146
enorm ous</w> 23140
Al ban 23136
ath le 23113
en ship</w> 23112
smo ke</w> 23108
ack ers</w> 23094
tu s</w> 23088
A C. 23084
depen ds</w> 23064
min i 23060
arti sts</w> 23060
Con trac 23055
de but</w> 23053
Pl ay 23049
Ar ti 23042
8 0 23040
mist ake</w> 23037
spons ors</w> 23034
insi sted</w> 23026
Mic hel 23025
N ick</w> 23020
Ob server</w> 23015
IN G</w> 23012
Agricul ture</w> 23007
ad oles 23005
bud ge 23001
Sen ator</w> 22998
gun s</w> 22987
d ation</w> 22983
consult ative</w> 22983
arri val</w> 22978
Ad am</w> 22977
Incre ased</w> 22965
CC C</w> 22960
N ar 22959
ti vely</w> 22954
forec ast</w> 22952
coun sel</w> 22951
Meas ures</w> 22949
evalu ate</w> 22945
Jo se 22935
Lan ka</w> 22934
prosp ects</w> 22927
T im</w> 22925
flexi ble</w> 22911
ici ans</w> 22910
X X 22905
arbitr ary</w> 22899
E din 22888
Ph one</w> 22886
Occ up 22885
b les</w> 22875
vo y</w> 22875
Bul gar 22875
gradu ally</w> 22869
Emer gency</w> 22859
chall enging</w> 22856
te l</w> 22854
par ame 22852
en ever</w> 22848
cri tics</w> 22844
dec ent</w> 22844
questi oned</w> 22842
sup er</w> 22841
S ports</w> 22840
brief ing</w> 22840
de pri 22831
tourna ment</w> 22823
es hi 22822
accommod ation</w> 22818
T ow 22806
rati o</w> 22804
or gan</w> 22801
P enn 22793
ir on</w> 22792
coun c 22787
NP T</w> 22787
priv acy</w> 22779
res ort</w> 22772
renew ed</w> 22769
c at</w> 22764
Cap ital</w> 22761
198 6</w> 22756
ste re 22754
convic tion</w> 22750
Me th 22739
n avi 22735
er r 22733
V ide 22731
Bud getary</w> 22725
Hung ary</w> 22721
discipl inary</w> 22717
Turn bull</w> 22713
pro minent</w> 22709
anticip ated</w> 22708
bal ances</w> 22701
m al</w> 22689
elec ommun 22688
m ation</w> 22685
B ran 22685
rec alls</w> 22683
H ay 22680
symp toms</w> 22678
Strength ening</w> 22671
te a</w> 22667
Pe oples</w> 22662
ass embly</w> 22654
dis posal</w> 22652
f ab 22648
&apos; i</w> 22647
Rub io</w> 22644
utiliz ation</w> 22644
Com mon 22642
Mi ami</w> 22641
so red</w> 22640
compl ex 22625
198 0s</w> 22623
PR O 22612
E R</w> 22610
pro jected</w> 22609
Rom an</w> 22605
ton ight</w> 22605
Edin burgh</w> 22604
J i 22599
D ata</w> 22586
mi x</w> 22585
in cur 22582
P it 22574
in sufficient</w> 22564
organ isation</w> 22564
ro ots</w> 22563
ep i 22561
ju ven 22559
tri als</w> 22558
Bulgar ia</w> 22545
thu si 22543
olog ist</w> 22534
clu ster</w> 22529
h oods</w> 22527
techni que</w> 22519
consi sts</w> 22516
Ad vis 22508
integr ate</w> 22506
tt p</w> 22496
In formal</w> 22494
pe ak</w> 22488
po o 22481
Palestini ans</w> 22473
ser ves</w> 22469
scho ol 22468
trans mission</w> 22456
Je re 22456
inter action</w> 22454
won der</w> 22454
ow a</w> 22449
smar t</w> 22448
Coordin ator</w> 22448
Swe dish</w> 22446
minist erial</w> 22442
explo sive</w> 22440
tr o</w> 22437
P M</w> 22432
k itchen</w> 22419
appl ying</w> 22417
as sign 22410
su m</w> 22405
har der</w> 22404
bir ds</w> 22404
prote sters</w> 22402
St ri 22400
Associ ated</w> 22398
sil ver</w> 22394
in al</w> 22393
Ecu ador</w> 22392
A BC</w> 22391
Le ad 22391
method ology</w> 22386
ak ers</w> 22385
bre ach</w> 22372
t ail</w> 22369
heal th 22368
Bet ween</w> 22366
en opho 22361
cha m 22357
ser vic 22350
A del 22344
se g 22344
w alls</w> 22340
O IOS</w> 22339
A d</w> 22336
Leg isl 22328
compet ence</w> 22324
Med ic 22322
gener ations</w> 22304
d am</w> 22301
mort g 22300
dra matic</w> 22299
Eliz abeth</w> 22299
ho c</w> 22296
low s</w> 22276
sign ature</w> 22276
G han 22274
tot ally</w> 22272
E quality</w> 22271
o v 22269
l o</w> 22269
tow ns</w> 22262
u a</w> 22250
p it 22246
lo y 22245
b led</w> 22241
reser ves</w> 22241
hon est</w> 22236
b loo 22225
K ate</w> 22225
B ab 22218
conclu de</w> 22213
ag ers</w> 22211
m ir</w> 22201
lin k 22194
im bur 22190
F al 22189
n is</w> 22186
g lo 22186
6 th</w> 22186
Jere my</w> 22183
al ised</w> 22177
t ine</w> 22172
Sen ior</w> 22172
modi ties</w> 22171
e ve</w> 22162
w ell 22157
negoti ation</w> 22154
emp ty</w> 22148
c lock</w> 22135
Guatem ala</w> 22131
imp unity</w> 22121
Phot ograph</w> 22120
un certainty</w> 22115
tal ked</w> 22114
care ful</w> 22113
pro stitution</w> 22111
resp ected</w> 22099
rou ghly</w> 22097
P ot 22087
Prepar atory</w> 22081
liber ty</w> 22078
junc tion</w> 22077
op timis 22076
ir ates</w> 22071
n ative</w> 22067
oun ced</w> 22061
198 0</w> 22059
Acti vities</w> 22058
constitu tes</w> 22057
i ers</w> 22055
organiz e</w> 22048
in k 22046
collap se</w> 22031
prepar ations</w> 22030
p ers</w> 22024
st abil 22017
bl ame</w> 22016
N .</w> 22014
ad vised</w> 22011
ti ght</w> 22008
ve get 22008
mo de</w> 22004
G ame</w> 22002
Ed iting</w> 22001
ky o</w> 21997
B at 21993
Common wealth</w> 21991
e en</w> 21990
em or 21990
vill ages</w> 21987
pr on 21986
Cub an</w> 21980
appear ances</w> 21975
1. 5</w> 21955
Invest ment</w> 21950
sec toral</w> 21946
k ick</w> 21944
imag ine</w> 21942
Si x</w> 21939
I D</w> 21936
ret ail</w> 21935
Maj or</w> 21923
schem es</w> 21913
semin ars</w> 21911
K ir 21906
e ted</w> 21903
Dut ch</w> 21902
Con stitu 21894
is lat 21893
Ann ual</w> 21862
b i</w> 21861
coord inating</w> 21861
Al i</w> 21860
NF L</w> 21860
fore sts</w> 21857
di um</w> 21849
am bia</w> 21844
Tor ture</w> 21842
S C</w> 21839
produc er</w> 21839
Some times</w> 21837
en thusi 21834
inv est</w> 21833
lau gh 21833
inv asion</w> 21829
recogn izes</w> 21827
LD Cs</w> 21825
in adequate</w> 21823
ari ties</w> 21820
St adium</w> 21808
investig ators</w> 21800
is a</w> 21798
acc um 21797
compl icated</w> 21793
def end 21793
p itch</w> 21789
G old</w> 21785
flexi bility</w> 21782
belon ging</w> 21775
gradu ate</w> 21772
Mat t</w> 21768
s our 21766
a ul 21764
speak er</w> 21753
in ev 21746
Parag raph</w> 21722
contem porary</w> 21720
M ain</w> 21719
B . 21715
ad verse</w> 21709
re patri 21702
gra phy</w> 21701
ni ght 21701
re bel</w> 21692
r ing 21686
analy sts</w> 21686
l ucky</w> 21685
occa sions</w> 21685
Mexic an</w> 21684
An y 21682
ar gue</w> 21677
Matthe w</w> 21674
relev ance</w> 21670
under lying</w> 21663
hor ri 21663
U PI</w> 21662
U s</w> 21659
e uro 21654
col our</w> 21645
no ise</w> 21639
7 th</w> 21630
ben ch 21628
il es</w> 21627
C. 3</w> 21627
Pro vince</w> 21625
difficul ty</w> 21625
L ook</w> 21623
M ot 21622
An th 21622
M and 21616
Mor gan</w> 21610
mach in 21607
reaffir med</w> 21600
b ird</w> 21595
I owa</w> 21594
di et</w> 21591
gi ft</w> 21590
E M</w> 21586
Lou is</w> 21585
z i 21580
at tract</w> 21577
ex it</w> 21569
str ing</w> 21569
sol e</w> 21569
cap ture</w> 21565
mil iti 21561
al g 21557
up gra 21557
es cap 21554
rel atives</w> 21549
To kyo</w> 21547
Sal v 21541
provin ces</w> 21540
E A 21537
bro thers</w> 21536
V e 21532
interven tions</w> 21532
pre jud 21531
is lands</w> 21527
in equality</w> 21525
sc oring</w> 21525
20 ,000</w> 21522
c rises</w> 21517
en g</w> 21516
Fif ty</w> 21514
compe te</w> 21503
O w 21498
b low</w> 21484
Mechan ism</w> 21480
US A</w> 21478
thou ghts</w> 21472
mainstre am</w> 21461
H ear 21453
it a</w> 21447
R on 21441
celebr ate</w> 21436
Ang ola</w> 21434
nec k</w> 21425
un clear</w> 21423
CN. 4</w> 21413
dat ory</w> 21412
st un 21405
Bro ad 21405
Di d</w> 21404
s ounds</w> 21400
O N</w> 21400
N az 21391
descri bes</w> 21391
feat ured</w> 21389
scand al</w> 21384
re ferring</w> 21373
et te</w> 21373
ast y</w> 21372
ograph y</w> 21372
ard ous</w> 21370
form ally</w> 21361
Stat ute</w> 21356
Erit rea</w> 21355
d ul 21351
r ice</w> 21350
consist ently</w> 21348
Z im 21337
U R 21329
ric ane</w> 21325
expl ains</w> 21323
g al 21322
gr ati 21319
Integr ated</w> 21312
p ounds</w> 21304
gra m</w> 21303
depen d</w> 21299
loc ate</w> 21296
assu me</w> 21291
Dav is</w> 21285
inven tory</w> 21280
T ali 21277
clin ical</w> 21273
proce ed</w> 21263
twee ted</w> 21263
ell a</w> 21260
gre en 21253
Wh ich</w> 21240
O ut</w> 21237
negoti ating</w> 21229
ten sions</w> 21228
th m</w> 21226
not ably</w> 21220
embar go</w> 21204
V .</w> 21195
aband oned</w> 21187
t aught</w> 21186
li on 21186
li brary</w> 21185
L B</w> 21184
sa ved</w> 21183
L uc 21170
ple dged</w> 21169
b ond</w> 21159
on ym 21159
Wil son</w> 21157
es cal 21155
jo ining</w> 21150
An dre 21144
air space</w> 21140
We b</w> 21134
n am</w> 21131
v y</w> 21129
absolu te</w> 21128
ba th 21126
wron g 21116
B ru 21109
U l 21106
be aten</w> 21098
con stantly</w> 21097
Ber nie</w> 21096
2 12</w> 21087
flow ers</w> 21087
O thers</w> 21080
doz en</w> 21064
swe et</w> 21061
separ ation</w> 21059
Treas ury</w> 21059
K evin</w> 21058
Th ir 21058
mater nal</w> 21058
ti le</w> 21055
ed onia</w> 21051
di am 21049
in tim 21040
Dom in 21039
Re d 21038
Spe aking</w> 21028
NG O</w> 21019
z er</w> 21017
dur ation</w> 21017
deliber ations</w> 21014
S . 21013
defic it</w> 21012
Plat form</w> 21003
recor ding</w> 20997
allow ance</w> 20996
survi val</w> 20995
cul ti 20984
K a 20981
classi fied</w> 20956
clo thing</w> 20954
Mad rid</w> 20952
shoul der</w> 20952
clai man 20939
eg al</w> 20938
L ine</w> 20928
rac ing</w> 20925
Dru g</w> 20925
Mic hi 20921
NA TO</w> 20919
gr ass</w> 20907
st ayed</w> 20904
re pair</w> 20903
susp ension</w> 20899
wonder ful</w> 20897
Mill er</w> 20893
depar ture</w> 20892
ch ick 20885
4 ,000</w> 20884
deri ved</w> 20875
expl oration</w> 20868
B lo 20864
t um 20863
ess els</w> 20863
A ward</w> 20830
gon na</w> 20822
tra um 20816
respon ding</w> 20812
ket ball</w> 20803
seas ons</w> 20801
fo res 20796
Stud y</w> 20793
preced ented</w> 20790
b one</w> 20786
st ering</w> 20782
oura ble</w> 20780
leg s</w> 20777
mus eum</w> 20776
Col um 20768
circul ated</w> 20756
B ag 20750
appl ies</w> 20747
in s 20742
t ari 20741
mobil ization</w> 20741
afford able</w> 20738
r um 20737
li ver</w> 20733
For d</w> 20731
f led</w> 20728
f ought</w> 20728
civ il 20727
accoun table</w> 20726
v es 20724
transl ation</w> 20724
re viewing</w> 20722
docu mented</w> 20722
Ken ne 20722
sco res</w> 20721
re imbur 20714
wa ves</w> 20713
duc t</w> 20709
g all 20703
spon sored</w> 20696
ol en</w> 20685
under taking</w> 20684
tribu te</w> 20684
surve ys</w> 20681
adop ting</w> 20680
ga thering</w> 20680
Vide o</w> 20679
promis ing</w> 20677
Anth ony</w> 20677
shel ter</w> 20671
instruc tions</w> 20670
ex changes</w> 20666
tou ch 20657
h ill</w> 20653
ty pical</w> 20652
feel ings</w> 20650
s ad</w> 20646
pro tocol</w> 20645
di versi 20642
S B 20640
alle l</w> 20636
renew able</w> 20630
assu med</w> 20628
U ru 20625
depen ding</w> 20625
meas ured</w> 20621
A rea</w> 20612
stric ts</w> 20612
terri ble</w> 20608
mon etary</w> 20607
L am 20602
polic y 20602
ide al</w> 20602
Chan nel</w> 20596
i on</w> 20593
po t</w> 20590
stud ying</w> 20590
I N</w> 20589
ci ve</w> 20588
h its</w> 20585
an swe 20573
em ails</w> 20570
tr e</w> 20563
mo s 20560
ten s</w> 20557
inc enti 20556
youn g 20553
-- -- 20553
in spir 20552
D re 20551
cohe rence</w> 20543
Sant a</w> 20542
d ens</w> 20537
un precedented</w> 20529
aggres sion</w> 20526
ch ose</w> 20524
0 9</w> 20522
L og 20521
t ables</w> 20516
Kaz akh 20516
Simil arly</w> 20499
deci des</w> 20498
integr al</w> 20478
cont ain 20476
w ra 20475
on er</w> 20475
push ing</w> 20475
descri ption</w> 20474
ex tradition</w> 20473
bal lot</w> 20471
C P</w> 20460
t ank</w> 20457
Li by 20454
ran ean</w> 20453
198 5</w> 20453
y ellow</w> 20449
Def ense</w> 20437
en coun 20434
di an</w> 20434
cap ability</w> 20427
moder n 20425
mat h</w> 20422
formul ated</w> 20419
therap y</w> 20419
opini ons</w> 20416
ber y</w> 20413
198 7</w> 20409
O pen 20408
sen al</w> 20406
my st 20406
we ren</w> 20404
Rom ania</w> 20403
men ting</w> 20398
autonom ous</w> 20398
Tan z 20395
C D 20388
K as 20386
it an</w> 20379
v alid</w> 20375
inter views</w> 20370
answe red</w> 20368
fin als</w> 20367
frequ ency</w> 20367
U p</w> 20361
in her 20359
A . 20356
trans fers</w> 20349
fin anced</w> 20346
P et 20345
per su 20342
cle ar 20339
s ory</w> 20336
vis ual</w> 20336
F l 20334
Lew is</w> 20331
ast ro 20326
Ob serv 20321
s er</w> 20320
notic ed</w> 20311
Ser ies</w> 20308
plan es</w> 20303
rel ate</w> 20301
organis ations</w> 20301
rest ore</w> 20294
cu it</w> 20293
W ol 20292
nar r 20292
Ham ilton</w> 20280
harm ful</w> 20275
odi versity</w> 20274
bac ter 20274
tu de</w> 20273
Michi gan</w> 20273
satis fied</w> 20270
prosp ect</w> 20270
Q atar</w> 20264
UNO PS</w> 20253
aggres sive</w> 20249
pro j 20248
hun ger</w> 20248
tic kets</w> 20242
Gl as 20238
ti er</w> 20233
re d 20233
Re al</w> 20231
inten se</w> 20231
c a</w> 20230
O K</w> 20230
wil d 20230
pen alties</w> 20226
mod alities</w> 20222
0 8</w> 20219
j ump</w> 20216
gene tic</w> 20214
ra rely</w> 20212
Re gar 20211
tr action</w> 20210
ob li 20204
favour ite</w> 20203
Ale x</w> 20200
ou l</w> 20195
Tali ban</w> 20195
A L 20193
Sim on</w> 20192
D ist 20190
ste ady</w> 20185
dro ve</w> 20183
dest ination</w> 20183
cast le</w> 20183
re struc 20179
bo l</w> 20173
V o 20167
comp ul 20162
aff ili 20156
Kazakh stan</w> 20152
mag ne 20145
10 5</w> 20143
Bo ston</w> 20142
C ent 20141
E D</w> 20141
acc o</w> 20140
FO R</w> 20140
archit ecture</w> 20138
un ilateral</w> 20137
Offic ers</w> 20137
adequ ately</w> 20134
boo k 20133
pri ze</w> 20129
are ly</w> 20123
N P</w> 20117
rec k 20115
Ar t</w> 20113
cros sing</w> 20101
Slo v 20098
Minist erial</w> 20097
view ers</w> 20096
gu ests</w> 20094
progres sive</w> 20094
Ky oto</w> 20091
Uru gu 20087
read s</w> 20086
as sion</w> 20077
doz ens</w> 20067
B il 20060
Un fortunately</w> 20059
temper atures</w> 20059
Re ports</w> 20054
gu ided</w> 20053
Reser ve</w> 20041
Tuni sia</w> 20041
C ir 20040
on ization</w> 20040
st uck</w> 20037
ans as</w> 20032
a str 20028
N avy</w> 20018
end ar</w> 20018
Mu sic</w> 20017
UN R 20015
op ing</w> 20010
Li brary</w> 20010
har dly</w> 20004
ul timate</w> 20002
resid ential</w> 20002
N ev 20000
jo y</w> 19998
tou rists</w> 19994
is her</w> 19993
semin ar</w> 19992
conting ent</w> 19991
detain ees</w> 19989
t aste</w> 19986
reco vered</w> 19980
de pression</w> 19978
ad he 19965
per mission</w> 19964
Lit tle</w> 19963
rac es</w> 19962
M S</w> 19959
determin ing</w> 19944
b ills</w> 19942
coun ting</w> 19938
Mon t 19936
bedro om</w> 19936
survi ve</w> 19934
ed itor</w> 19922
in stances</w> 19918
neighbour ing</w> 19910
dead line</w> 19908
Su b</w> 19900
radi ation</w> 19900
answ ers</w> 19897
Mc C 19864
break s</w> 19863
l abor 19859
P C</w> 19859
el ev 19856
adv ances</w> 19854
voc ational</w> 19849
L ater</w> 19846
camp us</w> 19846
rec ur 19839
stere ot 19837
machin ery</w> 19828
Je an</w> 19827
om ing</w> 19808
provin cial</w> 19805
cal m</w> 19804
sove reign</w> 19804
u ated</w> 19801
Stu dies</w> 19796
At tor 19795
go w</w> 19794
sh oot</w> 19793
Ass ess 19791
ear ning</w> 19785
2. 5</w> 19774
compu ters</w> 19774
appreci ate</w> 19769
Amaz on</w> 19765
sub ur 19759
chann els</w> 19755
qu est</w> 19754
wor thy</w> 19753
citiz enship</w> 19751
st al 19745
A T 19740
ase fire</w> 19740
Bl ack 19722
travel ling</w> 19719
busin ess 19718
S how</w> 19716
gan g</w> 19710
v essels</w> 19701
Liby an</w> 19699
D NA</w> 19696
municip al</w> 19696
R ou 19695
nar row</w> 19694
ess entially</w> 19692
exc essive</w> 19691
K han</w> 19689
Jose ph</w> 19685
out reach</w> 19682
d rought</w> 19676
nom inated</w> 19675
im pose</w> 19671
B ot 19662
cont am 19661
mani fe 19661
impres sive</w> 19661
ge on</w> 19657
Ari z 19657
R og 19656
vide os</w> 19653
fu sion</w> 19649
i Phone</w> 19648
envis aged</w> 19644
alg ori 19641
sugg estion</w> 19636
vel i 19635
196 7</w> 19630
Industri al</w> 19629
M .</w> 19628
trans action</w> 19625
cho ices</w> 19625
law suit</w> 19623
some what</w> 19622
consider ations</w> 19622
gir l 19620
Six th</w> 19620
organ ic</w> 19608
C li 19605
Employ ment</w> 19605
win ds</w> 19603
rail way</w> 19601
mari time</w> 19595
Mar ine</w> 19593
smo king</w> 19591
Fran k</w> 19582
Is lam</w> 19576
senten ces</w> 19576
aw a</w> 19570
an x 19569
preser ve</w> 19568
ministr y</w> 19566
promis es</w> 19564
Elec tr 19561
prosecu tor</w> 19560
Med iter 19559
K h 19550
Treat ment</w> 19545
ro g 19536
trans formation</w> 19536
rebel s</w> 19531
lun ch</w> 19518
con secu 19517
eg o</w> 19516
z en</w> 19511
J im</w> 19506
degra dation</w> 19505
exhi bition</w> 19502
B ut 19501
M ulti 19500
v ent</w> 19500
pa th 19497
ari ous</w> 19494
scen es</w> 19492
Braz ilian</w> 19489
Om bud 19488
r he 19484
altern atives</w> 19481
ran k</w> 19480
C T 19476
Fin al</w> 19472
N O 19471
arbitr ation</w> 19467
J ason</w> 19466
Ariz ona</w> 19464
milit ants</w> 19460
tex ts</w> 19458
Mediter ranean</w> 19458
high light</w> 19452
par allel</w> 19447
Fran k 19444
L es 19442
T our 19440
ke en</w> 19438
real istic</w> 19437
N atur 19433
V III</w> 19430
t s 19429
h ttp</w> 19429
F .</w> 19428
up coming</w> 19427
f ate</w> 19426
fru str 19417
Pro m 19413
kne e</w> 19413
u ph 19411
ph arm 19410
Ba h 19408
V an</w> 19406
common ly</w> 19405
favor ite</w> 19403
philos oph 19398
Mon gol 19397
for ums</w> 19390
D or 19383
f ast 19374
N ext</w> 19366
oppon ents</w> 19352
ol ds</w> 19350
D er 19344
observ ation</w> 19342
S S</w> 19341
her o</w> 19338
man datory</w> 19337
im per 19329
ing ness</w> 19326
S U 19324
experi ment</w> 19320
il a</w> 19319
med al</w> 19319
di stricts</w> 19318
cont ra 19313
Per th</w> 19307
P ap 19306
gra ph</w> 19300
ven s</w> 19299
198 2</w> 19297
inv o 19296
e e 19295
per mitted</w> 19292
demo bil 19281
wit n 19280
pass es</w> 19269
know ing</w> 19267
vol ati 19262
C. 5</w> 19257
bab ies</w> 19257
shir t</w> 19244
ar chi 19241
Mon tre 19241
def ensive</w> 19241
writ es</w> 19237
UNR WA</w> 19232
extre mis 19229
arre n</w> 19220
F ron 19219
introduc ing</w> 19218
meaning ful</w> 19208
su e</w> 19206
Jes us</w> 19197
Viet nam</w> 19196
Glas gow</w> 19194
st ock 19192
journ alist</w> 19191
exc ited</w> 19190
Ac ting</w> 19180
pursu ed</w> 19180
cred ited</w> 19176
Proc ed 19175
ann ex 19164
ti gh 19163
sho es</w> 19159
any where</w> 19159
st ake</w> 19155
p per</w> 19142
ack er</w> 19137
ti me 19132
O versi 19131
Wor kers</w> 19129
thre w</w> 19121
happ iness</w> 19119
Pan ama</w> 19117
Foot ball</w> 19117
ti red</w> 19116
ec k</w> 19115
U z 19105
exclu sive</w> 19098
incenti ves</w> 19098
yu an</w> 19097
an cies</w> 19091
rev olution</w> 19086
Th ank</w> 19084
In t 19084
mer cury</w> 19080
A th 19077
2 5 19075
Le ic 19068
aci al</w> 19068
th west</w> 19066
lo s</w> 19066
explo sion</w> 19066
exp ects</w> 19061
C rown</w> 19059
Rom a</w> 19056
sou l</w> 19055
fl ag 19053
preven ted</w> 19051
in y</w> 19050
ra w</w> 19049
bre ast</w> 19045
man n</w> 19044
b lan 19039
adv ancement</w> 19039
Ho c</w> 19038
Oversi ght</w> 19033
t ant</w> 19032
susp ects</w> 19025
sh ouldn</w> 19023
D F</w> 19017
W rit 19015
Acc ess</w> 19006
la undering</w> 19002
di ver 19001
for man 18997
constitu tion</w> 18996
por ter</w> 18988
request ing</w> 18988
we al 18980
Alli ance</w> 18978
Tanz ania</w> 18978
consecu tive</w> 18978
rol ling</w> 18976
Every one</w> 18976
e ball</w> 18975
sha dow</w> 18974
ran ging</w> 18962
Ag ainst</w> 18962
er ly</w> 18958
str ange</w> 18958
om et 18956
uni vers 18955
Ghan a</w> 18955
mus ical</w> 18953
6 ,000</w> 18939
restaur ants</w> 18938
E L 18937
st olen</w> 18937
ric ket</w> 18937
po wered</w> 18931
sk i 18931
B ack</w> 18927
propor tion 18925
every where</w> 18915
Sen egal</w> 18915
ti a</w> 18914
Pic ture</w> 18914
En h 18912
movi es</w> 18911
n ell</w> 18909
de plo 18898
bu yers</w> 18898
F ire</w> 18895
Stat ement</w> 18894
k el 18892
C I</w> 18886
pl ing</w> 18884
me dy</w> 18883
l ady</w> 18882
divor ce</w> 18876
Stand ard</w> 18867
amm unition</w> 18865
coura ge</w> 18862
G M</w> 18861
s and 18859
Col on 18856
pris ons</w> 18855
Cu st 18850
eri ous</w> 18847
f icial</w> 18842
te ars</w> 18842
T op</w> 18840
x enopho 18838
bo ards</w> 18836
t ations</w> 18835
Armen ia</w> 18832
fi x</w> 18830
direc tors</w> 18824
for th 18823
lan ding</w> 18821
op er</w> 18820
atten ding</w> 18816
lux ury</w> 18816
Tor onto</w> 18815
volunte ers</w> 18810
H RC</w> 18806
ol i 18805
Mo z 18800
ri e</w> 18796
bi e</w> 18795
Reaffir ming</w> 18788
inv ite</w> 18786
stu dio</w> 18782
remark able</w> 18774
res a</w> 18769
sex ually</w> 18769
appro ve</w> 18768
ret ain</w> 18767
Peace building</w> 18767
Ex c 18757
pup ils</w> 18756
Govern or</w> 18751
Squ are</w> 18750
g aining</w> 18739
0 3</w> 18739
distinc tion</w> 18736
f rac 18718
C level 18716
adjust ments</w> 18716
person ality</w> 18715
trans national</w> 18714
oc ol 18702
su l</w> 18700
Pro per 18698
Issu es</w> 18696
C RC</w> 18694
keep s</w> 18694
Jer sey</w> 18689
roc ket</w> 18684
Ky r 18681
br illi 18676
M ir 18673
step ped</w> 18673
r ation 18672
will ingness</w> 18671
Tu be</w> 18669
N am 18664
s mile</w> 18658
w is 18658
it ly</w> 18658
B T</w> 18657
refl ecting</w> 18657
Salv ador</w> 18655
P y 18654
expres ses</w> 18652
S ept</w> 18650
Analy sis</w> 18648
Sh ould</w> 18647
0 7</w> 18644
h es</w> 18643
M ake</w> 18638
L t 18636
p her</w> 18629
198 4</w> 18628
dic t 18627
Ara bic</w> 18627
def enders</w> 18626
Urugu ay</w> 18619
condem ned</w> 18617
fe ed 18610
a is</w> 18604
I cel 18603
asp ir 18602
W ould</w> 18600
jud gment</w> 18600
f ing 18595
re medy</w> 18583
du pl 18582
Montre al</w> 18582
fe eding</w> 18581
inten sive</w> 18579
week ly</w> 18578
ten th</w> 18571
V ill 18566
Excell ency</w> 18562
8 th</w> 18561
sh ed</w> 18561
Whe ther</w> 18561
gh ters</w> 18560
consci ous</w> 18559
10 1</w> 18558
b ell</w> 18556
Ric a</w> 18553
embar r 18549
ha r</w> 18548
O l 18544
Clevel and</w> 18539
col li 18537
Bo b</w> 18537
c ann 18536
la d</w> 18535
st ems</w> 18534
Franc is</w> 18529
ord on</w> 18526
certific ate</w> 18525
Up on</w> 18524
li veli 18523
F ed</w> 18507
CA P</w> 18505
set tle</w> 18501
fa ult</w> 18491
sub stitu 18482
inc ess</w> 18482
Gul f</w> 18481
L i</w> 18479
commer ce</w> 18479
C had</w> 18472
frequ ent</w> 18466
i tive</w> 18460
0 6</w> 18455
port fol 18455
hol id 18455
cul tures</w> 18455
t emp 18452
bon ds</w> 18451
minist ries</w> 18439
AF P</w> 18438
An ton 18434
Aud itors</w> 18434
add resses</w> 18424
W a 18421
F P</w> 18420
f ed</w> 18419
i g</w> 18413
them es</w> 18413
re sts</w> 18404
197 0s</w> 18404
tra ins</w> 18402
Assess ment</w> 18400
Rev .1</w> 18399
st aying</w> 18397
di r 18391
olu tionary</w> 18391
re stra 18388
am in</w> 18388
dom inated</w> 18388
re stor 18386
Ass ad</w> 18386
predic table</w> 18385
vern ight</w> 18383
L and 18381
swim ming</w> 18381
e ge</w> 18380
cru de</w> 18379
classi c</w> 18378
st a 18375
classi fication</w> 18375
Champi onship</w> 18374
SR . 18374
ban k 18364
compati ble</w> 18363
T ed</w> 18362
f lic 18360
com mission 18360
en forced</w> 18357
ce ase</w> 18357
1 30</w> 18356
ca p</w> 18353
trac king</w> 18350
advis ers</w> 18346
liter ature</w> 18345
Guardi an</w> 18342
bur ning</w> 18341
1. 2</w> 18328
Uz be 18327
v able</w> 18320
foc uses</w> 18320
Pal ace</w> 18320
pre ce 18316
ic ks</w> 18307
be er</w> 18305
P R</w> 18301
t one</w> 18296
con junction</w> 18293
fre ely</w> 18291
cont acts</w> 18287
pre fer</w> 18284
er ation</w> 18275
ran ked</w> 18274
com modities</w> 18270
rac ist</w> 18267
Pa ul 18267
disco very</w> 18266
me al</w> 18263
v ania</w> 18262
omet res</w> 18261
om a</w> 18259
uni form</w> 18257
promp ted</w> 18257
Free dom</w> 18257
B an</w> 18252
I X</w> 18249
in ning</w> 18248
No v</w> 18244
tem por 18244
argu ments</w> 18238
pro ven</w> 18237
c abinet</w> 18228
Li thu 18228
k g</w> 18225
attitu des</w> 18223
li ked</w> 18222
cam er 18214
M ail</w> 18204
Man u 18203
ak ia</w> 18199
la di 18196
docu mentary</w> 18196
aff ects</w> 18193
In spec 18190
L yn 18188
Mal i</w> 18187
ten ts</w> 18183
hi bition</w> 18181
TIO NS</w> 18179
Pur su 18178
H ai 18177
Pr in 18177
ri vals</w> 18175
int olerance</w> 18175
E CO 18169
Constitu tional</w> 18169
re verse</w> 18168
war t</w> 18168
se ve 18162
inst alled</w> 18161
Inter ior</w> 18160
ir o</w> 18155
res cu 18146
10 9</w> 18143
Attor ney</w> 18143
surviv ors</w> 18133
d or</w> 18124
ang le</w> 18124
comfor t</w> 18119
ren der</w> 18117
confi d 18114
sugge sting</w> 18114
h at</w> 18112
m ass 18112
B oo 18104
ag an</w> 18102
pain ting</w> 18101
im ports</w> 18097
Origin al</w> 18097
prohi bition</w> 18095
pres cribed</w> 18086
kil ometres</w> 18083
um es</w> 18078
ro of</w> 18076
y ou 18061
mat ure</w> 18060
c up</w> 18058
ab et 18058
execu ted</w> 18054
miti gation</w> 18052
me ets</w> 18051
ass emb 18051
D e</w> 18044
ro yal</w> 18044
gu ess</w> 18044
sec urities</w> 18041
th rown</w> 18037
some body</w> 18035
ig no 18034
20 th</w> 18029
ac ity</w> 18027
laun ching</w> 18025
Wel comes</w> 18024
pe tro 18022
T akes</w> 18014
d ressed</w> 18014
ot es</w> 18013
St ra 18013
up set</w> 18008
t all</w> 18003
2 7 18003
Slo ven 18003
Or der</w> 18002
re vision</w> 18000
ac id</w> 18000
sho ot 17997
Conserv ative</w> 17994
hol m</w> 17991
R ose</w> 17985
limit ations</w> 17985
si e</w> 17983
Rel ations</w> 17982
gr ation</w> 17980
n i</w> 17960
t ar</w> 17956
Sar ah</w> 17954
ie ty</w> 17953
simul tan 17947
exc iting</w> 17945
pi p 17945
pri ori 17944
separ ated</w> 17944
susp ici 17943
strugg led</w> 17942
st al</w> 17937
Indu stry</w> 17936
ad el 17934
cas u 17932
Al an</w> 17930
fran ch 17929
G s</w> 17928
syl vania</w> 17924
ali ans</w> 17923
hi dden</w> 17922
lands cape</w> 17920
M ob 17915
be d 17908
ic an</w> 17906
fir mly</w> 17904
sam ple</w> 17902
cal endar</w> 17897
dis appeared</w> 17895
Proc ess</w> 17893
st ab 17891
inter ference</w> 17889
em a</w> 17886
consequ ence</w> 17884
Mo ham 17883
L oo 17876
e ans</w> 17872
Inter governmental</w> 17870
Encoura ges</w> 17870
succe ed</w> 17863
chec ks</w> 17860
Pro gress</w> 17858
He ads</w> 17857
work place</w> 17855
organiz ing</w> 17853
ret ail 17851
AC T</w> 17849
Re duction</w> 17839
inno cent</w> 17821
fav or</w> 17820
D al 17819
th in</w> 17817
appro ached</w> 17814
bloc ks</w> 17803
par king</w> 17801
haz ardous</w> 17797
under mine</w> 17792
sal t</w> 17791
Sup ple 17784
st adium</w> 17783
Gu ide</w> 17782
T A</w> 17781
concep ts</w> 17781
ol onization</w> 17775
attrac tive</w> 17770
Do es</w> 17765
Bro ok 17764
te or 17761
fi res</w> 17757
C .1</w> 17753
vers y</w> 17750
lay er</w> 17746
e ously</w> 17741
mach ines</w> 17741
car ries</w> 17740
recogn izing</w> 17738
smo oth</w> 17738
li fted</w> 17736
Wor k 17735
concer t</w> 17734
ori entation</w> 17722
le gen 17721
em e</w> 17721
Guid elines</w> 17718
seve rely</w> 17716
employ er</w> 17715
A D 17708
re venues</w> 17706
sub missions</w> 17705
amoun ted</w> 17703
ly n</w> 17702
H om 17699
analy st</w> 17699
W is 17692
be ings</w> 17689
reg ret</w> 17686
eng aging</w> 17686
li est</w> 17682
E sti 17681
bom bing</w> 17677
ren dered</w> 17659
pleas ure</w> 17656
ten nis</w> 17653
attrac ted</w> 17652
leg acy</w> 17651
concentr ation</w> 17649
Cel tic</w> 17645
rou tine</w> 17641
dis appointed</w> 17640
commen ded</w> 17632
ri f 17626
assess ing</w> 17616
thir ds</w> 17611
A mend 17599
fore ver</w> 17594
clear ance</w> 17594
diagno sis</w> 17593
bad ly</w> 17586
Do ha</w> 17576
sil ence</w> 17573
win dows</w> 17571
L e</w> 17568
pursu it</w> 17563
acceler ate</w> 17549
Si gn 17548
S ettle 17546
cre di 17545
ti veness</w> 17542
c tic</w> 17541
mo bility</w> 17539
accord ingly</w> 17536
consolid ated</w> 17534
y land</w> 17533
Deci sion</w> 17528
H . 17513
co operative</w> 17506
bre a 17505
serv ants</w> 17505
C ould</w> 17504
neighbor hood</w> 17498
es sions</w> 17497
Recommend ation</w> 17491
ga ret 17483
attemp ting</w> 17480
c k</w> 17479
in habit 17479
hel p 17470
proced ural</w> 17469
ne gl 17468
Li ve</w> 17468
reve als</w> 17466
G et</w> 17463
ak a</w> 17463
ev olution</w> 17460
posi t</w> 17458
ar agu 17456
off set</w> 17455
calcul ated</w> 17455
ab uses</w> 17453
Pursu ant</w> 17452
Penn sylvania</w> 17450
advis er</w> 17449
hon or</w> 17439
c ry</w> 17433
Micro soft</w> 17433
S in 17432
b in</w> 17431
veter an</w> 17423
b ars</w> 17419
l en</w> 17417
oun ce</w> 17413
restruc turing</w> 17408
di min 17406
el ds</w> 17392
acc ession</w> 17387
leg islat 17386
Off ici 17386
C are</w> 17383
M ars</w> 17382
Provi sional</w> 17379
reco ver</w> 17371
discipl ine</w> 17371
no body</w> 17362
Nic aragu 17359
speci alist</w> 17358
def ici 17354
high lights</w> 17353
bo w</w> 17349
ab u 17343
1 10</w> 17342
G all 17341
he ight</w> 17341
exc ess</w> 17334
0 2</w> 17332
Or din 17331
her o 17331
an dum</w> 17328
En gine 17322
sec t</w> 17321
In c</w> 17320
j unior</w> 17317
where as</w> 17316
o vernight</w> 17312
expe di 17307
flo od</w> 17306
Bri dge</w> 17303
obser ve</w> 17303
com promise</w> 17298
br is</w> 17297
Boli via</w> 17295
Leic ester</w> 17294
O EC 17293
spot ted</w> 17290
kni fe</w> 17288
in son</w> 17287
trac ks</w> 17286
rel ess</w> 17285
equi pped</w> 17283
M en 17280
in duc 17278
eg gs</w> 17278
execu tives</w> 17276
chec k 17275
vir tual</w> 17274
che ap</w> 17272
liber al</w> 17272
brief ly</w> 17272
ac com 17267
a w</w> 17263
t ail 17256
ver sions</w> 17254
fo reign 17248
Alex ander</w> 17248
C air 17246
de tection</w> 17246
consolid ation</w> 17244
De c</w> 17240
a us 17238
Un til</w> 17238
f oods</w> 17236
aca dem 17235
Phili p</w> 17232
Bri an</w> 17224
Jama ica</w> 17223
dis placement</w> 17205
diagno sed</w> 17204
C ook</w> 17202
trage dy</w> 17202
deli vering</w> 17195
destro y</w> 17192
cru el</w> 17189
compul sory</w> 17187
minist ering</w> 17183
197 9</w> 17182
persist ent</w> 17178
g ent</w> 17177
in ser 17177
commun icate</w> 17177
trans mit</w> 17173
S BI</w> 17172
ann y</w> 17168
mo od</w> 17166
parti ally</w> 17164
resi li 17163
N BC</w> 17161
198 1</w> 17159
perc eived</w> 17158
desi ra 17147
ma them 17146
an onym 17142
N US 17139
Hamp shire</w> 17138
reiter ates</w> 17134
h itting</w> 17133
St or 17130
wh enever</w> 17128
Pat rick</w> 17128
H us 17127
keep er</w> 17123
out puts</w> 17122
sp are</w> 17121
consult ants</w> 17121
embarr ass 17121
Proced ure</w> 17118
sel ect</w> 17116
Zim bab 17116
sion ally</w> 17114
o k</w> 17112
Pro liferation</w> 17110
recei pt</w> 17110
nit ure</w> 17110
pre ferred</w> 17109
bi odiversity</w> 17105
acc us 17099
corpor ations</w> 17096
B ay 17094
ce asefire</w> 17094
deb ates</w> 17091
jour nal</w> 17087
P over 17086
ast ly</w> 17084
constitu ted</w> 17084
accom mo 17083
b is 17082
occur s</w> 17079
di str 17077
R ock</w> 17070
il er</w> 17065
bun als</w> 17065
o tic</w> 17060
IM F</w> 17055
distinc t</w> 17051
sy ner 17050
9 th</w> 17049
she et</w> 17046
tw el 17045
prop ag 17042
el ing</w> 17039
jud gement</w> 17036
dead ly</w> 17031
wor e</w> 17030
en abled</w> 17029
fil ing</w> 17029
accoun ted</w> 17027
P ra 17023
tri bunal</w> 17016
Pover ty</w> 17016
im m 17011
Cust oms</w> 17007
sw itch</w> 17003
prosper ity</w> 17003
Appe als</w> 17000
May or</w> 16998
Fil m</w> 16998
f ound 16994
G ener 16988
Pro t 16987
predic ted</w> 16987
L O 16986
stric tly</w> 16984
ay ne</w> 16983
n es 16974
B ron 16974
sur ge</w> 16974
Tw enty</w> 16973
B ang 16971
commun ic 16969
critici zed</w> 16967
Legisl ative</w> 16966
Hist ory</w> 16965
phr ase</w> 16963
stre am 16960
Osc ar</w> 16960
S ul 16959
helicop ter</w> 16957
R ol 16954
contro versy</w> 16952
A venue</w> 16947
hi red</w> 16947
depri ved</w> 16947
noti fication</w> 16939
Ro ss</w> 16933
A D</w> 16926
dec l 16925
avi ation</w> 16924
gr o</w> 16923
tr y 16920
credi bility</w> 16918
poli tically</w> 16915
log ical</w> 16913
ogra pher</w> 16912
exist ed</w> 16910
p raised</w> 16905
cre am</w> 16905
excep tional</w> 16905
Sec on 16904
negoti ate</w> 16903
si ves</w> 16902
des c 16902
G ordon</w> 16898
Ar senal</w> 16897
phi a</w> 16894
co ol 16893
bi ke</w> 16893
op ens</w> 16892
bas ketball</w> 16888
B un 16886
ex act</w> 16884
autom atic</w> 16884
Sur vey</w> 16874
Liber al</w> 16870
girl friend</w> 16869
Consi deration</w> 16864
kid n 16864
dimen sions</w> 16860
necess ity</w> 16858
Gol den</w> 16852
mar gin</w> 16848
indic ation</w> 16845
Traff icking</w> 16842
el and</w> 16841
pr ud 16839
d ying</w> 16838
re no 16837
o is</w> 16835
ologi sts</w> 16835
gur ation</w> 16833
the ore 16831
lic ence</w> 16829
p ack</w> 16818
C ast 16813
Coun ter</w> 16810
ush ing</w> 16810
jum ped</w> 16808
bran ches</w> 16804
writ ers</w> 16789
te ach</w> 16788
Ur ges</w> 16788
197 8</w> 16786
cohe rent</w> 16779
re di 16778
dis charge</w> 16777
tre as 16777
wor n</w> 16773
F as 16771
Com mon</w> 16771
contrac tors</w> 16766
1. 1</w> 16762
ann e</w> 16758
un anim 16756
con gres 16748
Stock holm</w> 16748
i x</w> 16745
b acking</w> 16743
indic ating</w> 16738
decre ased</w> 16738
person ally</w> 16737
sal aries</w> 16736
Volun te 16736
Mar ket</w> 16733
IT RAL</w> 16733
modi fied</w> 16733
proce eds</w> 16729
carri er</w> 16726
enter tainment</w> 16722
UNC ITRAL</w> 16722
R acial</w> 16716
V is 16715
Sen .</w> 16712
s ung</w> 16711
v ist</w> 16711
NA SA</w> 16706
b ags</w> 16705
t less</w> 16702
tour ist</w> 16700
oper ators</w> 16698
liqu id</w> 16693
autom atically</w> 16691
sam ples</w> 16690
L ady</w> 16689
spec tr 16685
parame ters</w> 16684
ali gn 16683
tran sitional</w> 16669
vac ancy</w> 16669
appoin ting</w> 16668
Chris ti 16667
d an</w> 16666
Con t 16664
Phil adel 16658
C abinet</w> 16652
vi able</w> 16652
justi fied</w> 16652
peace building</w> 16649
0 4</w> 16648
An dy</w> 16647
a than</w> 16646
an ian</w> 16645
over view</w> 16642
Mo sul</w> 16640
ci garet 16639
suppl iers</w> 16639
sw it 16636
s enti 16635
resu me</w> 16634
tro pical</w> 16631
com edy</w> 16630
Ric h 16629
Cap e</w> 16628
p ound</w> 16616
OEC D</w> 16611
Po int</w> 16608
cle ared</w> 16607
subsi dies</w> 16604
appoin tments</w> 16603
E arly</w> 16598
D ev 16596
Pol ish</w> 16595
ner v 16591
p ast 16582
Ex peri 16581
Fac il 16581
Six ty</w> 16581
v ard</w> 16580
v ar 16579
K at 16577
sym bol</w> 16571
con su 16568
with draw</w> 16568
defe ated</w> 16567
u k</w> 16554
smar t 16554
ap point</w> 16548
x on</w> 16546
li abilities</w> 16544
ten ing</w> 16540
fav ourable</w> 16540
yi eld</w> 16537
Cor r 16535
Philadel phia</w> 16534
D E 16528
er o</w> 16527
f ake</w> 16526
custom ary</w> 16525
speak s</w> 16524
rel uc 16523
survi ved</w> 16520
dimen sion</w> 16516
inf ected</w> 16514
S ex 16512
ar ise</w> 16504
Commit tees</w> 16503
termin ation</w> 16502
devast ating</w> 16497
ST A</w> 16493
suffici ently</w> 16482
propos e</w> 16472
fish eries</w> 16469
fun ny</w> 16461
oper ates</w> 16460
d ale</w> 16457
h ome 16453
argu es</w> 16451
Occup ied</w> 16450
Fair fax</w> 16444
ti tles</w> 16440
CO N 16438
f ai 16437
Oc t</w> 16436
S hel 16435
j et</w> 16428
rob ust</w> 16427
E valuation</w> 16425
vot er</w> 16423
X i 16418
photograph s</w> 16418
M other</w> 16417
rel ates</w> 16417
Maur iti 16412
T enn 16410
Michel le</w> 16408
b arely</w> 16403
cont ents</w> 16401
Bra d 16400
incre dible</w> 16398
Conven tions</w> 16398
Con tribu 16396
chron ic</w> 16396
Res ource</w> 16387
ben ch</w> 16385
th res 16381
link ages</w> 16378
Ber n 16375
SA S</w> 16375
dis closure</w> 16374
onom y</w> 16371
ori ous</w> 16370
li ps</w> 16363
ad ministering</w> 16362
occ er</w> 16362
op her</w> 16355
Cam bridge</w> 16353
19 th</w> 16352
S n 16348
att an</w> 16340
share holders</w> 16333
Camer oon</w> 16329
quanti ty</w> 16329
kill ings</w> 16324
forman ces</w> 16319
associ ate</w> 16310
f asc 16308
F a 16306
sp r 16305
environ mentally</w> 16305
missi les</w> 16302
inter active</w> 16300
M uch</w> 16299
V eg 16299
regul ated</w> 16298
G reg 16295
ES CAP</w> 16293
net t</w> 16292
mist akes</w> 16289
camer as</w> 16289
Over all</w> 16286
mortg age</w> 16283
incur red</w> 16281
feed back</w> 16281
mac ro 16267
in corporate</w> 16266
um p 16259
chick en</w> 16259
Com e</w> 16255
W o 16253
Corpor ation</w> 16246
val ence</w> 16240
sud den</w> 16239
sp ection</w> 16236
c ab 16232
F lo 16229
S S 16228
us al</w> 16228
F le 16227
list ening</w> 16227
ves sel</w> 16226
Em irates</w> 16222
Deleg ations</w> 16217
elecommun ications</w> 16216
rou tes</w> 16209
acqu ire</w> 16209
M ass 16207
sk ill</w> 16202
shoc ked</w> 16196
An derson</w> 16195
r ist</w> 16194
r ating</w> 16189
forth coming</w> 16187
Ta x 16186
N . 16183
reduc tions</w> 16181
R angers</w> 16178
A C</w> 16177
Kur dish</w> 16163
sol ved</w> 16162
k es 16152
W ang</w> 16151
gen ocide</w> 16145
Elec toral</w> 16144
Offici als</w> 16144
N ation 16138
pursu ing</w> 16138
You Tube</w> 16137
un acceptable</w> 16136
pre dec 16134
cre ates</w> 16132
197 3</w> 16132
N u 16131
st resses</w> 16129
Col or 16129
inhabit ants</w> 16126
domin ant</w> 16123
help ful</w> 16123
Kenne dy</w> 16122
adju sted</w> 16121
g ar</w> 16119
C en 16114
it ement</w> 16112
exclu sion</w> 16112
compe ting</w> 16111
rup ted</w> 16111
af e</w> 16107
e uro</w> 16106
Cam p 16105
anc er</w> 16103
sen ator</w> 16102
abet es</w> 16102
divi sions</w> 16101
fle w</w> 16101
dau ghters</w> 16101
Tar get</w> 16101
at er 16099
ox ide</w> 16096
deman ded</w> 16095
trans mitting</w> 16090
bot tle</w> 16089
win ners</w> 16087
or bit</w> 16086
moder ate</w> 16083
dis par 16081
c able</w> 16076
an ks</w> 16076
stri king</w> 16076
qui ries</w> 16076
A y 16072
anx iety</w> 16072
auc tion</w> 16071
S even</w> 16069
x ture</w> 16064
un ve 16063
pol itan</w> 16062
exerc ises</w> 16062
str o</w> 16059
construc ted</w> 16057
in he 16055
off s</w> 16054
th ri 16050
fi ghter</w> 16050
rad ical</w> 16050
m ere</w> 16048
int ent</w> 16048
comman der</w> 16048
no tion</w> 16044
Stand ards</w> 16042
champi onship</w> 16041
continu ation</w> 16039
Mongol ia</w> 16035
aw n</w> 16034
SB STA</w> 16032
g ated</w> 16031
ec tor</w> 16031
Pro vision</w> 16029
D ur 16028
mu tually</w> 16027
de posit</w> 16021
repatri ation</w> 16020
su peri 16019
vir tu 16014
air line</w> 16013
ret ained</w> 16012
facilit ated</w> 16010
Ba sic</w> 16010
drin ks</w> 16007
Cur rently</w> 16006
Adel aide</w> 16003
ran ks</w> 16002
ga ther</w> 15997
U C 15995
k id</w> 15993
challen ged</w> 15993
eval uations</w> 15992
hi de</w> 15988
E ven 15986
E ric</w> 15985
Cul ture</w> 15983
We ek</w> 15977
T own</w> 15972
pan ic</w> 15971
recru ited</w> 15970
tax pay 15962
Ma h 15961
mag nit 15957
deman ding</w> 15957
perf ec 15955
ass ure</w> 15952
per formances</w> 15951
prejud ice</w> 15947
Mo ore</w> 15946
hor iz 15945
bl amed</w> 15944
dra m 15943
cra zy</w> 15942
bo t</w> 15940
cy cl 15938
R ai 15931
Recor ds</w> 15930
gen cies</w> 15928
spo ts</w> 15928
tox ic</w> 15928
B run 15923
Pro duc 15916
gol f</w> 15916
2 3 15915
su its</w> 15911
compris ing</w> 15911
go od 15910
av al</w> 15907
B ou 15906
soldi er</w> 15891
Hou sing</w> 15881
in dis 15880
inter ior</w> 15880
K .</w> 15876
Au dit</w> 15876
car go</w> 15876
s inc 15871
M e</w> 15871
Regar ding</w> 15870
scre ening</w> 15869
U sing</w> 15868
Jo sh</w> 15862
Ta ji 15859
l es 15857
z i</w> 15854
ha dn</w> 15853
In clu 15852
con du 15851
Mon ey</w> 15846
cro ps</w> 15846
break fast</w> 15846
teen ager</w> 15843
V in 15840
U ber</w> 15840
mil l 15840
hu a</w> 15840
nation wide</w> 15838
off enders</w> 15837
sim pli 15833
green house</w> 15831
ing redi 15830
de bris</w> 15827
A U</w> 15825
G il 15823
T ER 15822
Proper ty</w> 15822
plo t</w> 15819
M OR 15818
Sum mer</w> 15818
mod est</w> 15815
witn essed</w> 15813
On line</w> 15809
0 00</w> 15804
e k 15800
dam ages</w> 15799
Emp ha 15799
ocol ate</w> 15798
main tains</w> 15797
Mauriti us</w> 15795
O S 15793
ini an</w> 15793
dis appearance</w> 15791
cou p</w> 15789
entr ance</w> 15788
expen se</w> 15788
cre dible</w> 15787
J enni 15786
Develop ed</w> 15785
juven ile</w> 15783
un ited</w> 15782
te eth</w> 15781
Pro cu 15781
encoun tered</w> 15780
speci ally</w> 15777
Advis er</w> 15777
g li 15776
W FP</w> 15775
demobil ization</w> 15771
N BA</w> 15769
complex ity</w> 15760
ó n</w> 15759
isol ated</w> 15756
est er 15754
manufac ture</w> 15746
Con sequently</w> 15742
question n 15742
ar y 15739
lan ded</w> 15739
l ake</w> 15736
des k</w> 15734
Hou ston</w> 15734
ste ad 15730
dec entr 15729
vis a</w> 15727
ni ghts</w> 15725
Y a 15718
per taining</w> 15718
l ec 15715
conf isc 15714
As ked</w> 15713
dra fted</w> 15710
E s 15707
Zimbab we</w> 15706
Mi gration</w> 15705
sh ine</w> 15704
til ity</w> 15704
formul a</w> 15701
Egyp tian</w> 15700
ef f</w> 15694
d ay 15693
valu ed</w> 15689
vir tually</w> 15683
por ters</w> 15682
edi tion</w> 15682
stand ardi 15681
T our</w> 15680
re fu 15679
tion ers</w> 15677
ol dest</w> 15675
at ories</w> 15663
Commun ist</w> 15659
gh ted</w> 15657
Ar ms</w> 15656
Fe b</w> 15656
gi e</w> 15655
friend ship</w> 15653
ir s</w> 15651
Nicaragu a</w> 15648
Sloven ia</w> 15644
yp es</w> 15640
exclu sively</w> 15638
Procu rement</w> 15638
V an 15634
analy tical</w> 15633
zh ou</w> 15631
blin d</w> 15626
ati zation</w> 15624
atic s</w> 15621
portfol io</w> 15611
sa u</w> 15609
atten dance</w> 15606
bre ad</w> 15600
be ating</w> 15598
repor ter</w> 15598
bloc ked</w> 15594
T en 15591
D ue</w> 15591
Uzbe kistan</w> 15591
www. un.org</w> 15590
conn ect</w> 15581
o a</w> 15580
Ex change</w> 15578
surpris ing</w> 15575
198 3</w> 15573
spec tac 15570
eth ics</w> 15563
moti vated</w> 15559
ac knowledge</w> 15558
inci dence</w> 15557
ay a</w> 15555
to b 15550
mini stered</w> 15550
l uck</w> 15544
hol es</w> 15543
Jan e</w> 15537
J ustin</w> 15536
D ri 15535
dic t</w> 15535
d ust</w> 15534
acci dents</w> 15529
2 6 15523
cou ples</w> 15522
t oll</w> 15521
enn y</w> 15521
v ary</w> 15520
advant aged</w> 15520
bur ied</w> 15518
magnit ude</w> 15517
ex ha 15514
cont acted</w> 15514
col umn</w> 15513
stret ch</w> 15513
e vil</w> 15510
V ladi 15502
re b 15501
ambi tious</w> 15496
Cor ruption</w> 15493
w ic 15489
arran ged</w> 15485
holid ays</w> 15485
empha size</w> 15484
T S 15482
war ming</w> 15481
Man h 15479
bi ennial</w> 15477
we i 15475
D an</w> 15473
ri ding</w> 15470
spir it 15469
Mo der 15458
inten ds</w> 15456
s or</w> 15455
Be ing</w> 15452
attribu table</w> 15449
Docu ment</w> 15448
Ombud sman</w> 15446
restor ation</w> 15445
hear t 15441
ul ous</w> 15440
B ack 15438
Di ego</w> 15435
Mer kel</w> 15435
igno red</w> 15435
sk illed</w> 15433
S ession</w> 15432
T es 15429
In spection</w> 15427
design er</w> 15424
pl un 15423
Mon ten 15419
s al</w> 15416
se ven 15414
Kar d 15414
politici an</w> 15414
cr y 15410
rol led</w> 15409
A ge</w> 15407
pro ving</w> 15407
den y</w> 15407
gu est</w> 15405
decl are</w> 15405
rec re 15403
Har ris</w> 15400
l en 15396
arri ving</w> 15396
O il</w> 15394
meas urement</w> 15391
suppor tive</w> 15391
remin ded</w> 15388
Mac edonia</w> 15382
Color ado</w> 15380
negoti ated</w> 15379
oper ator</w> 15369
obj ection</w> 15367
de pic 15366
discus sing</w> 15363
Democr at</w> 15363
re j 15361
M it 15360
bu yer</w> 15360
U. N.</w> 15360
consist ency</w> 15357
ran king</w> 15353
B S</w> 15348
in puts</w> 15346
wast es</w> 15344
no se</w> 15341
ho sts</w> 15341
Bag h 15337
Z h 15336
vi gor 15336
celebr ated</w> 15336
fur niture</w> 15335
liter acy</w> 15335
whe el</w> 15333
mp h</w> 15326
Corr .1</w> 15322
exce ed</w> 15320
hal t</w> 15319
sear ching</w> 15319
off shore</w> 15318
mot or</w> 15309
T el 15308
h ell</w> 15298
anc ell 15297
electr ical</w> 15296
Natur al</w> 15295
s and</w> 15294
collap sed</w> 15291
er son</w> 15288
al ert</w> 15288
monit ored</w> 15287
Du ke</w> 15283
tob acco</w> 15281
ke ys</w> 15277
Icel and</w> 15277
rec ession</w> 15273
Monten e 15272
fortun ate</w> 15270
ell o</w> 15269
econom ics</w> 15268
b rown</w> 15263
appe aring</w> 15262
rec y 15261
transl ated</w> 15261
G a 15256
k shire</w> 15252
cl am 15251
ke wise</w> 15250
are r</w> 15250
no vel 15244
prec ise</w> 15244
some where</w> 15243
d run 15240
ti ming</w> 15240
ha med</w> 15239
sh ou 15238
bu re 15232
CO NF 15231
w oo 15230
substan tially</w> 15228
fla v 15228
Educ ational</w> 15225
ver b 15223
lin s</w> 15221
occup ying</w> 15220
AF L</w> 15220
G EF</w> 15219
li sting</w> 15210
ro t 15203
work force</w> 15203
Con struction</w> 15202
pp ers</w> 15202
spokes person</w> 15199
Kard ashi 15198
Sh or 15197
adap t</w> 15197
Inv ites</w> 15194
ul ty</w> 15188
Lu x 15185
E th 15181
eri ff</w> 15179
lo aded</w> 15173
purch ased</w> 15173
Ch all 15172
Rus sell</w> 15172
is er</w> 15165
prac tic 15163
Chem ical</w> 15162
fire arms</w> 15159
epi demic</w> 15158
log istics</w> 15157
s cri 15156
don ations</w> 15156
Manh attan</w> 15156
MD Gs</w> 15153
uc c 15151
re fra 15148
ru gby</w> 15147
E f 15146
T it 15145
fem in 15145
CA T</w> 15133
V ie 15130
ai res</w> 15122
ris en</w> 15120
D ak 15119
is tic 15119
1 11</w> 15117
si ans</w> 15117
pun ished</w> 15117
Ou ter</w> 15116
t ings</w> 15111
dre ams</w> 15107
eth eless</w> 15106
oppon ent</w> 15105
requ is 15103
Par lia 15103
hy po 15100
cat aly 15099
I an</w> 15097
pass age</w> 15097
p a</w> 15095
w ich</w> 15095
li ties</w> 15095
Mar ia</w> 15093
deteri or 15093
An ti 15092
satisfac tory</w> 15089
dis order</w> 15087
plat forms</w> 15085
ren tal</w> 15083
testi mony</w> 15080
s ely</w> 15079
repl ies</w> 15079
ne ys</w> 15077
G A</w> 15074
sk ir 15071
Belgi an</w> 15069
C op 15063
hand led</w> 15058
th a</w> 15056
b ases</w> 15047
De b 15044
ad ministered</w> 15042
run ner</w> 15042
sha ped</w> 15040
bul ance</w> 15039
N on 15036
xenopho bia</w> 15035
9 63</w> 15031
gener ating</w> 15030
T ob 15025
Com man 15023
Ker ry</w> 15022
a qu 15020
desper ate</w> 15020
por no 15018
s an 15017
Ex am 15016
Pu er 15016
formul ate</w> 15011
Ar ch 15009
ace u 15009
Bis sau</w> 15006
L ight</w> 15003
H op 15000
cl oud</w> 14999
shi pping</w> 14999
compl ained</w> 14999
ar ding</w> 14994
ici aries</w> 14994
se em 14993
pl ain 14992
elec tro 14992
Dis ney</w> 14989
arre l</w> 14988
ath y</w> 14985
el ite</w> 14984
w ai 14983
bas ically</w> 14979
Bas el</w> 14977
perfec tly</w> 14975
clari fy</w> 14973
Champi ons</w> 14971
tap e</w> 14969
comb at 14968
coordin ator</w> 14968
advoc ate</w> 14960
Bow l</w> 14952
op ted</w> 14951
privil eg 14949
moun tains</w> 14948
T ory</w> 14946
benef ited</w> 14944
as m</w> 14938
sol ic 14938
lo g</w> 14934
N am</w> 14933
Bar cel 14933
dis closed</w> 14931
ju ana</w> 14928
S port</w> 14925
How ard</w> 14924
f old</w> 14923
ch est</w> 14922
Lithu ania</w> 14919
au x</w> 14918
in vested</w> 14917
benef icial</w> 14915
Ab u</w> 14913
te amm 14906
stro ke</w> 14899
W .</w> 14897
ho sting</w> 14896
character ized</w> 14896
k ings</w> 14894
gi an</w> 14892
W oods</w> 14890
D .C.</w> 14890
mon t</w> 14890
the atre</w> 14886
R ound</w> 14885
w ick</w> 14882
K al 14880
pos sibilities</w> 14880
Bur k 14879
Auth orities</w> 14878
contrac tual</w> 14874
evi dent</w> 14872
indic ator</w> 14868
Char lot 14865
ub er 14860
The resa</w> 14857
elim inating</w> 14856
scen ario</w> 14855
Slov akia</w> 14854
exclu ded</w> 14851
l l 14849
st en 14849
lic ense</w> 14848
prote in</w> 14848
T ele 14847
un lawful</w> 14846
bu l</w> 14845
In dependence</w> 14845
b arrel</w> 14844
J im 14841
Ar ts</w> 14840
vi ously</w> 14832
Jon athan</w> 14831
gol den</w> 14830
Wal ker</w> 14825
il legally</w> 14824
M I</w> 14823
sc ep 14823
Ye ah</w> 14822
me ters</w> 14821
ac ute</w> 14818
circ le</w> 14817
ei l</w> 14816
expres sing</w> 14815
ast ing</w> 14812
12 4 14812
r ounds</w> 14807
lion aire</w> 14807
p acked</w> 14804
in ity</w> 14801
ref use</w> 14798
D ol 14796
con spir 14794
weal thy</w> 14794
un k</w> 14790
Moun t</w> 14788
Sou th 14783
MOR E</w> 14782
s an</w> 14779
con version</w> 14779
enjo ying</w> 14771
st ence</w> 14768
8 ,000</w> 14765
feat uring</w> 14764
on ey</w> 14757
B lu 14756
spac es</w> 14752
Colum bia</w> 14752
ob taining</w> 14751
exp ec 14751
th ick</w> 14749
G ary</w> 14747
attribu ted</w> 14747
Barcel ona</w> 14746
bloc k 14743
promp t</w> 14742
A ber 14740
N ight</w> 14738
mani pul 14727
t oler 14726
consul t</w> 14726
separ ately</w> 14726
C ase</w> 14724
S or 14722
c iting</w> 14719
l ending</w> 14719
aw i</w> 14719
ell er</w> 14718
tow er</w> 14714
man ual</w> 14711
K ey</w> 14706
co des</w> 14706
lia ison</w> 14706
life time</w> 14706
ch at</w> 14705
Pri vate</w> 14703
P ope</w> 14701
dec or 14700
d ental</w> 14689
s oph 14683
att acking</w> 14682
N ob 14680
Kyr gy 14677
Sch o 14673
en comp 14668
rele ases</w> 14668
D od 14666
Tran sitional</w> 14664
A T</w> 14658
to il 14657
un to</w> 14651
consider ably</w> 14648
coo king</w> 14648
accompl ishments</w> 14647
fac to</w> 14645
comple ment</w> 14643
rhe tor 14643
mar ry</w> 14639
def ending</w> 14632
iss ance</w> 14632
mar king</w> 14628
14 . 14627
Ch ancell 14626
there of</w> 14626
law makers</w> 14626
Pro gram</w> 14621
No thing</w> 14618
ow s</w> 14617
vir al</w> 14617
agre es</w> 14614
Puer to</w> 14606
T en</w> 14605
Gra ham</w> 14605
fat al</w> 14604
ab o 14603
ow ns</w> 14602
13 . 14602
per mits</w> 14595
197 0</w> 14594
crimin als</w> 14593
neighb ours</w> 14592
r ush</w> 14589
Jenni fer</w> 14586
Vladi mir</w> 14586
cent uries</w> 14585
l ap 14584
reg ret 14582
si le</w> 14581
197 5</w> 14581
Stat ements</w> 14574
Appl ication</w> 14574
Qu estion</w> 14570
R oc 14567
on ate</w> 14567
1. 3</w> 14567
P D</w> 14565
10 2</w> 14563
Re form</w> 14562
D ate</w> 14550
safe guard</w> 14548
cros sed</w> 14548
deser ve</w> 14546
issu ance</w> 14543
t z</w> 14542
dis advantaged</w> 14542
2 4 14540
sol ely</w> 14540
sle eping</w> 14540
Ci v 14539
at tered</w> 14534
fle et</w> 14534
Cam pai 14533
bat tery</w> 14533
ful fil 14531
ri gh 14530
Ox ford</w> 14521
mer its</w> 14518
j ailed</w> 14517
est e</w> 14514
elabor ate</w> 14514
H R 14506
ul sion</w> 14506
Por t 14506
en force</w> 14500
re z</w> 14498
tra il</w> 14492
war ran 14492
extra budgetary</w> 14490
coll ecting</w> 14489
im pression</w> 14488
Pri ze</w> 14485
web sites</w> 14484
li p 14481
en shr 14480
tre mend 14479
10 0 14479
t es 14478
Co alition</w> 14477
ad i</w> 14476
promp tly</w> 14473
st airs</w> 14471
ach ment</w> 14468
explic itly</w> 14468
counc ils</w> 14466
g on</w> 14465
inter c 14462
bu b 14461
under ground</w> 14460
re ferences</w> 14458
loc ally</w> 14457
pro found</w> 14454
Ev ans</w> 14454
ses sional</w> 14453
Sh er 14453
exten ding</w> 14447
recei ves</w> 14446
hom eless</w> 14446
k er 14445
C ou 14442
it ative</w> 14437
qu it</w> 14436
rein force</w> 14435
conver ted</w> 14435
S ky</w> 14430
ro man 14430
Rober ts</w> 14425
su rely</w> 14420
fun eral</w> 14420
Ar bitr 14419
analy zed</w> 14406
L ev 14403
sing ing</w> 14402
meas uring</w> 14400
servic ing</w> 14399
invest ing</w> 14393
d il 14390
m um</w> 14389
stan ts</w> 14388
dro me</w> 14386
log is 14386
ir a</w> 14384
Ci tiz 14383
control ling</w> 14383
1 40</w> 14380
organ ised</w> 14380
B ren 14378
ic on</w> 14374
S it 14373
an ch 14373
accur acy</w> 14373
Ch er 14372
patro l</w> 14372
mem ories</w> 14371
fo ssi 14368
Kas ich</w> 14368
wal ks</w> 14367
demonstr ation</w> 14363
soph istic 14359
er up 14358
E D 14352
&# 124 14352
&#124 ;</w> 14352
thor ough</w> 14348
Sp i 14343
us age</w> 14341
mobil ize</w> 14341
B ook</w> 14340
Nor we 14339
rati fy</w> 14339
si zes</w> 14338
Haw ai 14334
competi tiveness</w> 14333
di abetes</w> 14332
Reg ulation</w> 14332
newsp apers</w> 14332
Bran ch</w> 14328
Vi et</w> 14326
par ks</w> 14325
fail s</w> 14322
M em 14318
read ers</w> 14315
ic h 14312
cha ired</w> 14309
sec uring</w> 14307
Montene gro</w> 14307
p son</w> 14302
tra gic</w> 14300
Le ast</w> 14297
2 1st</w> 14292
All en</w> 14292
bom bs</w> 14289
inc en 14287
bo ats</w> 14284
Nic hol 14284
J eff</w> 14283
defin ing</w> 14280
ban ds</w> 14276
phys ically</w> 14271
G on 14269
insul a</w> 14269
er b 14268
ac re</w> 14267
educ ated</w> 14267
s wee 14266
cl er 14266
Recommend ations</w> 14266
deep er</w> 14263
desira ble</w> 14263
Charlot te</w> 14262
ad mit</w> 14261
do se</w> 14261
Austr alians</w> 14260
y le</w> 14252
algori thm</w> 14250
197 4</w> 14247
tradi tionally</w> 14245
dow ns</w> 14243
char t</w> 14242
ch ur 14240
invest or</w> 14240
M as 14238
ha ble</w> 14238
[...]
