<SEP> 999999999
<placeholder2> 999999999
<placeholder3> 999999999
<placeholder4> 999999999
<placeholder5> 999999999
<placeholder6> 999999999
的 63970663
， 49226442
。 35718850
在 16797842
和 15242388
了 11052168
是 9151175
、 7147374
他 6852542
. 6234140
年 5118496
中 4457003
“ 4292741
我 4246426
一个 4177768
对 4143142
” 3994823
： 3654642
) 3563423
( 3556584
说 3554935
有 3538657
将 3437093
, 3339625
月 3242020
他们 3125973
· 3102480
我们 3094294
并 3031276
与 3010374
/ 2935378
为 2932453
人 2929246
这 2799597
被 2779044
上 2745358
她 2473575
不 2473326
你 2458845
（ 2410681
） 2406796
《 2341176
》 2339689
问题 2286479
" 2227462
国家 2209902
— 2184575
到 2128215
但 2117177
也 2115229
委员会 2087395
日 2046652
第 2038836
而 2003222
都 1948907
它 1933774
就 1920157
没有 1911027
或 1874436
； 1851779
以 1745645
会 1693851
会议 1691953
工作 1645175
其 1596817
提供 1596322
这些 1595527
- 1594098
进行 1575991
该 1554199
报告 1534861
时 1478437
所 1382768
可能 1375532
发展 1373853
联合国 1371589
从 1362900
国际 1350851
包括 1349014
1 1334475
可以 1328220
其他 1322126
关于 1292135
以及 1285686
还 1269631
个 1264958
组织 1250705
通过 1218835
更 1216841
后 1193971
地 1192020
政府 1188216
于 1181932
情况 1177235
向 1132848
很 1116855
美国 1105049
认为 1087362
3 1081464
所有 1070856
下 1063118
2 1039387
新 1035472
已经 1034878
社会 1026109
这个 1023455
因为 1013801
来 1009043
需要 1006941
’ 986159
特别 970670
方面 961268
里 959612
有关 956918
一些 954496
机构 950272
把 932417
如果 931197
方案 920481
5 912264
号 905072
活动 903216
4 901218
公司 897055
安全 885653
多 884002
妇女 869148
执行 869098
10 860466
经济 854885
由 854077
自己 848466
使 845588
6 836467
行动 829001
及 828333
建议 824093
支持 822134
可 804343
根据 798360
任何 794347
最 794298
决定 793114
？ 788757
但是 782990
要 782882
决议 777456
项目 777267
使用 772960
让 766538
必须 766100
一 761280
提出 760050
比赛 746674
着 742134
影响 740414
做 739113
12 738769
开始 737299
计划 736372
研究 734011
7 733950
前 721414
们 717031
不是 715157
给 705725
要求 703207
人权 688657
儿童 686600
公约 680475
合作 680039
能 679338
表示 664455
已 663875
继续 663669
规定 652939
应 650850
作为 647229
法律 647200
9 646086
内 645784
主要 644918
获得 642590
这种 641827
时间 640373
区域 640006
代表 629931
岁 629344
大会 628738
技术 624935
重要 624787
者 624329
地区 618978
现在 617876
正在 615110
服务 613517
11 612713
先生 610696
理事会 610521
其中 609955
8 605279
世界 601837
目标 601420
系统 589760
政策 586718
当 584869
举行 578343
去 575758
成为 571789
好 570740
得到 566861
保护 566109
许多 563981
A 562895
权利 561508
时候 560601
发生 553696
: 548547
管理 547472
之间 547098
采取 545773
中国 542274
? 541293
等 539428
人员 539346
名 534948
能力 534947
什么 534888
知道 529653
努力 526862
发现 525532
增加 519346
调查 518191
英国 517050
建立 515669
因此 514038
行为 513240
确保 511358
措施 505817
希望 504692
生活 504141
一种 503096
用 501977
各 500564
期间 499223
本 493807
和平 491633
至 491595
促进 488108
加强 488095
想 485957
由于 480161
这样 478513
秘书长 476921
信息 475926
成员 470431
美元 469679
提交 468323
这一 467802
条 467502
注意 465788
地方 463384
主席 460176
人们 457373
方式 456754
特朗普 456355
政治 455060
最后 449857
比 449078
两个 447275
总统 444338
中心 441430
考虑 440455
像 438014
应该 436867
不会 433886
参加 433008
教育 432483
一项 430658
一次 430339
文件 430203
全球 429293
帮助 427514
那 427235
目前 425760
过 414748
环境 414180
缔约国 413611
实现 413387
大 412890
请 410413
那些 408978
审查 408952
能够 408203
这是 406489
20 404456
次 400038
资源 399186
家庭 398222
接受 398179
不同 397741
非常 396980
参与 396373
30 396104
之前 396095
一名 395847
段 394784
一直 394454
是否 391658
方法 390652
a 390066
受到 387034
领域 386866
它们 386327
基金 385631
持续 384261
性 384037
为了 380812
相关 377781
15 377259
之后 377098
而且 376209
草案 375853
来自 375777
孩子 374609
援助 372358
审议 371818
讨论 369091
实施 368859
尽管 368775
同时 367119
处理 367071
解决 365242
就是 364701
各国 364418
机会 363442
小组 359964
又 359809
告诉 358823
则 357856
一起 357279
减少 357115
出现 355309
国 354565
部分 354533
如何 352826
结果 351437
开展 347523
看到 347082
指出 346123
作用 344966
关系 344678
有效 344646
警察 344632
战略 343296
另 342545
对于 341821
然后 340747
程序 336052
不能 335926
造成 335369
得 334621
提高 332980
预算 331587
作出 331184
工作人员 330056
000 329852
仍然 329743
数据 329072
过去 327607
一样 327547
人民 327537
事件 326388
及其 326134
确定 326013
一位 325573
吗 325016
进一步 320213
市场 318745
以来 318539
协调 316438
出 315026
部门 313685
任务 310540
议程 310007
最近 309315
严重 308137
资料 307819
结束 306973
存在 306619
费用 306133
-- 306079
选举 304806
支助 303573
法 303107
或者 302942
城市 302250
人口 301843
文化 301262
意见 301260
代表团 301231
选择 300393
取得 299492
虽然 298616
说明 296726
非洲 296361
产生 295467
事情 295409
显示 293638
目的 293326
利用 292581
高 291213
无法 290723
标准 289366
欧洲 288782
之一 288372
过程 287428
并且 286510
然而 286200
原因 285841
感到 285351
具有 285314
评估 284642
自 284364
制定 283524
完成 283421
所以 282988
法院 282443
称 281389
14 280154
投资 280020
事务 279950
增长 279192
培训 278922
进入 278780
专家 277742
16 276852
点 276456
18 276234
学校 275801
机制 275568
基础 275301
13 274087
健康 273885
控制 273861
承诺 273397
官员 273135
导致 272913
照片 272079
每个 270986
2008 270574
分 270340
资金 270309
各种 270203
据 268839
强调 268332
大学 268013
条约 267803
一切 266929
如 266698
即 266616
因 266485
死亡 266436
来说 266222
分析 265145
企业 265030
以便 264859
间 262305
非 261842
b 261309
约 261152
那里 260728
2010 260109
原则 259803
一份 259016
特派团 258937
运动 258248
澳大利亚 257333
制度 257092
拥有 256780
范围 256054
只有 255987
负责 255793
进程 255734
只 255280
仍 254690
用于 254103
此外 253894
表明 253596
曾 252580
个人 252111
平等 251930
---- 251662
自由 251389
框架 250612
学生 248207
小 248171
2005 248025
2009 247800
很多 246644
只是 245696
发展中国家 244842
2012 244727
; 244468
2011 244163
同 244138
17 242947
社区 242737
今年 242276
2006 242102
必要 241762
适当 241438
超过 241350
受 241245
秘书处 240915
这项 240400
挑战 240217
准备 240148
承认 238746
改变 238719
2007 236647
东西 236580
！ 236525
之 236006
喜欢 235913
25 235889
维持 235792
19 235139
成功 235095
2014 234900
办公室 234298
21 233980
发言 233615
宣布 233316
完全 233143
共同 231797
面临 230076
保持 229808
却 229499
全面 229282
鼓励 229107
联系 228956
大@@ 228627
离开 228221
指控 228199
犯罪 228130
电影 227913
2013 227506
媒体 227472
条件 226974
记录 226935
工作组 226601
例如 226441
区 226433
设立 226060
关注 225973
最大 225270
办法 225204
贸易 225185
那么 224756
责任 224104
一点 223512
一@@ 223345
看 223323
案件 223264
改革 222741
做法 222697
形式 222560
未来 222126
袭击 221213
行政 221124
2004 221031
试图 220916
* 220629
建设 220216
进展 220074
业务 219927
应当 219707
还有 219463
当局 219339
司法 219164
按照 218907
部队 218868
以色列 218821
消除 218685
风险 218297
重新 218188
收入 217561
难民 217292
冲突 216241
甚至 216148
24 215773
直接 215570
独立 215558
安排 215540
涉及 215436
达到 215264
了解 214742
不@@ 214044
批准 213921
去年 213675
整个 213616
威胁 213606
具体 213404
较 213291
似乎 213261
斯 212437
今天 212403
补充 212336
这里 212139
设计 211599
俄罗斯 211228
缔约方 211190
赢得 210776
英语 210332
欢迎 210229
当地 209998
22 209912
法国 209844
几乎 209363
2000 209293
事 208887
2015 208728
性别 208391
银行 208315
办事处 207466
起 207436
协助 207288
协议 207014
会员国 206700
生产 206507
限制 206266
带来 204772
充分 204770
报道 204645
尤其 204642
全国 204457
禁止 204308
集团 204267
武器 203523
… 202907
同意 202675
期 202187
23 202114
基本 201970
历史 201841
再 201716
款 201697
几个 201672
变化 201391
咨询 201333
加入 201013
女士 200981
每 200453
反对 200252
下午 199647
人类 199070
女性 198902
两年 197997
德 197738
产品 197017
克林顿 196635
利益 196342
改善 196204
31 196115
一部分 195591
外 195121
2003 194901
新闻 194840
暴力 194839
支付 194729
网络 194585
未 194296
需 194125
移民 193785
发表 193419
见 193338
[ 193202
投票 193130
认识 193118
纽约 193075
以下 192508
国内 192193
通常 192102
各项 191482
广泛 190390
起来 190049
50 189577
亿美元 189404
还是 189009
小时 188767
监测 188751
积极 188654
作 187564
允许 187116
2002 187053
义务 187052
朋友 186863
呼吁 186849
至少 186827
B 186754
事项 186175
长期 186080
内容 185900
稳定 185900
介绍 185764
解释 185731
歧视 184680
真正 184651
不过 184596
S 183945
联合 183677
声明 183672
更加 183263
打击 183122
欧盟 182598
令人 182487
] 181263
大多数 181041
谈判 180956
日本 180890
当时 180824
如此 180440
部 180136
地位 179943
规则 179879
大量 179735
需求 179630
拒绝 179514
州 179324
万美元 179252
出来 179243
队 179235
最终 178781
日至 178642
适用 178315
相信 177881
站 177662
交易 177611
联盟 177584
议定书 177391
c 177298
2001 177251
采用 176893
某些 176633
领导 176535
才 176461
' 176452
治疗 176115
经常 176045
27 176017
家 175854
同样 175624
程度 175608
伊拉克 175345
临时 175296
C 175047
26 174586
因素 174476
一年 174472
一般 174390
推动 173880
法官 173858
恢复 173650
28 173613
价值 173590
结构 173561
德国 173526
战争 173515
伦敦 172581
正式 172549
有些 172442
走 172252
立法 171840
B@@ 171202
收到 171127
E 170937
正 170518
法庭 170204
价格 169964
优先 169808
恐怖主义 169040
关切 168839
水 168817
针对 167764
防止 167416
T@@ 167410
危险 167111
叙利亚 166887
军事 166112
找到 166071
做出 166003
三个 165876
位于 165578
意味着 165456
人数 165216
的话 164837
大约 164737
状况 164689
协定 164472
子 164390
2016 164335
这方面 164211
为什么 164151
P@@ 164003
受害者 163937
成果 163785
候选人 163614
达 163463
处 163202
附近 163103
项 163056
网站 162954
证明 162879
e 162849
100 162828
感觉 162296
空间 162252
M@@ 161936
男子 161758
更好 161268
现有 161145
人道主义 161134
访问 161125
经验 160986
中@@ 160725
土地 160678
阿@@ 159938
游戏 159932
扩大 159890
汽车 159863
巨大 159591
S@@ 159552
该国 159057
母亲 158617
水平 158605
打 158589
传统 158572
N@@ 158428
非政府 158119
附件 157919
按 157666
下降 157525
证据 157325
科学 157111
非法 156990
预计 156977
担任 156708
H@@ 156621
不断 156475
奥巴马 156230
L@@ 156218
拉@@ 156216
小@@ 155929
公众 155707
监督 155702
故事 155689
请求 155569
表现 155328
D@@ 155301
带 155228
最好 154786
领导人 154776
第一次 154666
明确 154564
占 154548
1999 154431
评论 154345
每年 154268
公民 153855
保证 153744
评价 153619
卡 153475
29 153261
钱 153227
G@@ 153135
世纪 152874
F@@ 152459
40 152356
设备 152273
困难 152104
材料 151710
从而 151603
关键 151539
印度 151394
」 151087
「 151063
开发 151016
马@@ 150973
苏格兰 150310
年代 150149
d 150082
违反 150078
权 149889
医生 149769
飞机 149568
实际 149213
类 149199
低 149066
多@@ 149044
经 148726
方 148717
创造 148523
变得 148317
以上 148271
损失 148187
议会 148112
重申 147773
合同 147297
巴勒斯坦 147255
领土 146719
5@@ 146465
． 146464
数量 146326
记者 146252
随着 146089
特 145934
容易 145884
市 145875
这次 145777
数字 145572
60 145432
呢 145201
副 145147
指导 145049
公共 144934
履行 144934
此 144789
报告员 144720
协会 144609
医院 144238
对话 144115
律师 144089
那样 143526
团体 143122
阶段 142838
这位 142793
重点 142515
以前 142345
不要 142228
1998 142086
父亲 141929
内部 141919
共和党 141877
再次 141874
化 141581
危机 141476
民主 141287
类似 141277
加拿大 140941
综合 140941
i 140127
o 140071
权力 139859
一场 139567
真的 139356
联邦 139349
描述 139192
克 139035
场 138876
缺乏 138797
晚上 138748
另外 138714
土著 138686
爱 138581
经费 138415
成立 138385
您 138163
公布 138161
K@@ 138009
即使 137831
第一个 137212
设施 137173
论坛 137042
团队 136695
俱乐部 136573
无@@ 136511
引起 136481
群体 136460
公开 136331
确认 136282
英镑 136155
担心 135990
道 135881
财政 135864
反应 135812
寻求 135783
电话 135766
安理会 135749
后来 135601
那个 135576
6@@ 135340
C@@ 135062
唯一 134977
学习 134080
条款 134006
发挥 133996
生命 133911
保障 133730
专业 133588
s 133494
定期 133368
最佳 133257
伊斯兰 133021
重大 132969
规划 132690
申请 132587
遵守 132534
有助于 132533
有人 132517
年轻 132386
也许 132239
成 132177
提到 132067
保留 131984
攻击 131933
厅 131908
基于 131820
住 131700
符合 131652
协商 131505
辩论 131270
父母 131216
纳入 131027
车 130944
宗教 130750
组成 130681
女孩 130609
米 130543
线 130511
检查 130461
宪法 130266
R@@ 130164
就业 130091
签署 130091
头 129918
表 129788
预防 129670
应对 129570
越来越 129481
错误 129350
审计 129339
卡@@ 129323
拘留 129165
居民 129109
竞选 129009
失去 128968
压力 128856
理由 128807
警方 128771
一天 128415
商业 127876
明显 127818
第二 127764
一定 127741
三@@ 127310
达成 127307
工人 127164
科 127056
宣言 126687
7@@ 126573
天 126541
首席 126369
斯@@ 126356
破坏 126156
避免 125772
拉 125426
谁 125320
土耳其 125285
侵犯 124901
反映 124297
宣传 124186
普遍 124156
二 124109
西@@ 124062
迅速 123945
竞争 123814
观点 123519
改进 123449
成本 123327
给予 123200
反 123158
你们 123091
理解 123042
年度 123020
模式 122960
议员 122926
举办 122864
D 122696
最高 122669
式 122598
人士 122540
很大 122281
测试 122017
足够 121951
医疗 121933
P 121854
最新 121801
尊重 121743
愿意 121709
地点 121707
部长 121625
成员国 121538
旨在 121533
制订 121524
吧 121420
特@@ 121340
除了 121174
利 120993
资产 120939
停止 120892
水@@ 120593
W@@ 120536
发言人 120525
均 120316
受伤 120001
冠军 119696
保健 119602
一系列 119500
结论 119497
儿子 119484
调整 119289
上述 119069
选民 118895
伙伴 118894
精神 118772
星期 118770
在内 118636
大部分 118334
估计 118134
语言 118109
监狱 118036
基金会 117760
刑事 117670
吃 117636
工具 117443
训练 117368
an 117129
当然 116905
赛季 116892
8@@ 116775
s@@ 116768
意义 116762
来源 116704
V@@ 116679
写 116609
收集 116606
位置 116575
现象 116368
应用 116333
称为 116107
音乐 116073
工业 115869
满足 115843
而言 115633
疾病 115605
质量 115570
高级 115359
高@@ 115140
主任 115097
死 115038
核心 114983
我国 114944
每天 114890
经历 114863
支出 114794
约翰 114741
不仅 114340
知识 114236
尼 113981
长 113843
警告 113800
伙伴关系 113343
％ 113237
万 113078
任命 113016
寻找 112433
罗@@ 112425
道路 112300
e@@ 112256
女人 112252
亚洲 112187
意识 112124
员额 112115
无 112042
上@@ 111828
毒品 111782
花 111551
一家 111437
球员 111345
发达国家 111232
购买 111219
财产 111116
能源 111089
马 111070
节目 111004
角色 110838
第一 110766
提议 110609
意大利 110578
立即 110576
m@@ 110537
公园 110515
首先 110445
药物 110419
事实 110402
觉得 110342
三 110334
而是 110330
通知 110174
－ 110166
生物 110007
处于 109993
千年 109897
客户 109809
声称 109703
总是 109620
首次 109609
500 109591
职业 109565
名单 109405
位 109402
35 109334
上午 109198
发布 109128
想法 109100
发出 108942
回到 108906
之@@ 108841
妻子 108798
一致 108776
课程 108732
外国 108617
分钟 108605
特殊 108390
预期 108146
b@@ 108005
才能 107950
直到 107915
A@@ 107692
显然 107688
关闭 107556
新@@ 107534
准则 107506
下列 107394
德@@ 107341
回顾 107332
食物 107294
纳 107286
阻止 107246
动物 107215
贡献 107192
出口 107161
比例 107129
球 107118
境内 107107
运动员 106981
总 106963
放在 106842
器 106781
身体 106746
列入 106453
手段 106422
人@@ 106393
尔 106195
力量 106172
阿富汗 106115
敦促 106075
军队 105864
农业 105847
t@@ 105821
单位 105609
经过 105565
机 105524
用户 105470
手 105461
1997 105057
视频 105045
总理 104977
编写 104942
d@@ 104864
构成 104852
接触 104798
倡议 104574
唐纳德 104501
加 104384
公平 104379
销售 104377
4@@ 104151
问 104096
名字 104089
遭受 104025
比较 104008
胜利 103964
属于 103734
k@@ 103708
速度 103619
身份 103558
y@@ 103545
平均 103538
清楚 103537
1996 103482
电视 103347
科@@ 103336
西 102907
团 102855
型 102841
主题 102822
男人 102749
45 102746
贩运 102728
听 102534
消息 102380
实行 102269
开放 102197
近 102105
森林 102095
上升 102021
y 102011
率 101957
总部 101882
法案 101813
贫穷 101518
最初 101442
局 101392
金 101211
局势 101152
失败 101110
正确 100998
实际上 100993
管制 100993
财务 100961
授权 100437
青年 100364
债务 100362
本国 100359
建筑 100172
实体 100138
指标 100131
职位 99906
登记 99796
图像 99742
尚未 99136
海@@ 99134
旅行 99121
级 99052
9@@ 98915
机场 98877
200 98864
统计 98828
时代 98759
住房 98683
预测 98636
组 98541
吸引 98483
格 98458
良好 98408
往往 98374
自@@ 98248
国际法 98174
书 98133
er 98075
门 98047
审判 98038
私人 98021
c@@ 98007
条例 97971
形成 97965
战斗 97816
巴西 97756
所述 97568
核武器 97543
气候变化 97522
有@@ 97244
计算 97225
信 97131
1994 97109
省 96893
艾滋病 96883
姆 96606
南 96605
罪行 96541
利@@ 96484
太 96304
加@@ 96284
她们 96197
从事 95989
酷刑 95821
l@@ 95647
女儿 95576
双方 95572
金融 95569
伤害 95552
香港 95530
西班牙 95488
县 95486
时期 95449
n@@ 95357
顾问 95356
享有 95212
批评 95207
降低 95165
学院 95122
简单 95036
星期一 95017
er@@ 94989
墨西哥 94644
多年 94467
1995 94443
步骤 94443
下来 94295
返回 94171
立场 94120
分配 94072
放弃 94060
两@@ 93910
复杂 93773
背景 93763
正如 93727
展示 93644
32 93641
有时 93639
民间 93490
曾经 93424
仅 93406
仅仅 93289
顿 93280
基础设施 93245
i@@ 93218
后续 93202
E@@ 93144
专门 93115
起诉 93053
上诉 93033
永远 92985
重要性 92920
传播 92854
趋势 92789
提案 92769
贷款 92766
可@@ 92722
落实 92645
紧急 92600
塔 92592
事实上 92520
海洋 92277
为此 92246
残疾人 92241
地@@ 92232
障碍 91951
J@@ 91865
伟大 91847
定义 91733
前往 91721
邀请 91593
伊@@ 91458
取消 91436
运输 91417
度 91323
p@@ 91281
除 91227
遭到 90935
概念 90897
分别 90833
古巴 90801
量 90203
数 90175
奥@@ 90071
家人 90065
声音 89993
共和国 89920
很快 89892
证实 89827
行业 89774
全部 89693
大规模 89691
路 89523
出生 89468
年龄 89444
山 89307
民主党 89225
石油 89191
语 89147
33 89061
平民 89008
制作 88984
艾滋病毒 88966
听到 88962
答复 88917
en 88887
al 88833
态度 88800
日期 88777
回答 88736
55 88735
对@@ 88700
感谢 88689
制造 88577
农村 88498
es 88468
巴@@ 88455
艺术 88419
34 88286
伊朗 88266
增强 88179
状态 88171
视为 88128
非正式 88110
男性 88108
图 88095
文书 88064
18@@ 88063
布@@ 87840
O@@ 87834
月份 87775
身上 87763
维护 87724
安@@ 87711
检察官 87455
之外 87428
各方 87287
运作 87285
统一 87236
拟议 87163
t 87146
采购 87006
若干 86984
大卫 86968
作品 86964
卫生 86918
派 86862
扩散 86841
资格 86733
不可 86714
释放 86625
分享 86467
48 86444
几年 86407
苏丹 86342
第五 86332
一下 86289
不再 86074
随后 86025
即将 85943
两 85917
裁军 85864
以外 85841
部署 85803
in 85798
克@@ 85787
行动计划 85748
表演 85727
痛苦 85664
逮捕 85648
行 85614
一条 85587
36 85557
核 85536
肯定 85394
拍摄 85134
详细 85095
哈@@ 84981
本@@ 84928
交流 84906
岛 84885
1993 84857
节 84799
f@@ 84776
损害 84765
体 84750
平衡 84694
内@@ 84653
今后 84624
本身 84581
是因为 84455
下@@ 84361
不得不 84304
署 84298
民族 84294
g@@ 84166
物质 84143
on 84116
罪 84094
自愿 84059
自然 83967
食品 83946
怀疑 83902
65 83841
供 83717
诉讼 83714
确实 83662
星期五 83622
修订 83574
通信 83557
编制 83521
丈夫 83488
种 83487
林 83408
鉴于 83372
如下 83361
指 83347
提名 83341
雷@@ 83320
少数 83172
移徙 83152
h@@ 83150
有权 83091
职能 83076
教练 82956
足球 82907
华盛顿 82866
r@@ 82830
说法 82782
房子 82656
文 82620
尼@@ 82590
理论 82590
承担 82568
地球 82423
相当 82408
奇 82341
女 82323
南部 82188
57 82090
争议 81920
周三 81894
ar@@ 81863
教授 81630
举措 81596
转移 81464
员 81353
电子 81340
70 81202
森 81175
巴黎 81132
坚持 81033
高兴 80958
十年 80923
F 80829
观察员 80810
性质 80761
额外 80674
官方 80616
罗 80542
其它 80541
召开 80340
支持者 80312
生 80306
接近 80245
类型 80132
四@@ 80110
采访 80037
黎巴嫩 80030
恩 79994
司 79818
虐待 79816
迪 79778
金@@ 79754
资助 79706
这场 79699
占领 79575
赔偿 79531
37 79417
十分 79365
纳@@ 79303
59 79290
早期 79268
心@@ 79239
58 78862
特定 78626
叫 78625
方向 78612
判决 78565
患者 78387
‘ 78346
52 78275
主管 78146
第三 78137
宪章 78087
供应 77845
党 77824
法@@ 77643
现代 77642
勒 77533
跑 77513
享受 77508
布 77461
贫困 77334
62 77308
穿 77293
现实 77282
an@@ 77271
00 77231
维@@ 77163
形象 77151
修改 77057
更新 77044
票 77040
员工 76962
出席 76947
当前 76935
M 76860
怎么 76836
编辑 76755
超级 76679
采取行动 76662
工程 76633
白@@ 76616
欧洲联盟 76542
研究所 76535
潜在 76456
有限 76417
加以 76267
拟订 76240
粮食 76177
第六 76173
福利 76124
一级 76079
53 76067
人物 76010
集中 75972
正常 75964
早些时候 75886
致力于 75876
投资者 75858
& 75773
流离失所 75620
巴基斯坦 75551
基@@ 75521
想要 75472
武装 75432
球队 75368
此类 75358
回应 75293
房间 75278
题为 75220
al@@ 75208
出售 75150
周四 75148
未能 75019
61 75010
圣@@ 74929
发 74907
相比 74893
亚@@ 74886
多边 74870
90 74839
0@@ 74820
39 74804
多少 74695
64 74659
38 74652
首脑会议 74647
夫 74642
索赔 74500
54 74432
飞行 74371
L 74311
指定 74285
届 74238
对此 74229
I 74212
打算 74133
写道 74121
80 74120
公正 74115
亚 74114
商定 74045
账户 73983
秘书 73968
种族 73952
安 73902
出@@ 73901
失踪 73885
以后 73883
一只 73784
300 73751
纲领 73719
49 73700
这么 73692
发@@ 73676
日内瓦 73626
透露 73525
56 73520
上周 73505
案 73468
载 73412
男孩 73402
变成 73372
且 73361
抗议 73310
相同 73259
Z@@ 73236
学 73234
重@@ 73179
常驻 73144
开@@ 73096
现金 73094
埃及 73069
1990 73059
技能 73058
削减 73028
Ch@@ 72970
捐款 72951
免费 72946
消费者 72904
观察 72828
达@@ 72820
开 72801
建造 72758
不得 72712
至关重要 72677
外@@ 72650
看法 72642
! 72599
边界 72515
依照 72511
强烈 72456
分子 72410
工资 72393
爆炸 72316
力 72305
推出 72299
北京 72167
四个 72156
in@@ 72109
萨@@ 72036
命令 72013
阿拉伯 71998
跟 71917
41 71897
体制 71872
信任 71804
生效 71793
费 71774
66 71760
使得 71687
监管 71494
天@@ 71478
优势 71453
包含 71405
体系 71400
博士 71377
四 71374
明星 71341
回来 71292
可能性 71259
u 71226
经理 71208
42 71132
只要 71078
效率 70957
长@@ 70941
车辆 70904
f 70867
用来 70864
没 70862
教师 70859
47 70833
居住 70817
分@@ 70816
63 70768
庆祝 70721
河 70708
南非 70680
份 70661
en@@ 70526
心 70492
周二 70417
北部 70331
体育 70326
普@@ 70322
a@@ 70313
话 70313
主义 70267
相对 70262
磋商 70252
依据 70238
比如 70191
规模 70164
截至 70126
将会 70124
所谓 70119
经营 70107
希拉里 70096
不到 70061
狗 70042
当选 70007
46 69952
44 69933
前@@ 69906
列 69868
制裁 69851
比@@ 69834
w@@ 69769
和@@ 69749
清单 69657
买 69611
适应 69581
U@@ 69492
v@@ 69479
两次 69452
予以 69430
核准 69420
全@@ 69339
诺 69280
只能 69262
及时 69204
兰 69082
股 68986
系列 68956
城 68871
广告 68861
z@@ 68847
科学家 68561
皮@@ 68557
拿 68556
联合王国 68455
进 68453
司机 68447
1@@ 68431
基地 68424
洛杉矶 68385
功能 68382
阅读 68367
43 68229
周日 68225
在于 68199
高级专员 68188
国民 68099
延长 68091
著名 67994
启动 67992
上涨 67796
奥运会 67769
决策 67759
51 67747
任期 67716
一半 67702
n 67688
探讨 67574
格@@ 67525
平台 67512
适合 67500
室 67488
遇到 67447
出版 67341
效果 67293
制 67238
埃@@ 67227
蒂 67159
别人 67158
周六 67116
表达 67051
两名 66998
创新 66965
多样性 66959
u@@ 66945
糟糕 66936
瓦@@ 66902
令 66900
大型 66900
穆斯林 66859
T 66850
帕@@ 66822
商品 66794
网 66785
合理 66748
专员 66669
打@@ 66634
看看 66631
瑞典 66596
曼 66586
基 66567
英里 66547
进步 66498
国@@ 66425
伊 66333
移动 66326
后果 66273
重建 66269
捐助 66259
信托 66147
贸发 66104
演讲 66098
南@@ 66088
it@@ 65972
退出 65960
第二次 65943
十@@ 65929
太平洋 65736
愤怒 65684
阿 65569
周围 65566
物 65518
不管 65513
沙@@ 65487
星期二 65469
贝@@ 65409
Y@@ 65399
件 65392
黑@@ 65357
中说 65301
等待 65296
政党 65295
年轻人 65289
相互 65287
片 65235
时刻 65174
67 65116
瑞士 65114
看起来 64997
雇员 64990
办 64919
时@@ 64816
塔@@ 64808
相反 64791
G 64788
助理 64719
裁决 64688
退休 64659
强大 64648
模型 64627
面对 64610
任何人 64551
指数 64498
文@@ 64491
el@@ 64444
奥 64407
流动 64353
万@@ 64266
实质性 64200
两性 64112
巴 64078
英格兰 64008
士兵 63960
艾@@ 63896
梅@@ 63855
青少年 63818
日@@ 63811
与会者 63810
行使 63782
杀 63706
杂志 63702
旅游 63675
从未 63625
左右 63603
面 63591
劳工 63578
中央 63563
本周 63535
68 63529
塞@@ 63505
0 63478
尝试 63478
2@@ 63448
病人 63365
观众 63259
国会 63243
事故 63242
ch@@ 63159
快 63103
希腊 63079
O 63050
一旦 63042
便 62995
周末 62948
不足 62942
很少 62909
I@@ 62879
波@@ 62866
詹姆斯 62863
紧张 62845
荷兰 62828
1.@@ 62814
例子 62807
雷 62708
古@@ 62697
日子 62697
1992 62642
驻 62615
感染 62612
400 62554
索马里 62517
婴儿 62436
托 62392
投入 62368
上面 62359
过渡 62216
h 62169
留下 62105
多个 62090
惩罚 62086
严格 62069
ar 61989
里@@ 61975
谋杀 61913
受欢迎 61882
可怕 61840
衣服 61788
这@@ 61743
那@@ 61730
演员 61680
全世界 61640
军 61628
日益 61590
成绩 61569
情绪 61500
婚姻 61478
之中 61446
重视 61245
赞赏 61230
不久 61157
数额 61126
首都 61116
领袖 61099
最低 61089
保险 61028
g 61021
从来 61011
结合 61006
运行 61002
生@@ 60990
连续 60981
开发署 60914
执行官 60889
妈妈 60877
同@@ 60826
找 60738
el 60732
告知 60705
兴趣 60680
秘密 60677
一件 60676
气候 60589
乌克兰 60568
货物 60554
面前 60489
其@@ 60475
快速 60475
高度 60462
am@@ 60452
图片 60417
一辆 60397
干预 60353
公里 60271
各级 60269
值得 60239
版本 60190
万英镑 60182
五@@ 60161
结婚 60109
种族主义 60071
夫妇 60055
老@@ 60017
光 60003
病毒 60003
ing 59962
货币 59920
单独 59906
待遇 59898
与此同时 59876
莱@@ 59838
房屋 59827
热 59732
三年 59709
坐在 59695
大家 59505
莫@@ 59482
单@@ 59468
值 59460
卫星 59354
机关 59343
一张 59256
以@@ 59187
后@@ 59147
博@@ 59107
打开 59080
兹 59058
职责 58986
流 58984
ad@@ 58930
报 58902
眼睛 58902
途径 58893
合法 58872
赞扬 58870
乔治 58790
台 58785
吉@@ 58775
谴责 58712
获胜 58656
R 58641
外部 58571
指责 58483
桑德斯 58464
一般性 58430
入 58397
满意 58376
奖 58371
商店 58325
二@@ 58320
失望 58249
尔@@ 58248
资本 58241
私营部门 58211
斗争 58149
Facebook 58139
既 58111
到达 57995
几@@ 57951
2017 57944
混合 57921
特征 57839
非@@ 57827
西方 57821
高级别 57792
绝对 57759
讲习班 57756
兄弟 57748
地雷 57720
心理 57677
词 57631
不想 57601
发射 57571
各个 57517
工会 57443
差距 57413
酒店 57393
装置 57349
专家组 57279
下跌 57277
黑人 57273
教堂 57242
迈克尔 57234
各地 57226
迪@@ 57214
合并 57190
工党 57163
主持 57131
手术 57086
试验 57083
N 57014
专题 56986
常常 56975
掉 56943
k 56923
报纸 56849
o@@ 56840
街 56827
自我 56815
五 56814
业 56808
有所 56793
指南 56736
不利 56728
电子邮件 56727
劳动 56725
现场 56713
剥夺 56704
联赛 56682
互联网 56673
会议室 56656
其他人 56626
普 56624
悉尼 56602
表决 56592
外地 56534
on@@ 56502
除非 56500
相@@ 56483
更大 56440
监禁 56436
干事 56428
洛@@ 56410
否认 56377
展开 56372
爱尔兰 56371
北 56356
船 56351
强迫 56277
马克 56243
欧元 56231
普通 56212
初步 56159
病 56137
数目 56107
少 56059
of 56013
乘客 56010
差异 55946
软件 55924
转@@ 55911
信心 55910
工作队 55880
任 55850
国王 55844
玩 55809
道德 55795
成就 55749
执法 55736
萨 55728
各自 55716
国际公约 55623
全 55508
筹资 55498
3@@ 55467
为期 55433
筹备 55396
获取 55364
根本 55363
亦 55326
美@@ 55314
侵害 55307
皮 55300
须 55299
这名 55260
申诉 55256
新西兰 55255
细节 55253
挪威 55180
有点 55149
ia 55111
救济 55099
大楼 55011
此种 55011
人群 54995
好处 54984
庇护 54976
所有人 54970
杯 54932
特点 54932
应@@ 54796
哥伦比亚 54770
引发 54730
燃料 54703
林@@ 54661
工厂 54659
研讨会 54638
鱼 54622
网上 54573
图@@ 54511
1991 54509
呆 54506
风@@ 54484
人权委员会 54468
任择 54438
剂 54395
腐败 54392
被迫 54392
77 54390
之下 54384
文章 54371
娜 54309
J 54300
板 54278
外交 54214
L.@@ 54156
护理 54097
卢旺达 54089
而@@ 53990
75 53968
谈论 53957
东@@ 53951
第四 53949
手机 53916
大使 53888
期限 53881
去世 53804
中期 53801
j@@ 53783
细胞 53774
得分 53772
多数 53771
气 53761
角度 53749
波 53732
期待 53698
治理 53591
亿 53590
加勒比 53537
做到 53515
界 53510
光@@ 53508
拉丁美洲 53486
依然 53465
回 53409
中东 53395
无论 53372
希@@ 53301
热@@ 53273
史密斯 53253
罗马 53235
同一 53214
维也纳 53174
所涉 53168
同事 53161
69 53156
保罗 53132
共 53107
讲话 53106
双@@ 53099
污染 53024
被捕 53022
所作 52997
手@@ 52987
尽可能 52953
反@@ 52940
总额 52910
突然 52906
伦 52898
利率 52879
思想 52879
我@@ 52858
托@@ 52837
参议员 52806
10@@ 52767
声 52726
对象 52687
地震 52681
密切 52603
修正 52579
绿色 52573
st@@ 52558
想象 52467
r 52449
or@@ 52426
总体 52384
后者 52357
残疾 52339
杜@@ 52321
菲律宾 52315
联 52286
质疑 52209
层 52167
边境 52156
规范 52143
管 52136
艺术家 52076
总@@ 52043
回家 51989
设 51982
取代 51972
杀害 51966
赛 51964
数据库 51934
充满 51916
提醒 51885
取决于 51871
对手 51843
相 51809
场所 51775
很难 51738
来到 51710
苹果 51689
朝鲜 51635
意思 51629
成@@ 51534
用途 51532
照顾 51531
东部 51514
博物馆 51423
最高法院 51408
到来 51368
穿着 51347
进口 51295
皇家 51240
转让 51237
Sh@@ 51229
600 51219
公@@ 51203
Twitter 51195
米@@ 51164
期望 51151
早 51144
分发 51130
我会 51107
at@@ 51087
et@@ 51071
标志 51062
扮演 51049
周 51034
低于 50983
公路 50961
版 50951
主流 50945
科索沃 50918
诺@@ 50881
西部 50862
苏@@ 50781
海外 50737
瓦 50692
夫人 50672
天气 50664
前景 50602
as 50590
口 50572
山@@ 50510
增进 50491
情报 50489
我要 50457
作者 50370
海地 50368
并非 50354
布朗 50348
le@@ 50337
社交 50322
攸关 50319
指示 50298
负责人 50293
页 50243
集体 50227
信贷 50174
提及 50154
明@@ 50121
电@@ 50121
决心 50100
迹象 50083
养 50039
起草 50037
花费 50017
询问 50015
董事会 50011
org 49986
几天 49937
争取 49912
便利 49910
库@@ 49857
代理 49839
家里 49816
排放 49795
四年 49777
阿根廷 49762
交通 49739
当@@ 49737
波兰 49710
合 49709
替代 49689
m 49676
韩国 49660
业绩 49628
癌症 49619
品牌 49615
武装冲突 49599
说话 49577
排除 49567
阻碍 49539
发行 49530
名@@ 49530
海岸 49529
创建 49506
洛 49352
协调员 49348
铁路 49345
每@@ 49317
红@@ 49316
恐怖 49301
as@@ 49231
年底 49229
子女 49216
游客 49216
税 49213
霍@@ 49208
推迟 49193
消费 49189
安保 49181
税收 49153
回@@ 49144
is 49132
会@@ 49121
老板 49116
该@@ 49110
埃 49097
et 49079
有着 49042
com 49001
太@@ 48959
正@@ 48942
送 48923
属 48908
酒吧 48904
塞 48900
俄罗斯联邦 48887
消失 48857
艰难 48793
推进 48753
科威特 48716
早上 48666
墨尔本 48660
真实 48641
如@@ 48619
17@@ 48615
团结 48593
分类 48587
从@@ 48582
查明 48542
证人 48529
年@@ 48485
费@@ 48473
实验 48402
索@@ 48390
组合 48388
负担 48356
过@@ 48336
连接 48324
难以 48299
us 48272
在线 48235
法治 48214
供资 48203
策略 48196
强 48075
来文 48070
主@@ 48047
Al@@ 48012
以往 47997
上帝 47980
炸弹 47964
种族歧视 47964
有利于 47956
合适 47934
电脑 47887
职务 47846
完整 47840
收益 47823
St@@ 47822
www 47816
诸如 47810
星期六 47801
所@@ 47776
更为 47725
言 47701
激烈 47685
一部 47590
is@@ 47583
流行 47583
星期四 47508
主权 47458
记得 47447
l 47316
看上去 47292
大幅 47273
转变 47273
远 47257
接下来 47245
发起 47238
共有 47225
为@@ 47196
儿 47184
难 47181
座 47160
委会 47159
轨道 47148
花@@ 47124
ic@@ 47106
正是 47090
独特 47088
火@@ 47084
第二个 47066
附属 47053
储存 47004
比利时 46986
完美 46959
id@@ 46931
全体会议 46900
容忍 46843
色 46839
收购 46818
认可 46814
这家 46805
促使 46776
品 46775
讲 46775
民众 46769
强奸 46731
刚果民主共和国 46696
哪些 46651
男女 46627
红色 46617
约翰逊 46617
抓住 46615
突出 46590
泰国 46579
变@@ 46571
神 46553
怀孕 46544
五年 46536
un 46535
不幸 46513
现年 46508
观看 46449
减轻 46438
有趣 46431
纪念 46415
麦@@ 46415
安装 46404
若 46404
市长 46396
物品 46396
印度尼西亚 46378
囚犯 46357
鲁@@ 46343
彻底 46336
太阳 46326
额 46304
北@@ 46271
人力资源 46246
风格 46185
领先 46170
快乐 46119
公寓 46099
利比里亚 46075
神@@ 46074
注册 46012
利比亚 45995
老 45970
800 45964
自动 45955
看见 45918
灾害 45900
库 45893
树 45892
准确 45885
透明度 45850
美 45849
作家 45845
海滩 45834
酒 45801
风 45763
依赖 45687
警官 45643
两种 45640
加上 45631
提请 45631
英尺 45598
H 45538
15@@ 45499
决赛 45491
啊 45490
动 45488
块 45417
来@@ 45404
利润 45386
过度 45368
感 45288
别 45283
流@@ 45199
X 45088
主 45074
图书馆 45050
重复 44980
包 44978
沃@@ 44975
原@@ 44968
一座 44954
证书 44922
关心 44917
数@@ 44913
参议院 44832
六@@ 44813
如今 44803
脆弱 44799
白宫 44774
架 44765
下面 44722
年前 44718
大脑 44713
对待 44695
赋予 44678
提@@ 44675
K 44666
通@@ 44632
受@@ 44591
威尔士 44587
族 44566
爆发 44559
化学品 44507
开支 44505
打破 44475
得@@ 44473
付款 44457
暂停 44416
相应 44407
周一 44404
通报 44398
可靠 44359
一周 44312
演出 44307
下去 44255
旧 44190
犯 44170
跟踪 44170
法令 44164
女@@ 44142
il@@ 44140
头@@ 44118
维 44114
习惯 44111
本文 44110
BBC 44039
被告 44018
自杀 44013
集 44012
自从 44010
de 44008
裔 43992
持有 43965
设置 43954
es@@ 43928
星期三 43911
脚 43899
意外 43865
重 43851
海 43812
诊断 43798
否则 43719
72 43695
尸体 43686
奥地利 43678
玩家 43663
单 43662
管理局 43658
提升 43630
斯特 43629
言论 43617
李@@ 43615
交换 43604
班 43571
合作伙伴 43557
温@@ 43531
融资 43521
恐惧 43520
核查 43502
采取措施 43490
六 43482
车@@ 43481
麦 43463
雇主 43453
克里斯 43452
仪式 43449
元 43436
ol@@ 43397
实践 43381
白色 43374
边 43360
剥削 43333
透明 43300
双边 43295
康@@ 43291
尼日利亚 43272
用@@ 43218
全球化 43202
印象 43197
颁布 43174
派遣 43145
战 43123
看来 43115
逐步 43115
爱@@ 43100
席位 43025
倍 42995
多次 42951
得以 42946
ie 42929
共识 42919
植物 42917
距离 42897
低@@ 42845
类别 42831
怎样 42785
专辑 42746
龙 42741
津贴 42735
行@@ 42720
黑色 42708
先 42649
性@@ 42649
某种 42619
赞成 42584
主席团 42578
恶化 42576
出去 42553
系 42550
枪 42546
那时 42520
里面 42488
联合会 42398
酌情 42381
登 42371
王子 42330
表面 42319
开发计划署 42300
彼得 42298
店 42288
p 42287
丰富 42269
深刻 42261
法规 42255
航空公司 42239
马来西亚 42207
组成部分 42193
那种 42188
明白 42184
未经 42184
加州 42151
半@@ 42127
这部 42117
明年 42114
百@@ 42072
集会 42058
2.@@ 42050
地面 42046
周期 42035
un@@ 42018
错过 42005
层面 41994
码 41988
应用程序 41957
载有 41941
股票 41918
美丽 41905
解决办法 41902
名为 41899
调@@ 41898
章 41895
0.@@ 41889
假 41880
恩@@ 41873
起@@ 41866
干 41858
航空 41844
根 41832
于是 41826
后面 41814
家@@ 41809
陷入 41770
事业 41754
缺陷 41731
ac@@ 41711
man 41678
认真 41671
港 41610
维和 41550
标题 41515
五个 41509
公务员 41497
学会 41479
未@@ 41475
好@@ 41470
离 41458
商 41411
来看 41408
门@@ 41365
空@@ 41358
X@@ 41354
小说 41347
笑 41347
死刑 41346
家庭暴力 41321
官 41301
刺激 41288
许可证 41273
排名 41266
生存 41246
星 41230
抵达 41218
罪犯 41200
劳动力 41182
财富 41161
油 41135
击败 41128
气@@ 41113
命名 41109
担保 41101
空气 41083
每周 41064
订正 41056
头发 41031
世界各地 41022
张 41020
阿尔@@ 41015
合@@ 40975
信仰 40942
名称 40915
清洁 40915
计算机 40913
工发 40904
成长 40889
争论 40878
é 40877
and 40873
职业生涯 40861
涵盖 40854
现行 40849
每日 40848
据称 40839
伯@@ 40827
白人 40811
不够 40810
周五 40778
害怕 40776
转 40765
海军 40747
常见 40746
整体 40715
村 40705
执行局 40692
W 40691
常设 40685
台湾 40669
农民 40662
丹麦 40661
火车 40649
审理 40631
球迷 40622
摘要 40621
体现 40598
角 40593
150 40582
迫使 40567
暴力行为 40564
争端 40550
ag@@ 40533
气体 40508
梅 40504
动力 40498
路线 40495
震惊 40466
某个 40463
71 40457
信号 40448
列@@ 40439
各@@ 40427
受益 40416
圣 40397
连 40392
答案 40366
显著 40362
推广 40358
废物 40323
颜色 40321
核@@ 40315
逐渐 40306
中有 40291
语文 40282
万人 40271
灾难 40263
自行车 40249
进球 40233
第一@@ 40222
一套 40219
投诉 40212
字 40180
修正案 40174
多么 40170
ers 40159
Mar@@ 40147
制造商 40127
混乱 40105
设法 40100
or 40097
休息 40073
700 40060
格鲁吉亚 40053
温度 40048
主张 40041
美利坚合众国 40028
女童 40017
每月 39987
处罚 39972
极端 39970
检测 39883
驱逐 39866
达尔富尔 39858
解雇 39811
价 39803
定于 39803
衡量 39803
后勤 39780
定罪 39778
留在 39760
敏感 39759
难民署 39745
腿 39729
制止 39656
事务部 39654
致命 39619
单一 39590
理想 39576
某 39530
画 39526
公投 39524
协作 39521
还要 39512
读 39507
教 39493
许可 39485
特设 39478
马丁 39463
掌握 39460
世界银行 39457
科技 39455
仲裁 39441
汤姆 39412
自身 39408
脸 39382
金属 39363
补救 39349
药品 39325
明 39288
一边 39270
半 39262
ak@@ 39241
革命 39231
镇 39226
曼@@ 39225
营地 39207
凯@@ 39206
披露 39163
弹药 39132
re@@ 39109
罚款 39107
第三次 39081
八@@ 39072
原子能 39026
航班 39020
带到 39010
分裂 38984
赫@@ 38919
危害 38916
次级 38906
欧@@ 38901
琼斯 38883
效力 38851
和解 38824
以期 38809
大陆 38780
罗斯 38776
警察局 38751
一所 38729
驾驶 38710
服装 38691
优秀 38670
著 38668
竞选活动 38650
科特迪瓦 38615
比尔 38601
听取 38598
V 38594
丝 38586
拯救 38576
议事规则 38568
U 38555
化学 38538
因而 38531
房 38519
国家一级 38444
空 38442
真 38413
乌@@ 38402
尽快 38395
幸运 38392
歌曲 38392
出版物 38387
76 38363
奇@@ 38353
ed@@ 38324
担忧 38297
武装部队 38292
操作 38256
英文 38244
状 38230
小型 38195
夏季 38177
哪里 38153
深@@ 38139
风暴 38118
泰@@ 38094
不仅仅 38077
导弹 38066
出于 38051
73 38025
反恐 38006
作@@ 38000
保存 37965
空中 37965
船只 37937
非洲联盟 37924
完 37907
据说 37898
广播 37875
倾向 37859
这份 37846
跳 37842
杰克 37813
疯狂 37798
些 37787
74 37743
16@@ 37723
石@@ 37708
王@@ 37705
克服 37703
惊人 37696
巩固 37679
华@@ 37677
滥用 37648
季节 37619
弗@@ 37602
蒙@@ 37602
ey 37553
形 37545
清@@ 37540
装备 37531
记忆 37511
维多利亚 37503
im@@ 37500
兰@@ 37487
过境 37482
郡 37478
保守党 37469
工程处 37469
版权 37414
茨 37407
队伍 37406
反对派 37394
13@@ 37386
搜索 37386
打电话 37382
em@@ 37374
妇女地位 37370
军@@ 37323
摩洛哥 37318
机@@ 37307
国籍 37304
沙特阿拉伯 37280
边缘 37276
切实 37264
解决方案 37223
供应商 37213
肯尼亚 37195
老年人 37180
度过 37168
克鲁兹 37126
这座 37105
标签 37100
辞职 37096
依靠 37094
两人 37077
加快 37074
意愿 37052
案文 37043
潜力 37015
探索 37008
谈到 37001
罗伯特 36989
升级 36936
互动 36935
85 36930
ed 36925
档案 36889
师 36888
斯科特 36886
案例 36878
波斯尼亚 36852
人力 36845
Add.1 36815
卢@@ 36804
岛屿 36800
os 36779
测量 36734
视 36725
赞同 36723
福@@ 36706
国际@@ 36692
持久 36688
固定 36656
铁@@ 36648
威廉 36642
at 36637
拟定 36629
中间 36616
例 36566
统治 36561
埃塞俄比亚 36536
歌手 36523
列出 36512
短期 36500
@ 36499
质 36487
本人 36477
自治 36448
所说 36437
平@@ 36425
参考 36413
本书 36413
长时间 36381
装 36380
新加坡 36353
奇怪 36340
族裔 36339
轮 36339
克斯 36320
防治 36294
家园 36291
乔 36289
大选 36287
om@@ 36282
越 36257
概述 36241
le 36211
企图 36201
不错 36153
路透社 36136
乐队 36134
方@@ 36121
梦想 36120
ra@@ 36100
议题 36084
交给 36065
飞@@ 36062
加剧 36027
圣诞节 36017
收@@ 35971
预防犯罪 35934
慈善 35932
此次 35913
废除 35904
索 35895
持 35873
证 35873
会见 35859
14@@ 35849
初级 35820
缓慢 35800
原 35796
哈 35780
播放 35748
士 35729
蒂@@ 35723
ley 35722
谷歌 35709
餐馆 35706
刑法 35696
ine 35681
排@@ 35679
Mc@@ 35667
终止 35621
实验室 35612
区别 35596
干@@ 35593
考试 35557
口@@ 35555
4.@@ 35544
鸟 35539
吁请 35533
蓝色 35530
娱乐 35522
ri@@ 35517
通讯 35510
政权 35489
死亡率 35486
共享 35483
环境署 35479
越南 35475
由@@ 35451
遵循 35442
书面 35433
史 35424
83 35414
深入 35371
布鲁塞尔 35369
Le@@ 35352
所载 35352
跨国 35337
阁下 35326
做好 35317
1980 35301
机器 35300
已有 35295
95 35244
外面 35223
近年来 35217
时尚 35202
皮肤 35202
进攻 35192
加速 35187
真@@ 35170
昨天 35168
转向 35166
同性恋 35148
物种 35143
观念 35126
广场 35090
99 35069
接@@ 35065
教学 35061
佩@@ 35060
试@@ 35059
幸福 35057
款项 35056
天然气 35055
教会 35051
引渡 35050
拍 35026
全体 35017
阐述 35017
一道 35004
东帝汶 35002
+ 34999
逃离 34975
南斯拉夫 34974
意 34972
委员 34965
塞拉利昂 34946
翻译 34945
有利 34937
火 34927
刚刚 34902
筹措 34891
此@@ 34883
黄@@ 34870
七@@ 34851
教@@ 34842
调动 34838
um@@ 34817
融入 34813
建筑物 34795
主办 34782
发动 34769
多种 34753
ab@@ 34724
79 34718
上文 34714
人道主义法 34713
麦克 34704
象 34702
雇用 34696
x@@ 34674
街道 34669
路上 34665
接着 34655
辩护 34648
保@@ 34639
他人 34622
繁荣 34616
此前 34599
一群 34592
ro@@ 34590
78 34586
杀死 34578
ur@@ 34572
分布 34502
特性 34491
基因 34486
产业 34478
澄清 34444
成千上万 34439
石 34436
录像 34421
申诉人 34405
恤金 34386
捐助者 34383
康复 34382
群 34373
将来 34367
动@@ 34350
禁令 34343
联@@ 34339
空缺 34317
遗产 34298
湾 34279
可是 34266
芝加哥 34250
删除 34248
与其 34239
每次 34235
子@@ 34228
81 34212
加沙 34186
重返 34164
入@@ 34150
短 34145
son 34140
对抗 34123
产出 34095
共同体 34089
直@@ 34086
北爱尔兰 34080
会计 34077
一块 34076
老师 34059
补贴 34058
在@@ 34047
舞台 34037
体@@ 34025
切@@ 34023
油@@ 34018
谈话 34015
缅甸 34008
识别 34004
王 33948
一步 33926
手册 33906
女子 33903
抱怨 33903
ay@@ 33900
通 33898
杰@@ 33894
倒 33889
聚集 33844
胡@@ 33840
实@@ 33825
相当于 33825
精@@ 33820
血@@ 33819
穿过 33807
学@@ 33784
芬兰 33781
南方 33780
布什 33750
顾客 33728
星期天 33718
或是 33711
肉 33689
超@@ 33676
外国人 33674
背后 33653
受害人 33652
该项 33642
诉 33625
牌 33613
方便 33609
5% 33574
英雄 33572
湖 33571
共计 33567
安置 33550
妨碍 33547
枪击 33543
培养 33536
终于 33528
卡车 33510
伦@@ 33450
移交 33432
坚定 33426
患有 33417
z 33399
木@@ 33387
粉丝 33378
摧毁 33370
少年 33361
一支 33348
药 33346
工 33321
续 33321
枪支 33319
有力 33289
城镇 33276
家中 33262
正义 33239
威尔 33237
约旦 33231
假设 33215
富有 33172
面@@ 33154
黑暗 33143
伯 33140
电台 33128
ou@@ 33124
施@@ 33115
扩展 33108
ut@@ 33105
天空 33095
小学 33092
恐怖分子 33055
普京 33046
猫 33036
应急 33027
管辖 33024
84 33023
房地产 33014
具备 33000
并未 32997
裁定 32988
西亚 32964
获 32952
定@@ 32941
麻烦 32935
高专 32933
可行 32932
Re@@ 32924
一段 32904
生殖 32900
堪培拉 32893
补偿 32880
运营 32864
有用 32862
智利 32853
入侵 32848
莱 32846
限度 32836
示范 32790
电 32786
聪明 32728
邮件 32659
定 32655
韦@@ 32639
效益 32626
医学 32625
表@@ 32625
满 32615
最@@ 32613
桥 32592
花园 32590
选票 32585
饮食 32566
ah 32535
会谈 32533
九@@ 32504
促请 32504
两位 32500
影片 32498
首相 32497
失业 32495
绑架 32494
总数 32489
东 32470
注重 32466
盘 32464
3.@@ 32450
变革 32446
设想 32431
名义 32421
导演 32421
实地 32413
os@@ 32391
96 32388
地址 32379
姆@@ 32368
咨 32355
布隆迪 32340
崩溃 32337
am 32332
远远 32332
尽 32322
乌干达 32320
秩序 32304
交@@ 32297
楼 32268
源 32248
签名 32248
一体化 32234
道歉 32225
送到 32218
查@@ 32217
失@@ 32216
ra 32210
因@@ 32208
120 32190
有罪 32183
戈@@ 32177
放@@ 32164
弗 32152
身 32150
授予 32144
维尔 32133
上海 32100
州长 32083
认定 32072
确立 32055
公共部门 32025
或@@ 32022
处决 32010
暂时 32001
邦 31997
其余 31996
营养 31994
防守 31983
判处 31971
帐户 31970
阿尔及利亚 31970
主持人 31960
卡梅伦 31946
时间表 31946
剩下 31936
运用 31910
思考 31909
卖 31908
村庄 31895
82 31886
应付 31870
女王 31861
先前 31843
th@@ 31831
信息技术 31827
乔@@ 31825
苏联 31823
伤 31805
兼 31797
防@@ 31795
中部 31793
排 31781
汉@@ 31760
邻国 31756
化@@ 31754
一段时间 31752
桑@@ 31752
厂 31749
救援 31743
自然资源 31736
900 31735
代@@ 31724
荣誉 31706
专@@ 31696
长大 31668
捐赠 31649
债券 31615
私营 31613
效应 31599
1000 31584
泰勒 31573
x 31570
中学 31561
要@@ 31549
微@@ 31548
好莱坞 31545
前进 31502
设在 31498
命运 31497
内阁 31493
估计数 31492
and@@ 31490
少数民族 31490
惊讶 31468
变 31457
报@@ 31445
委内瑞拉 31433
夏天 31428
赢 31418
5.@@ 31417
愿望 31411
莫斯科 31394
港口 31390
含有 31377
任意 31358
改为 31357
92 31339
豁免 31326
John 31324
海关 31318
原来 31314
10% 31313
竞争对手 31304
处境 31288
ton 31285
墙 31281
点@@ 31279
88 31277
高于 31277
引用 31271
清理 31253
93 31242
布尔 31242
关押 31205
代价 31199
小姐 31190
酸 31187
基督教 31178
制@@ 31150
专门机构 31139
有害 31097
晚 31077
忽视 31058
薪金 31058
进@@ 31051
87 31040
备忘录 31024
外层空间 31023
塞浦路斯 30995
错 30959
ir@@ 30946
感兴趣 30930
球@@ 30923
瑞@@ 30902
占据 30896
共@@ 30893
糖 30888
能量 30874
连@@ 30873
极大 30840
周年 30814
$ 30805
陈述 30803
讲述 30782
拨款 30766
卷 30759
就此 30752
毁灭性 30746
推@@ 30738
尊严 30723
罢工 30722
场景 30706
开幕 30669
250 30662
ul@@ 30659
用品 30648
当中 30641
阿塞拜疆 30620
为止 30615
地图 30613
复@@ 30608
眼 30606
秒 30593
第二@@ 30582
坏 30574
雅@@ 30568
荒漠化 30556
分摊 30525
好像 30525
穆@@ 30520
ic 30515
立@@ 30493
细则 30488
勒@@ 30469
一架 30468
政客 30462
他@@ 30460
火灾 30447
看着 30441
受理 30428
91 30423
古老 30416
Q@@ 30407
的确 30407
不满 30384
86 30368
坐 30359
12@@ 30357
众议院 30346
地带 30332
具 30320
美国@@ 30314
孟加拉国 30313
礼物 30305
前面 30300
追求 30292
体重 30283
1989 30282
英@@ 30267
基本上 30248
军官 30243
这件 30234
上空 30233
农场 30204
家族 30199
结@@ 30194
镜头 30192
葡萄牙 30175
摆脱 30145
修复 30124
不论 30119
千@@ 30106
发放 30096
已@@ 30091
覆盖 30083
小岛屿 30077
性能 30075
条@@ 30058
屏幕 30049
动作 30026
大麻 30010
堡 30008
往 29988
提 29987
Instagram 29977
吉 29974
分歧 29972
昂贵 29971
玛@@ 29965
垃圾 29954
爸爸 29954
缓解 29943
平 29924
完善 29920
口头 29916
经济体 29915
联邦政府 29905
至今 29886
底 29881
缺少 29873
会上 29858
或许 29845
安德鲁 29840
贴 29839
围绕 29829
激励 29829
驱动 29814
事先 29799
辆 29793
先@@ 29787
政治权利 29783
渴望 29781
目前为止 29753
欺诈 29749
强化 29731
劳@@ 29729
沟通 29728
清除 29728
丹 29716
几十年 29708
兵 29690
晚些时候 29689
融合 29681
破产 29666
= 29663
另一方面 29653
放 29637
界定 29636
骑 29623
明天 29601
ad 29590
要素 29587
刚果 29584
彼此 29583
98 29582
不安 29563
例外 29556
一个月 29529
餐厅 29516
时至 29512
洪水 29509
电视台 29505
靠 29503
联络 29498
碳 29491
漂亮 29472
发送 29443
基准 29443
季 29440
症状 29438
89 29432
注意力 29427
外交部长 29408
遗憾 29403
兹@@ 29390
面积 29372
症 29364
国务院 29338
帕 29315
地理 29313
代 29297
封锁 29272
论 29263
队员 29262
吸引力 29257
所在 29257
福克斯 29245
多名 29241
尔斯 29235
短@@ 29227
威@@ 29211
挣扎 29204
美好 29195
阿勒颇 29182
Th@@ 29178
得克萨斯州 29172
上个月 29161
随时 29144
华 29142
这笔 29135
工@@ 29130
一生 29126
克罗地亚 29116
保加利亚 29099
影响力 29098
ard 29089
关联 29084
部长级 29068
动机 29045
沮丧 29019
齐@@ 29012
本月 29006
继承 29004
忘记 29001
宗旨 28996
住宅 28995
沃 28995
乐@@ 28982
暗示 28964
灯 28964
朝 28956
征聘 28954
回忆 28939
相似 28939
犯有 28937
差 28935
西非 28929
三分之一 28926
众多 28917
仇恨 28911
美洲 28909
穷人 28879
元素 28798
张@@ 28797
匈牙利 28796
院 28782
活跃 28772
节日 28768
热情 28754
击中 28749
典型 28747
真是 28742
支援 28740
带有 28739
球场 28734
博 28728
推翻 28725
疫苗 28722
熟悉 28708
级别 28699
二十@@ 28695
取 28690
毕业 28690
戏剧 28687
ot@@ 28677
94 28666
箱 28658
贾@@ 28654
讨论会 28650
聚会 28631
无核武器 28616
规划署 28600
交谈 28589
民@@ 28582
提前 28575
靠近 28572
方针 28569
爵士 28549
秘鲁 28524
尼克 28505
抗@@ 28500
直升机 28500
本次 28484
要么 28484
塞尔维亚 28480
圈 28477
国外 28473
撞 28466
身@@ 28461
1% 28448
希 28440
回报 28439
开枪 28414
文本 28403
车站 28376
郊区 28366
首@@ 28355
法语 28351
保守 28347
惯例 28346
乐观 28327
盖@@ 28319
判断 28316
饮料 28313
有限公司 28304
谨慎 28304
职 28280
一对 28223
预@@ 28213
龙@@ 28200
年度报告 28196
说服 28190
物体 28176
销毁 28168
第二天 28146
罕见 28139
6.@@ 28116
黄金 28112
百分比 28094
托马斯 28085
离婚 28085
注 28080
突尼斯 28054
治安 28052
戈 28038
于@@ 28036
谅解 28031
本届 28029
渔业 28025
之内 28024
Am@@ 28021
2% 28001
死@@ 28000
\ 27998
指@@ 27994
管辖权 27980
20% 27966
异@@ 27966
飓风 27952
修@@ 27948
20@@ 27941
堕胎 27930
以此 27911
渠道 27897
Al 27896
高中 27896
谨 27893
公民权利 27877
鲁 27875
莫 27874
听说 27869
今晚 27868
菲@@ 27849
出场 27845
永久 27844
简要 27843
收费 27842
无疑 27840
ina 27833
素 27833
建设性 27829
行预 27821
美联社 27813
} 27797
橄榄球 27797
刚 27777
此后 27770
是从 27766
莉 27763
展览 27761
金融机构 27758
菜 27755
游泳 27752
付出 27741
> 27730
年初 27728
the 27709
兴奋 27688
至于 27681
成熟 27674
样子 27673
草 27658
音 27656
情 27651
整@@ 27647
Ma@@ 27643
引入 27643
作业 27634
心脏 27628
2018 27622
信@@ 27621
人格 27603
红 27598
旅馆 27589
签订 27588
眼@@ 27587
厄立特里亚 27570
以为 27567
参观 27564
谈 27558
剧院 27550
友好 27548
指挥官 27547
扎 27542
客人 27530
足以 27530
得出 27516
脱离 27472
敌人 27465
分析师 27464
尼亚 27462
主动 27452
蓝@@ 27438
咖啡 27435
远@@ 27434
坚决 27420
人居 27417
玛丽 27404
机器人 27385
成年人 27368
灵活 27357
理查德 27357
冲@@ 27355
零 27349
利物浦 27338
帮 27332
更@@ 27332
格式 27326
发言者 27322
意图 27301
生态系统 27293
1988 27287
尚 27281
{ 27279
事@@ 27264
改造 27249
将军 27235
丧失 27234
落后 27223
汇率 27195
别的 27176
大小 27174
ay 27172
种植 27152
产量 27149
马里 27133
血 27130
富@@ 27126
愿 27124
见面 27119
强有力 27117
也门 27114
包@@ 27108
群岛 27108
av@@ 27096
战@@ 27089
经济学家 27089
手中 27084
ing@@ 27081
纸 27081
li@@ 27077
列为 27074
备选 27054
核裁军 27050
节@@ 27045
交付 27040
路@@ 27033
提起 27023
㈠ 27020
经@@ 27006
携带 27005
柬埔寨 27004
见到 26981
深 26979
偿还 26978
雪@@ 26968
薪酬 26963
两天 26959
外交部 26958
# 26949
当天 26949
97 26943
七 26939
东道国 26918
文明 26905
被@@ 26900
8.@@ 26894
有机 26894
土@@ 26893
50% 26887
网页 26882
第四次 26855
考@@ 26838
哪 26835
3% 26824
亲 26812
强@@ 26812
撤销 26812
书@@ 26811
像是 26791
再@@ 26787
民 26787
武力 26772
藏 26759
净 26754
星@@ 26737
套 26727
先进 26726
黑塞哥维那 26726
冰@@ 26721
装@@ 26712
超出 26705
战士 26701
价值观 26697
规约 26695
大西洋 26694
刀 26687
迄今为止 26683
创作 26680
放松 26673
开车 26671
退欧 26666
㈡ 26657
帝国 26641
选 26635
对方 26616
丑闻 26603
发布会 26582
纽约时报 26574
吨 26567
招募 26557
喝 26542
配合 26541
沙 26537
学术 26518
本地 26517
总结 26511
什 26494
愉快 26493
od@@ 26492
身边 26491
观察团 26490
酒@@ 26482
世 26479
管道 26470
设定 26457
董事 26452
主人 26434
ha@@ 26420
海上 26410
宣称 26408
约会 26388
循环 26384
六个 26364
奖金 26339
着手 26336
选手 26333
改@@ 26316
妮 26313
任职 26308
贝尔 26307
想@@ 26299
选出 26298
拖延 26296
出色 26294
本来 26288
充足 26287
作战 26276
情形 26264
竞争力 26262
提供援助 26252
前任 26249
英超 26249
可用 26241
初 26234
喜爱 26226
威 26221
目录 26219
对阵 26204
哦 26196
卡尔 26192
别@@ 26183
蒙 26181
常@@ 26169
待 26167
婚礼 26166
尼泊尔 26150
始终 26149
配置 26141
现代化 26138
El@@ 26132
创始人 26128
黑 26124
冲击 26123
斯里兰卡 26123
填补 26119
汉 26108
走@@ 26107
古 26096
旅程 26094
ig@@ 26082
il 26080
饥饿 26080
外勤 26076
盟友 26071
罗马尼亚 26068
建@@ 26055
白俄罗斯 26054
领@@ 26047
签证 26042
运@@ 26034
用作 26032
袋 26024
教科文组织 26015
动态 26012
戴 25992
日常 25985
电力 25982
并于 25975
盖 25969
频道 25963
间接 25952
反叛 25949
轻@@ 25948
人才 25946
弹@@ 25940
感受 25937
指挥 25921
短暂 25917
病@@ 25894
ent@@ 25891
太空 25884
宝贵 25880
犹太人 25873
卖淫 25862
史@@ 25857
另有 25855
有益 25846
白 25839
现 25835
淘汰 25831
打败 25821
营 25801
扎@@ 25798
生日 25773
月底 25772
CNN 25771
参与者 25758
表格 25754
大大 25753
Ar@@ 25750
us@@ 25736
减贫 25733
密切合作 25731
Bar@@ 25728
问及 25725
op@@ 25708
7.@@ 25706
开设 25701
向@@ 25699
活 25697
驳回 25694
左@@ 25676
ch 25672
io 25670
所有者 25643
老人 25638
分散 25611
召集 25592
学者 25590
加工 25583
福特 25581
名人 25575
科尔 25559
骄傲 25540
管理人员 25537
班@@ 25514
血液 25509
An@@ 25493
激进 25491
安哥拉 25480
ant@@ 25474
原始 25472
题 25468
食@@ 25446
人人 25426
维修 25426
头部 25412
宗 25399
户 25397
这张 25379
模拟 25377
玛 25372
叶 25358
it 25350
纪律 25341
分为 25340
气氛 25336
亿英镑 25323
抨击 25315
分离 25311
取@@ 25311
贝 25302
查 25300
前锋 25299
佛罗里达州 25286
耶 25277
飞 25274
财务报表 25270
解@@ 25257
偏见 25250
冒险 25239
党派 25228
力@@ 25207
犯下 25206
厨房 25203
经委会 25198
ob@@ 25194
金额 25191
毒@@ 25186
柏林 25180
行事 25180
歌 25160
投 25159
发达 25157
周@@ 25154
食 25140
大韩民国 25139
北方 25134
加利福尼亚州 25131
邻居 25124
推行 25122
真相 25119
奖励 25117
物理 25115
多人 25109
ec@@ 25099
游@@ 25086
ap@@ 25084
莎 25062
干旱 25049
落 25044
看@@ 25043
厄瓜多尔 25042
离@@ 25035
工程师 25021
计划署 25013
伯格 24992
可爱 24989
火箭 24976
微笑 24960
近@@ 24960
名额 24942
吸收 24942
声@@ 24934
街头 24934
供@@ 24922
附加 24896
列表 24894
带@@ 24890
乐 24887
复苏 24883
落@@ 24883
读者 24883
世@@ 24879
克拉克 24862
谢谢 24857
ev@@ 24848
削弱 24826
座位 24813
杰克逊 24813
亲@@ 24811
商人 24804
宁 24804
云 24795
一片 24794
常 24793
骨 24779
证券 24778
ah@@ 24777
临床 24774
踢 24766
八 24764
节省 24758
配@@ 24758
松@@ 24757
算法 24746
氏 24743
第一位 24741
那天 24730
死去 24714
第三个 24711
女演员 24702
就业机会 24701
便宜 24698
成人 24691
中国政府 24690
游行 24690
福 24690
几次 24689
毛@@ 24689
课 24663
伊朗伊斯兰共和国 24661
丁@@ 24660
姓名 24654
现状 24643
旁边 24637
合格 24631
库存 24622
干扰 24618
射击 24604
碗 24584
压@@ 24558
温 24558
接收 24550
照料 24546
三次 24535
笔 24528
谢@@ 24526
木 24525
没收 24522
等等 24521
睡 24516
比率 24504
活@@ 24504
极@@ 24493
约束力 24490
床 24486
形势 24469
股价 24468
亨利 24465
各类 24458
停 24443
网@@ 24440
弄 24439
事态 24436
经济@@ 24433
股东 24429
会晤 24424
sh@@ 24418
安全部队 24399
向前 24397
4% 24394
当事人 24393
何@@ 24384
冻结 24381
对付 24368
被控 24365
阿拉伯叙利亚共和国 24362
数学 24360
爱情 24347
钻石 24347
内罗毕 24341
危地马拉 24332
投@@ 24332
左 24325
ib@@ 24312
内陆 24312
枚 24312
极为 24311
天主教 24295
其实 24294
调 24288
自然灾害 24277
矛盾 24276
法定 24250
耶@@ 24247
初选 24243
馆 24242
2020 24232
世界杯 24218
汇编 24213
玻璃 24212
负 24197
理@@ 24194
8% 24191
所有权 24191
快@@ 24183
过来 24179
指称 24177
曼联 24177
路易斯 24157
洞 24135
两项 24111
接到 24100
论文 24081
领取 24078
代替 24066
裁军谈判 24063
远离 24060
撰写 24045
限 24040
牧师 24027
碎片 24011
主义者 24004
停留 24003
造@@ 23998
部落 23996
北约 23992
互相 23989
差别 23989
队长 23984
张贴 23982
松 23963
搬 23962
十一届 23946
粮农组织 23936
定为 23934
毫无疑问 23922
巴勒斯坦人 23910
早@@ 23908
舒适 23902
形@@ 23899
道@@ 23897
股市 23896
理 23894
话题 23891
切 23881
6% 23877
观测 23873
超越 23873
前提 23872
米歇尔 23862
7% 23853
个别 23853
第十@@ 23852
即@@ 23851
回收 23846
新闻部 23838
印发 23827
援引 23817
隆 23812
130 23781
睡眠 23780
戴维斯 23775
陪审团 23766
悲剧 23765
推特 23765
司法部 23764
名叫 23759
消耗 23741
损坏 23740
C.2 23727
布里斯班 23720
多样化 23708
调解 23705
脱@@ 23698
说@@ 23676
丁 23674
大众 23670
ov@@ 23652
eb@@ 23634
哥哥 23632
为何 23616
活力 23602
凯特 23587
直至 23573
默@@ 23569
亚美尼亚 23563
特遣队 23561
管@@ 23559
一句 23552
可持续性 23550
朱@@ 23535
寿命 23533
赛@@ 23532
季度 23529
满@@ 23529
残忍 23524
英国人 23513
被判 23510
产 23504
利亚 23489
驻地 23486
简报 23476
汞 23465
局面 23461
近东 23460
支@@ 23426
技巧 23407
第三@@ 23407
转型 23398
Be@@ 23392
强制 23392
权@@ 23388
挑选 23366
何种 23363
追踪 23363
9.@@ 23357
英国广播公司 23357
运送 23355
密@@ 23345
难以置信 23345
解除 23337
病例 23332
知识产权 23332
停火 23330
设计师 23314
英 23313
含量 23309
分开 23307
温室 23300
og@@ 23291
断@@ 23287
昆士兰 23284
接 23267
高达 23261
不必 23246
1970 23244
经典 23242
磅 23238
幸存者 23231
支 23230
平静 23221
独@@ 23215
丧生 23208
听证会 23208
缔结 23200
格林 23192
练习 23186
艾伦 23178
参数 23169
电池 23169
反腐败 23164
结 23164
Sp@@ 23163
假期 23163
到@@ 23152
国际贸易 23149
拍卖 23141
动荡 23138
迈克 23134
情@@ 23129
卫@@ 23128
探@@ 23125
怀特 23111
目 23098
az@@ 23096
区分 23091
假@@ 23088
战胜 23077
问责制 23073
丽@@ 23068
聚@@ 23065
认证 23057
金融危机 23055
期@@ 23037
严厉 23030
漫长 23029
贾 23029
志愿人员 23026
目的地 23006
求 23000
导言 22976
夫@@ 22975
短缺 22970
能否 22968
大街 22963
想到 22961
四分之一 22960
呼吸 22959
国防 22958
舒服 22958
右@@ 22953
丽 22951
社会保障 22951
算 22945
啤酒 22943
戴@@ 22933
筹集 22924
增@@ 22914
家长 22910
一方面 22909
简化 22909
滑@@ 22898
情感 22895
切尔西 22893
抵押 22892
压 22888
会员 22887
标记 22882
传@@ 22874
... 22871
能@@ 22859
见@@ 22857
自信 22852
冷@@ 22851
民兵 22850
阳光 22848
ter 22846
王国 22844
齐 22841
小心 22840
监控 22839
辐射 22816
年间 22799
守则 22789
遣返 22779
苏 22775
大厦 22767
加纳 22766
实质 22763
创伤 22761
重组 22758
统计数据 22750
陈@@ 22740
余额 22736
几周 22736
紧急情况 22733
巴士 22732
凯利 22728
击 22720
电子@@ 22719
选@@ 22705
减@@ 22698
军方 22693
获悉 22690
拟 22684
http 22680
1986 22672
留@@ 22671
过于 22671
招聘 22670
极 22669
生长 22664
David 22660
报复 22646
解 22641
编@@ 22639
交 22633
迄今 22632
购物 22623
困境 22612
右 22597
仔细 22574
飞行员 22574
记住 22572
Br@@ 22563
强劲 22561
迈阿密 22556
草@@ 22532
总共 22518
巡逻 22516
雅 22499
工艺 22492
中场 22483
概算 22482
生态 22482
夜 22478
希尔 22477
小行星 22476
但@@ 22473
ang@@ 22472
卡特 22462
棒 22462
地铁 22458
愚蠢 22446
种类 22442
旧@@ 22434
脚@@ 22429
立 22427
土 22418
洗@@ 22418
专门知识 22415
承受 22415
困扰 22412
离职 22410
跳@@ 22408
根源 22404
一篇 22399
河@@ 22394
勇敢 22393
性暴力 22387
赫 22387
日起 22386
必要性 22376
神经 22372
重量 22364
回归 22362
政@@ 22345
开会 22344
伴侣 22325
货 22321
付 22320
地说 22315
随@@ 22305
包装 22290
查阅 22287
护士 22282
纠正 22280
色情 22280
单方面 22266
夜晚 22258
协同 22256
英寸 22256
社 22254
步 22253
文学 22248
此事 22246
再生能源 22244
修建 22241
职等 22238
严肃 22235
– 22230
患 22214
现任 22206
不人道 22186
退@@ 22181
记 22180
不当 22158
脸上 22151
肉@@ 22149
文字 22147
积极参与 22138
较大 22129
男@@ 22122
专注 22120
延伸 22101
常规 22099
顶级 22098
计 22096
美联储 22094
脑@@ 22090
摊款 22074
只@@ 22071
由此 22069
关 22061
最为 22059
度假 22058
一再 22057
救 22042
尽管如此 22036
ir 22031
不好 22019
特权 22002
国际法庭 22000
教训 21996
客 21994
110 21991
处置 21986
辅助 21984
添加 21970
空袭 21969
尤@@ 21959
街上 21947
00@@ 21946
奥斯卡 21940
思 21939
失业率 21933
制品 21924
零@@ 21918
侵略 21904
唱 21903
两者 21894
弹 21892
句 21888
封@@ 21871
j 21858
eg@@ 21855
轮@@ 21848
不应 21846
装饰 21838
疼痛 21813
台@@ 21806
命 21801
民事 21797
圆@@ 21792
毁 21788
金钱 21787
成分 21786
社会主义 21784
纪录 21781
焦点 21772
面试 21771
雨 21765
ik@@ 21764
耶和华 21755
野@@ 21755
保安 21754
质@@ 21754
qu@@ 21749
难民营 21743
v 21731
今日 21729
响应 21729
ub@@ 21724
浪费 21719
躺 21707
就要 21697
调查结果 21697
沙特 21696
首长 21693
俄亥俄州 21688
The 21682
骚扰 21667
应有 21646
威廉斯 21636
太多 21635
委托 21627
没@@ 21614
40% 21603
Car@@ 21603
照 21599
工作者 21589
行政当局 21584
铁 21580
性格 21579
出发 21575
家属 21572
神秘 21569
抗议者 21565
痛 21561
膜 21561
剩余 21553
物资 21552
负债 21539
喜剧 21538
储蓄 21530
查尔斯 21526
大火 21524
翻@@ 21524
iPhone 21521
30% 21511
复员 21506
检验 21489
并@@ 21466
会计准则 21465
衰退 21443
草坪 21440
诊所 21432
青@@ 21425
促成 21410
时说 21408
尔德 21399
残酷 21375
集@@ 21366
上次 21363
托尼 21362
佛罗里达 21353
树@@ 21352
网球 21351
细@@ 21348
上周五 21345
菲利普 21342
包围 21331
顶 21324
中国@@ 21323
地上 21306
ana 21305
股份 21300
ip@@ 21280
示威 21275
au@@ 21267
护照 21265
部@@ 21261
马上 21258
登@@ 21251
柯@@ 21250
Sch@@ 21242
赞助 21235
ach@@ 21234
很@@ 21231
ent 21229
嫌疑人 21225
约束 21220
海洋法 21214
队友 21211
防御 21206
旧金山 21205
资源管理 21203
回合 21199
燃烧 21197
一方 21196
C.3 21192
味 21192
各位 21191
末 21189
细菌 21181
甘@@ 21176
一笔 21174
杰 21173
东京 21170
安东尼 21155
妹妹 21154
ep@@ 21153
卡塔尔 21152
性虐待 21149
隐藏 21147
监察 21144
凡 21141
窗户 21139
储备 21136
他会 21126
核定 21123
祝贺 21123
颁发 21123
字@@ 21109
生产总值 21102
ud@@ 21101
默 21101
塞内加尔 21097
显得 21092
液 21092
寨 21087
突破 21086
杜 21084
易@@ 21081
212 21078
.@@ 21075
分庭 21072
线@@ 21059
租金 21058
艾 21051
史蒂夫 21045
盐 21036
冬季 21035
治 21028
降 21019
仇外 21016
所属 21012
岩石 20969
顺利 20953
环@@ 20947
首要 20934
爱丁堡 20927
ian 20922
恶劣 20916
亲密 20915
确切 20913
沿着 20907
丹尼尔 20905
配偶 20901
酒精 20894
沿海 20893
然 20889
桌子 20885
程 20875
塔利班 20871
纲要 20868
速 20860
单元 20842
走向 20840
市中心 20837
宫 20813
萨尔瓦多 20797
汇报 20781
数百万 20778
珀斯 20769
家庭成员 20751
京都 20741
关税 20741
银@@ 20741
标 20735
地板 20733
波动 20727
生涯 20723
舞蹈 20722
ell 20720
跨 20716
卧室 20710
CN.4 20704
一词 20704
曲 20694
公认 20691
不少 20671
致@@ 20657
协商一致 20643
进来 20643
uc@@ 20641
视察 20639
意@@ 20637
尴尬 20636
运 20620
农@@ 20616
夏@@ 20613
坦@@ 20612
中断 20599
毫米 20597
份额 20596
哥斯达黎加 20584
环 20582
易 20575
肯 20565
越@@ 20560
里约热内卢 20556
第一届 20538
米勒 20536
菲尔德 20533
乌拉圭 20523
油价 20521
Michael 20517
保密 20517
当作 20514
知情 20510
产@@ 20509
辛@@ 20500
学家 20498
居 20495
掩盖 20473
定居点 20472
设有 20471
停@@ 20469
租赁 20468
这类 20466
传递 20464
贸易法 20462
到处 20450
限于 20449
大多 20446
抵制 20446
ation 20441
升 20436
温和 20428
奥运 20426
组@@ 20414
II 20412
置于 20403
转化 20392
做@@ 20390
转换 20384
坎@@ 20374
甲@@ 20369
灵魂 20364
田 20340
智慧 20339
菲 20338
上市 20331
服 20323
琳 20323
殖民地 20314
ov 20309
国务卿 20309
料 20298
早晨 20297
现已 20297
美国政府 20295
内战 20291
消灭 20279
家乡 20273
还@@ 20268
1987 20262
土壤 20254
大门 20245
无论是 20230
拥挤 20224
代码 20221
丹@@ 20216
毛 20214
客@@ 20200
变动 20198
预定 20197
现@@ 20195
中华人民共和国 20185
_ 20181
虫 20174
排斥 20169
领空 20160
地下 20155
建 20153
一国 20150
峰会 20149
排雷 20145
动员 20144
写作 20140
强制性 20139
铭记 20127
很长 20126
免受 20118
1985 20106
新兴 20106
高等教育 20103
三名 20099
克里 20096
屋顶 20091
体验 20088
隔离 20088
Ad@@ 20082
伊斯兰教 20079
副@@ 20077
言论自由 20076
绩效 20063
乘坐 20062
委 20062
击@@ 20060
叶@@ 20043
05 20042
特恩 20039
关@@ 20038
9% 20028
脱欧 20015
象征 20004
违背 20000
锦标赛 19994
遭遇 19991
双重 19990
德尔 19987
一本 19983
双 19982
动物园 19979
推荐 19976
服务器 19968
玩具 19968
自豪 19966
01 19962
特色 19962
ong 19945
引人注目 19944
倡导 19931
汗 19926
绿@@ 19919
此项 19917
一人 19914
第三方 19909
ani 19902
扩张 19900
母@@ 19894
地中海 19888
膝盖 19888
教皇 19884
国际法院 19877
望 19877
旅游业 19874
航行 19867
鱼@@ 19866
划@@ 19862
恰当 19859
订立 19858
减 19856
物@@ 19854
监察员 19850
语@@ 19842
南南合作 19840
强度 19835
拖@@ 19824
Y 19802
哈萨克斯坦 19800
买家 19795
使@@ 19795
一把 19791
斯蒂芬 19781
代表性 19779
使命 19776
输入 19772
其次 19769
森@@ 19762
大臣 19754
殴打 19754
id 19751
绝大多数 19751
对外 19749
深度 19744
140 19739
阴谋 19734
税务 19731
魅力 19726
忽略 19711
时限 19711
民意调查 19711
逻辑 19711
包容性 19707
缩小 19703
法律援助 19702
及@@ 19699
换@@ 19673
不变 19669
总裁 19662
城堡 19645
支柱 19645
遭 19643
.1 19638
尽量 19634
邮报 19633
拉斯 19625
○ 19621
必@@ 19621
贩卖 19617
当代 19608
说道 19596
服用 19594
梦 19588
船@@ 19570
量@@ 19567
牙买加 19560
孔 19555
报酬 19526
AP 19516
Di@@ 19513
玻利维亚 19513
最多 19507
朗 19506
书籍 19495
国防部 19495
脂肪 19487
援助团 19484
破@@ 19478
耶稣 19468
给出 19459
入境 19452
必需 19452
务 19437
精英 19436
中非共和国 19435
禁@@ 19429
大声 19423
努@@ 19419
射@@ 19419
收取 19417
Con@@ 19414
焦虑 19410
电信 19402
这儿 19396
哈利 19395
作物 19394
火星 19390
1967 19387
Sal@@ 19384
决策者 19374
吸烟 19372
大道 19367
永@@ 19367
企业家 19366
极其 19359
Qu@@ 19356
未成年人 19347
挂 19344
乍得 19341
不愿 19337
机械 19329
影@@ 19318
编号 19318
行星 19306
有效性 19303
九 19298
一艘 19296
抢劫 19295
义 19287
审评 19275
排放量 19274
药@@ 19273
规章 19272
什@@ 19271
弱势 19264
组建 19263
展 19259
事物 19258
寒冷 19250
ez 19232
转递 19232
地域 19225
宇宙 19223
上学 19222
雪 19217
操纵 19215
煽动 19210
列车 19209
发明 19199
oc@@ 19196
分列 19194
管理层 19194
博客 19187
志愿者 19187
端 19186
求@@ 19183
金牌 19183
缴纳 19181
有时候 19176
背@@ 19175
揭示 19172
到底 19159
查询 19152
下周 19143
六个月 19138
故意 19125
总监 19124
标@@ 19123
一致性 19120
加大 19112
面包 19109
iz@@ 19106
肌肉 19105
庞大 19101
拆除 19101
问责 19088
追@@ 19082
1982 19081
无关 19076
演奏 19072
讨厌 19071
参照 19065
城@@ 19062
绝望 19059
索赔人 19056
裁判 19054
载于 19054
恶@@ 19051
DNA 19050
乡村 19039
计@@ 19038
5000 19036
耐@@ 19030
季@@ 19019
老鼠 19014
奖项 19009
终了 19006
样 19001
零售商 18999
国别 18996
捷克共和国 18987
有辱 18982
忙 18971
依 18970
斯坦 18963
新鲜 18961
Ab@@ 18958
编 18954
摩@@ 18941
免疫 18936
灵活性 18934
尺寸 18929
撤出 18924
邪恶 18923
镜 18920
收回 18919
第四@@ 18915
轻武器 18914
睡觉 18906
请@@ 18896
ry 18891
主意 18889
环保 18888
扔 18886
斯特@@ 18880
影 18878
可疑 18873
所得 18871
诗 18860
` 18852
之所以 18852
─ 18848
Bl@@ 18847
房产 18847
证词 18836
公报 18829
实 18822
警@@ 18822
一贯 18819
北美 18816
160 18814
w 18809
隐私 18801
个@@ 18792
政治家 18791
轻松 18783
除@@ 18783
印刷 18779
硬@@ 18774
以南 18761
世界卫生组织 18760
one 18749
延迟 18746
巨头 18736
穆罕默德 18735
冰 18728
瑟 18728
生育 18727
欣赏 18719
听@@ 18706
卫生部 18704
高速公路 18703
牺牲 18696
助手 18691
次数 18688
截止 18682
1960 18679
伊丽莎白 18677
蒙特利尔 18665
某人 18651
耶路撒冷 18648
无效 18637
大概 18636
1984 18633
监视 18624
致 18624
世贸组织 18613
凌晨 18600
积累 18593
阐明 18592
轰炸 18590
巴拿马 18587
联合国开发计划署 18585
蔬菜 18584
抑制 18582
锁 18582
协调一致 18580
捍卫 18577
糖尿病 18574
明智 18568
步@@ 18563
人为 18543
诚实 18534
内政部 18526
尼加拉瓜 18526
aw@@ 18523
安娜 18515
多哈 18512
旋转 18506
消极 18501
蒙古 18501
巧克力 18499
蒂姆 18497
板球 18496
大厅 18493
感情 18492
北卡罗莱纳州 18487
家伙 18486
异常 18481
施加 18481
信件 18479
养@@ 18471
是不是 18471
退化 18468
类@@ 18460
格拉斯哥 18456
80% 18452
经验教训 18447
大不列颠 18445
净额 18442
客观 18438
ee 18430
包容 18425
其后 18422
和谐 18421
十五届 18417
太阳能 18417
101 18415
疟疾 18415
简@@ 18415
ow@@ 18414
所列 18410
拉姆 18404
难@@ 18400
长期以来 18399
不妨 18376
主导 18376
首 18374
着重 18372
足 18372
思@@ 18370
冰岛 18360
凯文 18357
杀人 18342
承包商 18341
匹配 18337
清晰 18334
数据@@ 18331
尊敬 18329
看待 18325
蛇 18325
写@@ 18324
环境保护 18322
使用者 18321
洗钱 18321
亚马逊 18310
我能 18306
船员 18306
阿尔巴尼亚 18305
库尔德 18304
甲 18303
依法 18301
桶 18299
色@@ 18299
Cl@@ 18297
替换 18292
刺 18289
延误 18289
昨晚 18286
引@@ 18283
石头 18283
不可避免 18278
ot 18258
鱼类 18258
透过 18257
用以 18247
第二届 18243
C.5 18240
夜间 18237
样本 18235
近期 18228
下载 18220
优惠 18218
瑞 18218
飞往 18212
亚当 18209
职权范围 18206
Bo@@ 18204
干涉 18204
谷 18198
摄影师 18197
AR@@ 18196
底@@ 18190
IS@@ 18185
犹太 18181
起到 18180
预算外 18178
纽约市 18177
破 18169
牛 18168
欺骗 18167
强调指出 18165
艘 18164
引导 18160
最早 18160
um 18157
新型 18156
术语 18149
清 18147
指令 18143
１ 18138
波士顿 18132
登记册 18132
种子 18122
丝@@ 18118
常会 18114
独立性 18087
公斤 18082
云@@ 18080
初@@ 18079
论点 18079
化学武器 18071
船舶 18070
心脏病 18069
抽@@ 18069
含 18068
剧 18059
多达 18059
左翼 18055
堂 18049
灰@@ 18047
曼彻斯特 18039
印 18035
看作 18033
富裕 18028
旁 18028
ler 18023
场地 18021
印@@ 18015
春天 18011
抱 18007
听众 18006
一代 17995
勇气 17995
引擎 17995
申请人 17995
学科 17993
变性 17992
斯洛伐克 17988
多伦多 17984
软@@ 17970
配备 17970
政治@@ 17969
篇 17953
国家@@ 17951
校园 17951
唐@@ 17943
休@@ 17941
哭 17941
阿萨德 17938
考 17933
域 17925
通道 17921
举 17918
涉嫌 17917
中等 17915
国际标准 17913
喀麦隆 17903
资深 17903
佐@@ 17900
后卫 17893
河流 17893
信念 17887
一组 17880
该市 17880
通胀 17876
总干事 17866
报价 17855
审 17851
成效 17851
评级 17849
脆弱性 17845
元@@ 17842
什么样 17838
局长 17837
不确定性 17833
发给 17832
ell@@ 17831
里克 17831
联邦调查局 17826
人生 17824
得不到 17824
感激 17824
种种 17820
热带 17816
粮食安全 17816
升@@ 17813
均衡 17813
找出 17812
逃跑 17809
恒星 17806
十 17799
历史性 17791
那儿 17791
家具 17787
详情 17787
核实 17782
ick@@ 17780
该法 17778
选定 17774
之上 17769
散步 17767
领 17766
横@@ 17761
前所未有 17758
三天 17747
不用 17747
长达 17744
est@@ 17742
25% 17741
空军 17740
阿里 17739
救助 17738
骨@@ 17738
紧@@ 17737
瓦尔 17728
开办 17725
记@@ 17723
Rev.1 17716
里斯 17715
C.1 17713
赠款 17713
卫 17711
合法性 17711
弥补 17708
计划生育 17708
露面 17707
低收入 17704
下滑 17703
必 17703
iv@@ 17699
债权人 17696
180 17691
巨@@ 17683
复制 17680
ale 17678
顿@@ 17678
非殖民化 17677
哲学 17675
拥抱 17670
私@@ 17668
亿@@ 17659
水资源 17647
end@@ 17642
术 17641
叫做 17639
波特 17634
同等 17631
生产力 17631
年来 17629
蛋糕 17629
伯尼 17624
ann@@ 17613
一枚 17610
令人@@ 17607
汉密尔顿 17607
马德里 17598
因特网 17589
进度 17586
蛋 17585
不足以 17583
优化 17573
模糊 17569
纳税人 17569
了@@ 17568
流程 17563
撒@@ 17561
试点 17559
男女平等 17547
对策 17543
财政部 17540
按@@ 17525
Getty 17510
核试验 17508
回去 17500
紧密 17500
校长 17494
增长率 17490
re 17489
突袭 17489
换 17483
政 17483
采@@ 17480
三分之二 17478
Gl@@ 17477
抵抗 17477
赤字 17467
Q 17461
跑步 17455
安静 17454
针 17453
乐趣 17452
品质 17444
高效 17443
初次 17440
杂@@ 17440
得知 17437
冬天 17427
走出 17420
活着 17414
该党 17414
验证 17406
扫描 17399
战役 17398
津巴布韦 17398
SR.@@ 17396
葡萄酒 17384
泽@@ 17381
反馈 17379
开心 17379
信用 17378
宝@@ 17370
09 17364
百分点 17362
生于 17356
哈里 17349
暴露 17346
联刚 17346
阴@@ 17341
特使 17338
水果 17336
自主 17331
房@@ 17327
友谊 17326
读@@ 17325
解除武装 17324
同情 17317
af@@ 17314
15% 17310
污染物 17299
接纳 17298
根@@ 17289
久 17282
划分 17277
整合 17276
霍尔 17273
党@@ 17269
嫌疑犯 17268
凯恩 17266
开采 17265
尽早 17260
生气 17247
住所 17246
还应 17244
更换 17239
黑客 17238
幻想 17236
两家 17230
开玩笑 17228
潮 17226
星期日 17222
ass@@ 17219
尼尔 17217
屋 17213
照@@ 17213
水域 17205
音乐会 17201
香@@ 17194
只会 17192
朗@@ 17191
通用 17190
一面 17185
两倍 17179
商业@@ 17171
央行 17170
ge 17169
个人@@ 17168
08 17161
子弹 17158
扬 17155
战场 17149
大使馆 17148
生意 17145
转交 17144
长度 17143
破裂 17140
朝鲜民主主义人民共和国 17124
特派 17124
舍 17124
封 17120
坐@@ 17119
广@@ 17118
归@@ 17116
反复 17110
发了 17107
市@@ 17106
仪 17104
视@@ 17103
黄色 17099
生病 17098
制约 17096
鸡 17091
to 17087
孕妇 17085
讲@@ 17083
接管 17081
国家元首 17077
行政部门 17077
by 17074
杆 17068
势头 17053
牛@@ 17050
剧本 17049
主管部门 17046
养老金 17043
尼斯 17040
全球性 17031
声誉 17031
绝@@ 17031
交通@@ 17018
存款 17007
1981 17005
形状 17001
神奇 16998
商@@ 16995
音@@ 16993
营销 16992
自由@@ 16987
散@@ 16980
少女 16978
1979 16976
第二条 16976
AS@@ 16975
推 16975
发挥作用 16958
学位 16948
附 16947
信通 16944
频率 16940
遏制 16937
纸@@ 16930
ff@@ 16927
健全 16926
阵线 16925
威尔逊 16924
主教 16915
复原 16910
更改 16910
锻炼 16900
护@@ 16887
办理 16884
吉姆 16884
if@@ 16878
汀 16875
频繁 16868
恐吓 16867
区域合作 16865
餐 16849
105 16845
带走 16844
乳@@ 16842
面向 16842
实例 16841
祈祷 16839
发展权 16831
Har@@ 16828
制片人 16828
打死 16818
咨询服务 16816
1978 16794
页面 16794
ary 16792
将近 16791
买卖 16788
等级 16788
普及 16786
杀伤 16785
滑稽 16784
零售 16784
次@@ 16780
下次 16779
两场 16779
社会@@ 16774
技术@@ 16771
相机 16770
度@@ 16768
古怪 16766
海盗 16763
侧重于 16754
同行 16751
经济学 16746
各州 16745
下令 16744
工作室 16735
精确 16720
舞 16719
撤回 16716
市民 16713
就@@ 16708
枪手 16708
暴@@ 16697
ate 16696
瓶 16695
范@@ 16693
解放 16683
势力 16675
确信 16663
牛奶 16661
案子 16659
若@@ 16658
行驶 16650
午餐 16648
爱荷华州 16648
负有 16648
欧 16647
发动机 16631
浮@@ 16629
出租车 16627
年长 16626
０ 16623
布莱克 16622
06 16620
互@@ 16617
art@@ 16613
随 16609
费城 16600
杰夫 16596
人选 16593
弗兰克 16592
最小 16585
以至于 16576
斯洛文尼亚 16573
迫切需要 16572
导@@ 16571
温暖 16570
疏散 16570
果@@ 16565
李 16564
军备 16556
夜@@ 16556
登上 16555
萨拉 16551
禁运 16550
必要措施 16546
提取 16546
分至 16539
高层 16536
校@@ 16527
思维 16526
圣诞 16524
余@@ 16521
吹@@ 16521
手指 16520
缩短 16519
莱斯特 16519
模特 16511
示威者 16509
迷@@ 16507
香 16498
一颗 16497
本质 16493
卖@@ 16492
干净 16491
耳@@ 16489
嘴 16486
实在 16484
卢 16480
高质量 16474
ne 16470
西岸 16469
联合国大会 16468
衣 16468
犯罪行为 16465
苦@@ 16458
知名 16457
提高认识 16453
妥协 16449
毛里求斯 16447
07 16446
合成 16445
岩 16439
六年 16438
初期 16431
all 16430
ion 16430
依@@ 16423
隧道 16418
la 16416
钢@@ 16416
习俗 16411
沙漠 16397
山区 16394
仓库 16390
函数 16390
生计 16388
支配 16383
瑟@@ 16382
职员 16380
歧视性 16378
礼 16377
专利 16376
当事方 16376
月@@ 16376
oo@@ 16373
核可 16368
常规武器 16366
乱 16354
极端主义 16349
伍德 16344
言@@ 16344
60% 16338
纤维 16338
Pl@@ 16332
捐助国 16325
西班牙语 16315
Gr@@ 16307
猜测 16302
激情 16301
斯德哥尔摩 16299
坦 16298
内部监督 16288
折磨 16287
考验 16287
欧洲委员会 16285
二战 16281
举@@ 16272
免遭 16260
Me@@ 16257
怎么样 16253
菲尔 16253
唱片 16247
太太 16247
保险公司 16246
负面 16245
断 16234
修 16224
司@@ 16224
除外 16224
竞赛 16223
Mor@@ 16218
判例 16215
少@@ 16209
十届 16202
茶 16199
体育@@ 16198
治@@ 16197
生成 16191
He@@ 16188
公共卫生 16181
大气 16179
步行 16176
28@@ 16175
ug@@ 16175
结论性 16174
含@@ 16173
权威 16171
较为 16160
木材 16158
检察长 16158
上限 16157
侦探 16154
贵 16154
烟@@ 16148
撤离 16141
会费 16134
服务@@ 16133
查看 16133
订单 16132
马修 16129
双手 16128
救@@ 16124
偏@@ 16108
冷静 16108
游说 16108
ow 16107
认同 16105
传 16103
im 16102
母 16102
人民币 16098
点击 16078
摩尔 16068
纪录片 16066
立刻 16065
康 16062
借口 16061
画面 16061
全权 16051
立陶宛 16050
化合物 16047
安慰 16047
乡 16039
闻名 16037
巴塞尔 16034
佛@@ 16027
杰里米 16027
信用卡 16024
卡拉 16020
无害 16016
定居 16008
困惑 16007
CBS 16004
降至 16004
捕获 16001
111 15997
团伙 15993
娅 15991
迁移 15987
折@@ 15986
讽刺 15986
目@@ 15984
co 15982
场合 15975
出庭 15974
ek 15966
ok@@ 15954
围@@ 15949
精力 15949
十三届 15946
减缓 15937
笑话 15937
孤独 15934
野生动物 15934
人均 15933
线路 15921
结果表明 15920
策划 15917
90% 15910
IN@@ 15910
武@@ 15908
ham 15905
卫报 15895
孤立 15895
Mon@@ 15886
1973 15885
巴林 15879
之际 15877
故障 15876
还会 15874
慷慨 15873
存 15870
编列 15870
公主 15869
阶层 15869
江@@ 15868
试 15867
ill@@ 15863
体面 15861
月初 15858
惠@@ 15850
伤亡 15849
管理系统 15847
审讯 15845
日前 15844
不受 15842
姐妹 15841
宝 15841
反对党 15840
溴 15832
灵@@ 15831
等@@ 15825
采纳 15825
帽子 15823
寻常 15819
主角 15811
自决 15808
廉价 15806
简直 15805
.2 15803
条文 15802
感@@ 15795
杰出 15790
岛上 15786
惊@@ 15785
众所周知 15783
船上 15779
猪 15774
有待 15772
遥远 15771
藏@@ 15761
华尔街 15759
高等法院 15758
03 15754
Mac@@ 15754
为主 15754
席 15751
Ros@@ 15749
摩苏尔 15748
尔多 15744
默克尔 15744
ara 15736
无视 15724
进去 15724
浓度 15720
叙述 15718
引进 15717
偶尔 15716
急@@ 15714
要点 15711
摩托车 15710
02 15703
最长 15697
格尔 15695
all@@ 15689
虚假 15687
校 15683
智能手机 15682
将@@ 15680
四分 15673
泄漏 15673
果 15669
算@@ 15665
月球 15658
屠杀 15654
广大 15652
毫无 15650
树木 15638
一封 15637
纯粹 15631
凯 15630
Ro@@ 15629
信息系统 15625
田@@ 15625
安全部门 15621
机遇 15621
散发 15615
本法 15608
床上 15606
边@@ 15604
匿名 15603
派出 15588
几 15586
小镇 15574
欧洲人 15574
04 15564
危及 15561
旅客 15553
㈢ 15550
抵消 15542
抗 15540
圣地亚哥 15538
° 15533
含义 15532
代理人 15525
司长 15524
名册 15520
阿森纳 15520
野生 15519
抱歉 15510
70% 15508
In@@ 15508
人体 15507
斯图尔特 15507
Add.@@ 15506
外交政策 15502
蔓延 15501
Se@@ 15500
鞋 15495
保险@@ 15494
湖@@ 15493
送往 15492
YouTube 15491
如同 15490
碎 15488
维吉尼亚 15484
马特 15483
疗法 15481
培训班 15476
两周 15474
Pro@@ 15473
亚历山大 15470
挖掘 15464
磨@@ 15463
Gu@@ 15461
饼 15460
NBA 15455
雷达 15453
制造业 15450
紧迫 15450
慢慢 15446
ang 15444
层次 15443
Tr@@ 15437
肥胖 15437
马尔@@ 15436
坚称 15433
怀@@ 15432
战斗人员 15426
水中 15426
赞比亚 15426
ss@@ 15424
1983 15421
天使 15419
却是 15417
灰色 15406
隆@@ 15398
降@@ 15396
批 15394
衣@@ 15391
利息 15386
幅 15381
已知 15372
共同努力 15369
经纪人 15366
大力 15364
963 15362
柯比 15362
园 15360
增多 15359
作证 15357
位@@ 15352
罪名 15350
毕业生 15338
美分 15338
陆军 15338
新年 15337
将要 15335
西藏 15334
清真寺 15327
公开赛 15325
102 15322
业@@ 15322
旗帜 15314
一届 15313
碰撞 15313
农 15311
幼@@ 15308
噪音 15307
奴隶 15304
观 15304
亚太经社会 15302
密码 15302
约@@ 15301
肯尼迪 15294
争夺 15293
很小 15292
注射 15291
该部 15290
管理@@ 15288
坦克 15286
鲍@@ 15286
七个 15279
神圣 15272
称赞 15262
紧缩 15255
不了 15248
缺席 15246
秋天 15244
塑料 15243
想起 15241
作出贡献 15238
残@@ 15230
早餐 15229
高级官员 15229
定位 15223
狂热 15217
大胆 15215
ner 15214
时机 15207
籍 15207
美国广播公司 15203
计量 15202
而已 15200
呈 15198
曼哈顿 15196
De@@ 15194
几分钟 15189
正当 15189
送@@ 15189
蛋白质 15184
味道 15182
忠诚 15177
令人震惊 15173
存@@ 15165
爱好者 15165
特许 15159
国内法 15155
侧 15153
车队 15153
篮球 15152
有意思 15142
麻@@ 15142
角落 15141
莫桑比克 15140
马耳他 15140
伤@@ 15137
两国 15131
理念 15131
一批 15130
链接 15128
斯基 15126
奠定 15122
构建 15121
咨商 15113
多项 15112
停车场 15111
沉重 15103
29@@ 15094
派@@ 15094
葬礼 15089
直 15086
振兴 15081
宏观经济 15079
称@@ 15079
链 15075
接待 15066
ern@@ 15063
不必要 15061
要是 15060
即便 15057
鹰 15051
吃@@ 15049
棒球 15047
医疗保健 15045
架构 15038
测@@ 15036
副本 15034
宠物 15031
选项 15027
ka 15026
选区 15025
亲爱 15020
码头 15018
契约 15015
扭转 15015
跨越 15013
雇佣 15012
年内 15002
论述 15002
镇压 14998
十二届 14992
胜 14991
HRC 14990
爱沙尼亚 14988
侮辱 14986
Uber 14985
政变 14984
西蒙 14983
硬 14981
标准化 14979
信中 14973
冷 14970
优@@ 14961
权益 14957
着@@ 14957
认@@ 14953
报导 14952
窗口 14946
纽@@ 14943
达成协议 14941
抛弃 14940
登陆 14935
玩@@ 14933
公 14932
爆炸物 14927
头衔 14917
ers@@ 14916
爬 14915
保守派 14914
教育部 14914
被占领土 14912
对比 14908
沉默 14906
号码 14904
庭 14901
起飞 14901
同一个 14899
清洗 14897
通往 14895
警卫 14894
人权法 14891
age 14890
对应 14879
解散 14879
办公 14877
新闻@@ 14877
草稿 14877
Su@@ 14873
卫生组织 14868
狮子 14867
过时 14863
一个@@ 14855
烟草 14853
事宜 14851
豪华 14848
响 14844
批评者 14831
心灵 14829
男 14828
黑山 14822
婚@@ 14817
宽 14817
生物@@ 14816
裁谈会 14814
宁@@ 14809
熊 14805
经合组织 14805
交叉 14799
播出 14797
微 14796
发誓 14792
报表 14792
布鲁斯 14788
有意 14785
肿瘤 14785
公告 14780
词@@ 14779
12.@@ 14776
减免 14769
恐怖袭击 14767
品@@ 14765
采矿 14762
安德森 14754
一间 14752
速@@ 14752
补助金 14749
再度 14739
仅@@ 14737
品种 14736
养护 14733
勘探 14733
懂 14732
公共汽车 14729
导 14728
海底 14728
收 14727
桑 14725
智能 14724
聊天 14723
逝世 14723
几内亚 14719
舒@@ 14711
得出结论 14708
10.@@ 14707
反弹 14707
远程 14704
指导方针 14701
一员 14689
演变 14689
粘@@ 14687
合约 14686
安妮 14686
注入 14685
简 14683
Par@@ 14680
无辜 14679
莱斯 14676
增至 14675
政府首脑 14674
亲属 14672
mdash 14665
尽@@ 14664
En@@ 14659
朝@@ 14654
夏 14647
显@@ 14645
交易所 14642
证件 14640
103 14637
童工 14636
圣经 14632
山脉 14630
偷@@ 14627
有毒 14622
泽 14620
创意 14618
雷斯 14617
公共服务 14616
伤势 14615
ak 14614
公爵 14610
德斯 14610
da 14608
与@@ 14604
期内 14602
共和党人 14601
Cor@@ 14598
权限 14597
液体 14597
刺@@ 14596
激进分子 14596
第五次 14588
体育场 14580
ai 14579
补@@ 14579
und@@ 14578
航天局 14577
三种 14574
摩根 14574
发现自己 14567
酸@@ 14566
ew@@ 14562
马尔科 14561
中文 14558
赛车 14553
布莱恩 14549
陆地 14548
针对性 14545
扭曲 14544
土著人 14540
q@@ 14536
所示 14536
Gar@@ 14532
偷 14532
遗传 14527
ce 14526
可怜 14522
1975 14520
走进 14520
严@@ 14518
戈登 14516
团@@ 14511
搜查 14507
几内亚比绍 14503
安全@@ 14503
尾 14503
义@@ 14495
中午 14491
全国性 14482
尾@@ 14474
3000 14472
航@@ 14463
哪个 14462
军事行动 14458
往@@ 14457
枪@@ 14454
征求 14453
贴@@ 14452
便@@ 14442
峰 14442
办@@ 14439
不太可能 14437
实物 14435
回复 14432
鲨鱼 14431
轻微 14429
省@@ 14423
第六条 14423
中止 14422
350 14420
亚太 14420
知@@ 14420
微软 14414
ber@@ 14412
ke 14411
大赦 14408
预防性 14407
货@@ 14404
意识形态 14393
软 14390
排队 14389
中美洲 14384
供水 14376
间@@ 14375
可见 14374
工作文件 14374
脱 14372
不罚 14367
癌 14365
林业 14354
浪漫 14347
ly 14340
走私 14340
带领 14338
卷入 14336
助@@ 14333
纪念碑 14329
邮@@ 14329
塞族 14327
缺点 14327
受害 14324
无人 14321
凡@@ 14320
成年 14320
uk@@ 14309
矿@@ 14308
流入 14307
海事 14304
这时 14303
尽力 14302
民主党人 14301
半岛 14300
烟 14298
厕所 14296
Sc@@ 14293
哥@@ 14293
露@@ 14289
代尔 14282
浏览 14281
保护区 14279
和平利用 14276
嘉@@ 14276
技术转让 14275
补助 14274
杀手 14272
最有 14271
104 14269
必然 14269
放缓 14268
徒刑 14267
30@@ 14266
乌兹别克斯坦 14263
右翼 14263
land 14253
汁 14250
工作量 14248
克尔 14245
维奇 14245
圣战 14244
不明 14243
传真 14243
署长 14243
1976 14242
愿景 14239
告@@ 14233
125 14231
自由化 14230
举动 14224
哈里斯 14224
斐济 14223
优质 14219
玛丽亚 14219
正面 14205
100% 14200
CA@@ 14192
税款 14192
贝克 14192
桥梁 14188
大屠杀 14185
108 14184
ma 14183
广播公司 14183
国旗 14180
检@@ 14180
工业化 14174
实力 14173
106 14168
洛克 14166
态 14165
毕竟 14164
兰德 14153
热爱 14152
一类 14145
更多地 14143
较@@ 14140
圆桌会议 14134
有史以来 14134
高管 14129
游 14121
布基纳法索 14117
ph@@ 14112
复兴 14111
拉脱维亚 14107
弱势群体 14106
指望 14106
Corr.1 14104
新南威尔士 14103
同学 14095
嘲笑 14095
创下 14092
色彩 14092
视觉 14089
悲伤 14085
资 14083
冒 14082
严峻 14080
一度 14078
格雷 14076
动议 14075
群众 14074
暂行 14070
布雷 14068
倒@@ 14065
销量 14065
盛@@ 14060
爱德华 14055
经济委员会 14055
泰 14052
笔@@ 14046
航 14046
化石 14045
征税 14042
散 14033
乙@@ 14032
存储 14026
船长 14025
泡沫 14022
洗 14021
争吵 14020
略 14018
口袋 14017
115 14015
凯尔特人 14014
行李 14012
Far@@ 14005
á 14003
雨@@ 14003
已故 14001
莉@@ 14001
1974 14000
萨尔 13999
参@@ 13998
到期 13992
所用 13989
天然 13988
紧 13988
青年人 13988
自行 13978
晚餐 13976
德拉 13974
兴奋剂 13972
角@@ 13972
册 13970
ist@@ 13969
查理 13969
事务所 13968
正规 13968
创立 13967
东欧 13965
受过 13964
修理 13958
米尔 13958
无线电 13957
消@@ 13953
钱@@ 13953
赛事 13945
核能 13943
予 13942
暗@@ 13937
AM@@ 13936
寄@@ 13934
损伤 13934
应由 13933
下述 13924
提倡 13923
舱 13919
问道 13917
激发 13915
Images 13914
锡@@ 13910
从中 13906
片@@ 13904
贸易@@ 13904
游泳池 13903
东南亚 13902
经济危机 13902
亲自 13898
伤病 13898
泰德 13897
超市 13894
拿出 13886
需@@ 13885
单身 13881
器官 13880
录音 13878
年级 13864
施工 13862
沉@@ 13859
俩 13857
菌 13855
移植 13854
迷人 13850
高出 13849
第三届 13842
此时 13840
某种程度 13836
侵入 13831
画@@ 13831
Z 13828
PC 13827
第十四条 13826
范畴 13826
买@@ 13819
志愿 13817
帽 13816
录 13814
约瑟夫 13811
酶 13811
展@@ 13807
下文 13806
撒哈拉 13806
至@@ 13804
枪杀 13794
胸@@ 13791
资讯 13790
福祉 13785
附@@ 13782
旅费 13775
精神病 13773
ash@@ 13771
椅子 13771
真诚 13771
112 13762
奥林匹克 13761
奇迹 13758
射 13756
文献 13756
休斯顿 13752
待@@ 13747
AT@@ 13740
奖学金 13739
农村妇女 13732
少量 13730
延续 13728
炎 13728
布拉 13727
无论如何 13722
守@@ 13720
1972 13717
学到 13714
里程碑 13710
人事 13709
% 13700
诸@@ 13699
曲@@ 13698
负面影响 13695
里奇 13690
吸毒 13689
保 13688
区@@ 13687
执政 13687
权能 13686
分担 13683
增编 13683
布鲁克林 13683
线索 13682
帐 13680
创业 13678
伊斯坦布尔 13676
澳洲 13671
奥斯本 13669
签字 13669
审查会议 13667
卫生@@ 13666
占有 13662
词汇 13660
卡斯特罗 13658
购置 13658
调节 13651
进化 13647
投标 13646
标志性 13646
阵营 13639
传说 13638
叛乱 13638
父 13634
ane 13631
激动 13629
As@@ 13623
纳粹 13623
假日 13618
征收 13617
军人 13615
府 13615
FCCC 13613
任@@ 13612
鼓舞 13604
舍@@ 13603
GDP 13601
Kar@@ 13599
兴@@ 13598
吸@@ 13597
中非 13596
1950 13586
巴格达 13583
彭@@ 13583
11.@@ 13579
总督 13577
半决赛 13571
健康状况 13563
粉 13561
绘画 13561
邮政 13561
Her@@ 13558
抓 13552
老年 13548
世界人权宣言 13547
警察部队 13546
更具 13544
制服 13540
刑事法庭 13534
任用 13533
理性 13531
启@@ 13527
克利夫兰 13522
章程 13522
曼谷 13521
演@@ 13520
信函 13518
娃 13516
诉诸 13516
缴款 13511
触@@ 13510
喷@@ 13509
ity 13508
判刑 13508
误解 13508
大师 13507
救护车 13504
ur 13496
底部 13492
内在 13488
过分 13488
灯光 13481
无人驾驶 13480
一百@@ 13476
跨界 13476
坑 13475
认知 13474
洪都拉斯 13469
纠纷 13469
漫画 13466
必不可少 13464
另@@ 13463
ast@@ 13462
种@@ 13461
恐慌 13459
息 13455
假定 13449
摄影 13449
产妇 13448
刘@@ 13445
去@@ 13444
穆雷 13443
肯@@ 13443
矿 13441
后期 13440
认捐 13440
申明 13439
James 13437
通货膨胀 13435
二氧化碳 13434
务@@ 13434
前线 13432
失误 13432
知 13432
助长 13431
看出 13429
辩称 13429
1949 13425
池 13419
芬@@ 13418
动画 13415
惊奇 13407
狂@@ 13407
ier 13406
伴随 13406
各种各样 13406
防范 13403
170 13402
帕特里克 13401
军事@@ 13397
本案 13397
迎接 13396
韦 13396
1977 13394
申报 13392
破坏性 13392
轻 13387
这使 13380
107 13379
NFL 13379
战斗机 13376
观@@ 13373
分娩 13368
一根 13367
库克 13367
蓝 13365
阿德莱德 13365
够 13362
大幅度 13361
暴行 13361
决定性 13359
热量 13359
心情 13358
阴影 13357
109 13356
套@@ 13353
厚 13350
残疾儿童 13347
分段 13345
霍华德 13343
Kh@@ 13339
从不 13337
Bur@@ 13332
中亚 13326
童年 13326
跨国公司 13320
可信 13310
ol 13308
传奇 13302
展出 13295
营养不良 13294
UPI 13288
问@@ 13288
钟 13281
宾@@ 13278
波多黎各 13272
何时 13271
第一步 13268
特里 13266
烤 13260
亚特兰大 13257
鲍勃 13257
ya 13256
蛋白 13256
不停 13254
介入 13249
梦@@ 13242
职@@ 13242
赖@@ 13242
后代 13240
谢 13239
忘 13234
刚才 13232
健身 13231
富 13229
终身 13228
亚历克斯 13219
首脑 13217
毛额 13215
ett 13213
高峰 13212
ford 13206
静@@ 13204
风险管理 13204
摄像机 13197
税率 13191
蚊子 13190
Ed@@ 13187
僵局 13186
复杂性 13186
特工 13186
em 13184
慢 13183
第七 13181
相处 13174
乌 13172
人民政府 13171
每一 13170
自动化 13160
居@@ 13156
篇文章 13156
外交官 13154
亮 13152
Chris 13145
岗位 13142
性别歧视 13142
墙上 13136
ino 13132
手臂 13132
距 13130
伊恩 13129
双胞胎 13128
总经理 13128
坠毁 13123
Em@@ 13112
Donald 13107
耐心 13106
所在地 13103
阿曼 13103
影子 13102
模仿 13101
Paul 13095
段时间 13095
同年 13094
东耶路撒冷 13092
归 13092
第一轮 13092
无需 13089
发育 13088
Per@@ 13083
心里 13081
重叠 13080
措辞 13076
退 13076
手续 13075
Ke@@ 13074
批款 13074
销 13069
数千 13063
犬 13063
114 13059
追随者 13057
延@@ 13055
国际劳工组织 13054
迫害 13051
触发 13049
一台 13047
吊@@ 13047
哈特 13044
自由主义 13043
虚拟 13043
夏威夷 13035
有没有 13035
皮特 13033
精神@@ 13031
华盛顿邮报 13023
处@@ 13021
背部 13020
ard@@ 13018
电视节目 13017
一分钟 13016
伯恩 13015
难题 13015
东盟 13010
休 13009
害 13007
DP 13005
大学生 13005
密 13005
汇@@ 13005
耳朵 13004
营@@ 13004
骚乱 13004
势 13002
联合国环境规划署 13000
ace 12999
刻@@ 12998
非正规 12997
赶@@ 12991
警报 12989
消防 12986
本赛季 12984
三项 12979
冲 12979
UNEP 12978
性侵犯 12978
盟约 12974
蓄意 12972
收养 12970
祖母 12969
个体 12968
差@@ 12967
int@@ 12966
性骚扰 12964
简称 12956
不良 12952
佩 12952
小孩 12952
本着 12952
魔@@ 12950
孔@@ 12947
脖子 12945
字母 12944
序言 12941
终@@ 12939
亿万富翁 12936
超 12935
德班 12930
移@@ 12928
世界贸易组织 12927
借@@ 12924
拼@@ 12922
里奥 12916
背 12912
取得成功 12903
幅度 12901
手枪 12899
灾难性 12894
醒来 12894
1971 12893
CO@@ 12891
yn@@ 12890
纯@@ 12889
凯瑟琳 12888
该州 12887
界限 12886
贝宁 12883
灵感 12876
传感器 12873
简短 12872
羊 12871
设@@ 12868
团长 12866
斯汀 12866
日历 12857
一揽子 12855
餐@@ 12851
三十@@ 12845
网址 12845
拍@@ 12843
剂量 12839
嗯 12838
理事 12837
预警 12837
秋季 12833
收藏 12825
网络@@ 12825
ST 12819
不结盟运动 12819
CD 12818
春季 12817
滑雪 12816
友 12815
顺@@ 12813
顺序 12813
吃饭 12806
在外 12802
情节 12797
全新 12796
IS 12793
无数 12793
议长 12790
目光 12789
稿 12788
官@@ 12785
Google 12780
填@@ 12780
肩膀 12780
忧虑 12779
准 12777
某@@ 12777
送交 12773
饮用水 12768
体内 12764
派对 12764
他于 12763
入口 12760
天赋 12758
塔吉克斯坦 12751
突@@ 12750
尖@@ 12748
头上 12746
毫不 12746
艰苦 12746
走廊 12746
盒 12744
冷战 12743
联黎 12743
薪 12741
电视@@ 12740
多万 12739
招@@ 12737
猛烈 12732
优点 12731
尔特 12723
放射性 12721
火器 12717
骑士 12717
116 12716
原理 12715
胶@@ 12707
着重指出 12706
曾@@ 12705
纳米比亚 12703
资@@ 12703
国防部长 12700
铜@@ 12699
创@@ 12697
Ben 12696
第七条 12694
东北部 12693
Or@@ 12692
ker 12688
签发 12687
受损 12676
Fairfax 12673
一大 12671
不可思议 12671
具体@@ 12671
士@@ 12663
自由党 12663
se 12661
同次 12649
UN@@ 12648
创造性 12648
组织者 12647
豪@@ 12645
订@@ 12641
某一 12639
陈 12635
职类 12631
中立 12625
准备金 12620
113 12619
海湾 12617
裂变 12617
潘@@ 12613
牙齿 12613
睡@@ 12608
接种 12607
各个方面 12606
拖 12604
著作 12603
属性 12602
一会儿 12601
手里 12600
呀 12598
古代 12597
容@@ 12596
劳 12591
基本权利 12588
建筑师 12587
等于 12583
南亚 12580
祖@@ 12580
舞会 12575
力求 12573
玫瑰 12571
在场 12569
延期 12569
多地 12566
财政年度 12564
导航 12563
一次性 12556
承@@ 12556
处以 12553
弃权 12552
联合国儿童基金会 12546
边缘化 12544
操守 12538
卢森堡 12531
东南部 12530
身后 12529
里德 12527
繁忙 12526
迈@@ 12524
应为 12522
价@@ 12521
始于 12520
教区 12517
变暖 12515
充分利用 12510
菜单 12510
继 12509
激增 12508
节奏 12500
井 12497
RT 12495
归还 12495
姐姐 12494
符号 12494
墙壁 12492
布莱尔 12492
切断 12490
灭绝 12486
朝着 12485
既定 12482
克拉 12478
夺取 12476
拉加 12473
留 12473
拿@@ 12472
教室 12472
粉@@ 12472
董事长 12470
房价 12466
弱 12462
科技咨询 12457
尖叫 12454
特区 12453
灵 12451
堆 12447
活动家 12446
南卡罗来纳州 12445
首歌 12444
狼 12443
致使 12441
展望 12439
研制 12432
消息来源 12429
不适 12426
天堂 12425
间谍 12424
司法部长 12422
教徒 12421
放置 12418
逃@@ 12418
回返 12416
煮 12415
世界@@ 12414
切割 12409
field 12408
案情 12401
AC@@ 12399
道奇 12397
景 12396
一幅 12395
开罗 12395
拨 12395
Man@@ 12391
Jo@@ 12390
牙@@ 12387
ou 12386
对不起 12386
我谨 12385
Mal@@ 12383
数以千计 12383
开列 12382
持久性 12381
原本 12379
CEDAW 12377
钥匙 12377
善@@ 12373
联塞 12373
钢铁 12370
牙 12368
ran@@ 12363
瘤 12363
鼻子 12362
巨人 12358
剑 12357
萨姆 12356
辅导 12355
低估 12354
鞋子 12347
县@@ 12344
盗窃 12344
赢家 12340
包裹 12339
民族主义 12338
联利 12338
／ 12336
全年 12332
文职人员 12332
推移 12330
au 12329
整理 12323
西雅图 12317
描绘 12315
相关性 12312
被困 12310
饮酒 12309
Mo@@ 12307
传染病 12303
姑娘 12302
加利福尼亚 12301
塞尔 12300
消息人士 12298
麻 12298
拉斯维加斯 12292
煤炭 12292
阿拉伯联合酋长国 12285
个性 12281
合作社 12279
杰米 12278
迈出 12274
欢乐 12268
解决问题 12267
吻 12262
廷 12261
出台 12260
禁毒 12257
晚@@ 12256
th 12253
汽油 12252
民警 12250
路线图 12248
第十届 12247
罪@@ 12247
定价 12243
有所增加 12243
望远镜 12242
多岁 12240
仪器 12239
么 12238
ain 12236
外联 12235
免@@ 12233
列举 12233
佛 12231
特纳 12231
谋求 12231
彩@@ 12229
置@@ 12228
保释 12225
伯明翰 12223
准许 12217
开发商 12215
SA 12211
研发 12211
维斯 12210
行政@@ 12208
Fl@@ 12207
泥@@ 12206
见解 12206
】 12205
兵@@ 12205
小额 12204
弱点 12202
评@@ 12202
撒 12196
For@@ 12192
亨特 12191
沃克 12191
气象 12189
烹饪 12189
同性 12188
火山 12187
荷 12187
总务 12186
筹备工作 12184
克雷格 12181
二世 12176
境 12174
上班 12171
汉堡 12171
麻醉药品 12171
祖国 12165
sp@@ 12161
八个 12160
分区 12159
白天 12159
追究 12159
力度 12158
故@@ 12158
造 12153
配额 12152
值得注意 12149
底特律 12149
难以@@ 12149
无人机 12140
亲戚 12139
最低工资 12139
得主 12137
Sanders 12136
基本@@ 12136
此案 12132
针@@ 12132
ind@@ 12131
118 12130
欧文 12127
替代品 12125
国有 12121
烧@@ 12121
预订 12120
甚@@ 12116
亮相 12114
假如 12114
舞@@ 12112
ts 12109
宽@@ 12108
Ne@@ 12107
乱@@ 12106
巴拉圭 12104
违法 12103
for 12102
制成 12101
火焰 12101
预先 12100
吉米 12098
奶酪 12096
最快 12096
止@@ 12096
联合国秘书处 12095
世卫 12093
西撒哈拉 12090
丛林 12089
支票 12089
只不过 12086
原料 12085
既然 12084
考察 12083
露 12081
乘 12078
Is@@ 12076
Co@@ 12075
连任 12074
硬件 12073
棘手 12072
三月 12071
电邮 12070
26@@ 12069
柱 12069
本条 12061
轴 12058
1.5 12057
皆 12057
混@@ 12056
amb@@ 12054
专用 12049
阳 12048
容器 12040
依赖于 12038
订 12037
干燥 12036
伍 12034
El 12028
论@@ 12028
糖@@ 12026
步枪 12019
接替 12018
外表 12017
普里 12016
伤心 12014
秀 12013
ari 12012
高尔夫 12012
微型 12008
拉特 12008
可行性 12007
第一天 12004
欠 12002
117 12001
什叶派 11999
122 11998
毒 11991
码@@ 11990
< 11986
displaystyle 11986
oo 11979
系统地 11978
俄 11973
群@@ 11972
ati@@ 11971
喊 11969
院长 11967
种族灭绝 11964
芬 11960
We@@ 11957
尚@@ 11953
监@@ 11951
中将 11945
内地 11945
漏洞 11944
鼠 11943
启发 11942
ve 11941
不知 11935
日常生活 11932
盘旋 11929
1969 11928
一遍 11927
壳 11923
27@@ 11922
传球 11922
身份证 11921
不可@@ 11917
服役 11915
空运 11914
一事 11905
稳定性 11901
发电 11900
崛起 11895
鬼 11895
英国政府 11893
盒子 11891
称之为 11891
欢呼 11889
同伴 11883
竞争者 11883
比额 11880
相比之下 11879
Mat@@ 11875
支撑 11874
看过 11872
控制@@ 11868
流量 11867
隐@@ 11867
编码 11861
估算 11851
偶然 11846
服刑 11841
紧张局势 11841
议 11838
数百@@ 11836
摩 11831
割@@ 11830
Mark 11826
挽救 11825
1961 11818
插入 11817
双性恋 11815
坏@@ 11813
刚@@ 11812
已于 11811
Col@@ 11810
薄 11810
共产党 11809
ova 11808
走上 11806
不法行为 11805
弟弟 11805
深信 11802
演 11798
沃尔@@ 11797
据信 11795
杨@@ 11794
全文 11793
管理员 11787
创纪录 11778
第四条 11778
欧元区 11777
第三条 11777
第二轮 11777
中小企业 11772
付@@ 11771
气味 11771
诞生 11767
新泽西 11761
荣幸 11761
街区 11759
变更 11758
集合 11758
za 11757
谎言 11756
ht@@ 11746
奈@@ 11745
电报 11745
基督徒 11741
拳击 11741
题目 11741
科学技术 11739
机密 11737
否决 11734
闭@@ 11734
施行 11731
哪儿 11727
电子商务 11727
节约 11727
拜访 11724
层@@ 11722
经社理事会 11720
当今 11718
路径 11715
之旅 11710
贫@@ 11708
公共政策 11707
增 11699
页次 11699
季后赛 11698
茶@@ 11697
印尼 11694
皇室 11692
雷德 11691
判定 11689
国民议会 11688
石油@@ 11687
媒介 11686
浴室 11682
期刊 11678
不太 11676
大象 11675
达拉斯 11674
坦桑尼亚联合共和国 11673
性行为 11672
随机 11670
贵@@ 11669
跟随 11667
闪@@ 11665
股@@ 11664
财务@@ 11664
瞬间 11663
无家可归 11660
惊喜 11658
哥 11656
埋 11654
更正 11651
Un@@ 11644
输@@ 11643
酗酒 11641
记载 11635
事务处 11634
八年 11634
厘米 11634
税@@ 11634
系@@ 11634
霍 11633
室内 11632
井@@ 11630
述 11625
胸部 11618
曲线 11615
折扣 11613
表示感谢 11612
在家 11610
头脑 11610
住宿 11602
跳舞 11596
魔法 11596
原油 11590
女生 11584
法律文书 11582
宾夕法尼亚州 11580
AC 11579
ro 11567
翼 11567
个案 11565
涅@@ 11563
pl@@ 11562
获奖 11556
119 11555
违约 11555
之日起 11553
师@@ 11551
令人不安 11547
系数 11547
 11545
百万 11542
移 11541
票@@ 11540
Smith 11537
逃避 11536
炮 11528
yn 11525
坐下 11525
弹性 11523
老龄 11523
真理 11520
插@@ 11519
军火 11515
备@@ 11515
招待会 11511
信誉 11509
原籍 11498
构想 11497
主体 11492
入学 11492
牵头 11492
瓜 11491
吉尔吉斯斯坦 11486
洪@@ 11485
街@@ 11484
户@@ 11482
ks 11481
全民投票 11480
法医 11476
联检 11476
海啸 11475
行动者 11474
麦克@@ 11469
祖父 11466
关键作用 11462
原先 11462
号@@ 11458
难道 11457
阻@@ 11456
三星 11451
停车 11451
迹 11450
道理 11450
会议议程 11449
常用 11444
降落 11444
CN.9 11442
车道 11441
东方 11440
显而易见 11440
口译 11437
生境 11437
颗 11437
预见 11435
剪@@ 11434
轨 11430
ini 11425
下半场 11425
执法人员 11423
研究员 11418
2.5 11412
汤@@ 11410
更糟 11408
奖牌 11404
开端 11404
足@@ 11402
处在 11400
礼貌 11399
载@@ 11398
第四届 11391
普遍性 11390
命@@ 11385
虚@@ 11385
2019 11383
门票 11381
景观 11379
新南威尔士州 11377
历 11376
梅尔 11374
高地 11372
前夕 11371
0000 11370
前后 11370
帖子 11369
炉 11369
下台 11368
Fre@@ 11366
气温 11366
顾及 11365
公式 11358
前途 11357
完整性 11357
第五条 11356
追加 11356
退役 11354
年份 11349
Ber@@ 11347
众 11346
局@@ 11343
施 11343
究竟 11342
1968 11341
闭会 11335
案@@ 11334
亚利桑那州 11333
慈善机构 11333
窗 11329
手工 11328
流行病 11326
２ 11325
差不多 11324
III 11323
Mr 11323
级@@ 11316
警卫队 11314
1.1 11309
喜@@ 11309
跑道 11304
呼@@ 11302
急剧 11302
传输 11301
栏 11301
AN@@ 11300
统计数字 11300
幽默 11294
时光 11294
敬意 11289
领土完整 11289
Inc 11285
两份 11284
强壮 11284
结余 11284
从来不 11280
等到 11280
罗姆人 11280
补编 11278
our 11277
星球 11276
医疗保险 11275
Ben@@ 11270
此举 11270
次序 11268
该案 11266
艇 11265
容 11263
第二章 11255
省份 11253
拦截 11252
七年 11250
置 11250
服@@ 11249
诗人 11249
三位 11247
里根 11245
免 11241
电影节 11241
之夜 11237
保卫 11237
凯蒂 11233
工作@@ 11227
所指 11227
微妙 11224
人会 11222
歌@@ 11218
高速 11215
按钮 11211
黄 11211
预防措施 11210
占@@ 11207
拿到 11207
法人 11204
两级 11203
舰队 11201
浅@@ 11200
盘@@ 11198
啦 11197
赚 11197
辉煌 11197
形态 11193
测定 11192
穿越 11192
臭氧 11192
英国@@ 11190
流通 11189
那位 11184
anc@@ 11183
作出努力 11179
签约 11179
加深 11177
雕像 11176
帐篷 11175
ies 11173
聘请 11170
日报 11164
春@@ 11164
肖@@ 11161
你@@ 11160
遇见 11160
改编 11159
谈谈 11153
te 11149
体育馆 11148
闭门 11148
自治区 11144
der 11140
潜艇 11136
123 11135
优雅 11133
第二十@@ 11133
胆@@ 11132
人口普查 11131
负@@ 11129
肖恩 11126
不如 11125
提示 11125
赌博 11123
模@@ 11120
一轮 11119
脑 11118
送回 11116
音乐家 11114
千 11113
联科 11113
疑问 11111
原子 11109
合法化 11109
更高 11106
公务 11105
跨@@ 11104
14.@@ 11102
文职 11102
贵族 11101
Val@@ 11100
涌入 11099
加热 11098
密度 11097
模块 11097
辛普森 11096
萨摩亚 11095
福音 11094
通讯社 11094
ish@@ 11087
团聚 11087
捕捞 11086
宾 11085
分支 11081
战术 11080
大批 11077
中旬 11076
复活节 11074
警 11073
倾@@ 11072
购 11072
聘用 11070
指派 11069
1945 11068
步伐 11066
毁灭 11066
运转 11066
基尔 11065
容纳 11065
售价 11064
统筹 11064
海报 11060
国际原子能机构 11059
深深 11058
望@@ 11057
人工 11056
土库曼斯坦 11056
职工 11056
埃尔@@ 11049
买方 11046
英亩 11045
好好 11043
章节 11043
根除 11040
百 11040
专长 11039
范 11039
氯@@ 11037
犯人 11037
可卡因 11029
支持率 11029
欣见 11029
输出 11029
Netflix 11027
流动性 11017
同步 11016
租@@ 11013
第七@@ 11013
ger 11011
股权 11011
感到遗憾 11007
科斯 11005
【 11003
吉尔 11001
天内 11001
顶部 10999
行程 10998
般的 10997
遗@@ 10995
志@@ 10993
课@@ 10992
13.@@ 10991
拜@@ 10987
职权 10985
休假 10984
分手 10983
内外 10981
良@@ 10981
搬迁 10980
本土 10980
西欧 10980
等候 10977
简介 10977
展现 10974
都@@ 10972
万名 10967
国际货币基金组织 10966
Ex@@ 10965
好消息 10964
晋升 10958
改组 10957
退休金 10956
ich@@ 10952
许 10950
Pr@@ 10948
会期 10946
便于 10944
Bu@@ 10939
空白 10936
社会福利 10931
跟着 10931
下议院 10930
数百名 10924
传送 10922
巴塞罗那 10919
胜@@ 10919
RE@@ 10914
建成 10914
剑桥 10913
早就 10913
救灾 10911
废墟 10903
马达加斯加 10903
德里 10900
养恤 10898
坚信 10895
误@@ 10894
可否 10893
尼日尔 10892
射杀 10891
无情 10891
争@@ 10884
ath@@ 10879
220 10878
悲惨 10878
丰@@ 10875
港@@ 10875
戏 10873
该条 10872
格雷格 10870
雄@@ 10870
ence 10861
of@@ 10861
澳大利亚人 10855
神经@@ 10853
届会 10851
乔丹 10849
该司 10846
北极 10844
财政@@ 10844
金融市场 10844
肮脏 10840
之类 10839
布拉@@ 10838
强硬 10837
联合国总部 10837
Ryan 10836
激@@ 10830
交往 10829
EC 10826
陆@@ 10824
XX@@ 10821
大法官 10820
订约 10820
诽谤 10819
第一章 10818
敌对行动 10814
香港@@ 10814
人民法院 10812
封信 10811
主导地位 10809
运动会 10809
适@@ 10809
锁定 10808
妇发 10807
无罪 10806
司法制度 10805
经共体 10800
境外 10798
市镇 10797
湿 10797
Bernie 10794
淡@@ 10794
矿物 10790
一倍 10789
一款 10789
投掷 10789
纽卡斯尔 10789
ice 10787
微小 10786
没什么 10785
Sa@@ 10783
销售额 10783
款@@ 10782
生产商 10781
羊@@ 10780
韩@@ 10780
译 10774
令人满意 10772
敌对 10771
att@@ 10770
然@@ 10770
跑@@ 10765
借 10759
着陆 10759
形容 10752
生产者 10752
上去 10746
揭露 10746
启用 10744
甜@@ 10742
铅 10737
受访者 10736
ess@@ 10731
慢性 10730
狄@@ 10730
121 10729
不予 10727
再也 10727
执@@ 10727
控@@ 10726
口味 10725
同期 10725
五名 10720
葛@@ 10717
Ra@@ 10714
原告 10708
薄@@ 10708
锡 10705
先决条件 10703
光明 10703
粒子 10702
敬@@ 10698
毒性 10698
刑事诉讼 10697
邮票 10697
闻 10695
多久 10691
汤 10690
BC 10689
图表 10678
门口 10678
以免 10676
法文 10676
不用说 10675
经济社会 10674
ef@@ 10671
市政 10669
一同 10668
叫@@ 10667
获@@ 10665
挂钩 10662
新生儿 10662
送给 10660
分数 10656
卢比 10655
中央银行 10654
异 10652
舰 10652
奥林匹克运动会 10651
指明 10651
探测 10651
精简 10648
话@@ 10646
概况 10645
９ 10645
塞人 10641
答应 10640
项@@ 10640
270 10638
数值 10636
苏丹政府 10636
基本建设 10635
民族@@ 10634
维护者 10633
和平解决 10629
礼@@ 10629
性生活 10628
明亮 10628
ba 10627
立法机构 10626
斯塔 10625
协调会 10621
per@@ 10619
ens 10617
累 10616
隔离墙 10614
顶@@ 10612
马拉维 10612
生物学 10611
平方米 10606
势@@ 10604
申@@ 10604
抓@@ 10602
图书 10597
aj@@ 10596
拍照 10596
撞击 10594
巴尔的摩 10593
普尔 10593
深切 10590
内政 10586
尊重人权 10586
负担得起 10585
精彩 10582
惩处 10577
刘易斯 10576
ens@@ 10569
氢 10569
神话 10569
宇航员 10564
可靠性 10560
遗留 10558
志 10554
译文 10554
第一批 10552
服务业 10551
wood 10550
开火 10549
扎克 10543
渔@@ 10538
Sam@@ 10536
姿态 10530
日程 10530
ena 10526
兑现 10525
曼城 10525
时报 10524
狗@@ 10523
食用 10523
50@@ 10522
住@@ 10522
召回 10519
献@@ 10519
硬币 10518
ER@@ 10517
陪同 10516
阵地 10514
逃 10513
筹@@ 10512
伸@@ 10511
场@@ 10511
荷@@ 10511
有望 10510
传达 10509
怪 10509
ock 10506
总量 10506
行走 10506
外债 10505
后悔 10504
递交 10504
挫折 10503
醒 10503
十四届 10502
用尽 10500
淹没 10498
ano 10497
不像 10492
统@@ 10492
酱 10491
也就是说 10490
楼@@ 10487
扣@@ 10484
抢@@ 10484
哥本哈根 10482
归咎于 10482
Pet@@ 10481
中所载 10475
圆 10475
鸟类 10475
La 10474
里昂 10472
鸡蛋 10469
1963 10468
1373 10467
唱@@ 10467
痛@@ 10467
Cr@@ 10465
宽容 10464
说出 10464
起点 10463
羁押 10462
这条 10461
警务 10459
卡片 10455
所能 10455
风景 10455
内心 10453
厨师 10453
原则上 10450
当年 10450
深感 10445
商标 10441
商务 10434
仍@@ 10431
í 10427
科学@@ 10427
赫尔 10425
喝酒 10424
充当 10423
仙@@ 10422
这会 10422
中所 10417
刑事责任 10413
赚钱 10413
诗@@ 10412
地质 10409
热门 10408
端@@ 10408
结构性 10408
enn@@ 10407
拜 10406
地产 10405
原谅 10404
一首 10403
缺@@ 10402
压制 10401
贸易协定 10401
永久性 10400
多哥 10399
OS 10397
槽 10394
裁员 10391
实用 10390
废弃 10390
告 10389
猛@@ 10388
Peter 10385
政府部门 10382
榜样 10381
臭名昭著 10380
小规模 10378
假装 10375
450 10374
混凝土 10373
ash 10369
SA@@ 10365
多米尼加共和国 10364
证@@ 10358
全面禁止 10355
124 10354
虎 10349
激光 10348
故 10347
自称 10344
128 10340
拆@@ 10339
念 10337
IC 10336
滑 10336
om 10334
公共@@ 10333
量化 10332
订购 10329
1966 10328
进出口 10327
演习 10325
15.@@ 10323
配 10323
ST@@ 10321
型@@ 10321
德语 10321
替 10321
格雷厄姆 10321
储@@ 10319
新生 10318
抚养 10316
获益 10315
键 10315
部件 10311
这句 10309
海牙 10307
致敬 10307
心理健康 10306
险 10304
英联邦 10303
奈 10299
Pal@@ 10295
探测器 10292
沙滩 10290
敌 10289
进行谈判 10284
海峡 10283
四名 10282
暴力事件 10282
Ag@@ 10278
海伦 10273
鼻@@ 10272
检查组 10269
免除 10267
坚@@ 10267
天体 10267
155 10264
oh@@ 10264
ory 10263
普查 10263
全职 10262
发作 10262
盐@@ 10261
育@@ 10261
合伙人 10260
第九条 10259
封闭 10254
吉布提 10253
币 10253
早已 10251
右边 10247
姆斯 10244
隔@@ 10239
区内 10237
扣押 10236
ek@@ 10234
1964 10231
阿拉伯语 10231
吴@@ 10225
巴里 10218
巴巴多斯 10215
书记 10214
埃文斯 10214
宽松 10212
段落 10208
era 10207
外空 10207
惩治 10205
耳 10205
反驳 10201
女朋友 10199
西北部 10198
na 10194
忍受 10194
住院 10191
人质 10188
不让 10185
地狱 10184
Windows 10183
第二次世界大战 10183
烟雾 10180
示@@ 10180
奥尔@@ 10177
钢 10176
历史学家 10175
第五@@ 10171
尤 10170
答 10169
夫妻 10167
格斯 10166
碳@@ 10166
参加者 10165
入狱 10164
废@@ 10164
猎@@ 10163
哭泣 10160
规律 10159
ri 10156
即可 10155
鉴定 10153
烤@@ 10151
完@@ 10150
刮@@ 10147
塑造 10146
PA 10142
无意 10141
穷国 10140
讯 10139
心中 10138
开幕式 10136
米兰 10136
烧毁 10135
穿@@ 10135
135 10133
伪造 10133
处方 10132
自决权 10132
前方 10131
第八 10131
阵 10130
格拉 10126
兑 10125
天才 10124
Nor@@ 10123
Te@@ 10123
出名 10119
迪拜 10119
IDB.@@ 10117
累积 10117
抓获 10115
Sha@@ 10114
文化遗产 10112
连同 10111
业主 10110
性感 10108
宫@@ 10107
2.1 10106
游骑兵 10105
乳腺癌 10104
野蛮 10101
筹款 10100
第二阶段 10098
Cal@@ 10093
新罕布什尔州 10092
连续性 10086
学员 10084
殖民 10083
饰 10081
Fr@@ 10080
360 10078
营业 10078
转会 10078
州@@ 10075
行列 10071
Andrew 10069
阶级 10068
审@@ 10067
液@@ 10066
获释 10066
额@@ 10065
卷@@ 10064
实时 10064
意志 10063
社@@ 10060
名誉 10059
盈利 10059
地毯 10057
阳@@ 10056
广 10049
职业培训 10048
一封信 10045
一杯 10045
挑衅 10045
久@@ 10044
早日 10043
纳斯 10042
纷纷 10038
牛仔 10037
ant 10036
丹尼 10035
升高 10035
不但 10034
农产品 10030
无限 10030
征@@ 10029
比利 10028
派别 10028
举报 10027
实务 10027
诸多 10027
水面 10024
锅 10023
擦@@ 10020
一切都是 10018
据此 10018
招标 10017
ev 10016
狭窄 10015
上映 10014
很棒 10014
主教练 10013
大赛 10013
上网 10012
煤@@ 10012
潜@@ 10011
非国家 10011
私有化 10009
西南 10008
违法行为 10008
香烟 10008
Taxonomy 10006
混合物 10003
公共行政 10001
批@@ 10001
勒斯 10000
轻易 10000
第五十九 9999
共同@@ 9998
疲软 9997
付费 9996
刑法典 9995
债 9994
固有 9993
奴役 9992
非索 9990
扶@@ 9988
玛格丽特 9987
麦当劳 9985
服务中心 9984
稍@@ 9982
外界 9981
柏@@ 9979
阵容 9975
奎@@ 9973
ik 9972
ama 9971
卫生保健 9971
第一夫人 9970
源自 9967
继@@ 9967
CONF.@@ 9966
做些 9966
绳之以法 9963
略有 9962
ica 9960
途中 9958
一体 9955
盯 9953
手表 9952
膨胀 9952
踢球 9952
外观 9951
烦恼 9946
肩@@ 9946
偶像 9945
开来 9945
迫切 9944
陌生人 9942
图案 9941
无条件 9938
南部非洲 9937
75% 9936
换句话说 9935
牛津 9935
据@@ 9934
摆@@ 9934
二级 9933
灭绝种族 9933
幸存 9930
23@@ 9925
贩毒 9922
丢失 9917
所得税 9917
指引 9916
回国 9915
帕克 9915
CH@@ 9914
固@@ 9911
132 9907
戏剧性 9906
谱 9906
撕裂 9901
星系 9900
源于 9898
氟 9896
127 9894
入学率 9892
收获 9889
结局 9887
IC@@ 9885
具体情况 9885
ore 9884
采取有效 9882
华丽 9877
虚构 9875
四十@@ 9874
几种 9872
ire 9871
悬@@ 9871
美妙 9871
埃里克 9869
乔纳森 9862
星球大战 9862
核算 9861
赶上 9861
过多 9855
个州 9854
关键问题 9850
搜寻 9847
板@@ 9844
账 9844
葬 9840
磁@@ 9839
素@@ 9839
见证 9838
画廊 9837
限@@ 9837
马其顿共和国 9837
博茨瓦纳 9833
约翰内斯堡 9833
丢 9830
刻 9830
对面 9830
注视 9829
新闻稿 9827
今年夏天 9826
不佳 9825
消防员 9824
面部 9824
袭击者 9823
马尔代夫 9822
相结合 9820
迪斯尼 9820
非凡 9817
滚@@ 9816
出身 9809
ney 9808
令@@ 9808
试试 9806
欲@@ 9802
uk 9801
改 9799
一层 9798
上半年 9798
无国籍 9798
金色 9798
Trump 9797
先例 9796
几率 9796
民用 9795
行人 9794
检 9793
眼镜 9789
般 9787
武 9782
126 9780
议定 9779
轮胎 9779
分割 9778
填写 9778
福德 9777
项下 9775
咬 9772
分成 9770
刷 9769
址 9769
牛肉 9768
IT 9762
IP@@ 9761
捕鱼 9758
猜 9758
怎么办 9757
25@@ 9755
垫 9753
迟到 9753
第四十@@ 9752
Mil@@ 9751
点燃 9746
行径 9746
想想 9743
式@@ 9741
走过 9741
st 9739
综合性 9737
壁 9736
概要 9736
法律事务 9735
1.2 9733
138 9733
状@@ 9733
ij@@ 9730
未知 9728
不丹 9723
裤子 9723
洋@@ 9722
胎儿 9722
诗歌 9721
闪电 9721
ill 9720
基层 9713
RC 9712
CO 9708
富人 9708
巴尔 9708
布拉德 9708
沙发 9708
岩@@ 9707
普通照会 9707
澳门 9707
确@@ 9706
大致 9705
用水 9703
酮 9703
芯片 9701
繁殖 9700
第五十八 9699
ure 9697
据报 9696
努 9694
海洋环境 9694
希特勒 9693
好事 9688
斯坦@@ 9686
财务报告 9686
汇款 9685
劳动@@ 9684
制药 9683
贿赂 9683
逃脱 9683
学术界 9682
纪念日 9682
Bank 9681
胃@@ 9681
财务状况 9681
据估计 9678
裁@@ 9675
指向 9674
过后 9672
ie@@ 9670
荒谬 9669
下半年 9668
240 9666
人口@@ 9666
sk@@ 9664
牧@@ 9664
会面 9663
率领 9661
众@@ 9660
刊登 9654
巴斯 9654
AFL 9653
公然 9652
徒 9652
持@@ 9652
自卫 9648
艺术@@ 9648
江 9646
Ham@@ 9645
独自 9643
院@@ 9643
大国 9638
ick 9637
斗 9636
附录 9634
平方公里 9632
134 9631
旗 9630
第三十@@ 9629
操@@ 9625
190 9624
供应链 9624
新华社 9623
昆@@ 9622
序列 9619
左边 9618
法律@@ 9615
ta 9613
货运 9612
放到 9610
列支敦士登 9607
认罪 9607
马里兰州 9601
劳伦斯 9599
扬@@ 9597
海域 9597
追回 9597
24@@ 9596
筒 9590
柴油 9589
文物 9588
有个 9585
限额 9584
op 9583
二十一 9579
法新社 9578
放下 9575
电梯 9575
ist 9574
大宗 9574
宗@@ 9574
生产率 9574
罐 9574
黄金海岸 9572
净@@ 9566
胺 9565
ort@@ 9563
借鉴 9561
司法部门 9561
民粹主义 9561
壮观 9560
艺术品 9560
搁置 9559
雅虎 9559
邻近 9558
抗生素 9557
像@@ 9556
反抗 9554
作出反应 9552
属@@ 9552
老虎 9552
雅典 9552
练 9551
General 9548
账单 9547
胶 9546
IM@@ 9545
表情 9545
自然@@ 9543
重新考虑 9543
相互作用 9542
第九届 9542
正好 9541
安迪 9537
以北 9536
演唱 9535
全额 9534
看不到 9533
银 9533
大城市 9532
安全性 9531
153 9530
输掉 9530
箱子 9529
备 9527
小女孩 9522
大马士革 9520
国会议员 9519
国家队 9519
相符 9519
动用 9518
ain@@ 9517
儿基会 9516
采取任何 9516
宁愿 9515
收容 9513
视野 9512
格伦 9511
脑袋 9511
具体措施 9508
蒙特雷 9508
过渡时期 9507
除此之外 9505
ac 9504
绘制 9504
午夜 9503
鸡@@ 9502
控制权 9501
无力 9501
AL@@ 9500
座@@ 9500
中央@@ 9498
句子 9497
衫 9496
产物 9491
孤儿 9487
销售@@ 9485
存活 9483
死者 9479
涉@@ 9479
血管 9479
西斯 9479
赌场 9479
迪克 9476
失 9475
ES 9474
灯@@ 9472
良心 9468
已婚 9464
划界 9458
所知 9454
佐 9449
化学@@ 9447
中风 9446
临 9445
绝不 9442
追捕 9441
高尔夫球 9436
适足 9433
捷克 9430
草地 9428
怀 9427
虽 9427
大桥 9425
袭 9425
爬@@ 9424
目睹 9421
见下文 9421
核证 9417
ade 9413
沿岸 9413
比分 9407
0% 9406
决@@ 9405
概览 9403
外来 9402
父@@ 9400
紧急状态 9400
est 9399
奉@@ 9399
请愿 9399
乘@@ 9398
艰巨 9397
协@@ 9396
暗杀 9396
学费 9394
环境@@ 9394
保育 9391
材 9388
帮忙 9386
杀@@ 9385
230 9381
星星 9380
玉米 9378
习近平 9375
Ph@@ 9374
薪水 9374
不敢 9373
券 9373
129 9370
La@@ 9369
薄弱 9368
引爆 9363
楼梯 9362
绿党 9360
岸 9358
留给 9356
1948 9355
庇护所 9355
附上 9354
海洛因 9353
情景 9351
出演 9350
劳动者 9350
巴哈马 9348
狩猎 9348
泄露 9347
一声 9346
视力 9345
总的来说 9340
钻@@ 9340
炸药 9339
摄像头 9332
悲痛 9331
羞辱 9330
伤口 9329
每人 9329
检查站 9327
长远 9327
法律顾问 9326
捷@@ 9325
机组人员 9325
签 9325
专题讨论 9321
马拉松 9321
原文 9319
机票 9319
前一天 9318
历史@@ 9317
抛@@ 9317
从前 9315
ics 9313
145 9311
海水 9310
布鲁克 9308
明确规定 9308
SC 9306
出版社 9306
亿元 9305
苦难 9305
Pol@@ 9304
eh 9304
象@@ 9304
市场准入 9303
加里 9295
ost@@ 9294
不同于 9292
雅各布 9292
穆里尼奥 9289
CRC 9288
2.2 9285
210 9285
呈现 9285
暂@@ 9284
立法会 9284
货车 9280
ha 9277
16.@@ 9274
拉美 9270
加密 9269
粗@@ 9269
寒@@ 9268
租 9268
小册子 9267
yr@@ 9265
加紧 9265
心理学 9265
测 9263
每桶 9261
更长 9260
妥善 9259
短信 9259
守 9258
马拉 9258
素质 9255
750 9254
省级 9253
续@@ 9253
Dar@@ 9252
Ram@@ 9252
刀@@ 9250
AP@@ 9249
卫生设施 9248
玻利瓦尔 9245
Gre@@ 9242
三大 9242
紫@@ 9242
莎士比亚 9238
纵@@ 9234
振@@ 9231
旅行者 9231
公立学校 9228
海豚 9228
戒指 9227
飞越 9226
冠@@ 9225
刑罚 9221
心理@@ 9221
拉克 9221
柜 9221
第一阶段 9220
举起 9218
浪潮 9218
TD 9217
午@@ 9217
坦桑尼亚 9217
输 9216
马其顿 9213
ue 9211
好奇 9211
民主@@ 9208
CR@@ 9207
抑郁 9207
上任 9206
转型期 9206
Robert 9203
产假 9203
余地 9203
刑事诉讼法 9203
圭亚那 9203
恶心 9203
下旬 9202
Min@@ 9201
新增 9200
多重 9198
时速 9198
1500 9197
复审 9197
巴布亚新几内亚 9196
沃伦 9195
系统@@ 9195
避孕 9193
功@@ 9191
光线 9188
编纂 9186
模板 9185
SP@@ 9183
载列 9183
戴维 9182
摩纳哥 9181
策 9180
Pe@@ 9178
阻挠 9176
侵蚀 9173
皇帝 9172
停下来 9169
换取 9168
下落 9165
器@@ 9163
银行家 9163
基督 9162
终结 9160
中毒 9158
大于 9157
夸@@ 9152
人民@@ 9149
费率 9149
ym@@ 9147
孙@@ 9147
审计员 9147
中产阶级 9145
戒@@ 9138
搞 9136
自治@@ 9135
听见 9132
人身 9131
慕尼黑 9128
研究生 9128
第七届 9128
ise 9127
主场 9127
截@@ 9124
湿@@ 9121
业务@@ 9120
客厅 9119
终端 9119
焦@@ 9118
口号 9117
吐@@ 9116
安德烈 9116
妇@@ 9112
平行 9112
庞@@ 9112
Richard 9109
框 9109
炸死 9107
赶到 9107
略@@ 9105
鲍里斯 9105
倒塌 9101
中小型 9100
亨@@ 9100
这起 9100
汤普森 9099
毫无@@ 9097
减肥 9096
第六次 9096
搬@@ 9095
格里 9095
购@@ 9095
oll@@ 9093
尿@@ 9093
文中 9090
当事 9086
忠实 9085
易于 9085
选择性 9085
部委 9083
饭店 9083
维拉 9081
IT@@ 9080
di 9078
存放 9078
蒙特 9076
国内外 9075
ett@@ 9073
凝@@ 9072
急需 9072
详尽 9072
墨@@ 9070
忆及 9068
管理机构 9068
多余 9067
一头 9064
业余 9064
幕 9063
维生素 9063
单曲 9062
甲基 9062
诱惑 9062
胳膊 9061
样品 9060
维克 9060
全民 9059
1965 9058
ó 9058
鼓@@ 9057
铀 9056
联合国安全理事会 9055
衬衫 9055
骨折 9054
旅@@ 9052
眼泪 9051
情人 9049
罗杰 9049
乡@@ 9048
面孔 9048
示 9047
演说 9042
肤色 9041
增设 9039
沉 9039
东亚 9038
定制 9038
宣读 9038
积@@ 9034
莫里斯 9033
贩卖人口 9032
效 9031
拖欠 9030
安卡拉 9029
历@@ 9028
开关 9028
透@@ 9027
五角大楼 9026
解释性 9026
避开 9026
用语 9025
亏损 9024
票价 9024
ey@@ 9023
昆虫 9022
虚弱 9019
Ger@@ 9015
不可或缺 9011
劳拉 9010
食谱 9009
后裔 9007
准@@ 9005
所提 9003
教学@@ 9002
雷诺 9002
热线 9000
词语 9000
文化@@ 8999
进而 8998
离子 8996
祝福 8995
临@@ 8993
第五十七届 8993
免于 8992
总之 8992
防 8992
毛里塔尼亚 8991
烧 8990
逆转 8988
一处 8983
否定 8983
牌@@ 8982
攻击者 8980
联海 8978
欢@@ 8977
发病率 8976
PS 8975
出境 8975
率@@ 8975
反过来 8974
英语@@ 8973
钟@@ 8973
收益率 8972
营养@@ 8972
乐团 8968
屈@@ 8968
诉求 8968
计算机@@ 8966
吓 8962
通勤 8961
参赛 8959
四周 8956
撞@@ 8956
沿@@ 8956
NRL 8955
加重 8955
实况 8950
封面 8950
瘫痪 8950
打断 8949
令人鼓舞 8948
变量 8948
Wal@@ 8946
农药 8946
区域性 8944
金融服务 8942
公顷 8940
深化 8932
夹@@ 8931
拉塞尔 8931
电影院 8930
德国人 8929
赤@@ 8926
适宜 8926
肠 8923
西澳大利亚 8923
随意 8923
十二 8922
弯@@ 8919
弹道导弹 8916
脸书 8916
起初 8915
休闲 8913
叔叔 8913
苏珊 8910
误导 8909
International 8907
扣 8907
遗址 8907
不起 8905
热烈 8902
约克郡 8901
评注 8901
坟墓 8900
Mad@@ 8899
胁迫 8897
亚当斯 8896
创 8896
12% 8895
夺回 8895
小小的 8895
红十字会 8890
市场@@ 8889
珠 8883
鲜花 8883
医@@ 8881
是@@ 8880
续会 8880
涂@@ 8879
瓜@@ 8879
勃@@ 8878
夫斯基 8878
奴隶制 8878
拒 8878
流域 8877
昨日 8876
佩里 8875
追逐 8875
分解 8873
科学研究 8873
粒 8873
繁@@ 8872
要说 8871
四天 8870
炮@@ 8870
就职 8868
玩耍 8868
133 8863
出租 8863
挥@@ 8860
似的 8858
罗姆尼 8858
ex 8857
氧 8857
访谈 8855
学年 8854
第三国 8854
起源 8853
所致 8852
Del@@ 8851
另一名 8850
民航 8847
赚取 8842
贫民窟 8841
太阳@@ 8840
运输@@ 8840
CM@@ 8837
该股 8837
半数 8835
Add.2 8833
施政 8833
种群 8831
泛@@ 8830
1951 8829
卖方 8829
运气 8828
并发症 8824
推测 8823
征服 8821
上校 8820
咖啡馆 8819
136 8817
健@@ 8815
林肯 8814
几项 8813
小组讨论 8812
重新@@ 8811
MORE 8810
260 8807
录制 8807
第一条 8803
第六届 8802
挑战性 8801
公爵夫人 8800
叛军 8800
评 8799
川 8795
货币政策 8795
托管 8792
那次 8791
奶@@ 8788
Kl@@ 8787
扫盲 8787
空间站 8787
131 8785
托克劳 8785
束 8785
马歇尔 8783
泰晤士报 8781
审视 8780
露出 8780
频 8779
第五届 8775
财政部长 8774
产品@@ 8773
偷运 8773
监护人 8773
Ali 8772
下属 8772
喀布尔 8771
疲劳 8771
坚实 8768
上来 8766
微生物 8763
布里 8762
胡子 8762
阶 8762
钉 8760
Co 8759
讯息 8759
邓@@ 8758
今@@ 8757
塔尔 8753
人中 8752
体罚 8751
禁 8751
回避 8747
Ash@@ 8746
脚踝 8746
钢琴 8746
败 8744
运营商 8744
美国有线电视新闻网 8743
摔 8742
电路 8740
反而 8739
组件 8738
条目 8737
的@@ 8736
流感 8734
万元 8731
昂 8729
盘子 8728
物流 8727
构造 8725
礼服 8725
丘@@ 8724
Sw@@ 8721
辛格 8719
鹿 8718
俄国 8715
化妆 8715
哪@@ 8715
运河 8714
每股 8712
荒@@ 8710
相一致 8704
悬挂 8702
iy@@ 8700
天花板 8700
灭 8698
越过 8697
一小部分 8696
第一年 8695
Ba@@ 8694
New@@ 8692
欧安组织 8692
建制 8691
铜 8691
盈余 8690
Tra@@ 8687
安全局 8687
律 8687
日记 8686
各部 8685
导师 8685
内华达州 8681
Med@@ 8680
吃惊 8679
悲哀 8678
财@@ 8678
大程度 8673
集装箱 8673
倾听 8670
牢房 8670
----------------------------------------------------------------@@ 8669
程@@ 8669
厌恶 8668
斯托 8666
讲座 8662
权力下放 8660
极度 8660
尔顿 8659
电缆 8659
加蓬 8658
非洲大陆 8655
1962 8654
伯特 8654
战后 8654
科比 8653
播 8651
冠 8649
活性 8649
赤贫 8649
141 8645
疫情 8645
资本主义 8644
aya 8643
翻 8642
182 8639
Bre@@ 8637
大会决议 8637
写信 8635
应予 8635
博拉 8634
司法机关 8632
年纪 8631
城市化 8626
德黑兰 8626
陪伴 8626
智@@ 8624
连贯 8624
pp@@ 8623
冰箱 8623
获准 8622
裁减 8622
密集 8620
--- 8618
玻璃@@ 8616
景@@ 8615
令人担忧 8614
实效 8614
洞穴 8614
厌倦 8613
伸出 8612
17.@@ 8610
让步 8607
祖先 8605
倾斜 8604
拔@@ 8604
第九 8602
辛 8602
扩@@ 8601
class 8599
兼顾 8598
提问 8597
篮板 8596
美军 8596
巡回赛 8594
一日 8593
当地人 8593
潜能 8591
镇@@ 8590
淡水 8588
搞@@ 8587
无障碍 8585
法典 8585
激起 8585
百老汇 8585
轿车 8583
飘@@ 8583
War@@ 8582
纪@@ 8581
宪法法院 8579
服从 8579
目击者 8579
经验丰富 8579
解放军 8576
嫁给 8575
技术支持 8571
三人 8567
一连串 8563
结盟 8563
前者 8560
火车站 8560
偏离 8559
欧洲共同体 8558
激动人心 8558
艾哈迈德 8557
擅长 8554
醇 8554
非洲人 8554
欧佩克 8551
杰森 8549
㈣ 8547
剧@@ 8547
票房 8547
eth 8545
退伍军人 8543
反击 8542
毒素 8540
孤@@ 8539
4000 8536
ata 8534
下调 8534
第十一届 8530
容量 8529
裂 8529
日后 8524
AC.@@ 8523
Wil@@ 8522
相互依存 8521
毫不@@ 8520
遵照 8520
围 8519
顶端 8519
与会 8518
垄断 8518
稀@@ 8515
泉 8514
流失 8513
ust@@ 8512
课题 8512
Mu@@ 8509
攻@@ 8509
man@@ 8508
麦凯恩 8508
西北 8507
银河 8506
威廉姆斯 8503
18.@@ 8502
凯尔 8502
宜@@ 8500
东北 8499
研@@ 8499
同盟 8497
治愈 8497
NBC 8495
穆 8495
第五十@@ 8494
绿 8493
一刻 8492
变为 8491
管理者 8491
泡 8490
扫@@ 8486
身材 8486
ish 8485
兽医 8485
不可分割 8484
村@@ 8482
系统性 8482
村民 8481
多元 8480
吸取 8479
琴 8479
纹 8479
背叛 8479
综合症 8476
便是 8474
沿 8474
矿业 8474
匹兹堡 8473
性关系 8473
污@@ 8472
作法 8471
工程@@ 8471
软件@@ 8471
效@@ 8469
压倒性 8467
鸣@@ 8467
动摇 8466
有名 8466
智力 8465
冒@@ 8462
急性 8462
最具 8461
信息@@ 8459
公私 8459
事后 8458
益处 8457
切尔 8456
谈@@ 8456
姓 8453
须@@ 8453
CP.@@ 8451
震@@ 8449
尔森 8448
业已 8447
镜子 8447
Av@@ 8446
德利 8446
防卫 8446
跃@@ 8444
坎贝尔 8443
改动 8443
Bra@@ 8442
多元化 8441
沙拉 8440
空气污染 8440
联合国日内瓦办事处 8440
境况 8439
SE@@ 8437
勋章 8435
地名 8433
庭长 8430
月亮 8430
盖尔 8430
通告 8426
估值 8425
承付 8423
逊 8422
克鲁@@ 8421
集束 8419
宝宝 8418
对冲 8418
累@@ 8418
察@@ 8417
刑期 8416
察 8415
寻@@ 8414
缺口 8412
前来 8411
共产主义 8406
控 8405
按时 8404
哈瓦那 8403
届时 8403
附带 8403
参见 8402
明尼苏达州 8401
潘 8401
犹他州 8398
克里@@ 8396
预算编制 8396
adi 8395
受益人 8395
经由 8394
怪异 8392
邓肯 8392
弗林特 8391
饰演 8388
喝@@ 8382
熟 8382
TV 8381
our@@ 8381
142 8378
1958 8378
Sim@@ 8377
辩护律师 8377
汇 8376
为例 8373
授@@ 8373
少于 8371
相互@@ 8371
137 8365
挖@@ 8364
Rubio 8363
舆论 8363
语法 8363
阿拉 8362
弱@@ 8361
再生 8360
Ind@@ 8359
class@@ 8357
新闻网 8357
尖锐 8355
核不扩散 8354
Ol@@ 8352
近几个月 8351
善良 8349
联合@@ 8349
潮湿 8347
新娘 8345
ite 8343
严重性 8342
冈比亚 8342
法外 8340
贝利 8340
豹 8339
金斯 8339
儿@@ 8338
缓和 8338
air 8337
唐 8337
推定 8337
ington 8334
九个 8330
伊斯兰会议组织 8330
DA@@ 8329
审核 8329
唱歌 8328
骨头 8326
IV 8323
图形 8322
训研 8322
以供 8319
erg@@ 8318
ond@@ 8316
情报局 8316
冷却 8315
All@@ 8314
巡回 8312
艺 8312
红十字 8311
工业@@ 8308
承担责任 8308
诱@@ 8305
南极 8304
疯 8304
在此期间 8303
孕产妇 8302
美味 8302
发电机 8301
子公司 8300
守门员 8299
宣@@ 8299
汽车@@ 8299
达尔 8299
yd@@ 8297
中世纪 8297
陶@@ 8297
宝贝 8296
甄选 8296
一侧 8295
坎 8295
珠@@ 8294
到位 8293
发表声明 8293
败@@ 8293
小男孩 8288
oy@@ 8287
克鲁斯 8287
挂@@ 8287
这两项 8287
ita 8285
主帅 8285
脂 8285
INF 8284
款额 8284
罗伯茨 8284
纪 8282
交货 8281
牠 8279
血统 8279
都柏林 8279
债务人 8278
热点 8278
移除 8277
系列赛 8276
员@@ 8275
善 8275
漏@@ 8275
雇佣军 8272
驾车 8272
输给 8271
议会选举 8269
并非如此 8267
女友 8266
福斯特 8265
起义 8264
斑 8262
贝鲁特 8262
上赛季 8261
无可@@ 8261
第三季度 8261
吞@@ 8258
糟 8257
Martin 8256
婚 8256
Original 8253
CA 8252
利斯 8252
防护 8252
毁坏 8251
伊拉克政府 8250
关岛 8249
种族隔离 8249
埋@@ 8248
新建 8246
Group 8245
幼儿 8245
ada 8244
宝石 8244
宗教信仰 8243
补救措施 8243
装有 8241
新闻界 8240
余下 8239
激怒 8238
放映 8237
Kr@@ 8236
教育@@ 8236
传染性 8233
兴建 8233
压缩 8233
填充 8232
苦 8231
年里 8230
推销 8228
经营者 8228
信徒 8226
关节 8224
打印 8224
ung 8223
无聊 8223
独立宣言 8222
纹身 8222
缴付 8222
斡旋 8220
有所不同 8219
162 8218
暴跌 8218
视角 8218
蒂斯 8217
生理 8215
欲 8214
作曲家 8212
充@@ 8210
崇拜 8209
欲望 8209
混淆 8209
ack 8205
万亿美元 8204
北非 8204
威斯敏斯特 8204
生产能力 8204
难过 8204
心态 8203
139 8201
强行 8201
最少 8201
蔑视 8199
are 8198
十六届 8198
Kasich 8196
腔 8195
喜剧演员 8194
自由贸易 8193
166 8192
浸@@ 8188
中方 8187
极端分子 8186
过剩 8185
阿拉伯国家联盟 8184
束缚 8182
雾 8182
Mel@@ 8180
巡@@ 8180
高盛 8180
皇@@ 8179
统计局 8179
受益者 8178
凭 8177
瑞安 8177
车祸 8177
抑郁症 8176
筛选 8173
奶油 8172
遗忘 8172
上课 8171
传媒 8167
邦@@ 8164
执行@@ 8163
ski 8162
菜@@ 8162
中央政府 8160
战略性 8159
佳@@ 8157
温柔 8155
体育运动 8154
杀戮 8152
名列 8147
弹劾 8146
19.@@ 8142
贬值 8142
压迫 8141
局部 8141
解脱 8140
跟@@ 8140
峡谷 8138
直布罗陀 8138
阳台 8131
ion@@ 8130
翁 8129
倒退 8126
贝拉 8126
戈兰 8124
原有 8123
干什么 8122
科技@@ 8121
限制性 8120
169 8119
瑞恩 8117
德里克 8116
完工 8115
拟@@ 8114
3.1 8113
恰@@ 8113
摇@@ 8113
植@@ 8111
役 8108
族群 8108
执照 8107
歌词 8107
Mur@@ 8106
几位 8105
告别 8104
he@@ 8102
鸟@@ 8102
伏 8101
佛教 8101
加紧努力 8100
席@@ 8098
恒@@ 8098
树立 8098
伯爵 8097
豆@@ 8097
孙子 8096
开启 8096
悬崖 8096
梁 8096
务实 8093
各省 8093
树林 8093
游艇 8092
迟@@ 8092
爆 8091
环节 8091
骑@@ 8091
English 8090
摩尔多瓦共和国 8090
感动 8089
175 8088
保护@@ 8088
桃@@ 8088
莱特 8087
圈@@ 8086
143 8085
暂定 8084
旅 8082
第八届 8082
Bel@@ 8081
动脉 8081
押 8080
驻扎 8077
上衣 8076
扶持 8076
规格 8076
Str@@ 8075
耻辱 8075
数十年 8074
决 8072
墓地 8072
借助 8069
所称 8069
队@@ 8069
进出 8068
art 8067
会计师 8067
运动@@ 8067
乎 8066
男朋友 8065
五分之一 8064
眼中 8064
几名 8062
朗德 8061
恶意 8060
声援 8059
缩@@ 8059
res@@ 8058
怪@@ 8058
竭尽全力 8058
于本周 8057
试着 8057
144 8055
放入 8055
激素 8055
鞋@@ 8054
垂@@ 8051
监护 8051
意想不到 8049
惠益 8048
敌意 8046
Kir@@ 8045
委@@ 8045
益 8045
蜜蜂 8042
第十九条 8041
lin 8038
电视剧 8036
脚步 8036
雕塑 8036
血腥 8034
征 8033
气旋 8033
电影@@ 8030
饼干 8030
尔曼 8028
AT 8026
sen 8023
赖 8023
一新 8021
螺@@ 8021
Sol@@ 8020
因子 8020
平均水平 8020
迪伦 8020
龄 8019
先后 8017
撒谎 8016
卓越 8014
宣告 8014
上调 8013
阿拉伯人 8009
［ 8009
两党 8008
单词 8008
枝 8008
35% 8006
ab 8006
氯化 8006
紫色 8006
卫队 8005
数以百计 8005
心理学家 8003
格兰特 8002
注定 8002
瓶子 8002
版@@ 8001
仅限于 7998
渔民 7995
野 7995
函 7994
称呼 7994
领地 7994
三角 7989
宣誓 7989
幕后 7988
麻醉品 7988
上周末 7987
侦查 7987
密歇根州 7987
把握 7985
市区 7984
ala 7982
现时 7980
莱恩 7980
利益冲突 7978
晚间 7978
yl@@ 7977
门槛 7976
PR@@ 7974
基石 7974
调集 7969
Ge@@ 7967
深远 7965
州政府 7963
Johnson 7962
散布 7961
面具 7961
首尔 7961
冲动 7960
奉 7960
印度洋 7958
丹尼斯 7957
广告@@ 7957
恐龙 7957
简易 7956
语音 7956
领事 7956
愈@@ 7955
ich 7954
斑@@ 7954
预言 7953
ex@@ 7951
卖出 7951
借此机会 7950
柔@@ 7950
解密 7949
巴萨 7944
SP 7940
是非 7940
� 7940
保护措施 7939
罗德 7939
les 7938
侧@@ 7938
根深蒂固 7938
分组 7937
外汇 7937
May@@ 7936
ess 7936
减弱 7936
议案 7936
勇士 7934
实习 7930
库珀 7929
房舍 7929
巧妙 7927
余 7926
第四季度 7926
Ak@@ 7925
兄弟姐妹 7924
值@@ 7923
刑 7923
宿舍 7921
南美洲 7920
146 7918
猎人 7918
缴 7918
俄@@ 7917
做饭 7917
同胞 7917
童 7917
家庭@@ 7916
尽量减少 7914
烈@@ 7910
避@@ 7910
鹿特丹 7910
投资@@ 7907
评论家 7902
投降 7899
驱逐出境 7899
乐意 7898
文档 7897
辞 7896
再见 7895
四次 7894
环球 7894
晚会 7893
牧场 7893
NHS 7892
棕色 7891
拖车 7890
］ 7890
ock@@ 7887
冬@@ 7886
海军陆战队 7886
劲 7885
丹佛 7883
沿线 7882
频@@ 7882
租用 7881
站@@ 7881
重大进展 7881
华纳 7879
驾驶员 7879
汲取 7878
韦恩 7876
俗@@ 7873
寺 7873
方程 7873
147 7871
占领国 7869
oul@@ 7866
持久和平 7865
Cruz 7864
一任 7863
援 7862
尤为 7861
皇后 7861
砖 7861
磨 7857
给@@ 7857
1940 7856
雄心勃勃 7856
熟练 7855
IP 7853
南北 7853
稳步 7853
耳机 7852
13% 7850
ord@@ 7850
百分之@@ 7850
闭幕 7850
预示 7847
齿 7847
挑@@ 7846
结果显示 7845
地形 7844
调查团 7843
万个 7842
刊 7841
零件 7841
靠@@ 7840
帝 7839
154 7837
在职 7837
痕迹 7835
虎@@ 7835
借贷 7834
非统组织 7833
此处 7832
经常性 7832
联合国人口基金 7832
遗体 7830
划 7827
物业 7827
革新 7827
审批 7824
氧化 7822
画家 7822
源@@ 7821
琳娜 7821
腹@@ 7821
五次 7820
自主权 7819
烈 7818
温哥华 7815
联网 7815
许@@ 7814
日元 7813
欠@@ 7812
扣除 7811
置评 7811
裙子 7808
赌注 7808
235 7807
礼拜 7807
小丑 7806
.. 7803
发生冲突 7802
波音 7801
法国人 7799
走路 7798
Ban@@ 7796
总局 7795
经销商 7794
数年 7788
犯罪活动 7788
ABC 7787
受审 7786
Bal@@ 7785
爱国者 7783
ons 7782
1540 7781
157 7781
资金来源 7781
无线 7777
水下 7775
q 7774
绕 7773
ella 7770
印第安人 7770
Lev@@ 7769
约定 7768
直播 7767
第六@@ 7765
阿伯丁 7765
往来 7762
疡 7762
鸿沟 7762
平面 7760
社团 7760
凯西 7759
每当 7759
地向 7758
怕 7758
ars 7756
敦 7756
San 7755
北韩 7755
撕@@ 7753
吉他 7752
Pri@@ 7750
清醒 7749
生殖器 7749
西装 7749
兽 7747
未决 7747
堆@@ 7746
濒危 7746
生活@@ 7746
非营利 7746
院子 7745
累计 7744
牵@@ 7743
英译汉 7743
坛 7742
去除 7741
手套 7741
水泥 7740
颁奖典礼 7739
大会堂 7738
偷窃 7736
喂 7736
杯子 7733
sch@@ 7732
第十二届 7731
马克斯 7729
四条 7728
总会 7728
过量 7728
Rev@@ 7725
技术性 7725
Shar@@ 7724
气球 7724
豆 7723
身心 7723
银行@@ 7723
克莱 7722
候选 7717
划拨 7716
派驻 7716
著@@ 7716
帮@@ 7715
盗@@ 7715
不行 7714
土著居民 7712
带回 7711
嘿 7707
CN@@ 7706
怪物 7705
不利于 7704
医务人员 7704
贡@@ 7703
鬼@@ 7703
令人遗憾 7701
定居者 7701
蜂@@ 7700
遥感 7700
威尼斯 7698
生产@@ 7697
纯 7691
隐瞒 7690
积极分子 7689
BS 7685
货币基金 7684
狼@@ 7683
Morgan 7682
ial 7682
恐怕 7682
赦免 7682
钦@@ 7682
1930 7681
ery 7681
第一季度 7681
自我@@ 7681
CE@@ 7680
杨 7680
第八@@ 7680
纳税 7679
征得 7678
官长 7676
斯科@@ 7676
初始 7672
认出 7672
煤 7671
for@@ 7670
WP.@@ 7667
休斯 7667
十几岁 7667
抽出 7667
弃 7665
第一款 7664
鼓 7663
ong@@ 7662
标识 7662
百万美元 7662
一般来说 7659
半个 7659
3.5 7658
不合理 7657
大气层 7657
一年一度 7656
奖杯 7655
架飞机 7654
尘@@ 7649
里亚 7649
祖 7647
境地 7645
湖人 7645
亚的斯亚贝巴 7644
课堂 7644
佳 7642
签@@ 7642
156 7639
失利 7639
编入 7639
Er@@ 7638
喷气式 7637
iss@@ 7631
出口@@ 7631
部位 7631
臂 7630
ga 7629
总收入 7628
开业 7626
更衣室 7626
采集 7626
amm@@ 7622
身高 7622
问卷 7622
40@@ 7621
调查员 7621
道格拉斯 7621
违@@ 7620
弯曲 7619
拘押 7619
新闻报道 7617
荣@@ 7617
录@@ 7614
炮弹 7614
翅膀 7609
使人 7608
侧重 7605
丙@@ 7604
庆@@ 7603
抵 7603
钱包 7603
技@@ 7602
维基 7602
返@@ 7602
冰淇淋 7599
新政府 7599
一流 7596
极限 7595
挫败 7593
持有人 7590
独立国家 7588
蛋@@ 7588
国土 7586
访 7586
单个 7585
奋斗 7585
桥@@ 7585
不去 7584
无权 7583
Mer@@ 7582
全国代表大会 7582
移动电话 7582
乔恩 7581
炫耀 7581
开辟 7580
berg 7579
京@@ 7578
创办 7578
玉@@ 7578
着眼于 7578
诉@@ 7575
人称 7574
轰炸机 7574
占用 7573
警长 7573
ance 7572
狂欢 7572
硫@@ 7571
外出 7570
闯入 7570
强加 7569
控告 7568
笑@@ 7568
DC 7566
Mag@@ 7565
互助 7564
一世 7560
判 7560
庆 7559
主演 7558
Com@@ 7556
勋爵 7556
塞夫 7556
多方 7556
晚期 7556
ment 7554
伪@@ 7553
增幅 7553
交易@@ 7552
空调 7552
宴会 7547
1946 7546
垂直 7545
甲板 7544
DVD 7543
交通工具 7543
晶@@ 7537
ins 7536
充分@@ 7536
赞@@ 7534
居留 7530
泥 7530
定性 7529
妈 7528
事务司 7527
排列 7527
民政 7527
四分之三 7526
ron 7525
交出 7523
肇事者 7523
3.2 7522
提供者 7519
Thomas 7517
一阵 7513
日志 7513
科维奇 7512
例行 7510
末@@ 7510
比特 7510
克里斯托弗 7509
上尉 7508
特有 7508
迁徙 7508
五月 7507
联合国粮食及农业组织 7507
At@@ 7506
特拉 7506
拉里 7505
叛@@ 7503
粉色 7503
都市 7502
东区 7501
缩减 7499
缔约 7498
巴沙尔 7493
佩尔 7492
ette 7488
候@@ 7488
弄@@ 7487
结尾 7486
ID@@ 7484
戈尔 7484
擦 7483
旋@@ 7483
Hay@@ 7482
con@@ 7481
情报@@ 7480
放心 7480
用餐 7479
接口 7478
３ 7477
才华 7473
订阅 7473
宽带 7471
320 7469
夜总会 7469
富兰克林 7469
并入 7469
传给 7468
号法 7466
Res@@ 7464
急 7463
戴尔 7463
准确性 7462
出示 7461
结核病 7461
Hal@@ 7459
Hol@@ 7459
基线 7457
洲 7457
第五十四届 7457
151 7456
围墙 7455
生命权 7455
奥克兰 7451
褐色 7451
伏@@ 7450
卡罗 7450
航天 7450
浓@@ 7449
泵 7448
上瘾 7445
尼古拉斯 7445
环境影响 7442
车上 7440
缘 7439
152 7438
Distr 7438
内政部长 7436
金伯利 7436
卡森 7434
景象 7433
攻势 7432
修道院 7431
诺夫 7431
介@@ 7430
无知 7430
EM@@ 7429
ko 7429
上周日 7429
索取 7427
ans 7426
采 7425
商场 7424
萧条 7424
销@@ 7424
蓝军 7420
中为 7419
盾 7418
联苏 7418
助 7417
贪婪 7416
刑事犯罪 7415
圣地 7415
供给 7414
做过 7413
判@@ 7412
泡@@ 7409
兔子 7408
减灾 7407
海运 7406
渥太华 7406
经社 7406
高风险 7406
165 7404
医务 7404
媒体报道 7403
际 7402
密切相关 7401
竞争性 7400
充分考虑 7399
罩 7399
阿什 7399
老兵 7398
挤@@ 7397
缓 7397
肺 7396
飙升 7396
6000 7395
仆人 7393
幼儿园 7393
操作系统 7393
布赖恩 7392
谋@@ 7392
意味 7391
顺 7391
轮椅 7389
领导者 7389
曝光 7388
联邦@@ 7385
周边 7383
149 7380
丑陋 7380
山姆 7380
普斯 7380
11% 7379
力学 7379
烧伤 7379
ult@@ 7378
冲浪 7378
妇女组织 7377
细 7377
郎 7377
想过 7376
生产性 7376
捕@@ 7373
半小时 7372
焚烧 7372
次要 7371
永恒 7371
ero 7370
而成 7368
一月 7358
原型 7357
莎拉 7356
FC 7355
牲畜 7355
对称 7354
音乐@@ 7354
方济各 7351
通知书 7349
普遍认为 7348
波恩 7348
保持一致 7345
运载 7345
妓女 7344
继承人 7342
CS@@ 7341
珍妮 7341
总计 7339
欺凌 7339
Abu 7336
首位 7336
具@@ 7335
斯诺 7335
溜@@ 7335
ct@@ 7333
反思 7333
在世界上 7333
布雷顿 7332
中欧 7331
导向 7330
拉德 7330
牢@@ 7330
1959 7328
轰@@ 7328
二十年 7326
平常 7323
建筑@@ 7323
睡着 7323
公职 7322
夹克 7320
148 7319
Ap@@ 7319
失调 7319
拘禁 7319
爱好 7319
有效率 7318
砖@@ 7318
间隔 7318
副作用 7315
尖 7315
教育权 7315
Im@@ 7313
调查表 7313
北欧 7312
瑙鲁 7311
高效率 7310
腺 7309
功 7308
厄@@ 7306
广阔 7306
158 7305
减税 7305
驶@@ 7305
获胜者 7304
严格遵守 7303
注明 7303
最坏 7299
毕@@ 7298
渐渐 7297
第一份 7296
价格上涨 7295
出席会议 7295
戴着 7295
市场经济 7294
民调 7294
眼前 7294
兴起 7293
化学物质 7293
桌上 7292
竞技场 7292
出资 7291
米特 7291
pe 7290
柄 7290
评为 7290
滚动 7289
付给 7288
三方 7287
280 7286
雷尔 7285
下雨 7284
两只 7282
电话@@ 7282
iri@@ 7280
马萨诸塞州 7278
污水 7277
骗子 7277
噢 7276
附注 7276
友@@ 7274
蕾 7273
一向 7272
酋长 7272
九月 7271
十二@@ 7271
强制执行 7270
安全措施 7269
专 7268
偏远 7268
CC@@ 7266
int 7266
洋 7265
ach 7263
岛@@ 7263
无限期 7263
Kal@@ 7262
反射 7262
均匀 7261
停滞 7258
创造力 7257
第三章 7256
稍微 7255
别墅 7254
懂得 7254
户外 7254
教导 7254
熊@@ 7254
痴呆 7253
监督机构 7253
mann 7249
疏忽 7248
盖茨 7248
两大 7247
特别法庭 7247
丧@@ 7246
牛顿 7246
顶峰 7246
贯彻 7244
迷 7244
银行业 7241
民族和解 7240
名词 7237
抢 7235
坠机 7234
打球 7234
骗 7234
医学@@ 7230
高昂 7227
贷@@ 7225
生动 7223
十分@@ 7219
桩 7219
阿拉斯加 7219
附有 7218
湖区 7215
平原 7214
开发@@ 7214
金融@@ 7213
王朝 7212
筋 7212
轴@@ 7211
之处 7210
儿童@@ 7209
卧@@ 7208
市政府 7208
气象@@ 7204
加的夫 7203
各项规定 7203
摇滚乐 7203
燃@@ 7203
保养 7202
第十条 7200
误差 7198
161 7197
拨@@ 7197
Ver@@ 7196
一致意见 7196
梁@@ 7196
一股 7194
军备竞赛 7194
短语 7193
1956 7191
ster 7191
美国国会 7190
CC 7189
佩雷斯 7188
继续下去 7187
主管机构 7186
对照 7185
病情 7185
不在乎 7184
应得 7184
致电 7184
ö 7183
卡洛斯 7183
微不足道 7183
避难所 7183
购物中心 7182
千万 7181
模 7181
注销 7181
14% 7180
天文台 7180
数十亿美元 7178
DE@@ 7177
Gi@@ 7176
废料 7174
吕@@ 7173
徘徊 7173
评分 7173
挖 7172
驻@@ 7172
第四个 7166
即时 7165
油漆 7165
罗伯 7165
鲜@@ 7163
六月 7162
反对者 7162
善意 7162
放大 7162
收缩 7161
沟 7161
谜 7160
增效 7159
估价 7158
述及 7158
友善 7157
崇高 7157
融化 7157
业界 7156
该次 7155
罗伊 7154
觉 7154
不列颠 7151
侯赛因 7151
呼叫 7151
出人意料 7150
太大 7150
小岛 7150
制备 7148
职业@@ 7147
旺@@ 7146
多方面 7144
Ev@@ 7142
东南 7139
氯 7138
225 7137
养育 7137
罗宾 7137
警惕 7136
天文学家 7135
评审 7135
床@@ 7134
大片 7130
承运人 7130
珊瑚 7130
Bro@@ 7129
商品价格 7129
兑换 7125
囊 7125
流产 7125
航天器 7122
对峙 7121
世界冠军 7120
背包 7120
一期 7118
医师 7118
电脑@@ 7117
祝 7117
罗姆 7117
肖 7117
歌剧 7114
特立尼达和多巴哥 7114
狂 7114
卡罗尔 7113
遵约 7111
航线 7110
恶魔 7106
秋@@ 7106
简历 7106
投票权 7104
1947 7103
201 7103
way 7099
公司@@ 7099
ü 7098
南海 7098
异议 7098
盖蒂 7098
莱索托 7097
1954 7096
ier@@ 7096
电话号码 7094
腰 7093
ake 7092
结算 7092
ver@@ 7091
学徒 7091
先驱 7089
通向 7089
兴 7087
应是 7087
走开 7086
谣言 7085
概括 7083
附表 7083
珠宝 7082
三明治 7081
勇@@ 7081
对本 7081
医学院 7080
West@@ 7079
寡妇 7075
坡 7074
布莱@@ 7074
哈马斯 7072
珍贵 7072
莱纳 7072
den 7071
你好 7069
夹 7069
以使 7068
迁@@ 7068
沃森 7067
工作日 7066
竞@@ 7066
骨骼 7066
ul 7065
圣保罗 7065
自闭症 7064
AF@@ 7062
George 7061
纽约州 7058
阿布哈兹 7057
氛围 7056
〉 7054
和政 7054
仿真 7053
萎缩 7053
广播电台 7052
2.3 7051
堂@@ 7051
地下室 7050
之二 7047
例@@ 7047
克莱尔 7046
后备 7046
时髦 7044
开除 7043
密封 7042
笔记 7042
继任者 7041
民主化 7039
迪斯 7038
珊瑚礁 7037
暴雨 7036
升起 7034
译@@ 7034
45% 7032
救出 7032
伴 7031
特曼 7031
承办 7030
Ha@@ 7028
辩@@ 7028
昏@@ 7025
身穿 7025
偷走 7024
拜登 7024
股息 7023
西班牙文 7023
ith 7022
措词 7022
传染 7021
涅 7021
流血 7020
渔船 7020
商界 7019
从此 7018
up@@ 7015
三维 7015
变形 7013
避难 7012
里士满 7011
低下 7010
打交道 7010
荣 7010
运动场 7009
预审 7009
恨 7008
探 7006
GC.@@ 7004
行政长官 7004
仿@@ 7003
帐@@ 7003
奖@@ 7002
春 7002
美术馆 7002
卢克 7001
发展@@ 7001
四场 7001
复 7000
兼职 6999
SS 6997
蝙蝠侠 6997
TA 6995
』 6995
小麦 6995
比作 6995
假释 6994
是否是 6994
求助 6993
联合行动 6992
第九@@ 6989
汇集 6988
致力 6988
营运 6988
皮埃尔 6981
沿海地区 6980
Ted 6979
出血 6979
当晚 6979
炸@@ 6979
转身 6979
黄油 6978
滕 6977
听力 6975
布鲁@@ 6975
九年 6974
尼克松 6974
扣留 6973
攻击性 6973
护 6972
射手 6971
伯里 6970
来临 6969
Android 6968
肯塔基州 6968
小偷 6966
抹 6965
押@@ 6964
罚 6964
珍@@ 6963
照明 6962
有形 6961
高度重视 6961
妮@@ 6960
评委 6960
贝尔法斯特 6960
领带 6959
大都会 6958
真空 6956
祷告 6956
第十三届 6956
洛斯 6955
之友 6954
发票 6951
届满 6949
摔@@ 6949
不时 6948
常任理事 6948
不见 6947
巴赫 6947
肉类 6947
Mas@@ 6946
ald 6945
区域间 6945
CRP.@@ 6944
发生变化 6943
逐@@ 6943
MA 6942
杰西卡 6942
军用 6941
糖果 6941
手持 6940
闲@@ 6940
更是 6939
而定 6939
SNP 6938
克制 6938
酯 6938
冰川 6937
hi 6936
sky 6936
〈 6936
tr@@ 6935
卫生间 6935
承 6935
叶子 6934
链@@ 6932
Jam@@ 6931
总人口 6931
识 6931
飞船 6930
弗朗西斯 6929
渗透 6929
人行道 6928
冯 6928
RA@@ 6927
ston 6926
施加压力 6924
撤退 6921
小企业 6920
交存 6919
橡胶 6919
人能 6918
部长会议 6916
特里萨 6915
就读 6913
每场 6913
以色列政府 6912
崇@@ 6912
保持沉默 6910
样@@ 6910
稳@@ 6910
新奥尔良 6909
发性 6908
魔鬼 6908
免税 6906
寄 6906
辩解 6906
ć 6905
态@@ 6905
相连 6905
第二年 6905
递@@ 6905
摩加迪沙 6904
努力实现 6903
必要条件 6902
深处 6900
专栏 6898
无家可归者 6898
栋 6898
科罗拉多州 6896
ene 6894
召唤 6894
段@@ 6894
勾@@ 6891
犯罪者 6890
爆@@ 6889
西海岸 6889
185 6888
滚 6887
Tor@@ 6886
逆@@ 6886
地球@@ 6885
充满活力 6884
吹 6883
育 6883
均@@ 6882
教材 6882
Jan@@ 6880
远处 6880
狮 6879
这辆 6879
do 6877
日刊 6877
极为重要 6877
差旅 6876
网络安全 6875
WG 6874
off 6874
停职 6874
期货 6874
档 6874
榜 6874
莫里森 6872
辞去 6872
聚 6871
陌生 6869
中西部 6868
以内 6868
倡导者 6862
劳动法 6862
威斯康星州 6862
贯穿 6861
合金 6860
取缔 6858
摄@@ 6858
世界粮食计划署 6857
慢@@ 6857
逊尼派 6857
向上 6856
潜水 6855
矿工 6855
折 6853
瘦 6853
不动产 6852
事实证明 6852
体操 6852
八届 6852
伟@@ 6849
振动 6849
乔希 6848
止 6848
脑震荡 6848
2500 6847
赋权 6847
巨额 6846
斯顿 6846
通行 6846
侵权行为 6845
写信给 6845
感恩节 6844
氮 6843
答辩 6843
好转 6841
岭 6841
扶贫 6839
逾 6837
砂@@ 6835
鲸 6834
黛@@ 6833
序 6832
发表意见 6831
电流 6830
第六十六 6830
组织@@ 6828
bert 6826
处理器 6826
效忠 6825
郑@@ 6825
受到限制 6821
大自然 6821
高温 6821
价格@@ 6819
被害人 6819
详细资料 6819
159 6818
表述 6817
迁 6816
发言稿 6815
17% 6813
Sar@@ 6813
平等权利 6813
殖民主义 6812
研究@@ 6812
208 6810
过滤 6810
叙利亚人 6809
精 6809
贵国 6809
殿 6808
归类 6805
安东尼奥 6804
报名 6804
John@@ 6803
刑@@ 6802
追溯到 6802
Daniel 6801
哈蒙德 6801
娱乐@@ 6801
积分 6801
近来 6801
播@@ 6800
风力 6799
对联 6798
联委会 6797
外长 6796
患病 6796
机械@@ 6796
社会保险 6795
检方 6794
斯塔@@ 6793
调用 6793
伦理 6792
相辅相成 6791
一代人 6790
老化 6790
仅为 6789
ty 6788
可笑 6788
找@@ 6787
符 6787
大海 6786
盆 6786
^ 6784
廊 6784
饭 6784
精度 6783
大家庭 6782
放进 6781
租户 6780
平稳 6779
弗里 6779
缩 6779
医药 6778
吹嘘 6778
型号 6777
曲棍球 6777
灌@@ 6776
PO@@ 6775
伦斯 6775
应收款 6775
科罗拉多 6775
勤 6774
售@@ 6773
控制系统 6773
甚 6773
误 6773
铺 6772
Mus@@ 6771
典 6771
注@@ 6771
肠道 6771
erson 6770
协商会议 6770
站点 6770
上半场 6769
离岸 6769
青 6769
５ 6768
掌 6767
有过 6767
ei 6765
消费量 6764
壁@@ 6763
山谷 6762
夸大 6758
第一场 6757
法学院 6755
童@@ 6755
多边贸易 6753
Rose 6752
现况 6752
彩 6751
海里 6749
192 6748
市政厅 6745
霜 6745
读书 6744
谋 6744
一节 6743
恶 6743
废 6742
大奖赛 6741
胃 6739
谷@@ 6738
詹@@ 6737
兼@@ 6736
索尼 6736
恐怖组织 6735
土豆 6734
反应堆 6733
弗格森 6733
迎@@ 6733
复合 6731
亲王 6730
仁 6729
遮@@ 6725
Kim 6724
Pat@@ 6724
ood 6724
星际 6724
小费 6723
教科书 6723
出入 6722
姿势 6721
办公@@ 6720
1955 6719
167 6718
骗局 6718
公职人员 6716
哈德 6715
商业银行 6715
侧面 6714
IA 6713
让@@ 6713
Hum@@ 6711
水手 6710
院校 6710
挺 6709
陷阱 6708
IR@@ 6707
浅 6702
欧洲议会 6701
没事 6701
LA@@ 6700
惩戒 6700
悲@@ 6699
文盲 6699
A.@@ 6696
迈 6694
艺@@ 6693
影像 6692
流向 6692
ii 6691
斜@@ 6690
裂@@ 6688
缺 6687
Cre@@ 6685
油田 6685
选中 6685
借款 6684
粉碎 6683
防空 6683
协 6681
时应 6681
内塔尼亚胡 6680
奏效 6680
新一代 6680
二零零@@ 6679
吸入 6677
性健康 6676
被动 6675
199 6674
滴@@ 6674
西尔 6674
传来 6673
1957 6672
和平部队 6671
固体 6670
浆 6670
eh@@ 6669
稍后 6669
中以 6668
欧洲央行 6667
汽@@ 6667
构@@ 6666
三场 6665
斯通 6665
四月 6664
出版商 6663
well 6662
非裔 6662
获利 6661
外交@@ 6660
握手 6660
分支机构 6659
鼓掌 6658
251 6657
上方 6657
预料 6657
十字架 6656
ink@@ 6655
ola 6655
搅拌 6655
农业@@ 6652
第二十三届 6651
审慎 6650
航运 6650
裁撤 6650
炼@@ 6648
内向 6647
渡 6646
550 6643
家务 6642
葡萄 6642
薪资 6639
这点 6639
专业人士 6636
Sand@@ 6634
裸体 6634
1952 6633
Gra@@ 6633
下届 6633
弦 6633
疏@@ 6633
书记官 6632
宿@@ 6632
Pi@@ 6631
奉行 6629
碎@@ 6629
社会工作者 6627
33@@ 6624
山上 6623
八月 6622
转而 6622
众议员 6621
海平面 6621
激活 6620
50000 6619
C.4 6619
Lu@@ 6619
忙碌 6619
若干@@ 6619
平均@@ 6618
三条 6617
kin 6616
似 6613
宗教自由 6613
恋 6613
臀部 6613
漫@@ 6612
千克 6611
My@@ 6610
波特兰 6610
科伊 6610
eta 6608
摇滚 6608
天生 6607
觉@@ 6607
透 6607
伊尔 6605
撤@@ 6604
这段 6604
ight 6603
党员 6603
敏@@ 6603
奔跑 6602
爱国 6600
表示遗憾 6600
饭@@ 6600
抵御 6599
一并 6598
合理化 6598
路边 6598
重型 6598
生育率 6597
菌@@ 6597
还给 6597
湖泊 6596
Tom 6595
国际足联 6595
氧气 6595
氢@@ 6592
兵力 6591
应力 6590
洞@@ 6590
存货 6589
共用 6588
战机 6588
所定 6588
抽象 6587
4.5 6586
amp@@ 6586
斯卡 6586
PR 6585
Pre@@ 6585
研究院 6585
资讯科技 6585
惠 6584
诺曼 6584
充电 6582
动植物 6582
第二十届 6582
4.1 6581
撤消 6581
随之 6581
EN@@ 6580
Gen@@ 6580
宪@@ 6579
顶尖 6578
交战 6577
首府 6576
伊斯 6575
恭@@ 6575
遍 6575
稍 6573
饮水 6573
213 6572
胎 6572
哈佛 6571
牢 6571
棉@@ 6569
半年 6568
棉花 6568
仁@@ 6567
环境卫生 6567
益@@ 6567
第八条 6566
William 6564
per 6563
仿佛 6562
所起 6561
直觉 6561
飞离 6561
哈尔 6560
该处 6560
库尔德人 6559
战略方针 6558
厄 6554
『 6553
始@@ 6552
阿尔 6551
女工 6550
底线 6550
结构@@ 6549
首选 6549
药物滥用 6546
谱@@ 6546
承包者 6545
潮流 6543
Tar@@ 6542
Can@@ 6541
乐器 6541
合办 6541
斯科 6540
改建 6539
纪念@@ 6539
装满 6539
Ale@@ 6537
筹备会议 6536
刹车 6535
屋@@ 6535
哀悼 6534
援@@ 6534
精灵 6534
能源@@ 6534
有所改善 6533
幽灵 6532
脸@@ 6532
足球队 6532
可取 6531
嘴唇 6531
申请者 6531
执行机构 6529
未成年 6529
牛津大学 6529
164 6528
18% 6528
专业知识 6527
减至 6527
径@@ 6527
判处死刑 6526
重力 6526
4.2 6525
便利化 6525
地下水 6524
携手 6524
尺度 6522
袋子 6522
ook 6521
从根本上 6520
腹部 6520
劫@@ 6519
平壤 6519
何处 6518
2030 6517
ile 6517
we@@ 6517
教员 6517
enc@@ 6516
National 6515
甜蜜 6515
圆形 6514
潘基文 6514
非常@@ 6514
Wh@@ 6513
技术人员 6513
精心 6513
Wood@@ 6512
炎热 6511
ap 6510
而战 6510
ame 6509
电器 6509
人造 6508
广义 6506
西南部 6506
PS@@ 6505
战略规划 6504
日本政府 6504
连锁 6504
下车 6503
昆士兰州 6503
停顿 6502
口径 6502
煤矿 6502
西区 6502
不符 6501
关键因素 6500
培训中心 6500
好友 6500
灰 6499
佛得角 6498
出局 6498
旗@@ 6498
Hu@@ 6496
钢铁@@ 6495
勤@@ 6494
铲除 6494
me 6492
矩阵 6492
二苯醚 6491
管理部 6491
庄严 6490
3D 6488
硅谷 6488
mer 6487
光谱 6487
金属@@ 6487
95% 6486
发展部 6486
残骸 6484
茜 6484
物理学 6482
Lee 6481
传单 6481
Ay@@ 6477
Az@@ 6477
改良 6477
装修 6475
新英格兰 6474
怒@@ 6473
敲@@ 6472
裁 6472
雄心 6471
精致 6470
MS 6469
起床 6469
统计资料 6468
蓬勃发展 6466
刺伤 6463
国家统计局 6463
节余 6463
不上 6462
She@@ 6460
终点 6460
Wat@@ 6458
济@@ 6458
盆地 6457
内尔 6456
旗下 6454
ft 6453
两条 6453
紧紧 6453
分项 6451
保人 6450
第十二条 6450
Lisa 6449
摘@@ 6449
牌照 6449
电讯 6449
磷@@ 6448
伍@@ 6447
Bri@@ 6445
催化剂 6445
翻修 6445
斯托克 6443
尾巴 6440
低成本 6439
凯尔特 6439
首个 6439
猛虎 6438
土地利用 6437
界@@ 6435
一行 6434
余留 6434
研究者 6434
消耗性 6433
ide 6432
老挝 6432
仅次于 6430
西汉姆 6430
高潮 6429
巢 6427
一无所知 6424
长长的 6424
大陆架 6423
官僚 6423
阿拉巴马州 6423
上将 6422
成像 6422
现代@@ 6422
综述 6422
650 6421
工作岗位 6421
答@@ 6421
辞@@ 6421
司法程序 6420
燃油 6420
疗效 6420
CP 6419
塑@@ 6418
十字 6417
奢侈 6415
深夜 6414
暴风雨 6412
卖掉 6411
护送 6411
军团 6410
8000 6409
加勒比海 6407
培育 6406
163 6404
失控 6403
肝@@ 6400
--------------------------------@@ 6399
Tim 6399
anna 6399
差额 6399
核对 6398
莎@@ 6398
雨水 6398
原件 6396
第二项 6396
Ter@@ 6395
pro@@ 6395
脑海 6395
认 6390
her 6389
172 6388
航空@@ 6387
COP.@@ 6386
增大 6385
驱@@ 6385
财力 6382
香蕉 6382
Tur@@ 6379
傲慢 6379
活动分子 6379
Scott 6378
战略目标 6377
波尔 6376
门户 6376
热衷于 6375
田径 6375
理学 6374
致函 6374
体积 6373
第四章 6373
震动 6373
189 6372
宪政 6372
习惯法 6371
豪 6371
国家计划 6370
暴 6370
温格 6370
西奥 6370
既有 6369
Cam@@ 6368
罗斯福 6367
关怀 6364
分阶段 6364
肥@@ 6364
台风 6363
评论员 6363
梅西 6362
242 6361
West 6361
数码 6360
And@@ 6359
伯利兹 6359
墙@@ 6359
筹集资金 6357
168 6356
卡利 6354
谷物 6354
指着 6352
联队 6352
草拟 6352
一千@@ 6351
无须 6351
CF@@ 6349
动词 6349
铝@@ 6348
ea 6347
AR 6344
奏 6344
浓缩 6344
缘故 6344
三世 6343
IMF 6341
归因于 6341
赴 6341
帕特 6340
澳洲人 6340
Jar@@ 6337
全都 6337
马车 6336
普遍存在 6335
失效 6332
华尔街日报 6331
Stephen 6330
ae 6330
一案 6330
中是 6330
临近 6330
纳尔逊 6330
逾期 6330
恩斯 6329
等国 6328
侦察机 6327
真主党 6327
迎来 6326
验尸官 6323
20.@@ 6322
穷@@ 6322
习 6320
解体 6320
搭@@ 6319
而来 6319
聚焦 6319
救护 6317
口音 6316
缝@@ 6316
Rad@@ 6315
itt@@ 6315
付钱 6315
光学 6314
六十@@ 6314
元首 6311
羽毛 6311
330 6310
弄清楚 6310
老挝人民民主共和国 6310
计算@@ 6310
修女 6309
增添 6309
快船 6309
积压 6309
Jones 6308
窒息 6308
2.4 6307
猴子 6307
183 6305
可观 6304
科林 6304
铝 6304
首领 6304
gh@@ 6303
五天 6303
第二期 6303
它会 6302
手势 6302
苦苦 6302
帮派 6298
漂@@ 6298
Hor@@ 6296
16% 6295
肥 6295
俄勒冈 6294
本能 6294
敌方 6293
时分 6293
田纳西州 6293
危险废物 6292
降级 6292
降雨 6292
奉献 6291
宽恕 6291
王室 6291
捍卫者 6288
点球 6288
性取向 6286
暖 6286
CT@@ 6285
海港 6285
限定 6285
cl@@ 6283
克里斯蒂 6282
审判@@ 6281
211 6280
坚强 6279
沃德 6278
造林 6278
危@@ 6277
结成 6277
非盟 6276
构成威胁 6275
毫克 6274
公用事业 6272
测试@@ 6272
阿联酋 6272
FBI 6271
既@@ 6270
梵蒂冈 6268
分析家 6266
书店 6265
看电视 6264
厚@@ 6263
我方 6263
生物武器 6262
建于 6261
弗兰@@ 6261
Tri@@ 6259
暖@@ 6258
一章 6257
格蒂 6256
那边 6256
Bor@@ 6253
诚意 6252
ath 6251
利亚@@ 6251
节点 6251
mon@@ 6250
溶@@ 6250
滴 6250
育儿 6250
发言权 6249
铃 6249
Khan 6248
挤 6248
此人 6248
诚@@ 6248
农田 6247
埋葬 6247
横向 6246
棒@@ 6245
客机 6243
镜@@ 6242
子宫 6239
有机@@ 6239
越境 6239
sa 6238
管理工作 6238
交通运输 6237
重大@@ 6237
传闻 6235
配方 6235
魏@@ 6235
检查@@ 6234
阵@@ 6232
以东 6231
分部 6231
绕过 6231
下达 6230
带给 6230
old 6229
头痛 6229
食品@@ 6229
跨部门 6228
1944 6227
充斥 6227
露西 6225
1200 6224
亚瑟 6223
今 6223
六种 6223
外科医生 6223
急救 6223
言语 6223
五十 6222
五岁 6222
同情心 6222
上下 6221
哺乳动物 6221
情愿 6221
铁矿石 6220
WG@@ 6219
甜 6219
Ser@@ 6217
ih@@ 6217
ric@@ 6217
事务局 6217
学业 6217
看不见 6217
柳@@ 6216
不顾 6215
人家 6215
检索 6215
穆尔 6215
踢@@ 6215
时常 6214
梯 6214
赖斯 6214
赛道 6213
锁@@ 6213
地平线 6212
科学院 6210
红十字国际委员会 6210
国歌 6208
离去 6208
严重威胁 6207
斯蒂文 6207
鲸鱼 6206
孙 6204
西撒 6204
委任 6201
掉@@ 6201
召@@ 6200
San@@ 6199
工人党 6199
一眼 6198
耗尽 6197
ium 6195
宫殿 6195
禁产 6195
咱们 6194
好战 6194
握 6194
显 6193
获得者 6193
ME@@ 6192
惨@@ 6192
时段 6192
插 6191
重计 6189
原定 6188
利害关系 6187
园@@ 6187
8226 6186
一时 6186
十七届 6186
学期 6186
成瘾 6186
光滑 6184
一月份 6183
战时 6183
男友 6182
彗星 6181
范例 6181
陪 6181
大纲 6180
第六十 6180
第二节 6179
ber 6178
罗杰斯 6178
DA 6177
标语 6177
克罗 6176
壮@@ 6176
3.3 6175
高科技 6173
独联体 6170
州立大学 6169
倍@@ 6168
Red@@ 6167
幸@@ 6167
自动@@ 6167
带上 6166
含水层 6165
227 6163
取出 6163
腐@@ 6163
庭@@ 6162
ott@@ 6161
绞@@ 6161
生产国 6160
节能 6159
SO@@ 6158
有钱 6157
孟@@ 6156
科摩罗 6156
配件 6156
173 6154
直径 6154
窝 6154
挥舞 6152
敢 6152
暗 6151
ut 6150
分工 6150
瑟尔 6150
表决权 6150
烦@@ 6149
奥尼尔 6147
380 6146
尘 6146
定稿 6145
划定 6144
遇 6144
一共 6143
功率 6143
集结 6143
发售 6142
电网 6142
露天 6142
勒姆 6141
黑洞 6141
企鹅 6140
议@@ 6140
躲 6140
人性 6139
摩擦 6139
尼亚@@ 6137
国防军 6136
拓展 6136
时所 6135
圣诞老人 6134
争斗 6133
灭@@ 6133
第七章 6133
ville 6132
柜台 6130
继续加强 6130
陪审员 6130
冒犯 6129
极了 6129
车厢 6129
字符 6127
自由民主党 6127
围栏 6126
洛夫 6125
辖区 6124
靴子 6123
件@@ 6122
彩票 6122
延 6121
斯特拉 6121
直线 6121
10000 6119
优先权 6119
咬@@ 6119
顽固 6119
~ 6118
吓@@ 6117
新喀里多尼亚 6116
这套 6116
Pan@@ 6115
克隆 6115
出任 6115
加班 6115
剥@@ 6114
水源 6114
七条 6112
五十@@ 6112
卢卡斯 6111
绳 6111
联合国贸易和发展会议 6111
辅@@ 6110
双语 6109
水道 6109
近距离 6109
国政府 6108
容许 6108
检讨 6108
1.3 6107
掩饰 6107
乃至 6106
凸@@ 6106
波罗的海 6106
申请书 6106
载入 6106
世俗 6104
副总裁 6104
陷入困境 6104
底下 6103
碱 6102
至迟 6102
mar@@ 6101
202 6099
卫生部门 6099
积 6099
颗粒 6099
艾美 6098
诅咒 6098
法则 6097
况 6096
效能 6096
草原 6094
开通 6093
淋浴 6093
稳 6093
售 6092
电源 6092
科林斯 6092
南斯拉夫联盟共和国 6091
搭档 6091
海滨 6091
利兹 6090
预报 6089
马尔 6089
亮@@ 6088
荣耀 6088
门外 6088
Gal@@ 6085
响@@ 6085
不清 6084
决策@@ 6084
经受 6083
说谎 6079
果断 6078
TC 6077
审前 6076
19@@ 6075
投票@@ 6075
拉丁 6075
进口@@ 6074
226 6073
过敏 6073
﻿ 6073
own 6072
口粮 6072
Don@@ 6071
领导层 6071
ki 6069
下一代 6069
似@@ 6069
例句 6069
遗传@@ 6068
留下来 6067
橙色 6066
铺@@ 6066
并不一定 6065
母语 6065
稳固 6065
On@@ 6064
ig 6064
正直 6063
特尔 6063
服务提供者 6062
颇 6062
备受 6061
------------------------------------------------@@ 6060
趋@@ 6059
杀虫剂 6057
联阿 6057
波黑 6056
堡垒 6055
碰@@ 6055
静 6055
摆 6054
集成 6053
com@@ 6052
米德尔 6052
厄尔 6050
偏好 6049
弗吉尼亚 6049
高档 6049
237 6048
内衣 6048
部份 6047
卡斯 6046
两架 6044
宏观 6043
捕 6042
敌@@ 6042
be 6041
十一 6041
中介 6040
对立 6040
收盘 6040
Mah@@ 6039
候 6039
再说 6038
迷恋 6038
秒钟 6037
野外 6036
串 6034
关系@@ 6033
照射 6033
信用证 6031
转达 6031
适度 6031
北京@@ 6029
市场份额 6029
唯@@ 6027
开创 6027
除名 6027
0.5% 6026
过高 6026
导游 6025
格里@@ 6025
疑 6025
妇 6024
难度 6024
室外 6023
齿轮 6023
幻@@ 6022
函件 6021
203 6020
愚@@ 6020
以求 6018
吉斯 6017
手腕 6017
国债 6016
多尔 6016
凉 6014
看守 6014
竞争法 6014
评选 6012
寒 6010
前体 6009
增值 6009
考克斯 6009
博览会 6008
湿地 6008
投票率 6007
ACT 6006
说服力 6006
面谈 6005
85% 6004
渡@@ 6004
终生 6004
联大 6004
布什总统 6003
解读 6003
貌 6003
键盘 6003
Sil@@ 6002
电力@@ 6002
传记 6001
预备 6001
不该 6000
公开@@ 6000
第二款 6000
画像 5999
错@@ 5999
Fin@@ 5996
卡梅隆 5996
痕 5996
比萨 5995
史蒂芬 5994
复活 5993
来访者 5993
禁区 5993
Sm@@ 5991
Ker@@ 5990
放慢 5990
冈 5989
领导@@ 5989
New 5988
ps 5987
盛 5986
神父 5986
负有责任 5986
iz 5985
堪萨斯州 5984
舰@@ 5984
夺得 5983
登记@@ 5983
248 5980
sc@@ 5979
否决权 5979
标准@@ 5979
离任 5979
Matt 5978
基伍 5978
独裁 5978
可悲 5977
瑞克 5977
act@@ 5976
房地 5976
来信 5976
花钱 5976
罪恶 5974
夺@@ 5973
讲师 5973
饲料 5973
不止 5972
数次 5972
统治者 5972
阳性 5972
安盟 5971
Bak@@ 5969
奴 5969
忍@@ 5969
205 5968
MA@@ 5968
去过 5968
Sk@@ 5967
篮子 5963
ys 5962
投票站 5961
收容所 5961
不限 5959
碰到 5959
蜡烛 5959
汉普郡 5958
扩充 5956
邻@@ 5956
训 5954
PRST 5952
维亚 5952
资源分配 5952
ical 5951
咸@@ 5951
规 5951
Luc@@ 5950
创收 5950
才@@ 5950
争辩 5949
全力支持 5949
外籍 5949
国立 5947
涌@@ 5947
Rob@@ 5946
巴克 5946
Williams 5945
坐标 5944
绝 5944
贪污 5944
宋@@ 5943
敬 5943
旁@@ 5942
辈 5942
受援国 5941
彼@@ 5941
伤残 5940
卜 5940
腾 5940
高端 5939
罚球 5938
黎@@ 5937
ings 5936
ren 5936
背上 5936
Pa@@ 5934
扩建 5934
奶 5933
应收 5931
整整 5931
律师协会 5930
34@@ 5929
誓言 5929
不远 5927
缩写 5927
200@@ 5926
214 5926
Andre@@ 5926
索偿 5926
掠夺 5925
足迹 5925
默认 5925
享年 5922
奢侈品 5922
私下 5922
发光 5921
死因 5921
伯克 5920
经营@@ 5920
Jac@@ 5919
营造 5919
逮捕令 5919
一夜 5918
登记处 5918
履约 5917
日向 5917
几十@@ 5916
医 5916
途 5916
臭氧层 5915
长期@@ 5914
脉冲 5913
人工智能 5911
多于 5911
投机 5911
竹@@ 5911
唐宁街 5909
料@@ 5909
分居 5907
正常化 5907
黎明 5906
感冒 5905
阿兰 5905
霍克 5905
搭配 5904
大坝 5903
举止 5902
阿姆斯特丹 5902
石棉 5901
腰@@ 5901
裂缝 5901
收音机 5900
坦帕 5899
拒绝接受 5899
肌 5899
逼@@ 5898
部族 5898
买下 5895
这片 5895
控制措施 5894
理智 5894
ID 5893
埃弗顿 5893
290 5892
∶ 5892
绑 5892
― 5891
小国 5891
规@@ 5891
跨境 5890
阿拉@@ 5890
索引 5887
把@@ 5886
犯@@ 5885
阿布 5885
清晨 5883
男生 5883
仲裁庭 5882
第一项 5881
联合声明 5881
推向 5880
米斯 5879
虽@@ 5878
扯 5877
ese 5876
劫持 5876
相称 5876
宁静 5874
署@@ 5874
1953 5873
归来 5873
比基尼 5873
造福 5873
Mun@@ 5872
裙 5872
涨幅 5871
缉获 5871
蒸汽 5871
费尔 5871
瀑布 5868
174 5867
肝脏 5866
出国 5865
夸张 5865
克里米亚 5864
帕默 5861
柴@@ 5861
海拔 5861
笑声 5859
一门 5858
胡安 5858
伴@@ 5857
仰@@ 5855
塞特 5854
首发 5854
魔 5852
参与性 5851
控制器 5851
碰 5851
第二名 5851
甲烷 5850
母乳喂养 5848
胚胎 5846
00000 5845
扼杀 5844
Paul@@ 5843
马拉@@ 5843
171 5842
先知 5842
跟上 5842
健康权 5841
新闻媒体 5841
燕@@ 5841
赏@@ 5841
阿卜杜拉 5841
保管 5840
妊娠 5840
骂 5840
局限于 5839
圣母 5838
拳@@ 5838
舞弊 5838
尊@@ 5837
原油价格 5834
车库 5833
三国 5832
剪辑 5831
宣扬 5830
荒唐 5828
减去 5827
土族 5826
翻新 5826
列明 5825
骑手 5825
Lin@@ 5824
anne 5824
数月 5824
cher 5823
变换 5823
地为 5823
我来 5823
上传 5822
后退 5822
提高效率 5822
雅加达 5822
Ac@@ 5821
OR@@ 5821
叹 5821
联络小组 5821
勒索 5819
手上 5819
三倍 5818
日本@@ 5818
转为 5817
耶夫 5816
20000 5815
右手 5814
应计 5814
下放 5813
在政治上 5813
灌溉 5813
商品@@ 5812
轨迹 5812
理事国 5810
Hill 5809
UFC 5809
炮击 5809
高校 5809
枯@@ 5808
膏 5808
有何 5806
air@@ 5804
每届 5803
不良@@ 5802
电视机 5802
oy 5801
缺失 5800
ern 5799
利马 5799
死后 5799
长久 5799
否 5797
百慕大 5797
公元 5796
法制 5796
一番 5795
开出 5795
漫步 5795
第二季度 5795
颠覆 5795
Arm@@ 5794
zz@@ 5794
奥兰多 5794
罗德里格斯 5794
电子游戏 5793
称号 5793
Gh@@ 5792
向下 5792
斯克 5791
皮革 5791
36@@ 5790
切实有效 5790
牛仔裤 5790
列报 5789
平板 5788
忠@@ 5788
野兽 5788
日益增长 5786
字幕 5785
186 5784
供电 5784
界面 5784
ire@@ 5782
俄语 5782
墨西哥城 5782
快餐 5782
oth@@ 5781
上级 5780
免疫系统 5780
商学院 5778
大得多 5777
民事@@ 5777
850 5776
肠@@ 5776
邓迪 5776
转入 5775
人则 5774
巡逻队 5774
University 5773
减排 5773
191 5772
克什米尔 5772
基础教育 5772
大力支持 5771
片段 5771
News 5769
小计 5769
沃斯 5769
腾@@ 5769
织@@ 5768
踏@@ 5768
瞄准 5767
被盗 5767
195 5766
亲人 5764
立法者 5763
绕@@ 5763
调解人 5763
教派 5762
随函 5762
邮局 5761
不论是 5760
带薪 5760
杰弗里 5760
系列片 5759
彩色 5758
总署 5758
敏感性 5758
行长 5758
BM@@ 5757
凶手 5757
眼光 5757
喜 5756
Reg@@ 5755
卡特尔 5755
历来 5754
备份 5754
弥@@ 5752
181 5750
肾@@ 5750
熔@@ 5749
艺人 5749
芽 5749
184 5748
消费@@ 5748
相似之处 5747
无所@@ 5746
新秀 5745
Met@@ 5744
会计@@ 5744
Ul@@ 5743
之地 5743
Int@@ 5742
歌唱 5742
独立@@ 5742
两者之间 5741
喜悦 5741
调查@@ 5741
下个月 5740
登录 5739
原住民 5738
巴顿 5738
古典 5737
血压 5737
珀@@ 5736
珍妮弗 5736
引诱 5735
蒂尔 5735
177 5734
切除 5734
荷尔蒙 5734
公共秩序 5733
寄宿 5733
氏@@ 5730
诋毁 5730
公元前 5729
组成员 5729
异性 5728
爵士乐 5727
低调 5726
麦克唐纳 5726
Ta@@ 5725
楚@@ 5725
St 5724
兆 5724
摇晃 5723
时任 5723
时钟 5723
女同性恋 5721
审计报告 5720
产权 5719
制度化 5719
滩 5719
保护环境 5718
国情 5718
退回 5717
巨星 5716
赌@@ 5716
追查 5716
Af@@ 5715
ive 5715
专业@@ 5715
斯利 5715
私人@@ 5715
ESPN 5714
受限制 5714
逢 5714
umb@@ 5713
甘 5713
称作 5713
匠 5712
销售量 5712
隔 5711
雕刻 5711
扰乱 5710
侦察 5708
捆绑 5708
Park 5706
gu@@ 5706
不准 5706
高等 5706
东非 5704
深表 5704
商会 5703
本项 5702
真实性 5702
预约 5702
释@@ 5701
完毕 5700
抵@@ 5700
高大 5700
不同寻常 5699
哈里森 5699
太晚 5698
Nik@@ 5697
整 5697
德比 5696
资发 5696
RO@@ 5695
钠 5695
夏洛特 5694
海洋生物 5693
阿诺德 5692
巴德 5691
主管机关 5690
公营 5690
消化 5690
统计@@ 5690
喀@@ 5689
独裁者 5689
这块 5689
亿人 5688
周刊 5687
赛跑 5687
基本法 5686
加油站 5684
技术咨询 5684
同一天 5680
重债 5680
开头 5679
电动 5678
截然不同 5677
不负责任 5676
新德里 5676
民权 5676
以致 5674
呈@@ 5674
连锁店 5674
往返 5673
转运 5673
巧合 5672
kh@@ 5670
决不 5670
头盔 5670
实际@@ 5670
数字化 5670
第七次 5670
金融体系 5670
凭借 5669
四项 5669
定型 5669
hat 5668
书写 5668
垃圾@@ 5668
履行职责 5668
建立联系 5668
短片 5668
束@@ 5666
析 5666
中心@@ 5664
国在 5664
夫斯 5664
断定 5664
更快 5664
法郎 5664
布斯 5663
账目 5663
商务@@ 5662
国家主权 5661
新手 5661
新任 5659
为本 5658
206 5657
令人信服 5657
善于 5657
闹@@ 5657
研训 5656
辣椒 5656
dy 5655
交流信息 5655
机上 5655
起因 5654
ET 5653
陷 5653
178 5652
加拿大人 5652
大战 5652
窗@@ 5652
受伤害 5651
哲学家 5651
排序 5651
蝙蝠 5651
说实话 5651
会议厅 5650
捐@@ 5650
第一次世界大战 5650
裤 5650
摇摆 5649
衍生 5649
佛罗伦萨 5647
足总杯 5647
促销 5646
坦率 5646
负荷 5646
Adam 5645
扭@@ 5645
教廷 5645
味@@ 5644
BB@@ 5643
衬衣 5643
悲观 5641
猫@@ 5641
义务教育 5640
当成 5640
指纹 5640
--------------------------------------------------------------------------------@@ 5639
布里斯托尔 5638
触 5637
轮流 5637
逗留 5637
住户 5636
抚@@ 5636
几家 5635
野心 5634
37@@ 5633
Ob@@ 5633
熟@@ 5633
暴徒 5632
勃朗 5631
往常 5631
炸毁 5631
奇异 5629
墨菲 5628
一个多 5627
C.6 5626
az 5626
存档 5625
化妆品 5624
22% 5623
入选 5623
概率 5623
效仿 5621
祝愿 5621
贝尔格莱德 5621
176 5620
亮点 5620
毫无意义 5620
硝@@ 5620
更少 5619
环绕 5619
恳求 5618
踩 5618
闪烁 5617
苏格兰人 5616
不动 5615
坏消息 5615
切实可行 5613
垂 5612
来讲 5611
格局 5611
与否 5610
大满贯 5608
微弱 5607
VII 5606
测验 5605
板凳 5602
山坡 5601
溪 5601
该镇 5601
1920 5600
els 5599
奥斯陆 5598
香槟 5598
万圣节 5595
吉尔@@ 5594
薇 5593
单纯 5592
itz 5589
哇 5589
尼古拉 5589
储备金 5587
程序性 5587
苏里南 5587
副手 5586
史蒂文 5586
民法 5586
流亡 5586
Brown 5585
圣路易斯 5585
条纹 5585
演示 5585
美属 5585
美食 5585
腐蚀 5585
广州 5584
蓬@@ 5584
外科手术 5582
警车 5582
独一无二 5581
欧盟委员会 5580
207 5579
奈特 5579
强国 5578
现存 5578
萨米 5578
大雨 5577
东欧国家 5576
大事 5575
斯堡 5575
茨@@ 5573
Mike 5571
ER 5570
Go@@ 5570
季节性 5570
格雷戈 5570
警察局长 5570
桌@@ 5569
Capital 5568
耗资 5568
ere 5567
感染者 5567
道德@@ 5567
Mark@@ 5566
事例 5566
那条 5566
enko 5565
注释 5565
海岸线 5564
重罪 5564
密西西比 5563
急切 5563
检疫 5563
IX 5562
七月 5562
太空@@ 5562
接收器 5561
过渡政府 5561
微博 5560
被告人 5560
硕士 5557
屏 5556
箭 5556
线性 5556
躲避 5556
Le 5555
ele 5555
晚宴 5555
ull@@ 5554
以防 5554
AC.109 5553
棍 5553
表演者 5553
饥荒 5552
187 5551
各项措施 5551
或非 5551
与非 5550
搬到 5550
刑事案件 5548
AL 5547
ix 5547
问问 5545
集中@@ 5545
鸭 5545
回忆录 5542
终 5542
账@@ 5541
旁观者 5540
饱和 5540
保护主义 5539
桑切斯 5539
装甲 5538
高血压 5538
统一@@ 5537
1941 5536
Wor@@ 5536
典@@ 5535
医疗@@ 5534
新人 5534
面粉 5534
音频 5534
定向 5533
ect@@ 5532
来源于 5532
查验 5532
196 5531
三级 5531
西红柿 5531
鳄鱼 5530
HBO 5529
和平@@ 5529
东海岸 5527
忧@@ 5527
思路 5527
北朝鲜 5526
摩西 5526
请愿书 5526
ail 5525
山顶 5523
Mohammed 5522
剧烈 5522
就任 5522
核电站 5522
奋@@ 5521
瓦斯 5521
222 5520
场上 5520
威尔斯 5520
差旅费 5520
搭 5519
法定@@ 5519
科目 5519
阀 5519
关掉 5518
台湾@@ 5518
怒 5518
ura 5515
倾倒 5514
互利 5513
凌@@ 5513
心碎 5513
缓刑 5512
1.4 5511
一带 5511
盎司 5511
美洲国家组织 5511
植物@@ 5510
以色列国防军 5509
整修 5508
欣@@ 5508
个人资料 5507
缘@@ 5507
工商@@ 5506
深海 5506
好象 5505
灾 5505
西班牙人 5505
零部件 5505
化疗 5504
自制 5504
资源@@ 5503
有线电视 5502
金正恩 5502
UKIP 5501
全力 5501
桑托斯 5501
Rom@@ 5500
193 5499
上年 5499
阿拉伯@@ 5498
领养 5498
印第安纳州 5497
斯威士兰 5497
赤道几内亚 5497
无线@@ 5494
阅 5494
上演 5493
电压 5493
罗纳德 5493
310 5492
热潮 5492
夺走 5490
禁试 5490
Du@@ 5487
及早 5487
哈维 5487
无法@@ 5486
横跨 5486
不堪 5485
哀@@ 5485
凉爽 5484
匆忙 5484
逼 5484
28.@@ 5483
嘴@@ 5481
困 5481
猜想 5480
签下 5480
赞成票 5480
砍@@ 5479
处理@@ 5478
川@@ 5477
吉布森 5476
漂浮 5476
相等 5476
项目管理 5476
～ 5476
公立 5475
君主 5474
编程 5474
超重 5474
ress 5473
研 5472
有利可图 5471
拿下 5470
午饭 5469
参考@@ 5469
巴勒斯坦国 5469
恶作剧 5469
此基础 5469
氧@@ 5469
可耻 5468
PV.@@ 5466
illa 5466
不及 5466
径 5466
莲 5466
肯尼 5465
鲍威尔 5465
一线 5464
小鸟 5463
干部 5462
管局 5462
选举法 5462
条中 5461
武装力量 5461
CD@@ 5460
东正教 5459
年期 5459
194 5458
亲吻 5458
忘@@ 5458
精神疾病 5458
218 5457
乳房 5457
尽头 5457
万吨 5455
188 5454
动力学 5454
机动 5454
残奥会 5454
Bas@@ 5453
CT 5453
233 5452
GS 5452
昏迷 5452
醉 5452
顾 5452
前瞻性 5451
静止 5451
Corp 5450
一整天 5450
公共交通 5450
阿卜杜勒 5449
氧化@@ 5448
车轮 5448
eo 5447
核设施 5447
XV 5446
几何 5446
IF@@ 5445
保险费 5445
服饰 5445
卓@@ 5444
沃尔特 5444
落入 5444
ets 5443
充实 5443
备用 5443
放宽 5443
肘 5442
致意 5442
Cap@@ 5441
房主 5441
水晶 5440
215 5438
触及 5438
好人 5437
弗里@@ 5437
咨询机构 5436
日落 5435
深受 5435
跌倒 5434
图拉 5432
敏 5432
蓄@@ 5432
Dem@@ 5431
病房 5431
阿拉伯文 5431
朝鲜半岛 5430
孟加拉 5429
诊@@ 5427
C.@@ 5426
就业@@ 5426
全美 5425
考古 5424
两类 5423
制定者 5423
加勒比地区 5423
希族 5423
感知 5422
辛辛那提 5422
VI 5421
数百万美元 5421
汇总 5421
179 5420
前身 5420
悼念 5420
猴 5419
衡@@ 5419
通行证 5418
便士 5417
农作物 5417
投手 5417
同类 5416
圣卢西亚 5416
咨询@@ 5415
股本 5415
赛场 5415
山羊 5414
扫雷 5414
公共安全 5411
抬头 5411
摄入 5411
沉没 5411
每隔 5409
钩 5409
险@@ 5408
倒闭 5407
己 5407
参赛者 5404
马尼拉 5403
共同点 5402
198 5401
数十@@ 5401
超人 5401
德州 5400
布兰@@ 5399
未遂 5399
AD@@ 5398
平等待遇 5398
掌权 5398
Sn@@ 5397
贝格 5397
托德 5396
重伤 5396
戏@@ 5395
第一部 5395
勉强 5394
粗糙 5394
厄尔尼诺 5392
Nic@@ 5391
华莱士 5391
执政党 5391
光彩 5390
秀@@ 5390
纺织品 5390
泽尔 5389
第二十四届 5389
鲁尼 5389
升值 5387
战略@@ 5387
楼上 5386
别处 5384
破碎 5384
犹太主义 5383
发生率 5382
吃掉 5382
特许权 5382
太阳系 5381
布伦特 5381
5.5 5380
饮@@ 5380
ison 5378
语气 5378
逐出 5377
偏远地区 5374
迪士尼 5374
摩尔多瓦 5372
废水 5371
齿@@ 5371
只好 5370
所处 5370
瑜伽 5370
旺 5369
浪 5368
电线 5367
Mic@@ 5366
损 5366
布拉德利 5365
平方英尺 5365
美容 5363
排行榜 5362
改名 5362
斯威夫特 5362
弃@@ 5361
有序 5361
波斯 5361
搜集 5359
1939 5358
一集 5358
ors 5357
pc 5357
ira 5356
性爱 5356
敲定 5356
责任@@ 5356
年会 5355
开门 5355
良 5354
轻型 5353
爱德华兹 5352
变性人 5351
捐赠者 5351
第六十@@ 5351
难得 5351
失事 5350
不断@@ 5349
国民@@ 5347
Ru@@ 5345
凡是 5345
台阶 5345
伍兹 5344
气象局 5344
House 5343
L.1 5343
丰田 5342
转到 5342
匮乏 5341
宣传@@ 5341
沃尔夫 5341
有效期 5340
违规 5340
某项 5339
继续执行 5339
内特 5337
外交关系 5335
录取 5335
暴乱 5335
淋@@ 5335
Ty@@ 5334
发型 5334
板块 5334
饲养 5332
大亨 5331
荡 5330
完全符合 5329
朱利安 5329
攀登 5328
除去 5328
停战 5327
汉语 5327
Charles 5326
更名 5326
浏览器 5326
26.@@ 5325
桑德兰 5325
骑马 5324
Jeremy 5323
壶 5323
迈进 5323
雀@@ 5323
上司 5322
主宰 5322
借此 5322
243 5321
所罗门群岛 5321
昂@@ 5321
动乱 5320
滤@@ 5320
输送 5320
教养 5319
氟@@ 5319
外套 5318
209 5317
原材料 5317
庆典 5317
理应 5317
调度 5317
宜 5316
oun@@ 5315
名声 5315
开放@@ 5315
stein 5314
舱@@ 5314
安全部 5313
崔@@ 5312
栅栏 5312
哈桑 5311
肿 5311
爱丽丝 5310
过失 5310
Bill 5309
执行长 5309
禽流感 5307
结构调整 5307
Nas@@ 5305
演唱会 5305
不住 5303
分校 5303
二月 5301
国际奥委会 5301
嫉妒 5301
县级 5300
韦德 5300
尺 5298
幕@@ 5298
年龄段 5298
39@@ 5297
两边 5297
胜任 5297
薪@@ 5297
Cast@@ 5296
点头 5296
疑@@ 5296
退还 5296
麦迪逊 5296
打碎 5295
日语 5295
介绍性 5294
晓 5294
第二十六条 5294
ja 5293
史诗 5293
曼宁 5293
梯@@ 5293
乌斯 5292
王后 5292
遗嘱 5292
inger 5291
培 5291
得益于 5291
硫 5291
长官 5291
全身 5289
训练@@ 5289
巴特勒 5288
罚@@ 5288
国际金融 5287
椅 5287
维京 5287
萨赫勒 5287
犯规 5286
非暴力 5286
十个 5285
Cas@@ 5284
总产值 5284
打扮 5284
高点 5284
鸡尾酒 5284
全氟 5283
卡路里 5283
句@@ 5283
up 5282
私立学校 5282
说唱 5282
奔@@ 5281
８ 5280
Fa@@ 5279
主机 5279
柠檬 5279
道琼斯 5279
een 5278
挤满 5277
六次 5276
城市@@ 5276
1942 5275
公关 5275
面上 5274
着重于 5273
ase 5272
不定 5272
希思罗 5272
流传 5272
邦德 5271
oss@@ 5269
号召 5268
在实践中 5263
海姆 5263
何 5261
就算 5261
ole 5260
急于 5260
911 5259
传统@@ 5259
曰 5259
第六十九 5259
趣 5259
地表 5257
踪@@ 5257
Cro@@ 5256
四方 5256
小狗 5256
戴夫 5256
逃犯 5256
Tre@@ 5255
疲惫 5255
特别强调 5254
5.2 5253
DJ 5253
低迷 5253
柔软 5253
负债表 5253
ok 5250
佩林 5250
遣 5250
运费 5249
5.1 5248
瓦努阿图 5247
短时间 5247
空军基地 5247
World 5244
小于 5244
银牌 5244
瘦@@ 5243
极好 5242
叛乱分子 5241
威士忌 5241
打印机 5241
降雨量 5241
孟买 5240
了不起 5239
Da@@ 5238
三年期 5238
肝 5238
身亡 5238
加息 5237
que 5234
俄克拉何马 5234
套房 5234
桃 5233
评判 5233
Dal@@ 5232
赶走 5231
九龙 5230
聘 5229
太好了 5228
玉 5228
PM@@ 5227
宾州 5226
ET@@ 5225
患@@ 5225
挤压 5225
维特 5225
胆固醇 5225
典范 5224
舞者 5224
菜肴 5224
涂 5223
第三节 5223
韦伯 5223
效用 5221
苯@@ 5221
马库斯 5221
De 5220
坚果 5219
布局 5219
原创 5217
Kat@@ 5215
慈@@ 5215
55% 5212
多家 5212
多样 5212
点钟 5212
适用范围 5212
递 5211
第十七条 5209
胜出 5209
雷曼 5209
肺@@ 5208
车间 5208
南安普敦 5207
反感 5207
掌@@ 5206
洒 5206
自私 5206
升至 5205
机枪 5205
追赶 5205
23% 5203
㈤ 5203
推到 5203
格勒 5203
国际性 5202
跌幅 5202
安南 5201
ome 5199
丘 5199
触摸 5199
80@@ 5198
Gary 5197
纽约@@ 5197
炉@@ 5195
4.3 5194
展览会 5194
AD 5193
SN@@ 5193
控诉 5193
随著 5193
维多利亚州 5192
表彰 5192
发展局 5191
蝴蝶 5191
洛伊 5189
大主教 5188
定量 5188
Bir@@ 5185
疏远 5184
蜘蛛 5183
忙@@ 5182
男童 5182
侵权 5181
屁股 5181
胜地 5181
23.@@ 5180
校友 5180
防线 5180
奔 5179
调和 5178
布宜诺斯艾利斯 5177
海边 5177
荡@@ 5177
Marco 5175
签署国 5175
石块 5174
至多 5174
0.7% 5172
农业部门 5172
哈佛大学 5172
覆盖率 5172
习@@ 5171
把手 5171
49@@ 5170
从业人员 5170
洋葱 5170
204 5169
检察 5167
祝@@ 5167
高压 5167
机理 5166
淘@@ 5166
衰@@ 5166
审问 5164
亭 5163
多夫 5163
纳姆 5163
表示满意 5163
钙 5163
培@@ 5162
最高@@ 5162
平息 5160
担@@ 5160
符合@@ 5160
ON@@ 5158
拐@@ 5158
ass 5157
粗暴 5157
该省 5157
水库 5156
erman 5154
7000 5153
Est@@ 5153
igh 5153
按摩 5153
二十世纪 5152
现实生活 5151
虚拟现实 5151
奥斯汀 5148
恩说 5148
缝 5147
28% 5146
倒下 5146
各届 5146
木星 5146
脾气 5146
合计 5145
宏伟 5144
率为 5144
庄 5143
法律依据 5143
庄园 5142
风速 5142
United 5141
晋@@ 5141
kins 5140
城里 5140
性犯罪 5140
法律义务 5140
Mir@@ 5139
其为 5139
ali 5138
利润率 5138
十五 5136
巴厘 5136
代谢 5135
冬 5135
知名度 5135
陛下 5135
妻 5134
舌 5134
另一方 5132
谋生 5131
旋 5130
来回 5130
涨 5130
哥伦比亚特区 5129
精子 5129
韦斯特 5129
市值 5128
手下 5128
报警 5128
无法控制 5128
杠杆 5127
津@@ 5127
100000 5126
中等教育 5126
指挥@@ 5126
新闻自由 5126
肺炎 5126
契@@ 5125
gl@@ 5124
始 5124
AB@@ 5123
递解 5123
饱受 5122
电车 5121
自然人 5121
辱 5121
磨损 5120
第五章 5120
bl@@ 5119
信赖 5119
几秒钟 5118
当务之急 5117
纸张 5117
赞美 5117
迦@@ 5117
CAT 5115
十三 5115
呼 5115
律@@ 5115
肢 5114
身为 5114
藤@@ 5113
普拉@@ 5112
基辅 5111
ein 5109
巴拉 5109
拆毁 5109
柱@@ 5109
量子 5109
悠久 5107
谦虚 5107
其管辖 5106
好运 5106
经纪 5106
二次 5105
守卫 5105
高水平 5105
冷漠 5104
敌军 5104
比起 5104
融@@ 5104
You@@ 5103
Os@@ 5102
公正性 5101
杯@@ 5101
芭蕾舞 5101
wick 5100
两起 5100
340 5098
Stewart 5098
验@@ 5098
干细胞 5097
朝鲜@@ 5097
休会 5096
澳@@ 5096
四大 5095
西非国家 5095
ela 5094
九条 5094
消防队员 5094
尼特 5093
无国界 5093
标本 5093
科利 5093
万年 5091
大奖 5091
头顶 5090
帝@@ 5090
通货膨胀率 5090
370 5089
Han@@ 5089
Tesla 5089
Mohamed 5088
４ 5088
米切尔 5087
图片说明 5086
ila 5085
跌 5085
车里 5085
掌控 5084
数以百万计 5084
EA 5083
丰厚 5083
相关者 5083
Ass@@ 5082
中性 5082
锐@@ 5081
19% 5080
60@@ 5080
伙计 5080
盟军 5080
Ian 5079
博士学位 5079
性传播 5079
喉咙 5078
外壳 5078
第四十九届 5078
炼 5077
覆@@ 5077
堪萨斯城 5076
加仑 5075
Ahmed 5074
Ka@@ 5074
安德鲁斯 5074
麦卡锡 5074
出价 5073
移民局 5073
该科 5073
学士学位 5072
红利 5072
联络点 5069
信仰自由 5068
老实 5067
驻科 5067
彭斯 5066
起源于 5066
众人 5065
傍晚 5065
犬@@ 5065
香料 5065
公平@@ 5064
班级 5064
Do@@ 5063
Ste@@ 5063
偶 5063
转折点 5062
情报机构 5061
晓@@ 5061
澳大利亚政府 5061
热心 5061
中型 5060
加倍 5060
头巾 5060
极少 5060
闪亮 5060
21.@@ 5059
win 5059
钞票 5059
没能 5058
虚伪 5058
偶@@ 5057
刑事@@ 5057
念@@ 5057
供其 5055
小屋 5055
笔记本 5054
订婚 5054
闻@@ 5054
本杰明 5053
瞧 5053
礼品 5051
视图 5051
Tal@@ 5050
更进一步 5050
礼仪 5050
底层 5049
恋童 5049
四种 5048
抵触 5048
沉浸 5048
迫@@ 5048
袋鼠 5047
钦 5046
废止 5045
彩虹 5045
中向 5044
小队 5044
Mos@@ 5042
下表 5042
凶@@ 5042
贡 5042
门将 5042
ox 5041
机车 5041
罂粟 5041
胡 5040
补 5040
观察家 5040
抛 5039
服务员 5039
酷@@ 5039
----------------@@ 5038
严 5038
折叠 5038
阻力 5038
亚利桑那 5036
蓝图 5035
霍恩 5034
地铁站 5033
221 5032
各不相同 5032
商用 5031
结社自由 5031
书面@@ 5030
十多年 5030
心血管 5030
军舰 5029
族人 5029
亡 5027
象征性 5027
拿破仑 5026
淡 5026
细胞@@ 5026
剑桥大学 5025
颈部 5025
228 5024
以西 5024
娶 5024
献给 5024
妥 5023
塞舌尔 5022
界线 5022
息@@ 5020
uss@@ 5019
小组会议 5019
清算 5019
卜@@ 5018
赔偿金 5017
重要@@ 5017
面对面 5017
两岸 5015
下班 5014
镍 5014
ys@@ 5013
斗@@ 5013
变异 5012
法律法规 5012
二人 5011
受雇 5010
奶奶 5010
季前赛 5009
浦 5009
241 5008
ne@@ 5008
创造条件 5008
弗雷德 5007
力图 5006
ris 5005
斯托@@ 5005
票据 5005
No@@ 5004
退款 5004
Andy 5003
参选 5003
唤醒 5003
水分 5003
调查报告 5003
马路 5003
题@@ 5002
何塞 5001
北美洲 5001
香港特别行政区 5001
鹿@@ 5001
施压 4999
螺旋 4999
因涉嫌 4998
请问 4998
防扩散 4998
erv@@ 4997
沃尔玛 4997
灾后 4997
爱玛 4997
出口国 4995
社群 4995
肾脏 4995
传唤 4994
外勤人员 4994
苹果公司 4994
辣@@ 4994
ado 4993
一瓶 4992
妙 4992
男女@@ 4992
相遇 4991
青春期 4991
交通事故 4990
赐 4990
38@@ 4989
平均数 4988
洛佩兹 4988
现今 4988
Abd@@ 4987
充分发挥 4987
极其重要 4987
7.5 4986
为首 4986
银色 4986
出差 4985
奢华 4985
解放@@ 4985
刑警 4984
Lou@@ 4982
管理处 4982
铸@@ 4982
探险 4981
牢固 4981
章@@ 4981
园艺 4979
多大 4979
一职 4978
脑部 4978
雀 4978
马刺 4978
两岁 4977
拇指 4977
负责管理 4977
预 4977
它@@ 4976
付诸 4975
hm@@ 4974
时效 4974
服兵役 4974
33% 4973
罗比 4972
之害 4971
索尔 4971
集中营 4969
Air@@ 4968
希伯@@ 4968
口语 4967
蜂蜜 4967
公海 4966
厉害 4966
敲 4966
生物学家 4966
公吨 4965
卡扎菲 4965
过早 4965
塔斯马尼亚 4964
多米尼克 4964
学习@@ 4964
琼 4964
笨拙 4964
非法行为 4964
中华民国 4963
秃@@ 4962
莱尔 4962
物理学家 4961
郁@@ 4961
Christ@@ 4960
EP 4960
发音 4960
堤 4960
株 4960
资本@@ 4960
一双 4959
坚固 4959
屋里 4959
管理制度 4958
冻@@ 4957
舌头 4957
里亚@@ 4957
ao 4956
分销 4956
浴@@ 4956
ff 4953
建模 4953
跟进 4953
今天下午 4952
从没 4952
识字 4952
ua 4950
会场 4950
德森 4950
蟹 4950
197 4949
合作@@ 4949
大理石 4949
尚待 4948
科夫 4948
加盟 4947
发电厂 4946
盲@@ 4946
体检 4945
在此之前 4945
尿 4945
名人堂 4944
岁月 4943
绅士 4943
1900 4941
促 4938
壁画 4938
运往 4938
冠军联赛 4937
人道 4936
巡回演出 4936
条所 4936
24.@@ 4935
Simon 4935
经济衰退 4935
财务管理 4935
个性化 4934
在我看来 4934
普罗@@ 4934
未曾 4934
Win@@ 4933
使用权 4933
劳伦 4933
卡尔@@ 4933
比奥 4933
佳士得 4932
斯卡@@ 4932
RES 4931
保持联系 4931
描写 4931
权衡 4931
牙医 4931
联络处 4931
传教士 4929
祖父母 4929
纳米 4929
非洲统一组织 4928
筛查 4927
爱上 4925
Patrick 4923
省长 4923
觉醒 4923
Kelly 4922
低点 4922
保姆 4922
投资银行 4922
MP 4921
很强 4921
拉拉 4921
热带风暴 4921
阿卜耶伊 4921
Mac 4920
疗@@ 4920
音乐剧 4920
216 4919
房东 4919
据点 4919
磷 4919
击落 4918
加斯 4917
此刻 4917
Nat@@ 4916
不易 4916
场面 4916
不善 4915
人有 4915
克朗 4915
办公厅 4915
借款人 4914
叠@@ 4914
后方 4914
指挥部 4914
方形 4914
有所@@ 4914
Mik@@ 4912
两部 4912
弗拉基米尔 4912
欧冠 4912
Sub.2 4911
科尔曼 4911
苯 4911
Ir@@ 4910
奥斯 4910
欣慰 4910
猪肉 4910
装运 4910
凹@@ 4909
羽@@ 4908
yer 4907
这幅 4907
初中 4906
即决 4906
枢纽 4906
儒@@ 4905
真人秀 4905
避孕药 4905
Bi@@ 4904
欧共体 4904
VIII 4903
好看 4903
虾 4903
速效 4903
酸盐 4903
青春 4903
参谋长 4902
富豪 4902
巧 4902
诊 4902
二年 4901
健身房 4900
脱落 4900
推理 4899
话语 4899
树枝 4898
案中 4898
泛滥 4898
撒切尔 4897
台上 4896
哥伦比亚大学 4895
恢复@@ 4894
拔 4894
显示器 4894
长者 4894
enz@@ 4892
几百@@ 4892
情人节 4892
政治化 4892
塞浦路斯共和国 4891
督@@ 4891
香味 4891
und 4890
兼容 4890
警员 4885
谋杀案 4885
杰里 4884
胖 4884
突变 4882
我爱你 4881
电气 4881
磁场 4881
肌@@ 4881
× 4880
光盘 4880
嘉莉 4880
屑 4880
致死 4880
地下@@ 4879
橡@@ 4879
ort 4877
天主教徒 4877
降到 4876
烷 4874
Sur@@ 4873
熊猫 4872
视听 4872
根本性 4871
ida 4870
太阳报 4870
加西亚 4869
255 4868
详细情况 4868
无关紧要 4867
als 4866
兄 4866
居民区 4866
机会均等 4866
解救 4864
亨德森 4863
塑料@@ 4863
年龄组 4863
集群 4863
David@@ 4862
害@@ 4862
洁 4862
训练营 4862
准军事 4861
妇人 4861
不然 4860
隐私权 4860
Bern@@ 4859
联合体 4859
一则 4857
俄勒冈州 4857
拉夫 4857
引 4856
净化 4855
一顿 4854
革命@@ 4853
Joseph 4852
组装 4850
访问团 4850
加薪 4849
增列 4849
格里芬 4849
长寿 4849
elle 4848
不容 4848
天基 4848
悬而未决 4848
时才 4848
水质 4848
职司 4848
21% 4847
爆炸事件 4847
坦率地 4846
臭@@ 4845
南太平洋 4844
实用@@ 4844
弗雷泽 4844
栖息地 4844
竞技 4844
Cent@@ 4843
275 4842
衰竭 4842
雄 4842
摊@@ 4841
不结盟 4840
平时 4839
提供商 4839
宽度 4838
服务公司 4838
票数 4838
65% 4837
Mot@@ 4837
处长 4837
履@@ 4837
品尝 4836
摆在 4836
年时 4834
猪@@ 4834
27% 4833
五分钟 4833
回头 4833
归功于 4833
提出申请 4833
锅@@ 4831
７ 4831
三岁 4830
呼吸@@ 4829
绳子 4829
英国首相 4829
2.6 4828
埃塞克斯 4827
默多克 4827
偿付 4826
收录 4826
书中 4825
几小时 4825
相撞 4825
可可 4824
哥伦布 4824
哮喘 4824
幢 4824
经济合作与发展组织 4824
Char@@ 4823
反对票 4822
任天堂 4821
奖章 4821
温泉 4820
贝克汉姆 4820
里尔 4820
覆盖面 4819
利特 4818
肩 4817
本应 4816
塞尔@@ 4815
攻 4815
立法机关 4815
天线 4814
总体而言 4814
公牛 4813
流浪者 4813
避税 4813
Bill@@ 4812
文凭 4811
266 4810
Mak@@ 4810
带入 4810
危急 4809
执导 4809
特洛伊 4809
较少 4809
醉@@ 4809
阴道 4809
加州大学洛杉矶分校 4808
法律效力 4808
汤加 4807
启示 4806
块@@ 4806
van 4805
司令部 4805
AM 4804
责 4803
′ 4801
缓@@ 4801
几点 4800
回升 4800
河谷 4800
近乎 4800
AS 4799
精神药物 4799
0.1% 4797
斯密斯 4797
大地 4795
过期 4795
詹妮弗 4794
贼 4794
269 4793
ester 4792
se@@ 4792
程序@@ 4792
户主 4791
方言 4791
会议记录 4790
合作项目 4790
后院 4789
应立即 4789
漏 4789
煎@@ 4789
联合政府 4789
初等教育 4788
铜牌 4788
瑞斯 4787
科隆 4787
限期 4787
带头 4786
内存 4785
嘉宾 4785
盆@@ 4785
Add.3 4783
ca 4783
del 4783
困@@ 4783
转动 4783
整天 4782
217 4778
ITV 4778
辰 4778
修补 4777
关键性 4777
日益严重 4777
竟然 4777
耗@@ 4777
基因组 4776
学历 4775
概@@ 4775
脆 4775
犯罪人 4774
国民经济 4773
出口商 4771
上游 4770
地缘 4770
成本@@ 4770
新高 4769
抱负 4768
晴朗 4768
多媒体 4766
穷 4766
数据中心 4765
陆 4765
保护法 4764
前沿 4764
此一 4764
1943 4763
位居 4763
函@@ 4763
政府军 4763
里斯本 4763
1800 4762
比较@@ 4762
焊接 4762
洛奇 4761
265 4760
上议院 4760
一书 4759
盲人 4759
轮廓 4759
很酷 4758
Bou@@ 4757
我愿 4757
迪奥拉 4757
黑帮 4757
民主联盟 4756
醒@@ 4756
乏 4755
其所 4755
嘴里 4754
拥@@ 4754
笼 4754
比重 4752
264 4750
第十九届 4750
中国共产党 4749
士气 4748
女神 4748
第纳尔 4748
eng@@ 4747
自发 4747
谢赫 4747
公共场所 4746
强力 4746
IN 4745
俗 4745
叙@@ 4745
恢复正常 4745
Jay 4744
人身安全 4744
ack@@ 4743
簿 4743
ast 4740
脏 4740
一栋 4739
之声 4739
各个领域 4739
日于 4739
洁@@ 4738
时会 4736
瓦拉 4736
耸@@ 4736
苹果@@ 4736
锌 4735
HS 4734
Ry@@ 4734
不懈 4734
莉莉 4734
不管怎样 4733
百万富翁 4733
足球@@ 4733
克拉@@ 4732
康沃尔 4732
联发援 4732
图瓦卢 4730
指导@@ 4730
夏绿蒂 4729
闪光 4729
私立 4728
交由 4725
替补 4725
密歇根 4724
较长 4724
速率 4724
人员编制 4723
全人类 4723
和平谈判 4722
围困 4722
林奇 4722
植被 4722
金星 4722
6.5 4721
使馆 4721
地理信息系统 4721
市议会 4721
罗恩 4721
数个 4720
民用航空 4720
阿布@@ 4720
小熊 4719
LA 4718
上台 4718
亡@@ 4718
失败者 4717
猎物 4717
管制@@ 4717
外国投资 4716
手法 4716
科研 4716
随即 4716
雄性 4716
人来 4715
梅森 4715
1936 4714
精算 4714
亚尔 4712
伯恩斯 4712
恋爱 4712
跌至 4712
矮 4710
逸 4710
出缺 4709
阿肯色州 4708
一辆车 4707
例外情况 4707
卡拉巴赫 4707
空前 4707
失衡 4706
橡树 4706
同志 4701
斯坦利 4701
本港 4701
38% 4700
交换意见 4700
抬@@ 4700
讨@@ 4699
Wa@@ 4698
产业@@ 4698
区域@@ 4698
Tom@@ 4697
脱颖而出 4697
叫声 4696
披@@ 4696
青年党 4696
常识 4695
P.@@ 4694
顾@@ 4694
亚伯拉罕 4693
占领军 4693
来访 4693
一时期 4692
6.2 4691
全明星 4691
演化 4691
城乡 4690
两分钟 4689
信息管理 4689
死于 4689
泛 4689
逐字 4689
告诫 4688
24% 4687
斯旺西 4687
林斯 4687
远见 4687
南美 4686
镇上 4686
冈@@ 4685
砂 4685
警觉 4685
奥斯丁 4684
FA 4683
使该 4683
亵渎 4682
致辞 4682
借用 4681
布拉格 4681
托特纳姆 4681
胖@@ 4681
马里奥 4681
国营 4680
满意度 4679
政见 4678
科普 4678
蹒跚 4678
鸦片 4678
烂 4677
直辖市 4677
网路 4677
又称 4676
少校 4675
巴尔干 4675
平价 4675
分会 4674
无能为力 4674
缠@@ 4673
准入 4672
格林纳达 4672
民事诉讼 4672
汗@@ 4672
罗伯@@ 4672
胸 4672
起步 4672
钦佩 4672
农发 4671
供应@@ 4670
四处 4670
本函 4670
彻@@ 4669
绝佳 4669
总体@@ 4668
监督管理 4668
二十 4667
公民投票 4667
Jean 4666
T恤 4666
吉利 4666
牙科 4666
龙卷风 4666
GC 4665
Mol@@ 4665
十大 4665
咳嗽 4665
商业性 4665
诚信 4665
卵 4663
转基因 4663
水管 4662
绩 4662
Lewis 4661
慰问 4661
276 4660
Dec.@@ 4660
238 4659
分心 4657
回事 4657
融 4657
预警系统 4657
1929 4656
屠@@ 4656
谓 4656
Kn@@ 4655
外科 4655
0.2% 4653
ter@@ 4653
珍惜 4653
Kam@@ 4652
分类@@ 4652
柏 4652
神职人员 4652
253 4651
受到@@ 4651
杂项 4651
IBM 4650
ye 4650
丰 4649
信息中心 4649
打造 4649
督察 4649
难忘 4649
共同利益 4648
噩梦 4648
Ali@@ 4647
lan 4647
不可逆转 4647
多亏 4647
局限性 4647
下游 4646
斯说 4646
当日 4645
海豹 4645
串@@ 4642
彻底消除 4640
涂鸦 4640
选举权 4640
评定 4639
邮寄 4639
乙烯 4638
着迷 4638
42% 4637
庙 4636
跳跃 4636
57@@ 4635
宝马 4634
监 4634
取而代之 4632
徐@@ 4632
提振 4631
特雷@@ 4630
衍@@ 4630
达尔文 4630
重大贡献 4630
仓 4629
刊物 4629
华人 4628
领导力 4627
年满 4626
振 4626
身分 4625
224 4624
ico 4624
售出 4624
温斯顿 4624
疑虑 4624
GB 4623
归属 4623
承包 4623
埃迪 4622
越南@@ 4622
奥斯卡奖 4621
ny 4620
屋子 4620
标明 4620
检查和 4620
澳 4620
农夫 4619
台北 4619
地被 4619
数字@@ 4619
菲尼克斯 4619
ora 4618
搬家 4618
断言 4618
母婴 4618
十月 4617
歌剧院 4617
1325 4616
Lor@@ 4616
Lo@@ 4615
吸烟者 4615
想象力 4615
松散 4615
棚 4614
模具 4614
河畔 4614
方程式 4613
bury 4612
害羞 4612
旦 4612
稳定@@ 4612
路障 4612
365 4611
LC 4611
亲切 4611
印度人 4611
吸 4611
晶 4611
约克 4611
＿ 4611
Bon@@ 4610
代表大会 4610
百姓 4610
应于 4609
最终目标 4609
AB 4608
ille 4608
一号 4607
回忆起 4607
回报率 4607
架@@ 4607
科特 4607
辍学 4607
拘留所 4606
存入 4605
钻井 4605
失明 4604
蒸@@ 4604
2.5% 4603
角度看 4603
识@@ 4603
佛蒙特 4602
狐狸 4602
TT@@ 4600
徽 4600
非线性 4600
加倍努力 4599
大米 4599
第十一条 4599
阴茎 4599
广为 4597
想像 4597
福克兰群岛 4597
ami 4596
Inf@@ 4594
丢@@ 4594
树脂 4594
污 4594
Mont@@ 4593
安道尔 4593
Fi 4592
与众不同 4592
胰岛素 4592
Street 4591
Alex 4590
溶液 4590
隔壁 4590
巷 4589
犹豫 4589
231 4588
就此结束 4588
改正 4588
续集 4588
位数 4587
岸@@ 4587
闹 4586
Nathan 4585
分化 4585
宿 4584
总统大选 4584
技 4583
gr@@ 4581
访@@ 4581
工资@@ 4580
笛 4580
补给 4580
灰尘 4579
推断 4578
朱莉 4578
贬低 4578
SE 4577
引述 4577
可达 4576
懒@@ 4576
琴@@ 4576
警察@@ 4576
写给 4575
滚石 4575
场馆 4574
外围 4574
照会 4574
纪念活动 4574
蹦@@ 4574
麦当娜 4574
妹 4573
政策措施 4573
看似 4573
织物 4573
凯恩斯 4572
宴 4572
攀升 4572
税收@@ 4572
那一刻 4572
Nick 4571
持续增长 4571
袖@@ 4571
ovic 4570
寻 4569
病假 4569
闭 4569
持续性 4568
欠款 4568
水准 4568
Des@@ 4567
小伙子 4567
阿波罗 4566
上市公司 4565
噪声 4565
拿走 4565
景色 4565
巴特 4563
步兵 4563
主观 4562
炸 4562
同性恋者 4561
积极@@ 4560
HD 4559
交火 4559
今年年底 4559
埃利奥特 4559
合伙 4558
圣文森特 4558
最低点 4558
犯罪现场 4558
3.4 4557
大鼠 4557
智 4557
谋杀罪 4557
公民自由 4556
根本原因 4556
渐进 4556
灯塔 4556
盟 4556
约合 4556
并用 4555
汤米 4555
肯特 4555
６ 4555
加布里埃尔 4554
母公司 4554
洁净 4554
规划系统 4554
该校 4554
价格指数 4552
CB@@ 4551
Sav@@ 4551
局限 4551
碟 4551
债@@ 4550
公会 4550
恐怖活动 4550
Brid@@ 4549
Kan@@ 4549
编剧 4549
莱利 4549
祭@@ 4548
1.5% 4547
Fox@@ 4547
out 4547
照亮 4547
迪卡 4547
互补 4546
引力 4546
收缴 4546
普通@@ 4546
第十五届 4545
贸易谈判 4545
路程 4545
收拾 4544
祭 4544
筑 4544
首演 4544
CS 4543
han 4543
ont@@ 4542
贾森 4542
查找 4541
------------------------------------------------------------------------------------------------@@ 4540
主厨 4540
十周年 4540
柯 4539
多德 4538
接壤 4537
淹死 4536
华沙 4535
Dre@@ 4533
Na@@ 4533
缅因州 4533
馅饼 4533
ira@@ 4532
混合@@ 4532
法例 4531
莱德 4531
审案 4530
开展业务 4530
臣 4530
林赛 4529
猜@@ 4529
伟 4528
凯丽 4528
矿产 4528
馆@@ 4528
if 4527
六条 4527
布置 4527
玛利亚 4527
肖像 4527
uri@@ 4525
尼奥 4525
菲茨 4525
Mit@@ 4524
发射@@ 4524
富国银行 4524
按计划 4524
55@@ 4523
依旧 4523
拉尔 4523
Alan 4522
保留意见 4522
吓坏 4522
好评 4522
232 4521
暴风雪 4521
济 4521
患上 4520
犹太教 4519
贷 4519
弗雷 4518
Sarah 4517
兰斯 4517
德意志银行 4517
Carl@@ 4516
字体 4516
无礼 4516
监察组 4516
苍白 4516
人民党 4515
肺癌 4515
增订 4513
攀@@ 4513
菲德尔 4513
ines 4512
奇特 4512
迅@@ 4512
252 4511
上届 4511
狭隘 4511
258 4510
rig@@ 4510
基金组织 4510
移居 4510
德约 4509
波浪 4509
注册@@ 4509
第十六届 4508
逊@@ 4508
金融时报 4508
为时过早 4506
徒@@ 4506
拳 4506
able 4505
坏人 4505
用地 4505
Gold@@ 4504
大通 4504
水量 4504
嘉 4503
扁@@ 4502
渣 4502
伯纳德 4500
喀土穆 4500
留住 4500
新书 4499
瓶@@ 4499
佣金 4498
大笑 4498
妮可 4498
并购 4498
规范性 4498
这部分 4498
制剂 4497
电站 4497
迈尔斯 4497
27.@@ 4496
袜子 4496
223 4495
癖 4494
粒@@ 4494
值得@@ 4493
做成 4493
Gon@@ 4492
抽烟 4492
能为 4492
利奥 4490
威利 4490
电动汽车 4490
239 4489
三角洲 4489
Li@@ 4488
那场 4488
奥利弗 4487
扔掉 4487
Der@@ 4486
盲目 4486
聚光灯 4486
莫尔 4486
论证 4486
City 4485
美国国务院 4485
表中 4485
追随 4485
ust 4484
加共体 4484
罗马@@ 4484
见过 4484
树上 4483
萨斯 4483
Cle@@ 4482
好多 4482
虫@@ 4482
赞助商 4482
236 4481
太平洋地区 4481
安全网 4481
教育领域 4481
凝聚力 4480
局局长 4480
26% 4478
Jonathan 4478
不出 4478
敏锐 4478
迫 4478
第三名 4477
Jr 4476
吸血鬼 4476
幸 4476
莱昂 4476
一点点 4475
助产士 4475
合同@@ 4475
席卷 4475
ander 4474
lis 4474
受人 4474
写下 4473
呼声 4473
广播@@ 4473
恰恰 4473
检查员 4473
脂@@ 4473
赛马 4473
0.3% 4472
254 4472
剧作家 4472
威慑 4471
招待 4471
必将 4470
愿@@ 4470
廷@@ 4469
网格 4469
些@@ 4468
爷爷 4468
藻 4468
阅@@ 4467
C.12 4466
万桶 4466
信使 4466
现阶段 4466
Dun@@ 4465
ax 4465
地理@@ 4465
下巴 4464
意在 4464
大笔 4463
长期存在 4463
金沙萨 4462
Star@@ 4461
嘲弄 4461
奏@@ 4461
阿片 4461
烟花 4460
肚子 4460
议事 4460
247 4459
Riv@@ 4459
第十五条 4459
米尔斯 4459
亦可 4458
优良 4458
全境 4458
哈珀 4458
巴拉克 4458
象牙 4458
一夜之间 4457
审定 4457
计划@@ 4457
纽 4455
MC 4454
威尔@@ 4454
混 4454
火鸡 4454
狱@@ 4454
罐@@ 4454
之久 4453
事务@@ 4453
下个 4452
关上 4452
法律咨询 4452
wa 4451
开发人员 4451
MIS@@ 4450
联伊 4450
布林迪西 4449
扰 4449
消极影响 4448
一丝 4447
关爱 4447
德罗 4447
维权 4447
年度预算 4446
科医生 4446
美学 4446
耕作 4446
联席会议 4446
一口 4445
中东地区 4445
总值 4445
福布斯 4445
辩方 4445
246 4444
BT 4444
劣 4444
期限内 4444
竭力 4443
外聘 4442
玛丽@@ 4442
秋 4442
好坏 4441
ello 4440
意向 4440
植入 4440
真菌 4440
拒@@ 4439
染 4439
装载 4439
IG@@ 4438
表示@@ 4438
金发 4438
游击队 4437
翻译成 4437
估@@ 4436
男同性恋 4436
不感兴趣 4435
ima 4434
yst@@ 4434
上下文 4434
十二月 4434
卵@@ 4434
宪兵 4434
局外人 4434
警务人员 4433
244 4432
在乎 4432
坍塌 4432
并称 4432
躲@@ 4432
司法@@ 4431
布兰 4431
边际 4431
ho 4430
不便 4430
法国@@ 4426
军事法庭 4425
叉 4425
布兰德 4424
听证 4423
43% 4422
三点 4421
被忽视 4420
ona 4419
共同市场 4419
店@@ 4418
Ny@@ 4417
元件 4417
图标 4417
扇 4417
莫斯 4417
44% 4416
der@@ 4416
卫生部长 4416
1933 4415
Barn@@ 4415
堵塞 4415
抗体 4414
伸展 4413
第十七届 4413
报销 4412
Je@@ 4410
伊黎 4410
大学@@ 4410
恐怖@@ 4410
特种部队 4410
野火 4410
DS 4409
迷你 4409
don 4408
产后 4408
最受 4408
球杆 4408
降解 4408
eman 4407
乏味 4407
安提瓜和巴布达 4407
政治犯 4407
那不勒斯 4407
重启 4407
亚洲@@ 4406
突显 4406
谨@@ 4406
公尺 4405
吸毒者 4405
招生 4405
BA 4404
铅@@ 4404
1938 4403
互相@@ 4403
当今世界 4403
叙事 4401
为准 4400
西蒙@@ 4399
伦齐 4398
北达科他州 4398
安大略省 4398
民选 4398
珀 4398
远景 4398
Vill@@ 4397
掠 4396
＊ 4396
OC 4395
二者 4395
切尔诺贝利 4395
抹@@ 4395
集体@@ 4395
非常感谢 4395
克莱@@ 4394
山地 4394
扑灭 4394
泰特 4394
爸 4394
固定@@ 4393
拱@@ 4393
Dr@@ 4392
朱 4392
达格 4392
任何一方 4390
共鸣 4390
大腿 4390
官方网站 4390
并行 4390
跌@@ 4390
专业化 4389
减速 4389
str@@ 4388
戒烟 4387
脉 4387
木头 4386
保障@@ 4385
希尔斯 4385
日趋 4385
绰号 4384
双腿 4383
女孩子 4383
金融城 4383
骤@@ 4383
UR@@ 4382
却@@ 4382
非常高兴 4382
25.@@ 4380
Farage 4380
ling 4380
东道主 4380
欺负 4380
卫冕冠军 4379
舟 4379
两点 4378
流行@@ 4378
ez@@ 4377
定律 4377
布里@@ 4376
早先 4376
膝 4376
通风 4376
巾 4375
沼泽 4375
245 4374
娘 4374
乃 4373
笑容 4373
老龄化 4373
ards 4372
mm 4372
斑点 4371
we 4370
Fel@@ 4369
战俘 4369
明确指出 4369
笼子 4369
苗 4369
扑@@ 4368
过失杀人 4368
摸 4367
日渐 4367
定理 4366
浴 4366
老式 4364
该段 4364
郊 4364
37% 4363
ung@@ 4363
好几个 4363
灿烂 4363
第五个 4363
侄子 4362
侯@@ 4362
孕 4362
阿鲁沙 4362
麻醉 4362
Road 4361
千美元 4361
录音带 4361
涌 4361
竟 4361
工具包 4360
LO@@ 4359
PDF 4359
考古学家 4358
520 4357
Lind@@ 4357
go 4357
数百人 4357
面貌 4357
做事 4356
联想 4356
特别@@ 4355
所获 4354
sw@@ 4352
Met 4351
哪怕 4351
420 4350
做生意 4350
溢价 4350
疼 4350
非传统 4350
关键时刻 4349
阿克拉 4349
idd@@ 4348
十九 4348
卡斯蒂 4348
欧空局 4348
皇 4348
1937 4347
家禽 4347
随便 4347
盛行 4345
其间 4344
理所当然 4344
述@@ 4344
铺平道路 4343
法兰克福 4342
丑 4341
婆 4341
密切联系 4341
捕捉 4341
应从 4340
朴@@ 4340
过得 4340
296 4339
沉积 4339
罗夫 4339
身体健康 4339
内务部 4338
击退 4336
无期徒刑 4336
欧洲理事会 4336
法学 4336
零售@@ 4336
城区 4335
格莱美奖 4335
虑 4335
路易斯安那 4335
受灾 4334
F1 4333
马里@@ 4333
视察员 4332
交换@@ 4331
周转 4331
打赌 4331
关键@@ 4330
塘 4330
调拨 4330
Had@@ 4329
ip 4329
les@@ 4329
俄文 4329
快速增长 4329
CP@@ 4328
伪装 4328
可信度 4328
圣诞@@ 4328
宾馆 4328
迷惑 4328
Khal@@ 4327
赶 4327
305 4326
yan 4326
黏@@ 4326
che 4325
世界纪录 4325
哲@@ 4325
综管 4325
创始 4323
统 4323
计票 4323
开场 4322
首饰 4322
Net@@ 4320
亚太地区 4319
姬 4317
乌鸦 4316
机能 4316
无能 4315
纤维@@ 4315
期满 4314
阿桑奇 4314
234 4313
但须 4313
Bow@@ 4312
stone 4312
Tel@@ 4311
接入 4311
渐@@ 4311
犹@@ 4311
联保 4311
意大利人 4310
国有企业 4309
纵向 4309
这所 4309
雕 4309
印第安纳波利斯 4308
拉什 4308
一辈子 4307
俄罗斯@@ 4307
替代性 4306
port 4305
每位 4305
讲台 4304
访问期间 4304
omb@@ 4303
尔克 4303
鸡肉 4303
44@@ 4302
责令 4302
践踏 4302
多种多样 4301
镑 4300
魁北克 4300
中途 4299
棵 4299
海关@@ 4299
锯@@ 4299
检察院 4298
沉积物 4298
脚本 4298
Ran@@ 4297
老朋友 4297
信奉 4296
受体 4296
奎尔 4296
室@@ 4296
布鲁克斯 4296
响亮 4295
眠 4295
ram 4293
赶出 4293
邻 4293
晨@@ 4292
香肠 4291
可追溯 4290
颈 4290
ep 4289
稀少 4289
领事馆 4289
Si@@ 4288
合资企业 4288
洪 4288
题材 4288
感到高兴 4287
公共事务 4286
法拉利 4286
符合国际 4286
赵@@ 4285
PG 4284
威力 4284
小说家 4284
岁@@ 4284
各政党 4283
第一期 4283
辣 4283
219 4282
重塑 4282
2050 4281
Van 4281
外资 4281
桌 4281
金字塔 4281
4.4 4280
屈服 4280
阿拉木图 4280
习惯于 4279
疾@@ 4279
应享 4278
总协定 4278
战线 4278
全家 4277
同名 4277
橄榄@@ 4276
扇@@ 4275
军营 4274
逝 4274
Saf@@ 4273
be@@ 4273
丛 4273
八条 4273
准予 4273
深思熟虑 4273
这本 4273
勃 4272
德尔@@ 4272
德曼 4272
拘@@ 4272
加油 4271
城市规划 4271
核计划 4270
发掘 4269
戴维森 4269
梅赛德斯 4269
ents 4268
中应 4268
考绩 4268
条约法 4267
芙 4266
甚么 4265
搏斗 4264
起诉书 4264
呕吐 4263
五项 4262
低级 4262
尾声 4262
拨出 4262
歌声 4262
爱人 4262
羊毛 4262
芝@@ 4262
Miller 4261
一堆 4261
欣 4260
路易 4259
ink 4258
专栏作家 4258
工薪阶层 4258
更强 4258
研究成果 4258
克里斯蒂安 4257
手铐 4256
430 4255
sh 4255
军用飞机 4255
尚无 4255
纲 4255
行政助理 4255
内幕 4254
外包 4254
客房 4254
贝蒂 4254
赎金 4254
养殖 4253
斜坡 4252
编排 4252
美洲@@ 4252
gov 4251
帕劳 4251
描绘成 4251
年鉴 4250
辨认 4249
杰伊 4248
乙 4247
拘捕 4247
仁慈 4246
前期 4246
反洗钱 4246
壮 4246
ICEF 4245
之情 4245
就业率 4245
残割 4245
牛排 4245
莉亚 4245
36% 4244
印第安纳 4244
弓 4244
Ant@@ 4243
TR@@ 4243
伊凡 4243
兼并 4243
香草 4243
Media 4242
SBI 4242
打倒 4242
歌星 4242
塔拉 4241
情报部门 4241
番 4241
重振 4241
哨@@ 4240
圈子 4240
布伦@@ 4240
开庭 4240
所长 4240
旱灾 4240
跳水 4240
乐园 4239
柯林斯 4239
监督@@ 4239
第十八条 4239
高频 4239
未缴 4238
腔@@ 4237
摄氏度 4236
典礼 4235
普拉特 4235
第十八届 4235
第四十八届 4235
印制 4234
腺@@ 4233
ib 4232
不断扩大 4232
品味 4232
额度 4232
麻疹 4232
南澳大利亚 4230
招致 4230
碳水化合物 4230
诈骗 4230
Ahmad 4229
世上 4229
弗斯 4229
不详 4228
图为 4228
防务 4228
凯伦 4227
私有 4227
ANZ 4226
lie 4226
年收入 4226
扶养 4226
灌木丛 4226
当初 4225
Tim@@ 4224
冷冻 4224
天后 4224
绝大部分 4224
耕地 4224
深层 4223
饰@@ 4223
ardo 4222
仍旧 4222
哭@@ 4222
国家机关 4222
通话 4222
Ca@@ 4221
eth@@ 4221
仲裁员 4221
茎 4221
Cou@@ 4219
− 4219
党内 4219
残留 4219
商讨 4218
妖@@ 4218
贩子 4218
史上 4217
帆船 4217
分在 4216
抑@@ 4216
抽 4216
电子产品 4216
畅@@ 4216
蒙哥马利 4215
雷特 4215
漆 4214
yle 4213
享@@ 4213
289 4211
核爆炸 4211
直言不讳 4211
起着 4211
遥@@ 4211
灵顿 4210
西伯利亚 4210
化身 4208
共存 4207
枝@@ 4207
物项 4207
碱@@ 4207
eed 4206
ild@@ 4206
一个男孩 4206
语言@@ 4206
购买力 4206
备件 4205
一整套 4204
起伏 4204
Rodgers 4203
SB 4203
公路@@ 4203
硅@@ 4203
车子 4203
执教 4202
阻挡 4202
NA 4201
一般而言 4201
贝内特 4201
跳过 4201
鲜明 4200
健 4199
斯蒂@@ 4199
杰西 4199
马绍尔群岛 4199
CN.@@ 4198
Not@@ 4198
不肯 4198
丽莎 4198
囚禁 4198
常规赛 4198
特罗 4198
组织法 4198
霸@@ 4198
249 4197
摔跤 4197
Fed 4196
出自 4196
工商 4196
酷 4194
捉@@ 4193
收于 4193
族@@ 4193
租借 4193
银河系 4193
招收 4192
核武库 4192
oud 4191
基因@@ 4191
天文学 4191
蜡@@ 4191
过渡期 4191
催促 4190
换成 4190
Sel@@ 4189
澳元 4189
马戏团 4189
沙龙 4188
oa 4187
伊斯@@ 4187
遴选 4187
530 4186
乔治@@ 4185
染@@ 4184
相互尊重 4184
鉴@@ 4184
开放式 4183
停滞不前 4182
滑坡 4182
血糖 4182
行为人 4182
旅行@@ 4181
深圳 4181
261 4179
初创 4179
第一节 4178
财政状况 4178
希腊@@ 4177
零售业 4177
Sant@@ 4174
ä 4174
堕落 4174
心目 4174
Dj@@ 4173
oph@@ 4173
减小 4173
OE@@ 4172
公国 4172
加利 4172
奸 4172
两侧 4171
科恩 4171
长老 4171
Pas@@ 4170
诚 4170
orn@@ 4169
介质 4169
南极洲 4169
流浪 4169
编织 4169
雌性 4169
年末 4168
穴 4168
质素 4168
青年@@ 4168
Jer@@ 4167
anda 4167
左派 4167
结核 4167
记入 4167
ISO 4166
已获 4165
恤 4165
生存@@ 4165
第五位 4165
格拉@@ 4164
CI 4163
osh@@ 4163
外汇@@ 4163
密苏里州 4163
拥护 4163
专属 4162
之手 4162
住宅区 4162
亟需 4161
佩戴 4161
内斯 4161
恶梦 4161
纪念品 4161
罚金 4161
足协 4161
饱@@ 4161
瓦特 4160
Ltd 4159
幽@@ 4159
钓鱼 4159
面板 4159
极力 4158
相片 4158
鸭子 4158
US 4157
医改 4156
另一边 4156
战略伙伴 4156
斯特林 4156
高原 4156
两届 4155
生态@@ 4155
太高 4154
白痴 4154
ond 4153
复杂化 4153
弗林 4153
来往 4153
海龟 4153
首批 4153
制图 4152
椭圆形 4152
蒙受 4152
诺贝尔奖 4152
铁路@@ 4152
李光耀 4151
Fer@@ 4150
燃 4150
22.@@ 4149
Anthony 4149
抗拒 4149
霍姆斯 4149
html 4148
劳埃德 4148
Eric 4147
埃德 4147
费希尔 4146
一览表 4145
担负 4145
欧洲@@ 4145
灾@@ 4145
0.4% 4144
Sl@@ 4144
排定 4144
紧急行动 4143
厂商 4142
大力@@ 4142
掩护 4142
情绪化 4141
缅甸政府 4140
伞 4139
斯坦福大学 4139
最差 4139
har 4138
保全 4138
停下 4138
北海 4138
抽样 4138
足球联赛 4138
合资 4137
马匹 4137
浮动 4136
联军 4136
赤道 4136
不容@@ 4134
僵尸 4134
凭@@ 4134
压抑 4134
这颗 4134
克里姆林宫 4133
地理位置 4133
确诊 4133
肺部 4133
狂欢节 4132
生活水准 4132
过夜 4132
宰@@ 4131
萨里 4131
阿尔弗雷 4131
高加索 4131
Cameron 4130
ert 4130
数十万 4130
火炬 4130
顺便 4130
COP 4129
军事基地 4129
常任 4129
338 4128
格陵兰 4128
篮 4128
自营 4128
传到 4127
Bat@@ 4126
搜@@ 4126
衣物 4126
贝特 4126
露营 4126
257 4125
Cli@@ 4125
打扫 4125
Nov@@ 4123
生命危险 4123
豁免权 4123
芭@@ 4122
Steve 4121
打扰 4121
见表 4121
47@@ 4120
候补 4120
冈萨雷斯 4120
映射 4120
粗 4120
姓氏 4119
Wilson 4118
ec 4118
身心健康 4118
克罗斯 4117
Vi@@ 4116
坊 4116
构 4116
责成 4116
5.3 4115
坚硬 4115
呆@@ 4114
平坦 4114
指认 4114
自尊 4114
路面 4114
鲜艳 4114
序@@ 4113
改写 4113
箱@@ 4113
Ed 4112
ith@@ 4112
优 4112
红军 4112
薯条 4112
巴尔@@ 4111
消防@@ 4111
鲑鱼 4111
咖啡@@ 4110
德勒 4110
1.6 4109
旗舰 4109
社会学 4109
开口 4108
番@@ 4108
The@@ 4107
接任 4107
毛骨悚然 4106
特拉@@ 4106
中央电视台 4105
根本@@ 4105
别无选择 4104
纳迪 4104
阿瑟 4104
奥尔 4103
巨大@@ 4103
摩根士丹利 4103
首映 4103
厂@@ 4102
杖 4102
外加 4100
女权主义 4100
Cur@@ 4099
鲍尔 4099
写入 4098
准时 4098
如上 4098
棋@@ 4098
红外 4098
保住 4097
十四 4097
晕 4097
35@@ 4096
助攻 4096
哨 4096
过滤器 4096
瓦解 4095
2025 4094
之战 4094
申 4094
责怪 4094
Jose 4093
追溯 4093
为限 4092
光芒 4092
庄@@ 4091
计入 4089
详述 4089
克里夫 4088
租约 4088
选用 4088
麦克风 4088
Gil@@ 4087
买单 4087
整洁 4087
监测@@ 4087
第十四届 4087
民意测验 4086
纵火 4086
陶瓷 4086
悟 4085
非法@@ 4085
海洋@@ 4084
一是 4083
可乐 4083
砍伐 4083
缸 4083
问候 4083
戛纳 4081
科菲 4081
之子 4080
发球 4079
丢弃 4078
奈杰尔 4078
心爱 4077
绒 4077
冥想 4076
各有 4075
大蒜 4075
探访 4075
收据 4075
碧@@ 4075
笔记本电脑 4075
遭@@ 4075
颇@@ 4075
洞察力 4074
磺酸 4074
窥@@ 4074
第四节 4074
乍 4073
乔伊 4073
中华@@ 4072
亨 4072
送达 4072
陷@@ 4072
GA 4071
会为 4071
十字路口 4070
Dou@@ 4069
增加@@ 4069
查普曼 4069
程式 4069
达伦 4069
授 4068
鸣 4068
劝 4067
进一步提高 4067
AG@@ 4066
密尔沃基 4066
饮用 4066
换言之 4065
浇@@ 4065
鉴别 4065
马修斯 4065
口气 4064
大众@@ 4064
忙于 4064
杀伤性 4064
粮食@@ 4064
283 4063
Murray 4063
每一项 4063
毯子 4063
锤 4063
29.@@ 4062
Air 4062
卑@@ 4062
安全区 4062
精明 4062
塔克 4061
芒 4061
摇 4059
ott 4058
先锋 4058
年幼 4058
艾伯特 4058
HIV 4057
生命周期 4057
视作 4057
弯 4056
斯莱特 4056
ron@@ 4055
代理商 4055
首映式 4055
愈 4054
终极 4054
默里 4054
Boo@@ 4053
米拉 4053
膳食 4053
乳 4052
俄亥俄 4052
刷@@ 4052
圣马力诺 4052
掩@@ 4052
光荣 4051
娃娃 4051
照看 4051
癫痫 4051
受众 4050
背心 4050
Ur@@ 4049
OL 4048
词典 4048
早婚 4047
抱@@ 4046
最先 4046
ine@@ 4045
克说 4045
全能 4045
洗澡 4045
滕@@ 4045
电机 4045
坡@@ 4044
套装 4044
棺材 4044
皇冠 4044
革@@ 4044
一页 4043
迁往 4043
des 4042
br@@ 4041
用法 4041
皮尔斯 4041
遗迹 4041
285 4040
小船 4040
柯蒂斯 4040
自助 4040
迪安 4040
ower 4039
安吉拉 4039
运到 4039
Mary 4038
想念 4038
温布尔登 4038
utt@@ 4037
书面形式 4037
256 4036
口译员 4036
接收@@ 4036
酸奶 4036
333 4035
域名 4035
星巴克 4035
立方米 4035
兔 4034
德雷克 4034
必拓 4034
查访 4034
询 4034
韩 4034
6.1 4033
Keith 4033
坚定不移 4033
我家 4033
投了 4033
毁掉 4033
att 4032
格林纳丁斯 4031
聆听 4031
丝毫 4030
imm@@ 4029
伊夫 4029
虔诚 4029
贵方 4029
亚伦 4028
很差 4027
浩@@ 4027
第八次 4027
爱因斯坦 4026
仪@@ 4025
记录@@ 4025
静态 4025
乃是 4024
埃尔 4024
己@@ 4024
借调 4023
太远 4023
木制 4023
芙@@ 4023
Fran@@ 4022
滨@@ 4022
巡演 4021
障 4021
巴恩斯 4020
财产权 4020
待命 4019
时装@@ 4019
易受 4019
Kur@@ 4017
另见 4017
纳斯达克 4017
腐烂 4017
有点像 4016
民族团结 4016
LE@@ 4015
祭司 4015
46% 4013
维珍 4013
艾瑞克 4013
办事 4012
学士 4012
踢足球 4012
拷贝 4011
Hy@@ 4010
burg 4010
气质 4010
足额 4010
未满 4009
比亚 4009
边防 4009
高跟鞋 4009
卡拉@@ 4008
打进 4008
阻塞 4008
Hall 4007
Hel@@ 4007
伊拉克人 4006
改革方案 4006
郭@@ 4006
十六 4005
短裤 4005
参看 4004
大豆 4003
吐 4002
陷于 4002
CERD 4001
Reuters 4001
三十年 4001
严密 4001
厚度 4001
掌声 4001
球星 4001
获得成功 4001
FO@@ 4000
iyah 4000
巴厘岛 4000
微观 4000
秘密@@ 4000
脚注 4000
道尔 4000
游览 3999
羞耻 3999
阿伦 3999
懒惰 3998
调控 3998
重量级 3998
前妻 3997
喊道 3997
污染@@ 3997
一路 3996
公平竞争 3996
巴伐利亚 3996
火炮 3996
青蛙 3996
主页 3995
比如说 3995
没错 3995
普莱斯 3994
骑兵 3994
雅克 3993
Jab@@ 3992
弗瑞 3991
童子军 3991
第二位 3991
迪亚 3991
中请 3990
圣彼得堡 3990
胜过 3990
昌 3989
窄 3989
麦金 3989
NB@@ 3988
达顿 3988
号线 3987
字样 3987
该局 3987
ions 3986
停电 3986
外流 3986
优美 3985
医护人员 3985
哈拉 3984
坏事 3984
埃德@@ 3984
黄蜂 3984
林顿 3983
自行@@ 3983
驱逐舰 3983
突击 3982
440 3981
480 3981
ver 3981
客运 3981
拽 3981
递给 3981
Live 3980
三家 3980
不败 3980
存储@@ 3980
288 3979
SR@@ 3979
一顶 3979
偏爱 3979
向导 3979
见本 3979
鲜明对比 3979
未必 3978
可惜 3977
小时候 3977
藉 3977
亚军 3976
总和 3976
托儿所 3976
涨@@ 3976
eck 3975
筑@@ 3975
47% 3974
克里夫兰 3974
合规 3974
Dev@@ 3973
忧郁 3973
文森特 3973
海面 3973
相匹配 3973
聚合物 3973
进修 3973
陡峭 3973
王位 3972
Pac@@ 3971
国家级 3971
卒 3970
哈迪 3970
梅特 3970
EL@@ 3969
棚@@ 3969
行进 3969
一九@@ 3968
发酵 3968
喇叭 3968
大为 3968
饶@@ 3967
MS@@ 3966
ati 3966
多边条约 3966
怀念 3966
检控 3966
结社 3966
铁路线 3966
金融部门 3965
霍乱 3965
憎恨 3964
001 3963
FIFA 3962
重新分配 3962
传授 3961
29% 3960
li 3960
新闻记者 3960
色调 3960
锦@@ 3960
驾驶@@ 3960
分之一 3958
划船 3958
天文 3958
ury 3957
布兰登 3957
帕尔@@ 3957
歪曲 3957
趣@@ 3957
重演 3957
面纱 3957
杂 3956
浦@@ 3956
特质 3956
MO@@ 3955
iya 3955
善政 3955
基会 3955
盈@@ 3955
缀 3955
震 3955
加尔@@ 3954
医疗卫生 3953
赔偿额 3953
痒 3952
迷失 3952
出具 3951
咆哮 3951
拼命 3951
逃亡 3951
284 3950
咽 3950
插曲 3950
末期 3950
移送 3950
蚀 3950
追 3950
逆转录 3950
锋 3950
根据上述 3949
轮子 3949
1916 3948
Russell 3948
联东 3948
听从 3947
旋律 3947
ech@@ 3945
商务部 3945
更能 3945
角逐 3945
可不 3944
设计@@ 3944
inc@@ 3943
价值链 3943
爱心 3943
笼罩 3943
问答 3943
Eddie 3942
义大利 3942
操作@@ 3942
热水 3942
所在国 3941
水电 3941
汤姆森 3940
这支 3940
一击 3939
灾区 3939
规避 3939
〕 3938
服务质量 3938
液化 3938
BHS 3937
Rock@@ 3937
ñ 3937
一九九@@ 3937
凉@@ 3937
多数票 3937
撞车 3937
畅销 3937
中年 3936
59@@ 3935
源头 3935
过重 3935
下级 3934
俄克拉何马州 3934
批判 3934
七次 3933
已久 3933
美女 3933
钻 3933
主计长 3931
数周 3931
一副 3930
仇视 3930
车手 3928
ICCD 3927
粮 3927
争执 3926
挨@@ 3926
犯罪集团 3926
责备 3926
ega 3925
不已 3925
粮@@ 3925
获得@@ 3925
问到 3925
行政区 3924
在经济上 3923
炎症 3923
腰带 3923
曼努埃尔 3922
淡化 3922
粉红色 3922
载体 3922
rick 3921
屿 3921
紫外线 3921
萨曼莎 3920
凤@@ 3919
背面 3919
德文 3918
秘 3918
泳 3917
ough 3916
计数 3915
三十 3914
数据处理 3914
知觉 3914
图斯 3913
简洁 3913
美国公司 3913
责任感 3913
个人电脑 3912
剥夺权利 3912
篮@@ 3912
连贯性 3912
建筑业 3911
润 3911
纹@@ 3911
ED@@ 3910
达喀尔 3910
至上 3909
飞行器 3909
康涅狄格州 3908
专职 3907
我用 3907
留意 3907
Jack 3906
之星 3906
体力 3906
哈克 3906
新近 3906
吵@@ 3905
提出异议 3905
晶体 3905
粪便 3905
运载工具 3905
Marc@@ 3904
寄养 3904
恢复过来 3904
接洽 3904
毛巾 3904
White 3903
alia 3903
坚持不懈 3903
德国总理 3903
汉普顿 3903
十分之一 3902
无比 3902
硕士学位 3902
229 3901
一幕 3901
安格斯 3901
通报情况 3901
Po@@ 3900
结案 3900
黑海 3900
一大@@ 3899
优先@@ 3899
指甲 3899
丸 3898
羞@@ 3898
ous 3897
掷 3896
401 3895
Wol@@ 3895
内涵 3895
桌面 3895
腹泻 3895
全力以赴 3894
固 3894
航海 3894
各大 3893
破灭 3893
King 3892
公共利益 3892
柔和 3892
磁 3892
微波 3891
48% 3890
Cit@@ 3890
太小 3890
消费品 3890
牢记 3890
不道德 3889
主题公园 3889
繁重 3889
占地 3887
晕@@ 3886
举例 3885
分析@@ 3885
显微镜 3885
毗邻 3885
洗手间 3885
豪斯 3885
家用 3884
特拉福德 3884
吉奥 3883
坎特伯雷 3883
盟国 3883
译成 3883
交流经验 3881
字典 3881
斯瓦特 3881
红衣主教 3881
阿伯 3881
Comp@@ 3880
Pence 3880
eva 3880
蒂诺 3880
诸 3880
化管 3877
取胜 3877
弥合 3877
温和派 3877
aa 3876
升温 3876
在短期内 3876
构成犯罪 3876
乎@@ 3875
经济援助 3875
Mart@@ 3874
冻 3874
窃@@ 3874
莫尼卡 3874
训@@ 3874
喉@@ 3873
旅游@@ 3873
楚 3873
照相机 3872
缓冲区 3872
Den@@ 3871
尼斯@@ 3871
差价 3871
贺@@ 3871
错误@@ 3871
阿富汗人 3871
Mill@@ 3870
可比 3870
爆炸性 3870
Ren@@ 3869
主旨 3869
看成 3869
务必 3868
武器@@ 3868
草莓 3868
萨克 3868
英格兰队 3867
Bol@@ 3866
L.2 3866
参 3866
撰文 3866
非盈利 3866
傻@@ 3865
Apple 3864
同位素 3864
池@@ 3864
论据 3864
代表权 3863
拉尼 3863
259 3862
32% 3862
地步 3862
天真 3862
电话会议 3862
31% 3861
专项 3861
内疚 3861
周期性 3861
莲@@ 3861
专利@@ 3860
地质@@ 3860
必需品 3860
矩 3860
祸 3860
孙女 3859
被称作 3859
41% 3858
偿 3858
景点 3858
橄榄油 3858
测量@@ 3858
铸造 3858
CCPR 3857
吓人 3857
美德 3857
isa 3856
藤 3856
射线 3855
该区 3855
1932 3854
52% 3854
MP@@ 3854
覆盖范围 3854
0.5 3853
460 3853
可预测性 3853
增补 3853
戈德 3853
主权国家 3852
人间 3852
积极支持 3852
Fir@@ 3851
质量保证 3851
mond 3850
夺 3850
纸币 3850
适应性 3850
萝@@ 3848
Dis@@ 3847
一律 3847
专家@@ 3847
同日 3847
抄@@ 3847
浪@@ 3847
ori 3846
加泰罗尼亚 3846
周边地区 3846
比喻 3846
金枪鱼 3846
切斯特 3845
多层面 3845
果汁 3845
潮@@ 3845
臭 3845
48@@ 3844
弗洛@@ 3844
有益于 3844
沈@@ 3844
Pro 3843
脊@@ 3843
272 3842
〔 3842
分行 3842
辛苦 3842
静脉 3842
平凡 3841
第六章 3841
迟 3840
ji 3839
天上 3839
委托人 3839
沃特@@ 3839
率先 3839
管理制 3839
阿比让 3839
DE 3838
备灾 3838
席尔瓦 3838
德军 3838
美国银行 3838
Airbnb 3837
削 3837
在意 3837
鸟儿 3837
利文斯 3836
ze 3835
冗长 3835
勺 3835
旅游者 3835
谈及 3835
养成 3834
瑟姆 3834
壁垒 3833
学术@@ 3833
食品安全 3833
伸张正义 3832
空间科学 3832
ris@@ 3831
垫@@ 3831
旅游胜地 3831
证券@@ 3831
马舍尔 3831
时装周 3830
贸 3830
一匹 3829
乐于 3828
哑@@ 3828
塞德 3828
2.7 3827
net 3827
地盘 3827
辛烷 3827
410 3826
会同 3826
唯 3826
双重标准 3825
宏@@ 3825
纳尔 3824
内有 3823
有期徒刑 3823
每一件 3823
剩 3822
布里奇 3822
斯伯格 3822
联系人 3822
享用 3821
半个世纪 3821
Davis 3820
克劳福德 3820
布达佩斯 3820
持有者 3820
汤匙 3820
Rub@@ 3819
卸@@ 3819
察觉 3819
并不认为 3819
科学界 3819
删去 3818
戴上 3818
阿斯 3818
dale 3817
墓@@ 3817
更替 3817
蘑菇 3817
起火 3817
卫兵 3815
布拉特 3815
样式 3815
第十三条 3815
遇@@ 3815
麦康奈尔 3815
一小 3814
东南欧 3814
吸食 3814
智囊团 3814
神经元 3814
起身 3814
配套 3814
非核心 3814
诉讼@@ 3813
阿尔茨海默 3813
Sab@@ 3812
iew 3812
艾博特 3812
Jos@@ 3811
婴 3811
阿巴斯 3811
马来@@ 3811
喊@@ 3810
明显@@ 3810
腓@@ 3810
完全@@ 3809
犯罪分子 3809
确定性 3809
迫在眉睫 3809
之用 3808
温布利 3808
含糊 3807
抬起 3807
拉夫罗夫 3807
羡慕 3807
丘吉尔 3806
泰坦 3806
1935 3805
独立党 3805
羽毛球 3805
高尔夫球场 3804
ud 3803
投球 3803
控股 3803
剧情 3802
外星人 3802
奎 3802
Rah@@ 3801
sc 3801
器具 3801
弗朗索瓦 3801
结实 3801
262 3800
互换 3800
居住地 3800
Mich@@ 3799
htm 3799
主办@@ 3799
第十六条 3799
轮换 3799
操 3798
德福 3797
越狱 3797
同居 3796
月台 3796
ius 3795
信封 3795
喂养 3794
有意识 3794
Verizon 3793
观察站 3793
人事@@ 3792
保龄球 3792
不懈努力 3791
犯罪率 3791
皈依 3791
独家 3790
米奇 3790
赠 3790
col@@ 3789
交流@@ 3789
崎@@ 3789
米兰达 3789
旅途 3788
材@@ 3788
策@@ 3788
里尼 3788
① 3787
加权 3787
印度政府 3787
小猫 3787
灌输 3787
诺克斯 3787
295 3786
交互 3786
社区服务 3786
og 3785
坐落 3785
幼 3785
许诺 3785
ASX 3784
经济效益 3784
薄膜 3784
谘询 3784
Gat@@ 3783
全盘 3783
卡罗琳 3783
唐纳 3783
ula 3782
严酷 3782
六名 3782
建设项目 3782
法国政府 3782
Cy@@ 3781
超支 3781
SD 3780
南希 3780
滋@@ 3780
Sam 3779
瓣 3778
谢尔盖 3777
vin 3776
优异 3776
咯咯 3776
芭芭拉 3776
雷区 3776
非法活动 3776
第三轮 3775
联合国国际贸易法委员会 3775
谨向 3775
肯特郡 3774
赠@@ 3774
赫尔辛基 3774
iss 3773
幽默感 3773
物理@@ 3773
调查局 3773
rez 3772
临时代办 3772
合法权益 3772
会长 3771
惜 3771
氨@@ 3771
鸽子 3771
发展趋势 3770
壁炉 3770
46@@ 3769
gan 3768
哲 3768
敦@@ 3768
遂 3768
墓 3767
河水 3767
耐力 3767
芦@@ 3767
1918 3766
Sin@@ 3766
宽敞 3765
鼓舞人心 3765
Ky@@ 3764
抵销 3764
赖特 3764
躁 3764
募捐 3763
enberg 3762
情事 3762
横 3762
猛禽 3762
的黎波里 3762
缴@@ 3761
青睐 3760
综合@@ 3759
边锋 3759
远距离 3759
Penn@@ 3758
客户服务 3758
无偿 3758
今天上午 3757
生殖器官 3757
空间@@ 3757
艺术作品 3757
苍蝇 3757
单打 3756
契 3756
行者 3756
这比 3756
发烧 3755
房租 3755
温莎 3755
表示同意 3755
普雷@@ 3753
达斯 3753
index 3752
代表作 3752
Moore 3751
力拓 3751
果实 3751
迈向 3751
降临 3751
驱散 3751
Jun@@ 3750
Ri@@ 3750
入睡 3750
560 3749
亚历克 3749
愉悦 3749
改装 3749
俱@@ 3748
未获 3748
求职者 3748
苏维埃 3748
财政政策 3748
利雅得 3747
文法 3747
垒 3746
惹@@ 3746
oz@@ 3745
不服 3745
创新性 3745
随之而来 3745
NO@@ 3744
伊特 3744
elli 3743
这事 3743
Lane 3742
SUV 3742
临时性 3742
俄罗斯政府 3742
小牛 3742
酰@@ 3742
burn 3741
esa 3741
rich 3741
国人 3741
法学家 3741
蓬 3741
饿 3741
海鹰 3740
翼@@ 3740
退缩 3740
行之有效 3739
预选赛 3739
手榴弹 3738
267 3737
BP 3737
Tro@@ 3737
加州大学 3737
心跳 3736
烃 3736
相邻 3736
脸颊 3736
进军 3736
星级 3735
这艘 3735
Jon@@ 3734
格格 3734
Maj@@ 3733
wor@@ 3733
商业化 3733
尸检 3733
改划 3733
中起 3732
文学@@ 3732
方可 3732
流泪 3732
试验@@ 3732
亦@@ 3731
禁毒署 3731
选秀 3731
idi 3730
削@@ 3730
发射器 3730
ub 3729
浓烟 3729
积极主动 3729
平安 3728
账款 3728
AN 3727
中称 3727
便携式 3727
社论 3727
共和 3726
各项政策 3726
榜首 3726
流体 3726
该片 3726
Angel@@ 3725
哈利波 3725
找个 3725
贫 3725
Kath@@ 3724
mail 3724
催@@ 3724
广岛 3724
肥皂 3724
贫困人口 3724
鳍 3724
先驱报 3723
发行@@ 3723
驯鹿 3723
中尉 3722
为数不多 3722
峰值 3722
人均收入 3721
衬@@ 3721
Lab@@ 3720
Ni@@ 3720
年头 3720
解开 3720
Gir@@ 3719
欧洲杯 3719
34% 3718
廉@@ 3718
浪费时间 3718
东南亚国家联盟 3717
FA@@ 3716
抗击 3716
架子 3716
盗 3716
酒后 3716
99.@@ 3715
所犯 3715
Inter@@ 3714
蒂娜 3714
该死 3714
292 3713
国家有关 3713
本章 3712
冉@@ 3711
辱骂 3711
淋巴@@ 3710
棕榈@@ 3709
兹曼 3708
强盗 3707
教育部门 3707
断裂 3707
特技 3707
球衣 3707
Spr@@ 3706
上层 3706
汉姆 3706
CL@@ 3705
ck 3705
免疫@@ 3704
厨@@ 3704
消毒 3704
联合国安理会 3704
贝里 3704
雨林 3704
687 3703
ato 3703
不高 3703
批发 3703
合唱团 3702
采矿业 3702
Juli@@ 3701
受阻 3701
婆@@ 3701
歇 3701
赫尔@@ 3701
页岩 3701
傻瓜 3700
打伤 3700
放射 3700
神学 3700
一百万 3699
传言 3699
萨达姆 3699
α 3698
复仇 3698
转弯 3698
勤奋 3697
安抚 3697
畸形 3696
衰落 3696
帐单 3695
新界 3695
预付 3695
喉 3694
埃利斯 3694
行为@@ 3694
鲁莽 3694
编辑@@ 3693
let 3692
oto 3692
诚挚 3692
小路 3691
淀粉 3691
训练有素 3691
通缉 3691
卖家 3690
君 3690
曼德拉 3690
每名 3690
纯洁 3690
聘@@ 3690
布赖 3689
格林@@ 3689
盛大 3689
米亚 3689
赞 3689
olo 3688
诺亚 3688
平均值 3687
特殊教育 3687
双向 3686
四川 3686
慈善事业 3686
红新月会 3685
最低标准 3684
朴 3684
Tak@@ 3683
决不能 3683
塞斯 3683
西北@@ 3683
圣安东尼奥 3682
雾@@ 3682
霸 3682
Gro@@ 3681
小幅 3681
每种 3680
修剪 3679
林地 3679
联格 3679
关门 3678
缩编 3678
资历 3678
不快 3677
唇 3677
尊 3677
汉森 3677
用户@@ 3677
Dra@@ 3676
用具 3676
知名人士 3676
长得 3676
两张 3675
中共 3675
光纤 3675
吞并 3675
派系 3675
隶属 3675
高额 3675
fl@@ 3674
洪灾 3674
第一任 3674
胡萝卜 3674
沉船 3673
点心 3673
纹理 3673
赢@@ 3673
风景@@ 3673
惠及 3672
海斯 3672
衰老 3672
点名 3671
社会党 3671
鼓吹 3671
39% 3670
嘴巴 3670
巴伦西亚 3670
美国联邦调查局 3670
è 3669
伙 3669
等同于 3669
Rod@@ 3668
国际化 3668
有无 3668
鼠@@ 3668
暴力犯罪 3667
HP 3666
垃圾箱 3666
天鹅 3666
常客 3666
怀着 3666
感官 3666
陈旧 3666
Amazon 3665
kov 3665
人文 3665
份子 3665
出院 3665
强硬派 3665
杆菌 3665
水星 3665
互惠 3664
十八 3664
增值税 3664
熊队 3664
直接参与 3664
粘 3664
门户网站 3664
390 3663
AA 3663
打包 3663
政体 3663
砰 3663
罗伯逊 3662
麦凯 3662
偏低 3661
消化@@ 3661
门前 3661
安全带 3660
民间组织 3660
武装人员 3659
男爵 3659
能见度 3659
近代 3659
ins@@ 3658
如上所述 3658
罗兰 3658
263 3657
开拓 3657
比索 3657
高山 3657
chi 3656
体会 3656
劳工法 3656
实现目标 3656
密集型 3656
议席 3656
worth 3655
居室 3655
服装@@ 3655
水池 3655
詹金斯 3655
伯顿 3654
产科 3653
增长速度 3653
插图 3653
激光@@ 3653
蚂蚁 3653
奥利 3652
舌@@ 3652
逍遥法外 3652
uck@@ 3651
作弊 3651
oom@@ 3650
tra@@ 3649
俯@@ 3649
新专辑 3649
登台 3649
卢萨卡 3648
线条 3648
减损 3647
声望 3647
iPad 3646
细微 3646
密切@@ 3645
搜索引擎 3645
袜 3645
配有 3645
染色体 3644
6.3 3643
临床试验 3643
祂 3643
精密 3643
隐形 3643
Corbyn 3642
疯子 3642
ef 3641
ps@@ 3641
ran 3641
德国@@ 3641
本地人 3641
一棵 3640
楼宇 3640
生活费 3640
说来 3640
诺福克 3640
递送 3640
Vol@@ 3639
伊利诺伊州 3639
月间 3639
毫升 3639
1267 3638
Fle@@ 3637
塞拉 3637
队列 3637
华盛顿州 3636
盖子 3636
肢体 3636
许多年 3635
保持@@ 3634
保持稳定 3634
隶属于 3634
切换 3633
劳工部 3633
知识分子 3633
综@@ 3633
编造 3633
自觉 3633
Ot@@ 3632
一棵树 3632
吉隆坡 3632
土地@@ 3632
低温 3631
琳达 3631
霍根 3631
快捷 3630
扔@@ 3630
断层 3630
新疆 3630
炼油厂 3630
鲁滨逊 3630
iOS 3629
住处 3629
奥迪 3629
画作 3628
萨尔@@ 3628
虹@@ 3628
遗弃 3628
PI 3627
劣势 3627
沟@@ 3627
珍珠 3627
糊@@ 3627
试行 3627
铺设 3627
帆 3626
人才@@ 3625
份@@ 3625
剪 3624
最大化 3624
看望 3624
纺织 3624
American 3623
态势 3623
纱 3623
杆@@ 3622
音译 3622
Rams 3621
产地 3621
古巴人 3621
攻读 3621
窃 3621
沦为 3620
理查森 3620
Eur@@ 3619
拉波娃 3619
昂山 3619
呼吸道 3618
拐 3618
复议 3617
马克思主义 3617
危险性 3616
御@@ 3616
286 3615
存量 3615
虚拟@@ 3615
伊希斯 3614
残余 3614
瘾 3614
Sachs 3613
三重 3613
利用率 3613
警戒 3613
上一年 3612
指针 3612
糊 3612
脚趾 3612
印刷@@ 3611
原子弹 3611
归于 3611
中级 3610
表示祝贺 3610
隔绝 3610
ks@@ 3609
大体上 3609
居住@@ 3609
ech 3608
itz@@ 3608
礁 3608
Jason 3607
列于 3607
努力提高 3607
喷射 3607
基思 3607
濒@@ 3607
住区 3606
熙@@ 3606
万多 3605
批准书 3605
科斯塔 3605
诺丁汉 3605
十字军 3604
姊妹 3604
营业额 3604
铅笔 3604
驱使 3604
Id@@ 3603
永不 3603
税法 3603
贯@@ 3603
1925 3602
iel 3602
pa 3602
公安@@ 3602
表扬 3602
往年 3601
辽@@ 3601
基调 3600
翔 3600
五大 3599
在一起 3599
颤抖 3599
不带 3598
球赛 3598
诺斯 3598
壳@@ 3597
拉斯@@ 3597
第一类 3597
解析 3597
该款 3597
ci 3596
介于 3596
吩咐 3596
窗外 3596
纠缠 3596
给定 3596
1917 3595
Edward 3595
世纪末 3595
宇宙@@ 3595
苛刻 3595
嫩 3594
总司令 3594
辉 3594
徒劳 3593
普顿 3593
活动@@ 3593
迈尔 3593
Lar@@ 3592
唇@@ 3592
Web 3591
不算 3591
安定 3591
301 3590
Part 3590
侯 3590
基恩 3590
弟 3590
惭愧 3590
侦@@ 3589
卡斯特 3589
就让 3589
仔 3587
店主 3587
特雷 3587
鲁比 3587
1914 3586
AI 3586
bs 3586
专题@@ 3586
公益 3586
挑战者 3586
极具 3586
某事 3586
次日 3586
步行者 3586
ns 3585
CCW 3584
南瓜 3584
秦@@ 3584
苏黎世 3584
ika 3583
床位 3583
无形 3583
葡萄牙语 3583
货物运输 3583
醋 3583
维尔京群岛 3582
饮 3582
X射线 3581
多长时间 3581
拉登 3581
迭戈 3581
Beach 3580
Franc@@ 3580
曾任 3580
沙利文 3580
狂野 3580
贫困线 3580
Ts@@ 3579
wan 3579
为生 3579
验 3579
rie 3578
Dec@@ 3577
Steven 3577
off@@ 3577
tweet 3577
参考资料 3577
莫迪 3577
副教授 3576
宗教团体 3576
1928 3575
烧烤 3575
织 3575
袖 3575
AG 3574
USC 3574
克劳 3574
联布 3574
计算方法 3574
斯蒂尔 3573
本田 3573
两组 3572
埃克森 3572
莱西 3572
AC.105 3571
蒙德 3571
贪@@ 3571
赔@@ 3571
aff@@ 3570
格罗夫 3570
公署 3569
花园里 3569
425 3568
Stev@@ 3568
卡塔赫纳 3568
姜@@ 3568
敏捷 3568
正统 3568
猛增 3568
Whit@@ 3567
平方英里 3567
校舍 3567
下水道 3566
使者 3566
加以解决 3566
动性 3566
小鼠 3566
看护 3566
脏@@ 3566
鼻 3566
SBSTA 3565
45@@ 3564
专制 3564
巡洋舰 3564
Dep@@ 3563
Institute 3563
匆匆 3563
单人 3563
烂@@ 3563
耗费 3563
鲍德温 3563
CN 3562
招 3562
罗宾逊 3562
99% 3561
OP@@ 3561
从小 3560
桂@@ 3560
纳什维尔 3560
肉体 3560
1600 3559
第三款 3559
购物者 3559
迎合 3559
Glen@@ 3558
斯大林 3558
佩恩 3557
募集 3557
同谋 3557
规章制度 3557
迫击炮 3557
党人 3556
湿度 3556
贬@@ 3556
参半 3555
塔纳 3555
开发者 3555
怀旧 3555
店铺 3554
性交 3554
猎犬 3554
通信@@ 3554
嗨 3553
日出 3553
汉斯 3553
文件@@ 3552
脉@@ 3552
空气质量 3551
黄金@@ 3551
old@@ 3549
哈尼 3549
收视率 3549
民防 3549
1934 3548
寿@@ 3548
创造者 3547
单击 3547
同工同酬 3547
提法 3547
近日 3547
岛民 3546
虐 3546
水灾 3545
Gam@@ 3544
第九次 3544
细致 3544
视线 3544
俯瞰 3543
奔驰 3543
304 3542
发病 3541
开局 3541
旋风 3541
最终用户 3541
时有 3540
野餐 3540
丝绸 3539
款中 3539
捕捉到 3538
日为 3538
格言 3538
物价 3538
名录 3537
总体目标 3537
联署 3537
还款 3537
950 3536
通用汽车 3536
专委 3535
侨民 3535
全日制 3535
四肢 3535
快要 3535
新一轮 3534
新兵 3534
列名 3533
尼说 3532
班机 3532
切成 3531
弧@@ 3531
气管 3530
法拉 3530
自来水 3530
316 3529
国民大会 3528
床单 3528
挑起 3528
米莉 3528
纠@@ 3528
GPS 3527
遵从 3527
49.@@ 3526
9000 3526
筹 3526
Fal@@ 3525
Mitchell 3525
溶剂 3525
可行性研究 3524
进行性 3524
ann 3523
加特 3523
君@@ 3523
Willi@@ 3522
东北@@ 3522
布法罗 3522
硅 3522
ios 3521
→ 3521
审计工作 3521
无常 3521
第一名 3521
1919 3520
Ku@@ 3520
应以 3520
泰晤士河 3520
生产线 3520
第四十六届 3520
佩德罗 3519
斯文 3519
禁忌 3519
苏塞克斯 3519
遵行 3519
奥古@@ 3518
战略部署 3518
持续时间 3518
教义 3518
橙@@ 3518
第四名 3518
醉酒 3518
优惠@@ 3517
全环 3517
善治 3517
大都 3517
炒@@ 3517
矮@@ 3517
流动@@ 3516
流行音乐 3516
海员 3516
知识@@ 3516
Alb@@ 3515
bur@@ 3515
放射@@ 3515
浴缸 3515
67@@ 3514
信号@@ 3514
八国集团 3514
0.6% 3513
299 3513
堡@@ 3513
植 3513
分配@@ 3512
居所 3512
市内 3512
马克思 3512
听听 3511
浓密 3511
侵@@ 3510
树叶 3510
碑 3510
治疗师 3509
监督机制 3509
私营企业 3509
诱导 3508
Alexand@@ 3506
带动 3506
托雷斯 3506
第二类 3506
Graham 3505
yce 3505
抽屉 3505
溢出 3505
理论@@ 3505
酬 3505
Serg@@ 3504
双边关系 3503
并列 3503
约翰斯顿 3503
蛇@@ 3503
篇幅 3502
49% 3501
aro 3501
illy 3501
不良影响 3501
广东 3501
棕榈 3501
相对@@ 3501
乃@@ 3500
塑料袋 3500
核动力 3500
盒@@ 3500
财物 3500
Lov@@ 3499
近海 3499
Cost@@ 3498
May 3498
中所列 3498
拉动 3498
明确@@ 3498
活泼 3498
王储 3498
花旗 3498
收藏品 3496
明尼苏达 3496
琪 3496
航空器 3496
运算 3496
eng 3495
世界级 3495
克里斯蒂娜 3495
特斯 3495
足球场 3495
软弱 3495
剧中 3494
普通人 3494
选拔 3494
北极@@ 3493
藐视 3493
魔戒 3493
ales 3492
披头士 3492
格拉斯 3492
沾@@ 3492
炮火 3492
全会 3491
型飞机 3491
显现 3491
陵 3491
兰姆 3490
樱桃 3490
循 3489
SEC 3488
告终 3488
建国 3488
排水 3488
造型 3488
犀牛 3487
入伍 3486
瑞士法郎 3486
边境地区 3486
太棒了 3485
进食 3485
叶片 3484
Liam 3483
举重 3483
塞进 3483
壳牌 3483
负载 3483
徒步旅行 3482
首场 3482
高中@@ 3482
海浪 3481
绳索 3481
SD@@ 3480
因果关系 3480
建筑群 3480
暖和 3480
阿斯顿 3480
VR 3479
天津 3479
解放运动 3479
长途@@ 3479
iro 3478
系指 3478
Rap@@ 3477
敬畏 3477
高尚 3477
国防@@ 3476
建议书 3476
科长 3476
罕 3476
仓促 3475
关系密切 3475
填 3475
诺尔 3475
尝 3474
岗 3474
罗纳尔多 3474
范加尔 3474
拳头 3473
药丸 3473
1921 3472
不具 3472
学步 3472
开销 3472
眉@@ 3472
遗失 3472
备案 3471
雌@@ 3471
驾@@ 3471
Gov@@ 3470
Tou@@ 3470
凯莉 3470
海鲜 3470
oon 3469
一致同意 3469
基础@@ 3469
解剖 3469
首要任务 3469
占领区 3468
文莱达鲁萨兰国 3468
驳斥 3468
51% 3467
格罗 3467
57% 3466
厌@@ 3466
影迷 3465
本署 3465
540 3464
两位数 3464
栗 3464
流出 3464
火花 3464
no 3463
公车 3463
委派 3463
得意 3463
沙子 3463
287 3462
构架 3462
Eri@@ 3461
嫌犯 3461
ure@@ 3460
登场 3460
1912 3459
喝一杯 3459
幻 3459
愈合 3459
添@@ 3459
Eng@@ 3458
搬进 3458
本合同 3458
足球赛 3458
2.0 3457
SW@@ 3457
变化@@ 3457
自力更生 3457
281 3456
Bh@@ 3456
唤起 3456
天气预报 3456
当场 3456
轻伤 3456
zi 3455
安全感 3455
开创性 3455
弟@@ 3455
捷 3455
另类 3454
戈斯 3454
识字率 3454
韦尔 3454
游乐场 3453
紧迫性 3453
畏惧 3452
伯恩茅 3451
商业活动 3451
少将 3451
表达@@ 3451
走动 3451
ien 3450
任何理由 3450
增速 3450
失业者 3450
捡 3450
葛 3450
11@@ 3449
宵禁 3449
自传 3449
Ibrahim 3448
一到 3448
非官方 3448
Deb@@ 3447
不公 3447
俘虏 3447
古兰经 3447
大有 3447
富国 3447
斗牛犬 3447
所作所为 3446
拥有者 3446
格拉姆 3446
赫斯特 3446
ally 3445
保镖 3445
锚 3445
第二份 3444
参谋 3443
百年 3443
骆驼 3443
Lam@@ 3442
次年 3442
沉思 3442
米克 3442
胃口 3442
芒@@ 3442
利用@@ 3441
功效 3441
开曼群岛 3441
棋 3441
罗琳 3441
音乐节 3441
全面@@ 3440
吞噬 3440
小孩子 3440
拉萨 3440
访客 3440
资金@@ 3440
不禁 3439
侍@@ 3439
信任@@ 3439
古希腊 3439
一旁 3438
不着 3438
强势 3438
一席之地 3437
公升 3437
内布拉斯加州 3437
流行病学 3437
高空 3437
付诸实施 3436
前门 3436
三角形 3435
曼斯 3435
小提琴 3434
多纳 3433
6.4 3432
下方 3432
餐桌 3432
BI 3431
一具 3431
出路 3431
刺杀 3431
尘埃 3431
畅销书 3431
解答 3431
霍奇森 3431
GO 3430
或者说 3430
胶囊 3430
阿德 3430
企@@ 3429
胰@@ 3429
illi@@ 3428
各次 3428
阿尔及尔 3428
参与方 3427
大人 3427
管弦乐队 3427
老婆 3427
退学 3427
AK@@ 3426
团结起来 3426
墨西哥湾 3426
来得 3426
杭州 3426
水坝 3426
紧急状况 3426
有幸 3425
长城 3425
1400 3424
98% 3424
大洲 3424
求婚 3424
5.4 3423
Hamm@@ 3422
Taylor 3422
土星 3422
忍不住 3422
戈尔诺 3422
池塘 3422
没见 3422
算是 3422
人员@@ 3421
蒸发 3421
表现形式 3421
Maria 3420
坦诚 3420
细目 3420
车臣 3420
正当@@ 3419
拉德福 3418
马丁内斯 3418
25000 3417
万至 3417
因数 3417
新泽西州 3417
瑞士@@ 3417
470 3416
梅里 3416
Brun@@ 3414
Les@@ 3414
储量 3414
妆 3414
庭审 3414
禁用 3414
协理 3413
控制中心 3413
无私 3413
漫游 3413
食堂 3413
焊@@ 3412
58@@ 3411
穆萨 3411
第二十二届 3411
试用 3411
该地 3411
遇难者 3411
使团 3410
债权 3410
用处 3410
物件 3409
肺结核 3409
荒野 3409
doc@@ 3408
寺庙 3408
服务部 3408
水位 3408
法尔 3407
触犯 3407
owski 3406
开普敦 3406
撤军 3406
足球比赛 3406
 3406
Art@@ 3405
哈娜 3405
塞缪尔 3405
德克萨斯州 3405
政治学 3405
集中精力 3405
他用 3404
投保 3404
服务台 3404
格洛@@ 3404
Nav@@ 3403
纽带 3403
置疑 3403
伐@@ 3402
奴@@ 3402
妙@@ 3402
管家 3402
诺贝尔和平奖 3402
骗@@ 3402
优于 3401
博伊 3401
摸@@ 3401
268 3400
克雷@@ 3400
拳击手 3400
Bus@@ 3399
oj@@ 3399
不敢相信 3399
十八@@ 3399
嘛 3399
寓@@ 3399
款人 3399
泼@@ 3399
炭@@ 3399
纳德 3399
1.8 3398
68@@ 3398
小事 3398
种植园 3397
77@@ 3396
Linux 3396
ope 3396
双层 3396
.3 3395
包装@@ 3395
奇妙 3395
衣橱 3395
送入 3395
53% 3394
一口气 3394
座椅 3394
斗士 3394
谜@@ 3394
归纳 3393
残暴 3393
移民法 3393
阿伯特 3393
巨人队 3391
收支 3391
蓝线 3391
兄弟会 3390
来源国 3390
查尔斯顿 3390
逃税 3390
锅炉 3390
四岁 3389
监护权 3389
阿布贾 3389
社会科学 3388
咖啡厅 3387
应用@@ 3387
扎伊尔 3387
挨饿 3387
洲际 3387
财产损失 3387
处死 3386
合作者 3385
回购 3384
增加一倍 3384
富时 3384
欧亚 3384
电厂 3384
美的 3384
iri 3383
一团糟 3383
诱人 3383
转播 3383
阿姆斯特朗 3383
斯考 3382
用力 3382
英国皇家空军 3382
到访 3381
四位 3381
小心翼翼 3381
念头 3381
MD@@ 3380
56% 3379
Tam@@ 3379
德堡 3379
硬化 3379
数学@@ 3378
特种 3378
规模较 3378
连接@@ 3378
情侣 3377
情况通报 3377
点儿 3377
身着 3377
出发点 3376
情势 3376
Ari@@ 3375
Pap@@ 3375
光辉 3375
很久以前 3375
德兰 3375
格林威治 3375
稀有 3375
af 3373
wit@@ 3373
凯伊 3373
拼写 3373
挪@@ 3373
特克斯 3373
第十 3373
违宪 3373
万一 3372
福尔 3372
柠檬@@ 3371
皱@@ 3371
财团 3371
Som@@ 3370
无助 3370
时数 3370
骑士队 3370
世界遗产 3369
之道 3369
悄悄 3369
1907 3368
Gordon 3368
Lim@@ 3368
oun 3368
ward 3368
不久前 3368
担当 3368
3.6 3367
How@@ 3367
Jim 3367
放牧 3367
请洽 3367
杂货店 3366
约书亚 3366
身子 3366
非常重视 3366
偏 3365
抽签 3365
映@@ 3365
第一种 3365
童话 3364
贸@@ 3364
金矿 3364
里约集团 3363
Hen@@ 3362
line 3362
泪水 3362
pol@@ 3361
兽@@ 3361
幻觉 3361
接吻 3361
彼得@@ 3360
昭@@ 3360
金森 3360
重新安排 3359
面团 3359
Bad@@ 3358
UN 3358
弓@@ 3358
拆卸 3357
眼下 3357
笔译 3357
船队 3357
可用性 3356
宗教@@ 3356
分辨 3355
扔进 3355
挡 3355
磁带 3355
不大 3354
世人 3354
人心 3354
娜@@ 3354
公民权 3353
女郎 3353
乔伊斯 3352
无误 3352
涂料 3352
58% 3351
厅@@ 3351
支架 3351
财 3351
隐喻 3351
伏击 3350
克莱德 3350
凯奇 3350
猛 3350
米德 3350
颁@@ 3350
Tem@@ 3349
产能 3349
煮@@ 3349
男士 3349
第@@ 3349
获救 3349
萨拉热窝 3348
重创 3348
农业部 3347
安全套 3347
装甲@@ 3347
要少 3347
馆长 3347
马赛 3347
协调@@ 3346
姐 3346
昌@@ 3345
莱昂纳多 3345
IV@@ 3344
ax@@ 3344
一年级 3344
保护局 3344
出卖 3344
劳里 3344
录像带 3344
绵羊 3344
风扇 3344
高涨 3344
2021 3343
Reynolds 3343
坎普 3343
总面积 3343
侵袭 3342
名片 3342
巨型 3342
疹 3342
管辖区 3342
Walker 3341
儿童医院 3341
巴尼 3341
正当理由 3341
氮@@ 3341
涩 3341
尼维斯 3340
耦合 3340
芋 3340
2.8 3339
Act@@ 3339
Fort@@ 3339
祸害 3339
反应@@ 3338
妇女儿童 3338
捣@@ 3338
自给自足 3338
综合征 3337
农户 3336
GP 3335
严重@@ 3335
布兰妮 3335
应邀 3335
罗利 3335
色素 3335
Jenn@@ 3334
个子 3334
复发 3334
奥马尔 3334
现役 3334
窃听 3334
第四十七届 3334
Fox 3333
Stud@@ 3332
aw 3332
企业@@ 3332
出门 3332
努力@@ 3332
尝@@ 3332
排球 3331
零星 3331
之家 3330
十一月 3330
巴菲特 3330
登机 3330
胆 3330
卡尔顿 3329
器材 3329
高度@@ 3329
夺去 3328
工商业 3328
ag 3327
现成 3327
田纳西 3327
罢免 3327
走到 3327
不许 3326
不遗余力 3326
掘@@ 3326
欺@@ 3326
舍尔 3326
高得 3326
不大可能 3325
修饰 3325
疆@@ 3325
路德 3325
逃走 3325
367 3324
Bloomberg 3324
混蛋 3324
莱姆 3324
交织 3323
击球 3323
详@@ 3323
隙 3323
难怪 3323
Fil@@ 3322
在历史上 3322
瓶颈 3322
Ross 3321
剑@@ 3321
武术 3321
Iv@@ 3320
帕斯 3320
旅行社 3320
连环 3320
窗帘 3319
葡萄牙@@ 3319
Joe 3318
克利 3318
后台 3318
天下 3318
客户端 3317
郊@@ 3317
基督教徒 3316
大大增加 3316
国际海事组织 3315
圆满 3315
收紧 3315
费德勒 3315
Kor@@ 3314
一幢 3314
惯常 3314
探险家 3314
货架 3314
零零 3314
Allen 3313
Nich@@ 3313
oni 3313
冯@@ 3313
整套 3313
热带@@ 3313
不介意 3312
决策机构 3312
卡迪亚 3312
哈德逊 3312
没人 3312
派克 3312
Justin 3311
兆@@ 3311
波兰@@ 3311
纳米@@ 3311
里程 3311
Center 3310
fre@@ 3310
一堵 3310
格外 3310
花生 3310
高级@@ 3310
永 3309
茂@@ 3309
营救 3309
观光 3309
五人 3308
公墓 3308
利息收入 3307
石油价格 3307
装配 3307
基斯 3306
录音室 3306
晚饭 3306
Philip 3305
小学生 3305
挪威@@ 3305
血清 3305
Meg@@ 3304
件事 3304
家庭收入 3304
拜仁 3304
第十次 3304
陆上 3304
Dor@@ 3303
Research 3303
人民代表大会 3303
冰冷 3303
弗拉@@ 3303
敞@@ 3303
求助于 3303
NT@@ 3302
国际刑警组织 3302
航天飞机 3302
轻轻 3302
料到 3301
借以 3300
对外贸易 3300
屏障 3300
彭博社 3300
惩罚性 3300
摔倒 3300
斜 3300
渴 3300
不成 3299
人力资本 3299
侵略性 3299
充气 3299
怨恨 3299
收藏家 3299
腹 3299
费尔南德斯 3299
90@@ 3298
受控 3298
司令 3298
夜里 3298
时间@@ 3298
热烈欢迎 3298
Cat@@ 3296
粗鲁 3296
脱水 3296
走近 3296
金球奖 3296
3500 3295
半径 3295
导则 3295
犹豫不决 3295
孕@@ 3294
无人@@ 3294
贺卡 3294
282 3293
绝不能 3293
之初 3292
公安机关 3292
寡@@ 3292
巫师 3292
整体@@ 3292
特人 3292
社会民主党 3292
第二场 3292
行为准则 3292
龙虾 3292
FS 3291
Goldman 3291
妇女@@ 3291
推动力 3291
男孩子 3291
落成 3291
近几年 3291
枕头 3290
墨西哥人 3289
积极性 3289
不吃 3288
敞开 3288
毛病 3288
火力 3288
iner 3286
软体 3286
斯菲尔德 3285
本周一 3285
超声 3285
辨@@ 3285
主持会议 3284
巢@@ 3284
电力公司 3284
蕴@@ 3284
判决书 3283
墨 3283
学说 3283
驱动器 3283
高峰期 3283
Fernand@@ 3282
勒庞 3282
培训@@ 3282
症@@ 3282
McK@@ 3281
ign@@ 3281
外语 3281
怀疑者 3281
核技术 3281
滞后 3281
炭 3281
联索 3281
茄@@ 3281
达卡 3281
百分@@ 3280
Kra@@ 3279
共产@@ 3279
弗拉 3279
策略师 3279
阔@@ 3279
Exp@@ 3278
人工@@ 3278
区间 3278
广泛应用 3278
Bey@@ 3277
ito 3277
侠 3277
国际事务 3277
忠于 3277
素季 3277
帆@@ 3276
税务局 3276
add@@ 3275
坑@@ 3275
拉尔夫 3275
救赎 3275
目击 3275
威灵顿 3274
• 3273
关进 3273
安圭拉 3273
急诊 3273
贫困地区 3273
缔造 3272
Alexander 3271
Jeff 3271
人手 3271
占多数 3271
垮 3271
搅@@ 3271
暴动 3271
美国最高法院 3271
赔偿@@ 3271
起始 3271
辆车 3271
严重破坏 3270
伐 3270
英勇 3270
证券交易 3270
shire 3269
加冕 3269
胡椒 3269
303 3268
eb 3268
十二个 3268
手提包 3268
1923 3267
Coo@@ 3267
VW 3267
人以 3267
摩天大楼 3266
考生 3266
ISIS 3265
扑 3265
经济损失 3265
顽@@ 3265
埃厄 3264
999 3263
ves 3263
半球 3263
机翼 3263
深入研究 3263
物料 3263
分泌 3262
模糊@@ 3262
白金汉宫 3262
自然环境 3262
1931 3261
度量 3261
核燃料 3261
绣 3261
适于 3261
Elizabeth 3260
实习生 3260
山楂 3260
核销 3260
第三阶段 3260
臣@@ 3260
伞@@ 3259
印度教 3259
环境法 3259
钢笔 3258
黛 3258
隐蔽 3257
剧团 3256
277 3255
GO@@ 3255
一至 3255
举例来说 3255
团结一致 3255
柯克 3255
网络攻击 3255
秘诀 3254
深层次 3253
维修@@ 3253
闷 3253
美貌 3252
诉人 3252
雷拉 3252
鹰@@ 3252
女巫 3251
犹大 3251
comm@@ 3250
卡莉 3250
盖伊 3250
稻@@ 3250
美国联邦 3250
Microsoft 3249
埃米尔 3249
离境 3249
邮政@@ 3249
Ang@@ 3248
NPT 3248
请参阅 3248
适用性 3248
Raj@@ 3247
SpaceX 3247
伊拉 3247
猎鹰 3247
证明书 3247
迪亚@@ 3247
一圈 3246
优越 3246
罪魁祸首 3246
口腔 3245
大面积 3245
文艺复兴 3245
深色 3245
肋骨 3245
舒尔茨 3245
sson 3244
两国政府 3244
姿 3244
Cooper 3243
GE 3243
脚下 3243
费尔法克斯 3243
阿布扎比 3243
一身 3242
价钱 3242
大部份 3242
朴槿惠 3242
半导体 3241
平等@@ 3241
配料 3241
数十 3240
滨 3239
Mou@@ 3238
左手 3238
忠告 3238
机组 3238
坝 3237
应予以 3237
手无寸铁 3237
素食 3237
阿德里安 3237
乔尔 3236
尼科西亚 3236
极化 3236
毛泽东 3236
沃特福德 3236
流利 3236
示例 3236
祖马 3236
而后 3236
酚 3236
确凿 3235
讲习 3235
279 3234
大风 3234
游荡 3234
any 3233
如果说 3233
返还 3233
陆克文 3233
Techn@@ 3231
iel@@ 3231
me@@ 3231
手机@@ 3231
时装秀 3231
连结 3231
铃@@ 3231
1922 3230
273 3230
写出 3230
去年同期 3229
葡萄@@ 3229
衷心 3229
通讯员 3229
IO@@ 3228
illo 3228
曹@@ 3228
见于 3228
诺顿 3228
eni 3227
但他却 3227
损@@ 3227
溶解 3227
滑冰 3227
现场@@ 3227
蒙特塞 3227
路过 3227
重新启动 3227
似宜 3226
威斯康星 3226
西德尼 3226
1924 3225
325 3225
店里 3225
木板 3225
Port@@ 3224
比前 3224
oe 3223
可望 3223
后座 3223
国贸 3223
剔除 3222
劳力 3222
润@@ 3222
登堡 3222
54% 3221
Ara@@ 3221
X光 3221
70@@ 3220
全州 3220
第二十五条 3220
严重后果 3219
喷泉 3219
有鉴于此 3219
洛根 3219
皆@@ 3219
五条 3218
肆虐 3218
阿斯@@ 3218
ge@@ 3217
hab@@ 3217
再次发生 3217
室友 3217
差点 3217
斯皮@@ 3217
无用 3217
第四十届 3217
1927 3216
梅斯 3216
群组 3216
Abb@@ 3215
Christopher 3215
Matt@@ 3215
恋人 3215
拜尔 3215
明尼阿波利斯 3215
袋@@ 3215
一季 3214
倘若 3214
跃 3214
ember 3213
乌托邦 3213
土壤@@ 3213
大区 3213
津 3213
聊@@ 3213
291 3212
Frank 3212
化物 3212
科技委 3212
连续剧 3212
伽@@ 3211
滞留 3211
金融公司 3211
7.2 3210
交易商 3210
富含 3210
辩 3210
Bil@@ 3209
库尔 3209
礼堂 3209
陀@@ 3209
筹划 3208
触底 3208
代数 3207
抛售 3207
重现 3207
责任人 3206
Dow@@ 3205
亲近 3205
厌烦 3205
标示 3205
求解 3205
滥杀 3205
社会工作 3205
Add.4 3204
Ray 3204
保守主义 3204
肃@@ 3204
密性 3203
斯拉夫 3203
犯错 3203
皇后区 3203
突发 3203
辉@@ 3203
POPS 3202
Pra@@ 3202
新华 3202
香水 3202
性工作者 3201
遗漏 3201
不成比例 3200
尸@@ 3200
民间团体 3200
霍顿 3200
1701 3199
一如既往 3199
港元 3199
积雪 3199
西利 3199
PL 3198
〇 3198
并不@@ 3198
暑假 3198
狡猾 3198
白皮书 3198
砸@@ 3198
露丝 3198
Haw@@ 3197
US@@ 3197
人发 3197
创新@@ 3197
施瓦@@ 3197
休息室 3196
十七 3196
猎 3196
0.0@@ 3195
Kate 3195
ont 3195
写成 3195
日军 3195
牧民 3195
缓冲 3195
丑@@ 3194
拨给 3194
甜点 3194
途@@ 3194
66@@ 3193
中学生 3193
可不是 3193
成形 3193
粉末 3193
62% 3192
催化 3192
意大利语 3192
274 3191
lo 3191
拜伦 3191
Tata 3190
歇斯底里 3190
ord 3189
分隔 3189
印度@@ 3189
室内@@ 3189
床垫 3189
Young 3188
aka 3188
一语 3188
不锈钢 3188
历届 3188
现金@@ 3188
1926 3187
Henry 3187
unn@@ 3187
㈥ 3187
偏向 3187
战斗@@ 3187
睁@@ 3187
聊 3187
ily 3186
几十名 3186
球棒 3186
仗 3185
凯科 3184
奥康纳 3184
居高不下 3184
停靠 3183
克兰 3183
哈尔@@ 3183
哨所 3183
均等 3183
无休止 3183
ayne 3182
ight@@ 3182
zo 3182
击倒 3182
和平共处 3182
多一点 3182
新车 3182
预付款 3182
云层 3181
征求意见 3181
德国政府 3181
艺术节 3181
Hil@@ 3180
一经 3180
交叉@@ 3180
亿年 3180
新闻社 3180
CR 3179
Dave 3179
不合@@ 3179
世代 3179
提出@@ 3179
矫正 3179
誉@@ 3179
诺言 3179
那年 3179
Ball@@ 3178
喷洒 3178
梨 3178
纬 3178
节制 3178
裸@@ 3178
马德@@ 3178
oc 3177
停火协议 3177
巡航 3177
技术培训 3177
数百 3177
鞭@@ 3177
今年@@ 3176
反倾销 3176
头条 3176
水流 3176
遵@@ 3176
励@@ 3175
盘问 3175
闪 3175
应变 3174
毫@@ 3174
球季 3174
政界 3173
罗奇 3173
螺 3173
里夫 3173
促@@ 3172
凝胶 3172
原子@@ 3172
本科 3172
理会 3172
盾牌 3172
Green 3171
令人兴奋 3171
各阶层 3171
砍 3171
空洞 3171
较差 3171
高估 3171
安曼 3170
正确性 3170
Doc@@ 3169
内置 3169
总有 3169
Kon@@ 3168
忍 3168
第二十一条 3168
互补性 3167
供参考 3167
自此 3167
迪纳 3167
发自 3166
布鲁诺 3166
自大 3166
获取信息 3166
蒙古@@ 3166
3.5% 3165
pt 3165
二百@@ 3165
余生 3165
借给 3165
力争 3165
外交事务 3165
德伯格 3165
二是 3164
特拉维夫 3164
宣判 3163
层楼 3163
配音 3163
南朝鲜 3162
工作效率 3162
申请表 3162
278 3161
48.@@ 3161
ES@@ 3161
Raf@@ 3161
希尔顿 3161
痴迷 3161
660 3160
China 3160
Muhammad 3160
eck@@ 3160
卡卡 3160
慰 3160
放学 3160
绍@@ 3160
资料库 3160
res 3159
批发@@ 3159
杜绝 3159
线上 3159
谐@@ 3159
一无@@ 3158
作好 3158
另行 3158
麦金@@ 3158
克利@@ 3157
末尾 3157
罐子 3157
庸@@ 3156
详细信息 3156
路易斯安那州 3156
个省 3155
忽然 3155
上星期 3154
事关 3154
喘 3154
而应 3154
报刊 3153
控件 3153
日产 3153
民族党 3153
渡轮 3153
瘀伤 3153
关节炎 3152
博科哈 3152
新教 3152
自由派 3152
1.7 3151
Ly@@ 3151
匪@@ 3151
匹 3151
圣诞树 3151
握@@ 3151
杰拉德 3151
直接@@ 3151
Wright 3150
不诚实 3150
美国空军 3150
加拿大政府 3149
大猩猩 3149
镶@@ 3149
Robert@@ 3148
度假村 3148
月度 3148
泥土 3148
疯@@ 3148
第二十四条 3148
贝尔@@ 3148
惟一 3147
魔术 3147
Wi 3146
加工@@ 3146
掌管 3146
暴躁 3146
Nad@@ 3145
传播@@ 3145
只用 3145
精美 3145
缅@@ 3145
规例 3145
技术员 3144
最低水平 3144
液压 3144
系列@@ 3144
钻探 3144
可予 3143
640 3142
Zika 3142
南加州 3142
帅 3142
戴安娜 3142
bor@@ 3141
改革@@ 3141
没想到 3141
溢 3141
要花 3141
犯罪@@ 3140
遇难 3140
顺从 3140
Tan@@ 3139
end 3139
地方法院 3139
宇@@ 3139
岳@@ 3139
Op@@ 3138
od 3138
olas 3138
伤疤 3138
地想 3138
征募 3138
术后 3138
赫伯特 3138
悠@@ 3137
真诚地 3137
Nigel 3136
pdf 3136
停止使用 3136
奖得主 3136
达西 3136
ms 3135
十分钟 3135
圣多美和普林西比 3135
桑德 3135
珍 3135
肿胀 3135
三周 3134
玩笑 3134
男子@@ 3134
芝 3134
介意 3133
履行义务 3133
快速反应 3133
新来 3133
最佳@@ 3133
朱利亚 3133
极右 3133
毁@@ 3133
雅各 3133
鞭打 3133
1910 3132
53@@ 3131
消 3131
C2 3130
ency 3130
第二十条 3130
想着 3129
破产法 3129
全国人民代表大会 3128
滥@@ 3128
离散 3128
耶斯 3128
aki 3127
亚裔 3127
娘@@ 3127
平均年龄 3127
斯普@@ 3127
TE@@ 3126
min@@ 3126
实践@@ 3126
德鲁 3126
摄入量 3126
撇@@ 3126
航天@@ 3126
之争 3125
惹 3125
日间 3125
未婚 3125
勿 3124
饱 3124
密苏里 3123
彭 3123
无尽 3123
架次 3123
步兵@@ 3123
好得多 3121
耐克 3121
趋于 3121
霍巴特 3121
56@@ 3120
98.@@ 3120
Point 3120
坦白 3120
杀人@@ 3120
涂层 3120
ota 3119
曾多次 3119
阁楼 3119
TH@@ 3118
手动 3118
杰作 3117
查出 3117
交替 3116
新加坡@@ 3116
轻轻地 3116
通讯@@ 3116
Craig 3115
胡塞 3115
公共财政 3114
国立大学 3114
鬼魂 3114
一岁 3113
退休年龄 3113
以为@@ 3112
叉@@ 3112
客户@@ 3112
拉赫 3112
玷污 3112
四人 3111
延至 3111
朱巴 3111
梳@@ 3111
Bruce 3110
公牛队 3110
卡车司机 3110
夏普 3110
理想@@ 3110
矿产资源 3110
涂抹 3109
进驻 3109
恶性 3108
施密特 3108
内维尔 3107
好吃 3107
丽斯 3106
可变 3106
州市 3106
普勒 3106
管理信息系统 3106
IL@@ 3105
服务提供商 3105
泳@@ 3105
nes 3104
取样 3104
受让人 3104
接受者 3104
焚@@ 3104
转发 3104
不致 3103
旱地 3103
财产@@ 3103
Bag@@ 3102
Turner 3102
实证 3102
摄影@@ 3102
玉米@@ 3102
环保局 3102
Joh@@ 3101
ML@@ 3101
Warren 3101
中小学 3101
冲突地区 3101
南京 3101
司法人员 3101
泪@@ 3101
溢@@ 3101
人用 3100
巡逻@@ 3100
影院 3100
手推车 3100
无声 3100
有损 3100
环境退化 3100
转载 3100
项链 3100
周年纪念 3099
杜兰特 3099
理查兹 3099
轴承 3099
302 3098
丽塔 3098
会后 3098
神经系统 3098
统计学 3098
自民党 3098
锥@@ 3098
雇@@ 3098
eld 3097
每晚 3097
绪 3097
遣@@ 3097
298 3096
Stanley 3096
勒尔 3096
口岸 3096
帖 3096
并不知道 3096
执业 3096
擅自 3096
松鼠 3096
克族 3095
布尔@@ 3095
庭院 3095
瑞典人 3095
辍学率 3095
伪 3094
剧场 3094
合法@@ 3094
弦@@ 3093
竹 3093
光泽 3092
凭证 3092
相爱 3092
Il@@ 3091
建设@@ 3091
此地 3091
罗伯兹 3091
股票市场 3091
脱掉 3091
逃往 3091
uri 3090
僵硬 3090
冷淡 3090
预备@@ 3090
Baker 3089
布罗 3089
PGA 3088
传票 3087
崭新 3087
惟@@ 3087
6.6 3086
土耳其政府 3086
言辞 3086
面包@@ 3086
高级顾问 3086
0.8% 3085
cm 3085
便会 3085
成百上千 3085
整顿 3085
着力 3085
莱克 3085
谢菲尔德 3085
Gw@@ 3084
天天 3084
进口国 3084
时代周刊 3083
少年犯 3082
未有 3082
博尔顿 3081
垮台 3081
当量 3081
见图 3081
氧化物 3080
沃尔什 3080
演讲者 3080
预算内 3080
两座 3079
域外 3079
卧 3078
反向 3078
同一时间 3077
基亚 3077
油井 3077
穆迪 3077
诺贝尔 3077
不曾 3076
乳制品 3076
帧 3076
新郎 3076
格利 3076
献者 3076
电讯报 3076
斯坦福 3075
曲折 3075
直升飞机 3075
第二十三条 3075
重心 3075
620 3074
事业@@ 3074
栖@@ 3074
格雷@@ 3074
上述情况 3073
友好关系 3073
询@@ 3073
Osborne 3072
列侬 3072
屏@@ 3072
脊 3072
起重机 3072
Hotel 3071
卵子 3071
核扩散 3071
系统对 3071
Has@@ 3070
Ju@@ 3070
关键词 3070
数学家 3070
某种意义 3070
----- 3069
白血病 3069
管教 3069
耽搁 3069
oor 3068
偷偷 3068
剃@@ 3068
安全检查 3068
尼尔森 3068
必定 3068
高调 3068
1514 3067
311 3067
Ms 3067
No 3067
受惠 3067
汤森 3067
版权@@ 3067
蓝调 3067
过敏@@ 3067
可供 3066
数十亿 3066
更难 3066
美术 3066
迟缓 3066
gen 3065
托比 3065
文件夹 3065
驳 3065
IPO 3064
故事@@ 3064
精通 3064
CRP.1 3063
狱中 3063
环境部 3063
美国司法部 3063
271 3062
外形 3062
映 3062
氨酸 3062
非常任 3062
付清 3061
弹头 3061
持枪 3061
损害赔偿 3061
欢笑 3061
细分 3061
衔 3061
诈@@ 3061
It 3060
多米尼加 3060
数千@@ 3060
相提并论 3060
耶伦 3060
遗骸 3060
钾 3060
高音 3060
------ 3059
分辨率 3059
加元 3059
棉 3059
歉意 3059
钉子 3059
协力 3058
布雷特 3058
这台 3058
焦 3057
狙击手 3057
美孚 3057
股票@@ 3057
过错 3057
重奏 3057
安第斯 3056
希瑟 3056
挺@@ 3056
讨价还价 3055
重新部署 3055
row 3054
不足之处 3054
多种@@ 3054
边界@@ 3054
咀嚼 3053
居然 3053
村子 3053
面条 3053
ds 3052
全球定位系统 3052
生态环境 3052
鲨 3052
军事演习 3051
南共体 3051
服务处 3051
看重 3051
动物@@ 3050
弗朗@@ 3050
怀疑@@ 3050
颂@@ 3050
AK 3049
Cab@@ 3049
西南@@ 3049
315 3048
OK 3048
克鲁尼 3048
向东 3048
咖啡因 3048
沥青 3048
熟知 3048
瓷@@ 3048
这样的话 3048
博比 3047
浸泡 3047
小儿麻痹症 3046
更深 3046
蔡@@ 3046
转换成 3046
麦肯@@ 3046
一英里 3045
令人激动 3045
催泪瓦斯 3045
后门 3045
地主 3045
战略家 3045
Hun@@ 3044
线程 3044
Gran@@ 3043
减低 3043
圣徒 3043
很感兴趣 3043
一分 3042
劳尔 3042
转变成 3042
Bay 3041
Mut@@ 3041
手稿 3041
无助于 3041
男女之间 3041
Greg 3040
大洋 3040
电视广告 3040
蜜@@ 3040
银行业务 3040
и 3039
喝醉 3039
朋克 3039
Low@@ 3038
农村@@ 3038
源泉 3038
潜入 3038
紧张@@ 3038
CN.7 3037
Rid@@ 3037
Say@@ 3037
不朽 3037
制造者 3037
没法 3037
相继 3037
美化 3037
脸谱 3037
近似 3037
交易者 3036
付出代价 3036
伊利诺斯州 3036
格雷斯 3036
死亡威胁 3036
货币@@ 3036
Brad@@ 3035
山丘 3035
明日 3035
归入 3034
眉毛 3034
陆续 3034
金正日 3033
黑客攻击 3033
β 3032
句话 3032
弗莱 3032
无意识 3032
普利 3032
溺@@ 3032
诠释 3032
rit@@ 3031
反常 3031
歧@@ 3031
电极 3031
钴 3031
C1 3030
外交大臣 3030
水上 3030
禄 3030
Thomson 3029
哈罗德 3029
芳@@ 3029
Et@@ 3028
一堂 3028
事实@@ 3028
假发 3028
分子@@ 3028
嫁@@ 3028
常态 3028
斯塔福德 3028
普拉 3028
渔业@@ 3028
珍妮特 3028
Abdeslam 3027
博士@@ 3027
卡通 3027
着想 3027
装甲车 3027
商谈 3026
自由市场 3026
舞蹈@@ 3026
袍 3026
中华 3025
予@@ 3025
排出 3025
星座 3025
溪@@ 3025
国际贸易中心 3024
能效 3024
营业@@ 3024
TPP 3023
人口比例 3023
弗罗 3023
日托 3023
Rou@@ 3022
had 3022
对准 3022
扫 3022
气流 3022
泛美 3022
鹅 3022
SM@@ 3021
ias 3021
当事国 3021
钱财 3021
食者 3021
NR@@ 3020
Web@@ 3020
年限 3020
新鲜@@ 3020
Aw@@ 3019
CB 3019
eri 3019
中文@@ 3019
布森 3019
芬奇 3019
学区 3018
纽西兰 3018
ict@@ 3017
发生@@ 3017
寄生虫 3017
收割 3017
泪 3017
201@@ 3016
Rick 3016
投入使用 3016
摘 3016
敲门 3016
杀人犯 3016
短跑 3016
红地毯 3016
lig@@ 3015
良知 3015
部际 3015
510 3014
伊朗人 3014
创作者 3014
医疗机构 3014
吉他手 3014
抗辩 3014
诚然 3014
闪闪发光 3014
och@@ 3013
体型 3013
恶性循环 3013
惯@@ 3013
挑剔 3013
歇@@ 3013
铺平 3013
Land@@ 3012
例证 3012
帕拉 3012
抗药性 3012
接手 3012
膝@@ 3012
合唱 3011
控制区 3011
格兰@@ 3011
翠@@ 3011
葬@@ 3011
Syst@@ 3010
si 3010
注射@@ 3010
览 3010
长短 3010
Fat@@ 3009
使用率 3009
通用@@ 3009
ob 3008
墨西哥政府 3008
年薪 3008
成份 3008
阿黛勒 3008
Lib@@ 3007
受托人 3007
汇票 3007
玛雅 3006
窝@@ 3006
34.@@ 3005
570 3005
信息安全 3005
凑@@ 3004
凶 3004
场址 3004
岸边 3004
建筑商 3004
红牛 3004
1874 3003
作文 3003
完备 3003
宣誓就职 3003
密克罗尼西亚联邦 3003
微风 3003
继任 3003
两国之间 3002
卡迪@@ 3002
醚 3002
仔细@@ 3001
本信 3001
Gab@@ 3000
一会 3000
哺乳 3000
律师@@ 3000
择@@ 3000
搜救 3000
莉娜 3000
贝茨 3000
锻@@ 3000
不间断 2999
保护性 2999
朝向 2999
理工大学 2999
可恶 2998
绑@@ 2998
佐证 2997
出版@@ 2997
球场上 2997
稀释 2997
詹纳 2997
日止 2996
泰森 2996
稳健 2996
这批 2996
Richard@@ 2995
军事化 2995
斯塔克 2995
美好@@ 2995
预算赤字 2995
1100 2994
Susan 2994
inn@@ 2994
浆果 2994
第四十三届 2994
身处 2994
页@@ 2994
上车 2993
巴雷特 2993
并不需要 2993
枯竭 2993
真主 2993
集团@@ 2993
颂 2993
CEO 2992
政坛 2992
世界性 2991
奥斯@@ 2991
帕特森 2991
气息 2991
清偿 2991
主导作用 2990
子孙 2990
索尼@@ 2990
内为 2989
Global 2988
义词 2988
口服 2988
帝国主义 2988
橱窗 2988
毫无根据 2988
法兰@@ 2988
Warner 2987
卫星@@ 2987
腾出 2987
安倍 2986
斯曼 2986
明斯克 2986
更为重要 2986
水稻 2986
落到 2986
车型 2986
轻罪 2986
LED 2985
中东问题 2985
挣 2985
碧昂丝 2985
绘图 2985
迷宫 2985
防备 2985
℃ 2984
一列 2984
不宜 2984
净利润 2984
字符串 2984
库拉 2984
一百 2983
全时 2983
出生率 2983
出行 2983
-------- 2982
口中 2982
氰@@ 2982
福尔摩斯 2982
语调 2982
劝说 2981
7.1 2980
匀@@ 2979
晒 2979
维持@@ 2979
非洲开发银行 2979
rison 2978
四十年 2977
埃德蒙 2977
本性 2977
萨克拉门托 2977
贝瑞 2977
传统习俗 2976
印地@@ 2976
普林@@ 2976
替@@ 2976
黛安娜 2976
Sum@@ 2975
会以 2975
佣 2975
停火协定 2975
僧侣 2975
德林 2974
故乡 2974
腐 2974
ique 2973
嘲讽 2973
Hill@@ 2972
姑@@ 2972
战车 2972
斟酌 2972
边上 2972
闲逛 2972
口头报告 2971
山峰 2971
福岛 2971
誉 2971
Laur@@ 2970
残 2970
特殊@@ 2970
Pel@@ 2969
人向 2969
外卖 2969
赛后 2969
阿尔卑斯山 2969
响起 2968
尚有 2968
思想@@ 2968
1908 2967
从那时起 2967
桑迪 2967
独唱 2967
该厅 2967
骑车 2967
Comm@@ 2966
轻轨 2966
Cra@@ 2965
Real@@ 2965
帕克斯 2965
第一件 2965
TS 2964
兰特 2964
文件系统 2964
贝勒 2964
Lau@@ 2963
亚拉@@ 2963
兼任 2963
周岁 2963
拉丁语 2963
款式 2963
象棋 2963
北极熊 2962
医治 2962
有线 2962
Inst@@ 2961
上场 2961
眠@@ 2961
第三世界 2961
葡萄园 2961
阵列 2961
霍尔特 2961
Jav@@ 2960
结清 2960
营利 2960
运载火箭 2960
720 2959
School 2959
复制品 2959
花花公子 2959
壮大 2958
这话 2958
多边合作 2957
钚 2957
凝 2956
取笑 2956
橘@@ 2956
物质@@ 2956
论者 2956
谣 2956
麦卡@@ 2956
But@@ 2955
单边 2955
留出 2955
经济合作组织 2955
衡 2955
德文郡 2954
挣@@ 2954
联络@@ 2954
莓 2954
轮调 2954
长子 2954
30000 2953
休战 2953
向北 2953
废弃物 2953
Rab@@ 2952
私法 2952
第二号 2952
Pot@@ 2951
ates 2951
副产品 2951
危 2951
桑德拉 2951
对非 2950
Bab@@ 2949
Var@@ 2949
原产地 2949
欢迎@@ 2949
渗入 2949
获奖者 2949
Brand@@ 2948
完全相同 2948
小贩 2948
手工艺 2948
时要 2948
紊乱 2948
Association 2947
向量 2947
日益@@ 2947
紧急措施 2947
违禁 2947
酿造 2947
Luis 2946
变迁 2946
尼尼 2946
打架 2946
术@@ 2946
第二十六届 2946
答道 2946
肥料 2946
闻到 2946
低利率 2945
像素 2945
招牌 2945
泄 2945
Baird 2944
Jag@@ 2944
Sturgeon 2944
不知所措 2944
十几@@ 2944
嬉@@ 2944
怎样才能 2944
贝恩 2944
Bernard 2943
Evans 2943
保持警惕 2943
探视 2943
时空 2943
深入@@ 2943
水文 2942
竣工 2942
赐@@ 2942
ois 2941
使用费 2941
斯蒂夫 2941
Dol@@ 2940
PD 2940
喂食 2940
尔姆 2940
毅力 2940
知晓 2939
社会活动 2939
素描 2939
297 2938
etta 2938
不合 2938
德比郡 2938
月光 2938
绝不会 2938
展品 2937
监核 2937
Flor@@ 2936
加固 2936
帕尔默 2936
推高 2936
Hul@@ 2935
一角 2935
快点 2935
法伦 2935
特等 2935
看好 2935
野猫 2935
ays 2934
uli@@ 2934
诺克 2934
PP 2933
ather@@ 2933
俾@@ 2933
着装 2933
第三十八届 2933
英属维尔京群岛 2933
森森 2932
清晰@@ 2932
630 2931
uck 2931
伯德 2931
吉尼斯 2931
外交使团 2931
新闻周刊 2931
浮出 2931
渗@@ 2931
滥伤 2931
约瑟 2931
躲藏 2931
首张 2931
awa 2930
冥王星 2930
第二十七届 2930
萨莉 2930
贮@@ 2930
资金不足 2930
CDC 2929
ipp@@ 2929
兆瓦 2929
开着 2929
犹如 2929
肌肤 2929
蜜 2929
防水 2929
375 2928
两地 2928
安大略 2928
尤金 2928
摊 2928
阿克@@ 2928
审美 2927
悔@@ 2927
摸索 2927
沃伯顿 2927
Dam@@ 2926
rey 2926
可比性 2926
一点儿 2925
专案 2925
宠@@ 2925
不可否认 2924
全国@@ 2924
报告@@ 2924
塔特 2923
爱尔兰人 2923
航空航天 2923
论及 2923
more 2922
袜队 2922
一排 2921
偿债 2921
管理司 2921
ci@@ 2920
加拉 2920
强奸犯 2920
荷兰@@ 2920
Dan 2919
冰冻 2919
德意志 2919
核弹头 2919
CI@@ 2918
FAO 2917
候选国 2917
前列腺癌 2917
外贸 2917
数千名 2917
町 2917
破坏者 2917
自然界 2917
15000 2916
Domin@@ 2916
刚刚开始 2916
北方@@ 2916
奇怪的是 2916
监察@@ 2916
蒙特@@ 2916
览@@ 2916
记录在案 2916
pr@@ 2915
叠 2915
熏@@ 2915
----------------------------------------------------------------------------------------------------------------@@ 2914
哥伦比亚@@ 2914
造就 2914
履行任务 2913
广泛支持 2913
挥手 2913
美国参议院 2913
自由权 2913
踏上 2913
xon 2912
乙醇 2912
合法权利 2912
打中 2912
波长 2912
诺维奇 2912
费尔德 2912
革 2912
1.4% 2911
ave 2911
交通管制 2911
斥 2911
瑟斯 2911
社区@@ 2911
高斯 2911
前女友 2910
外阴 2910
金币 2910
第二种 2909
倾 2908
国家银行 2908
教育法 2908
乒乓球 2907
初审 2907
卡住 2907
国民党 2907
梯子 2907
避孕套 2907
镜报 2907
XX 2906
母乳 2906
流逝 2906
第五十 2906
两艘 2905
中国人民@@ 2905
苏珊娜 2905
英军 2905
警示 2905
306 2904
古巴政府 2903
强烈@@ 2903
查韦斯 2903
种姓 2903
读取 2903
Bay@@ 2902
Rh@@ 2902
定额 2902
接受国 2902
肽 2902
菲奥@@ 2902
助益 2901
武装集团 2901
秉@@ 2901
辖 2901
高速@@ 2901
Elect@@ 2900
哈拉@@ 2900
尼罗 2900
感应 2900
油炸 2900
田野 2900
道义 2900
Neil 2899
城墙 2899
怀俄明州 2899
第三十九届 2899
39.@@ 2898
南省 2898
地基 2898
ision 2897
特鲁@@ 2897
GN@@ 2896
You 2896
地处 2896
塞巴斯蒂安 2896
库克群岛 2896
拖拉机 2896
晚年 2896
法老 2896
苗条 2896
近一半 2896
雪橇 2896
Fol@@ 2895
可口可乐 2895
孩@@ 2895
最高级别 2895
法律责任 2895
龟 2895
卡洛琳 2894
卢卡 2894
奥尔森 2894
迷航 2894
那件事 2894
一看 2893
继承权 2893
黎 2893
eda 2892
柱子 2892
被遗弃 2892
雷暴 2892
Bund@@ 2891
仓@@ 2891
拉比 2891
梵@@ 2891
罗马帝国 2891
美国陆军 2891
雷恩 2891
CN.15 2890
du 2890
东道 2890
巴巴拉 2890
明信片 2890
雷克斯 2890
争 2889
奖品 2889
安宁 2889
枢@@ 2889
古迹 2888
巴拉@@ 2888
欠缺 2888
Ivanka 2887
害虫 2887
恪守 2887
摄取 2887
有色人种 2887
矫@@ 2887
第二十七条 2887
罗拉 2887
茱莉亚 2887
谢尔曼 2887
大幅@@ 2886
安德@@ 2886
箭@@ 2886
行使@@ 2886
傻 2885
弗里德曼 2885
电视频道 2885
风能 2885
Juan 2884
两院 2884
Hur@@ 2883
六方会谈 2883
减半 2883
天性 2883
宽泛 2883
快递 2883
不向 2882
工作进展 2882
拨打 2882
第二十五届 2882
道具 2882
长岛 2882
Gor@@ 2881
外汇储备 2881
猖獗 2881
载人 2881
阶@@ 2881
294 2880
单证 2880
圣殿 2880
抵抗@@ 2880
现为 2880
疫 2880
眼球 2880
讯问 2880
化解 2879
喷 2879
好奇心 2879
十足 2878
揭@@ 2878
现行@@ 2878
疏 2878
砲 2878
Mul@@ 2877
Trum@@ 2877
匪 2877
成见 2877
普通法 2877
西德 2877
雕@@ 2877
490 2876
PE@@ 2876
和善 2876
阻 2876
307 2875
780 2875
bin 2875
人格@@ 2875
卫生系统 2875
同文信 2875
承担@@ 2875
聋@@ 2875
减刑 2874
大体 2874
布隆 2874
mo 2873
а 2873
乘船 2873
滔@@ 2873
滥用权力 2873
电磁@@ 2873
美国全国广播公司 2873
观察@@ 2873
赫勒拿 2873
1300 2872
One 2872
VA 2872
ru@@ 2872
各部委 2872
推进@@ 2872
踪 2872
近年 2872
ime 2871
伯勒 2871
体制改革 2871
侄女 2871
文盲率 2871
被选为 2871
之路 2870
嗜@@ 2870
多月 2869
女婴 2869
孟菲斯 2869
恐惧症 2869
病症 2869
霍普金斯 2869
1915 2868
L.3 2868
bo 2868
不力 2868
住房@@ 2868
最难 2868
结婚@@ 2868
迭代 2868
Carlos 2867
Merc@@ 2867
特说 2867
Por@@ 2866
修缮 2866
概念@@ 2866
药店 2866
裸露 2866
Blan@@ 2865
Tesco 2865
参阅 2865
坎帕拉 2865
抚摸 2865
柴 2865
花朵 2865
京 2864
人民检察院 2864
切合实际 2864
留言 2864
苗@@ 2864
Matth@@ 2863
双边@@ 2863
整齐 2863
照管 2863
第四十二届 2863
跪 2863
内部@@ 2861
国界 2861
塔塔 2861
我花 2861
装饰@@ 2861
预留 2861
Gard@@ 2860
Kay@@ 2860
少年@@ 2859
抢走 2859
正试图 2859
英文@@ 2859
七日 2858
头疼 2858
早上好 2858
叙 2857
女士们 2857
宪 2857
宫廷 2857
悉 2857
犯罪团伙 2857
钉@@ 2857
意见@@ 2856
感染率 2856
消亡 2856
纷@@ 2856
雇 2856
Rock 2855
esh 2855
三份 2855
佩顿 2855
冲刺 2855
地笑 2855
战区 2855
AFP 2854
Chap@@ 2854
丛@@ 2854
合理性 2854
围巾 2854
尼克尔 2854
工商企业 2854
康纳 2854
军事装备 2853
呈现出 2853
太过 2853
拉涅 2853
接待@@ 2853
罗兹 2853
Eli@@ 2852
Pear@@ 2852
分析表明 2852
基数 2852
才干 2852
勃勃 2851
双边协定 2851
官司 2851
库里 2851
投放 2851
收听 2851
追究责任 2851
金融业 2851
BO@@ 2850
七岁 2850
任务区 2850
注资 2850
缺乏@@ 2850
都灵 2850
马斯@@ 2850
ger@@ 2849
分析方法 2849
椎@@ 2849
波利萨 2849
ement 2848
公诉 2848
十六@@ 2848
天主教会 2848
董@@ 2848
新设 2847
Black 2846
企业界 2846
功能@@ 2846
卡里 2846
无动于衷 2846
杂项收入 2846
温度@@ 2846
甜甜 2846
圣基茨 2845
来文方 2845
皮带 2845
stock 2844
本期 2844
籽 2844
自由选择 2844
非正常 2844
纱@@ 2843
SH@@ 2842
壮举 2842
调研 2842
蹂躏 2842
达尼 2842
邀 2842
十天 2841
卡明斯 2841
尤为重要 2841
手边 2841
责任制 2841
大英@@ 2840
持平 2840
无处不在 2840
早年 2840
沃尔顿 2840
视委 2840
射入 2839
扎根 2839
肩上 2839
附加@@ 2839
一一 2838
人次 2838
减慢 2838
哈斯 2838
居民@@ 2838
急剧下降 2838
折衷 2837
肥沃 2837
计算机系统 2837
两支 2835
别名 2835
尖端 2835
末端 2835
肾 2835
York 2834
inf@@ 2834
油气 2834
锈 2834
Lang@@ 2833
割 2833
慕@@ 2833
搬运 2833
CCTV 2832
化验 2832
零食 2832
Hug@@ 2831
Telstra 2831
极地 2831
武士 2831
蔓延到 2831
这为 2831
这边 2831
韧性 2831
Mari@@ 2830
总统令 2830
表达式 2830
跳动 2830
平方 2829
环己烷 2829
缆@@ 2829
这款 2829
酒类 2829
Cox 2828
Phil 2828
三日 2828
卡西@@ 2828
多斯 2828
交际 2827
全面实施 2827
圆桌 2827
一个半 2826
丽贝卡 2826
偏差 2826
奥托 2826
希德 2826
慢跑 2826
颠@@ 2826
CE 2825
tha 2825
乌兹别克斯坦共和国 2825
布鲁姆 2825
脑积水 2825
阿尔伯特 2825
Cer@@ 2824
上风 2824
交配 2824
无损 2824
oli 2823
卢斯 2823
检察署 2823
貌@@ 2823
不规则 2822
即兴 2822
数以万计 2822
脑膜炎 2822
萨马 2822
安非他明 2821
枫@@ 2821
莫顿 2821
Trans@@ 2820
光年 2820
病理 2820
ional 2819
何故 2819
勇 2819
合乎 2819
坚 2819
昆 2819
窃取 2819
雏@@ 2819
Valley 2818
惊吓 2818
撰稿人 2818
杠 2818
符@@ 2818
笼@@ 2818
耀@@ 2818
非洲之角 2818
63% 2817
Jessica 2817
书院 2817
五十年 2817
伊斯兰堡 2817
豪宅 2817
Gall@@ 2816
基加利 2816
砸 2816
Hab@@ 2815
双臂 2815
图里 2815
巴克莱 2815
活产 2815
热浪 2815
Clinton 2814
Hard@@ 2814
独有 2814
AI@@ 2813
Mohammad 2813
ews 2813
儿女 2813
前夫 2813
康复中心 2813
烟火 2813
竖@@ 2813
Day@@ 2812
ats 2812
不能@@ 2812
庙宇 2812
莱斯利 2812
贝尔德 2812
鹦鹉 2812
ingham 2811
亚斯 2811
好玩 2811
官邸 2811
少数几个 2811
座堂 2811
疲倦 2811
规划@@ 2811
费尔南多 2811
长途 2811
非人 2811
寄给 2810
氟碳 2810
门徒 2810
oot 2809
碰巧 2809
观察者 2809
Wel@@ 2808
ood@@ 2808
世界观 2808
克莱夫 2808
具体步骤 2808
手术@@ 2808
控股公司 2808
肠癌 2807
通盘 2807
67% 2806
产品质量 2806
刀子 2806
核心作用 2806
之多 2805
企 2805
兄@@ 2805
太子港 2805
泊车 2805
绝对@@ 2805
脱口秀 2805
西娅 2805
赫斯 2805
躯@@ 2805
312 2804
低廉 2804
单据 2804
贞@@ 2804
Ec@@ 2803
George@@ 2803
IE 2803
文化部 2803
泰尔 2803
篇章 2803
293 2802
Park@@ 2802
工人阶级 2802
罐头 2802
阶梯 2802
7.3 2801
克劳德 2801
因应 2801
年老 2801
布洛克 2800
心率 2800
无名 2800
海尔 2800
ator 2799
瞬@@ 2799
聚合 2799
键@@ 2799
Jennifer 2798
一季度 2798
总能 2798
韧带 2798
Pow@@ 2797
倒数 2797
年终 2797
革命性 2797
韦尔@@ 2797
917 2796
侵略者 2796
在校 2796
多万美元 2796
座谈会 2796
邮政局 2796
克逊 2795
压倒 2795
普敦 2795
门诊 2795
3.7 2794
卡纳@@ 2794
希亚 2794
Dom@@ 2793
不平 2793
全球战略 2793
历程 2793
硫丹 2793
CNNMoney 2792
斋@@ 2792
海蒂 2792
非洲@@ 2792
不切实际 2791
以人为本 2791
击球手 2791
详见 2791
阀门 2791
2022 2790
栓 2790
遗传学 2790
马林 2790
援用 2789
斯旺 2789
铁龙 2789
阴暗 2789
五位 2788
保证金 2788
嵌入 2788
斯宾塞 2788
精神分裂症 2788
还原 2788
各区 2787
圣公会 2787
挺身而出 2787
Ann@@ 2786
宏 2786
积蓄 2786
Malcolm 2785
Xbox 2785
价值观念 2785
巴巴 2785
循环@@ 2785
泄密 2785
特利 2785
密切协作 2784
柬 2784
纽约联合国总部 2784
艾米 2784
Alt@@ 2783
分层 2783
惊悚 2783
投射 2783
澳门特别行政区 2783
69@@ 2782
″ 2782
任职者 2782
孤儿院 2782
意外@@ 2782
极高 2782
黑手党 2782
干活 2781
惩教 2781
芳 2781
诺贝尔@@ 2781
邮箱 2781
Goo@@ 2780
礼拜@@ 2780
转折 2780
yl 2779
两辆 2779
奎因 2779
开工 2779
本年度 2779
班加西 2779
联合国@@ 2779
科德 2778
米尔@@ 2778
之时 2777
暨 2777
沃恩 2777
轰动 2777
降雪 2777
黯淡 2777
-------------- 2776
ç 2776
加班费 2776
弟兄 2776
情景喜剧 2776
斯勒 2776
涡轮 2776
记忆@@ 2776
鹰队 2776
Mans@@ 2775
Max 2775
伤者 2775
养老 2775
瑞银 2775
可为 2774
挑 2773
登革热 2773
年届会 2772
窃贼 2772
4.6 2771
Barry 2771
妻@@ 2771
广播节目 2771
投向 2771
天数 2770
开球 2770
油轮 2770
蔽 2770
ush@@ 2769
中队 2769
人人平等 2769
博斯 2769
疮 2769
赫尔曼 2769
驰 2769
太久 2768
心脏@@ 2768
特兰 2768
竟@@ 2768
第二张 2768
MailOnline 2767
SS@@ 2767
下称 2767
六氯 2767
博格 2767
每天晚上 2767
爆炸案 2767
盲 2767
紧凑 2767
Abdul 2766
主人公 2766
半夜 2766
科里 2766
组长 2766
Jos 2765
但愿 2765
大衣 2765
截肢 2765
沐浴 2765
约翰@@ 2765
黑莓 2765
ral 2764
刚好 2764
单调 2764
幸免 2764
涡轮机 2764
降水 2764
..@@ 2763
oria 2763
点火 2763
罗莎 2763
载明 2763
饥@@ 2763
代号 2762
子孙后代 2762
推导 2762
点到 2762
个案研究 2761
体温 2761
含糖 2761
生命@@ 2761
维克多 2761
aq 2760
迪奥 2760
黑猩猩 2760
lic 2759
低气压 2759
[...]
