<SEP> 999999999
<placeholder2> 999999999
<placeholder3> 999999999
<placeholder4> 999999999
<placeholder5> 999999999
<placeholder6> 999999999
the 58433004
, 44569190
. 41201845
of 34321250
and 27939757
to 26284834
in 19417788
a 16902112
@-@ 9952727
for 9589372
that 8761590
on 8692077
&quot; 8473549
The 7769084
is 7592429
&apos;s 6238531
with 6128765
as 5400058
was 5373047
) 5332187
( 5288897
by 5229723
be 4829688
it 4163159
at 4130592
are 3834878
from 3601855
I 3460316
: 3444718
have 3376524
an 3176883
/ 3130235
has 3098993
not 2900527
or 2888628
its 2667846
he 2603399
said 2572718
their 2458095
his 2440835
this 2440221
will 2268289
which 2244149
had 2243879
; 2201074
been 2107103
were 2099270
- 2032415
you 1982532
In 1931584
all 1921582
United 1788216
also 1786563
they 1765744
It 1712609
but 1696481
would 1644468
more 1606802
who 1588106
A 1566360
&apos; 1564094
one 1532600
other 1442045
can 1423322
up 1411783
out 1375480
we 1367073
her 1365435
Nations 1362656
about 1321484
&apos;t 1307556
people 1194238
into 1181246
year 1150493
Committee 1141123
should 1140761
time 1139639
He 1121628
States 1104221
than 1100192
General 1081125
after 1072675
? 1046629
there 1040028
two 1034957
international 1033490
she 1026847
when 1015073
new 1008193
first 972582
such 964879
so 956588
work 950483
development 938722
over 931878
1 914997
no 911718
them 902731
under 898805
could 897512
countries 890444
including 890047
some 889499
made 887912
years 860598
We 850595
women 846630
$ 839272
rights 838494
This 829621
report 827563
do 809313
only 806754
if 799632
our 789861
against 786984
through 785201
any 784912
Council 782845
well 781768
my 772067
But 771816
between 762063
like 758866
support 757860
those 751305
what 745291
2 738936
per 721316
him 720877
may 711658
State 706774
information 702186
human 701922
national 690534
most 689599
being 687571
just 680915
your 680369
country 678054
these 650466
before 648183
system 645717
3 643050
me 625169
resolution 616656
make 612405
now 612097
last 609513
many 606967
where 606386
take 601250
use 596918
three 592186
children 582026
during 581689
right 581191
law 572596
world 570481
10 558686
Assembly 552184
way 549733
need 548845
number 544251
Government 539976
because 536230
very 534736
Mr. 532785
how 531572
4 527958
cent 526918
They 524188
public 521957
Secretary 521411
back 516652
session 515985
while 509691
International 505967
activities 505302
government 502937
implementation 501409
part 499285
us 497876
get 497094
see 497038
security 496835
5 495164
un@@ 492338
As 491029
day 487887
Commission 486477
New 486443
Convention 478818
million 476230
meeting 476179
man 473134
There 472735
economic 471611
And 468975
S@@ 468898
party 465296
used 464871
level 463262
Trump 462580
then 460192
both 458327
must 457790
i 457294
since 457294
off 456082
did 454827
social 448554
same 446938
China 444049
good 441691
still 441297
long 440943
even 438194
life 438038
high 436504
down 434820
process 434520
She 432605
measures 432517
based 432469
order 431855
much 431126
6 429797
members 426667
re@@ 425358
set 425317
financial 424820
health 421303
services 415806
says 415052
end 412611
efforts 411164
within 410147
further 407796
At 407425
police 405986
provide 404467
If 402856
political 402253
non 402197
shall 398842
issues 396208
organizations 394734
cooperation 393697
go 393462
G@@ 392003
resources 390699
important 390629
decision 388129
told 386541
place 385791
7 384136
know 383547
o 382728
P@@ 382687
old 382219
b 381678
On 378540
programme 378324
President 377613
held 375091
found 374308
T@@ 373106
second 373046
Conference 372641
group 372490
A@@ 371257
15 370992
taken 370341
areas 370233
You 370049
B@@ 368349
family 367968
12 367547
each 367246
For 366536
To 365716
ensure 365567
around 365536
30 365147
regional 365099
Security 364936
20 364212
don 364208
without 363880
own 362736
home 362523
That 362022
Republic 360764
staff 360178
D@@ 359828
among 359690
following 356656
case 356563
period 356316
state 355870
management 354752
think 354057
e 353399
Development 352886
policy 352085
&apos;re 350443
-- 347776
Mr 346397
four 344859
draft 344009
say 344004
able 343293
provided 343270
working 342995
Group 342452
help 342040
going 341396
8 340153
in@@ 339749
called 339294
education 336191
next 334334
Rights 333938
action 333433
assistance 332873
related 332396
December 332281
local 331939
s 329287
K@@ 328046
community 328033
11 326652
Office 326361
M@@ 325259
article 323980
! 323946
National 323625
week 322637
legal 320856
another 320607
area 319934
continue 319869
South 319022
C@@ 318931
training 318357
role 315866
developing 315252
full 315092
particular 313776
five 312594
want 310541
9 309538
best 308841
F@@ 307915
World 306983
&#91; 306240
data 305502
change 303879
Human 303867
men 303631
L@@ 301383
too 300917
team 300407
different 299332
June 298232
water 298207
relevant 298168
paragraph 296199
review 294917
Special 294742
come 293609
k@@ 293526
global 293482
situation 293322
May 293213
% 293190
company 293077
&#93; 292871
special 291492
days 290957
d 289658
reports 289140
14 288971
programmes 288850
access 288151
H@@ 287683
left 286604
N@@ 286496
possible 285895
When 284845
er 283224
parties 282047
might 280978
business 280516
every 280463
put 279807
building 279764
E@@ 279660
less 279557
took 279549
field 278865
making 277394
control 276863
better 276641
3@@ 275988
protection 275958
18 275719
13 275568
However 274940
does 274828
July 274361
European 273988
given 272224
market 271971
c 271700
2008 271632
age 271559
&apos;m 271080
16 270194
peace 269712
effective 269154
school 266730
view 266682
future 266369
s@@ 265202
persons 265074
groups 265053
y@@ 264552
cases 264363
established 264282
never 264151
adopted 263625
t@@ 263308
general 263251
R@@ 263181
military 263070
al 263047
capacity 262672
trade 261522
d@@ 260871
whether 260543
One 260478
major 260277
child 259765
US 259645
small 259415
American 259086
2010 259004
nuclear 258948
term 258266
W@@ 258141
&apos;ve 257712
issue 256588
March 256440
4@@ 256335
present 255899
early 255115
needs 254334
t 254161
plan 253434
increase 253173
violence 252839
include 252577
great 252561
former 252404
am 251786
here 250857
months 250117
become 250005
third 249673
respect 249359
2005 249204
Africa 249186
service 249138
least 248329
several 247836
September 247780
game 247246
2009 246476
2012 246175
2011 246140
available 245939
2006 245685
according 245639
o@@ 245614
already 245555
few 245275
regard 245217
current 244023
November 243804
October 243804
really 243719
city 243536
later 243124
agenda 242453
got 242182
line 241759
play 241695
show 241548
17 241355
What 241318
little 240994
25 240247
es 240117
point 240045
progress 240017
away 239226
past 239073
2007 238988
person 238356
Court 238048
region 238044
until 237856
led 237801
statement 237193
reported 236902
often 236758
e@@ 236043
give 235743
de 235710
2014 235328
project 234650
budget 234116
With 233474
April 233095
free 232533
accordance 232378
means 232066
again 231984
Organization 231584
far 231108
York 230800
recommendations 229947
recent 229798
ed 229286
Programme 229117
food 228929
necessary 228231
2013 227657
land 227586
risk 227465
always 227238
ing 227043
taking 226892
All 226721
Department 226554
power 226468
care 226357
January 226233
result 226002
basis 225797
O@@ 225478
money 225468
continued 225262
&apos;@@ 224519
study 224351
21 224213
six 223803
His 223220
night 222879
came 222846
Article 222800
19 222261
policies 222056
large 221830
month 221412
account 221314
g@@ 221037
2004 220920
gender 220888
technical 220508
African 220174
private 219622
24 219549
considered 218844
young 218647
developed 218534
authorities 218348
Member 218099
particularly 217609
key 217594
percent 217225
levels 217083
due 216657
5@@ 216552
2015 215048
technology 214794
side 214340
look 214115
research 213693
received 213183
b@@ 213128
above 212701
Chinese 212538
having 212249
media 212248
item 212186
£ 211930
ate 211779
These 211639
member 211616
institutions 211413
en 211114
22 211016
Board 210749
America 209887
appropriate 209750
seen 209394
upon 209315
society 208672
together 208267
V@@ 208064
court 208045
total 207974
cost 207809
find 207545
specific 207542
season 207217
results 207184
y 207093
known 206951
growth 206708
concerned 206553
population 206127
campaign 205962
dis@@ 205503
conditions 205360
proposed 205352
E 205184
Clinton 205084
After 204158
S 203938
fact 203825
No 203559
force 203145
things 203137
impact 202307
p@@ 201972
won 201872
23 201785
death 201636
half 201538
f@@ 201427
using 201157
required 200916
across 200663
sector 200205
While 199969
top 199905
body 199758
something 199323
U.S. 199089
added 199026
various 199010
Union 198997
m@@ 198769
rate 198409
31 197843
address 197592
question 197571
k 197482
an@@ 197414
meetings 197262
times 197245
open 196910
Social 196829
noted 196586
2000 196498
expected 196332
Women 196181
2003 196148
low 196108
head 195468
ers 195178
face 194607
en@@ 194497
ation 194471
So 194104
n@@ 194010
especially 193961
m 193413
went 193115
... 192715
50 192644
Economic 192465
office 192270
main 190778
operations 190341
problems 190185
others 190107
form 189811
officials 189512
big 189311
al@@ 189206
addition 189106
civil 189059
final 188888
Parties 188825
towards 188764
problem 188567
g 188412
yet 187806
today 187759
house 187691
2002 187636
conflict 187559
son 187162
attention 186559
approach 186519
clear 186406
example 186207
J@@ 186086
post 185608
space 185116
done 184844
lot 184035
Some 183762
woman 183393
provisions 183379
August 183170
.@@ 183043
foreign 182969
deal 182836
February 182308
costs 182079
fully 181931
energy 181709
pay 181560
run 181544
start 181495
&apos;ll 181425
An 181281
agreed 181165
however 181130
hours 181050
Australia 180880
26 180652
light 180628
asked 180518
rules 180100
C 180018
University 179685
promote 179584
importance 179469
l@@ 179409
6@@ 178990
projects 178503
2001 178346
close 178325
didn 177915
increased 177794
ar@@ 177729
war 177638
lead 176899
production 176844
bodies 176505
real 176484
additional 176310
terms 176305
systems 176014
consideration 176009
included 175723
air 175568
position 175271
North 174993
once 174992
Europe 174830
28 174543
common 174286
2016 173679
course 173672
treatment 173551
c@@ 173514
interest 173337
27 173202
economy 173105
likely 172822
h@@ 172813
plans 172764
I@@ 172588
on@@ 172564
election 172320
weapons 172090
name 172065
framework 172031
forces 171695
call 171431
needed 171389
Law 171261
ts 170616
response 170559
living 170397
keep 170342
i@@ 170340
7@@ 170246
Fund 170192
v@@ 169751
UK 169574
win 169386
vote 169354
environment 169281
London 169184
Re@@ 168998
requirements 168622
significant 168588
Minister 168476
a@@ 168311
performance 168301
points 167755
B 167517
sustainable 167490
ch@@ 167424
quality 167423
agencies 167221
ever 166860
improve 166782
z@@ 166561
thought 166325
n 166133
High 165844
matter 165823
organization 165760
ago 165641
Russian 165465
official 165422
40 165326
concern 165185
note 165048
status 165048
experience 164683
poverty 164630
amount 164021
People 163771
decided 163716
humanitarian 163402
de@@ 163376
Working 163229
hard 162238
domestic 162221
outside 162136
II 162107
live 162065
enough 161739
British 161501
why 161103
believe 161102
involved 161013
delegation 160986
j@@ 160931
companies 160722
East 160654
love 160542
strong 160363
er@@ 160315
self 160276
forward 160212
job 159528
participation 159222
president 159020
workers 159015
car 158892
list 158434
consider 158332
though 157901
submitted 157781
agreement 157713
u 157229
1999 156789
evidence 156595
higher 156532
investment 156286
meet 156186
income 156137
ated 156053
return 155992
series 155980
29 155556
criminal 155352
along 155327
Police 155275
billion 154890
hand 154578
w@@ 154488
students 154419
let 154240
personnel 154034
property 153957
request 153881
justice 153835
document 153244
potential 153175
Secretariat 153061
Friday 152986
serious 152937
feel 152428
near 152353
almost 151604
Action 151141
u@@ 151090
responsibility 151068
thing 150861
leave 150777
subject 150708
move 150377
discrimination 150193
value 149775
existing 149754
My 149672
effect 149214
focus 149114
funds 148747
lack 148682
legislation 148662
mother 148457
establishment 148241
60 148133
reporting 148098
victims 148058
began 147973
8@@ 147955
Monday 147907
standards 147826
D 147617
industry 147600
application 147553
changes 147436
room 147316
ted 147223
became 147138
context 147124
rather 145915
100 145617
rule 145276
West 145126
kind 144810
ating 144680
1998 144548
at@@ 144506
practice 144494
EU 144433
Mission 144423
saying 144210
In@@ 144136
Tuesday 144104
previous 144052
certain 143835
expressed 143614
By 143397
whole 143365
Act 142999
representatives 142883
Z@@ 142741
City 142555
doing 142530
ting 142295
requested 142257
follow 141959
therefore 141940
news 141843
st@@ 141395
environmental 141366
date 141332
P 141300
planning 140915
late 140774
crime 140547
crisis 140439
started 140390
armed 140351
cannot 140310
paper 140214
John 140179
sexual 140111
officers 140092
Democratic 140054
history 140039
lost 140024
resolutions 139747
short 139515
contained 139396
Image 139152
capital 139066
annual 138891
Governments 138783
monitoring 138198
behind 138038
attack 137991
develop 137825
During 137678
oil 137624
ar 137454
remains 137321
challenges 137081
9@@ 136978
tax 136938
Report 136898
representative 136521
laws 136507
remain 136366
r@@ 136103
safety 135881
&apos;d 135766
killed 135656
French 135592
strategy 135564
bring 135534
U@@ 135504
record 135403
p 135246
mission 135245
am@@ 135124
funding 135082
ti@@ 135022
provides 134820
it@@ 134695
mandate 134671
share 134506
Y@@ 134275
Thursday 134238
difficult 133781
single 133772
Obama 133690
actions 133666
states 133575
18@@ 133432
providing 133304
Affairs 133167
ability 133140
Wednesday 132932
decisions 132930
ro@@ 132730
red 132629
whose 132588
looking 132467
medical 132456
Ministry 132446
analysis 132178
regular 132169
Ms. 132167
How 131997
comprehensive 131959
fire 131809
similar 131725
Sunday 131497
father 131439
France 131350
died 131285
ways 131263
individual 131251
themselves 131073
* 131046
practices 130977
hope 130910
English 130876
price 130876
l 130875
natural 130712
makes 130598
weeks 130587
currently 130496
Iraq 130485
Israel 130420
Japan 130303
Al@@ 130297
claims 130289
concerning 130284
ly 130039
Bank 129981
try 129685
Now 129603
Service 129588
Executive 129582
cultural 129541
film 129367
procedures 129339
el@@ 129263
drug 129167
coming 129116
di@@ 129029
strengthen 128799
2@@ 128764
hit 128488
questions 128317
es@@ 128186
Protocol 128185
Asia 128139
Britain 128021
event 127946
played 127715
Other 127610
documents 127587
products 127274
Party 127228
carried 127111
released 127077
prevent 126959
&amp; 126858
im@@ 126773
equipment 126672
or@@ 126350
relating 126314
reform 126208
trying 126200
paid 126151
responsible 125891
principles 125850
comes 125823
terrorism 125820
opportunity 125649
met 125637
investigation 125589
According 125461
implement 125387
seven 125382
Rapporteur 125349
provision 125147
regarding 125115
shows 124943
rates 124701
soon 124625
ground 124213
schools 124209
coordination 124089
average 124081
girls 124049
earlier 123832
Central 123775
itself 123694
climate 123523
affected 123506
ates 123323
issued 123090
ha@@ 123041
ab@@ 123037
act 122756
author 122729
greater 122500
governmental 122392
ine 122301
saw 122192
brought 122187
concerns 122180
Declaration 122136
video 121937
range 121898
is@@ 121870
himself 121716
th@@ 121648
families 121411
entitled 121368
front 121290
administrative 121160
parents 121137
le@@ 121106
mechanisms 120897
arms 120671
ad@@ 120667
announced 120638
stage 120502
addressed 120286
co 120217
ant 120069
players 119985
assessment 119892
knowledge 119845
longer 119490
allow 119278
words 119251
re 119011
employment 118943
Saturday 118921
sent 118831
protect 118784
hold 118714
operation 118561
Centre 118504
Arab 118495
table 118356
getting 118337
primary 117978
recently 117975
contributions 117961
commitment 117865
site 117672
either 117541
supported 117467
wanted 117433
anti 117349
as@@ 117232
nature 117171
experts 117134
ations 117122
stop 117073
morning 116746
Palestinian 116695
leaders 116649
lower 116622
administration 116609
conference 116545
below 116472
Since 116273
debate 116114
language 116100
matters 116081
lives 116068
doesn 115825
loss 115704
basic 115462
No. 115433
model 115430
House 115391
create 115387
ra@@ 115275
positive 115249
obligations 115168
establish 115129
benefits 114960
limited 114907
wife 114625
heard 114542
independent 114504
Russia 114409
poor 114283
minutes 114212
book 114056
Mar@@ 113939
prices 113931
eight 113747
Germany 113738
cut 113678
goal 113648
David 113269
design 113239
cause 113206
be@@ 113195
joint 113173
attacks 113141
road 113058
story 113025
h 112900
committed 112886
fight 112885
board 112862
India 112743
gave 112693
king 112375
goals 112252
section 112229
events 112190
O 112156
turn 112077
35 112055
wide 111886
chief 111860
exchange 111691
First 111310
personal 111292
steps 111217
sure 111161
communities 111086
central 111021
forms 110817
indigenous 110796
nothing 110711
published 110657
acts 110581
f 110527
friends 110527
described 110423
heart 110368
relationship 110354
UNDP 110247
build 110243
black 110078
co@@ 110063
missions 109926
letter 109841
con@@ 109833
achieve 109802
travel 109787
fourth 109305
test 109170
adoption 109154
Many 109112
notes 109112
art 109086
Korea 109070
approved 108831
Information 108818
als 108788
ac@@ 108762
ic@@ 108752
Health 108634
Advisory 108533
claim 108345
reduce 108230
increasing 108223
leading 108171
Donald 108104
white 108067
step 107986
ri@@ 107957
refugees 107824
equality 107766
priority 107644
race 107634
overall 107622
mind 107541
over@@ 107513
prepared 107482
despite 107474
effort 107431
Canada 107380
bit 107318
De@@ 107293
throughout 107268
growing 107124
partners 107009
T 106784
visit 106622
ter 106547
rest 106510
parts 106501
ag@@ 106475
1997 106413
strengthening 106406
inter 106267
organized 106264
opportunities 106230
Australian 106130
ley 106110
r 106110
wrote 106024
Justice 105840
although 105708
class 105579
town 105570
ad 105396
purpose 105381
games 105318
round 105228
idea 105056
prevention 104974
Washington 104714
initiatives 104688
1996 104659
le 104547
ous 104473
bank 104451
offer 104393
material 104383
z 104263
takes 104121
executive 104083
tell 103930
facilities 103817
ton 103675
Director 103607
England 103550
border 103501
success 103355
consultations 103255
discussion 103190
aimed 103184
sex 103167
individuals 103147
understanding 103108
secretariat 103068
calls 103036
effects 103015
views 102859
demand 102845
dialogue 102624
F 102453
statements 102406
agency 102354
active 102198
stated 102193
worked 102120
se@@ 102088
reason 102051
Islamic 102040
Con@@ 101992
ic 101982
created 101980
L.@@ 101943
direct 101939
contract 101777
pressure 101756
li@@ 101636
includes 101563
culture 101501
sp@@ 101330
caused 101282
reduction 101248
activity 101209
requests 101207
Syrian 101119
nearly 101061
identified 101053
Ch@@ 100953
recommended 100666
online 100659
inter@@ 100479
actually 100467
construction 100391
communication 100180
shot 100166
si@@ 100137
strategic 100132
rural 100079
procedure 100051
allowed 100001
director 99903
anything 99892
essential 99857
felt 99764
behalf 99688
raised 99661
network 99645
45 99627
leader 99366
disarmament 99280
conducted 99212
principle 99200
introduced 99159
ended 99134
trafficking 99119
presented 99111
fall 99018
x 99010
source 98922
HIV 98911
awareness 98691
born 98551
thus 98527
moment 98440
someone 98265
L 98259
running 98240
conduct 98222
From 97827
peacekeeping 97808
majority 97762
1994 97629
der 97620
trial 97506
UN 97465
reached 97353
comments 97313
promotion 97293
traditional 97290
rise 97241
Ar@@ 97172
proposal 97129
signed 97050
Under 97039
el 97000
Although 96963
benefit 96957
critical 96782
read 96776
M 96705
promoting 96697
freedom 96419
authority 96405
Labour 96395
ia 96356
exercise 96340
R 96323
aid 96303
Representative 96272
offices 96257
works 96209
complete 96140
designed 96009
Division 95827
female 95752
Republican 95730
peoples 95729
An@@ 95711
violations 95695
showed 95580
playing 95472
abuse 95289
para 95281
1995 95248
items 95157
operational 95091
agreements 94707
directly 94692
threat 94681
structure 94654
station 94566
senior 94419
Her 94342
ch 94320
club 94290
ings 94283
32 94260
wish 94216
type 94149
55 94144
Institute 94039
bad 94000
century 93976
strategies 93950
TV 93909
posts 93875
scale 93858
equal 93854
transfer 93819
il@@ 93612
presidential 93544
Hong 93496
Le@@ 93326
proposals 93323
music 93247
reach 93246
treaty 93206
debt 93196
emergency 93161
markets 93143
ahead 93108
infrastructure 93014
negotiations 93007
ds 92915
career 92879
challenge 92752
compared 92686
sh@@ 92675
implemented 92455
Management 92442
informed 92408
Two 92406
inside 92254
estimated 92252
mechanism 92041
ons 91980
mean 91932
forced 91859
star 91807
Our 91797
1.@@ 91790
pe@@ 91768
turned 91750
quite 91749
continues 91707
connection 91698
Kong 91615
sub@@ 91574
centre 91529
sense 91514
cover 91414
annex 91317
Commissioner 91285
Israeli 91132
enhance 91132
ol@@ 91088
pre@@ 91060
Public 90974
Agency 90893
evaluation 90848
largest 90541
standard 90510
1@@ 90507
built 90507
crimes 90484
successful 90422
stay 90219
Global 90197
Ms 90168
text 90106
ent 90082
Trade 90019
everyone 89959
federal 89918
understand 89904
physical 89880
spent 89866
supply 89845
ally 89831
Mc@@ 89808
everything 89741
fund 89691
beyond 89680
Pacific 89678
relations 89577
followed 89479
internal 89443
program 89202
he@@ 89195
biennium 89077
III 89057
interests 89036
ans 88965
enforcement 88894
St@@ 88882
33 88848
te@@ 88817
housing 88641
latest 88589
Then 88517
hospital 88354
written 88333
News 88325
carry 88318
lo@@ 88306
34 88219
arrangements 88215
launched 88031
assist 87992
release 87919
receive 87822
prison 87683
Chairman 87652
movement 87643
instruments 87592
se 87434
adequate 87399
regions 87397
implementing 87354
functions 87314
Iran 87260
couple 87253
suggested 87194
failed 87093
processes 87057
seems 86922
Day 86895
safe 86875
ap@@ 86669
true 86567
36 86549
require 86541
sources 86489
objectives 86438
referred 86416
manner 86380
talk 86360
labour 86352
65 86293
More 86263
gas 86180
damage 86152
guidelines 86115
territory 86032
jobs 85993
Turkey 85975
League 85940
Treaty 85937
48 85819
looked 85801
Mexico 85708
tried 85695
charge 85661
Co@@ 85635
chance 85446
materials 85384
probably 85371
German 85368
ec@@ 85356
regulations 85353
elections 85333
Review 85311
facilitate 85301
Photo 85288
out@@ 85149
balance 85140
aspects 85095
et 85095
Street 85047
girl 84969
method 84838
effectively 84807
ling 84726
reference 84706
op@@ 84626
1993 84608
contribute 84561
57 84524
remained 84463
caption 84360
ul@@ 84317
ding 84282
nation 84096
ensuring 84044
avoid 84013
citizens 83977
financing 83898
Syria 83871
immediately 83844
37 83840
ongoing 83794
press 83595
circumstances 83586
sea 83536
reasons 83390
te 83322
friend 83188
v 83135
goods 83117
completed 83050
Scotland 83034
Mo@@ 83005
leadership 82931
committee 82806
fundamental 82804
phone 82790
Most 82776
AIDS 82737
assets 82657
70 82629
communications 82615
competition 82472
religious 82320
match 82209
qu@@ 82152
base 82082
biggest 82074
recognized 82061
um 82035
player 81880
hour 81826
recommendation 81693
achieved 81671
Foreign 81666
instead 81662
opening 81634
quarter 81630
nine 81627
res 81626
helped 81564
word 81540
website 81509
summer 81480
Western 81469
Geneva 81466
firm 81460
sales 81360
Covenant 81342
Force 81317
accused 81276
sc@@ 81207
apply 81159
transport 81158
outcome 81114
80 81084
target 80992
52 80935
Even 80879
58 80847
cash 80823
Paris 80812
Kingdom 80809
officer 80781
em@@ 80710
methods 80643
stand 80594
Plan 80537
contribution 80511
voters 80492
G 80444
associated 80436
believed 80414
studies 80374
giving 80253
core 80241
net 80201
detention 80171
est 80127
highest 80106
articles 80066
beginning 79974
mis@@ 79972
wasn 79965
Association 79953
quickly 79866
factors 79825
ded 79797
om@@ 79746
Of 79663
professional 79573
53 79560
po@@ 79552
moved 79543
N 79503
Tribunal 79493
numbers 79455
ball 79431
alone 79402
90 79397
Also 79343
daughter 79319
shown 79306
serve 79284
59 79186
A. 79177
Is 79056
Such 78924
hands 78870
size 78866
Agenda 78839
California 78835
science 78819
claimed 78726
dated 78724
Panel 78715
closed 78715
undertaken 78713
Federation 78698
confirmed 78636
Millennium 78620
Permanent 78614
ready 78565
easy 78539
opened 78498
64 78433
Services 78431
host 78414
appeared 78406
indicated 78405
Be@@ 78335
arrested 78307
ment 78296
expert 78277
fifth 78270
popular 78219
dead 78201
worth 78167
Support 78144
improved 78092
manager 78091
pro@@ 78067
ne@@ 78056
61 78048
advice 78027
husband 78027
62 78003
happened 77958
teams 77936
Another 77917
elements 77914
positions 77821
Prime 77751
x@@ 77740
integrated 77682
elected 77670
shared 77665
product 77613
credit 77590
ask 77438
places 77379
original 77251
modern 77228
compliance 77203
os 77198
usually 77064
minister 77047
planned 77046
ist 76994
ten 76992
contact 76957
clearly 76939
break 76907
thousands 76904
resource 76835
users 76635
previously 76629
fell 76620
Michael 76515
improving 76492
Criminal 76387
recommends 76235
appeal 76234
placed 76113
39 75959
War 75958
commercial 75949
named 75906
per@@ 75870
56 75854
54 75820
Park 75753
raise 75679
Beijing 75659
boy 75630
mo@@ 75585
to@@ 75559
banks 75519
offered 75516
applied 75510
ve@@ 75440
White 75412
preparation 75382
leaving 75331
happy 75306
mass 75304
Those 75294
Children 75286
participants 75260
island 75201
Ro@@ 75182
ot@@ 75173
changed 75171
participate 75143
Car@@ 75126
aircraft 75115
deep 75098
simply 75074
confidence 74997
supporting 74977
incident 74973
mentioned 74971
Not 74968
huge 74901
disease 74896
44 74789
38 74668
delegations 74513
66 74463
judicial 74434
focused 74428
Brazil 74402
Cooperation 74340
purposes 74292
51 74233
patients 74229
entire 74192
illegal 74181
covered 74177
returned 74160
prior 74117
terrorist 74114
me@@ 74081
ice 74078
ge@@ 74006
combat 73998
delivery 73965
opinion 73949
football 73931
wants 73914
seek 73890
anyone 73877
sign 73841
goes 73814
ex@@ 73782
buy 73778
Charter 73627
10@@ 73623
Education 73596
sometimes 73583
Pro@@ 73571
ill 73561
integration 73549
wrong 73513
charges 73490
200 73427
sound 73362
Afghanistan 73351
James 73343
Implementation 73337
63 73273
les 73272
version 73216
Regional 73167
ing@@ 73111
candidate 73078
identify 73072
complex 73062
commitments 73035
vulnerable 73032
Di@@ 72934
cross 72909
units 72853
initial 72799
ker 72757
sessions 72740
En@@ 72731
knew 72656
ke 72609
blood 72579
Sudan 72530
San 72513
Forum 72406
Italy 72369
drugs 72241
41 72213
trust 72112
God 72047
pl@@ 72030
Bar@@ 71941
welcomed 71926
tions 71866
candidates 71741
47 71684
tic 71631
continuing 71565
isn 71559
spokesman 71545
us@@ 71532
Protection 71519
solution 71510
centres 71462
transition 71405
door 71403
insurance 71371
uses 71357
produced 71343
encourage 71338
0@@ 71329
Federal 71303
looks 71270
49 71244
maintain 71230
north 71217
function 71204
bi@@ 71168
ance 71143
42 71100
urban 71083
Ireland 71051
Facebook 70978
operating 70834
distribution 70808
submit 70624
46 70566
ps 70522
0 70479
Code 70371
skills 70345
message 70328
condition 70315
Do 70269
presence 70252
discussions 70237
negative 70199
School 70126
ks 70102
Unit 70075
pursuant 70038
measure 70020
X 69978
ator 69936
Its 69930
cancer 69898
ard 69852
ones 69821
mental 69810
cities 69804
holding 69790
enable 69771
stock 69699
Constitution 69696
Meeting 69686
charged 69673
entities 69669
objective 69666
governance 69652
details 69630
Their 69623
guidance 69532
Second 69531
43 69521
ur@@ 69471
situations 69423
unit 69396
Non 69329
UNICEF 69302
discussed 69256
generally 69253
middle 69222
stability 69187
Agreement 69102
approval 69084
informal 69054
Despite 69045
V 69032
initiative 69009
Why 68998
permanent 68987
figures 68956
south 68952
bo@@ 68950
Middle 68937
X@@ 68883
appear 68862
interview 68836
scientific 68825
task 68814
scene 68793
revealed 68787
dollars 68737
under@@ 68732
th 68718
comment 68698
increasingly 68672
gone 68608
kept 68591
Twitter 68563
George 68552
ship 68528
Last 68462
der@@ 68422
Civil 68399
speak 68376
car@@ 68368
institutional 68365
civilian 68291
Congress 68276
copyright 68221
ed@@ 68195
Q@@ 68189
content 68118
technologies 67967
sectors 67909
whom 67897
marriage 67866
extent 67816
television 67807
recovery 67801
speech 67750
invited 67740
Cuba 67724
Bo@@ 67719
track 67688
else 67678
ism 67630
highly 67605
requires 67542
floor 67417
passed 67378
Asian 67376
youth 67293
follows 67276
fans 67224
efficiency 67191
multilateral 67178
BBC 67148
department 67087
ethnic 67027
judge 67024
proceedings 66995
lines 66975
2.@@ 66936
sharing 66891
regime 66875
Section 66861
Great 66851
duty 66779
ity 66698
maintenance 66674
alleged 66606
fair 66605
migrants 66602
alia 66590
eyes 66576
scope 66530
served 66483
67 66464
effectiveness 66448
spoke 66435
victory 66414
appears 66356
County 66306
train 66294
search 66271
decades 66249
disaster 66204
Chief 66153
pre 66131
Americans 66124
computer 66068
determined 65990
Summit 65981
character 65969
Pakistan 65943
separate 65935
fighting 65917
collection 65914
concluded 65909
accounts 65906
ical 65900
disabilities 65850
ren@@ 65820
title 65803
learning 65739
no@@ 65670
opposition 65638
Sydney 65609
survey 65587
sold 65563
Th@@ 65492
Political 65489
compensation 65429
ty 65427
Hillary 65420
Crime 65406
spending 65305
joined 65190
relation 65153
figure 65151
encouraged 65089
peaceful 65046
Paul 65010
Sh@@ 64948
hear 64883
ties 64860
keeping 64842
residents 64807
employees 64723
provisional 64710
risks 64681
homes 64606
ry 64605
UNCTAD 64590
choice 64590
developments 64563
reduced 64558
writing 64532
practical 64489
Smith 64440
remaining 64404
ors 64398
customers 64397
winning 64367
style 64323
settlement 64313
partnership 64281
17@@ 64149
ves 64130
Research 64122
Al 64120
raising 64037
seem 63940
torture 63913
via 63896
involving 63879
collaboration 63835
coach 63830
ge 63800
image 63753
Cup 63714
moving 63690
setting 63679
weight 63662
68 63660
p.m. 63613
governments 63605
influence 63535
speaking 63498
mainly 63476
um@@ 63465
da 63446
revised 63392
Un@@ 63371
attempt 63365
legislative 63358
linked 63343
student 63150
starting 63143
creation 63139
aim 63132
hi@@ 63113
partner 63107
bed 62913
ver@@ 62898
ou@@ 62870
1992 62842
Los 62830
et@@ 62825
15@@ 62810
failure 62798
owned 62769
records 62668
facing 62599
begin 62566
industrial 62552
independence 62488
heavy 62474
H 62467
types 62456
500 62447
actors 62430
older 62388
priorities 62382
Latin 62368
ve 62339
respond 62333
closely 62313
substantive 62311
courts 62301
gets 62297
weekend 62274
ite 62234
faced 62134
defence 62062
learn 62019
Internet 62015
responsibilities 62005
ir@@ 61969
universal 61856
victim 61783
man@@ 61751
Both 61676
fl@@ 61646
finance 61566
seeking 61565
Administration 61532
U 61518
B. 61496
fear 61481
traffic 61373
gold 61331
vi@@ 61294
Caribbean 61277
paragraphs 61264
fine 61255
street 61179
options 61146
ies 61136
daily 61130
becoming 61099
injury 61061
pass 61034
recorded 61013
stakeholders 61002
par@@ 61000
suffered 60996
aged 60992
pm 60947
Peace 60868
Sanders 60853
possibility 60842
oc@@ 60832
minimum 60805
intended 60787
baby 60769
bill 60765
75 60707
phase 60688
corruption 60671
Times 60667
weapon 60644
simple 60610
é@@ 60574
allegations 60536
Li@@ 60506
Se@@ 60469
flight 60468
Year 60459
reality 60453
causes 60442
ter@@ 60377
sanctions 60369
detailed 60355
economies 60287
concept 60280
vehicles 60234
00 60216
tion 60153
formal 60115
produce 60103
ler 60090
Spain 60078
learned 60059
birth 60056
speed 60032
Please 60029
alternative 60019
talks 60019
Environment 59984
ran 59963
achieving 59948
degree 59936
El@@ 59851
temporary 59817
posted 59755
drive 59712
determination 59657
addressing 59636
ary 59623
fifty 59593
determine 59504
indicators 59495
consequences 59421
answer 59406
watch 59397
standing 59386
ah 59382
Furthermore 59375
entry 59345
believes 59343
ka 59339
double 59302
urged 59290
extended 59252
judges 59187
payment 59186
vehicle 59185
ars 59154
discuss 59146
nor 59146
finally 59048
Olympic 58990
rich 58979
welcome 58970
fi@@ 58945
applications 58910
researchers 58877
voluntary 58812
ner 58774
Japanese 58751
external 58726
happen 58719
walk 58701
thinking 58700
direction 58686
Har@@ 58610
accepted 58591
missing 58562
des 58493
advance 58482
IV 58463
Administrative 58421
arrived 58421
sale 58339
fuel 58246
ob@@ 58239
go@@ 58222
2017 58204
twenty 58196
injured 58166
Don 58125
calling 58101
Room 58070
ten@@ 58042
page 58030
Parliament 58015
seemed 57975
driving 57974
miles 57965
educational 57963
refugee 57950
sides 57948
Let 57892
tr@@ 57878
adopt 57857
export 57841
immediate 57817
THE 57794
77 57783
politics 57759
expect 57753
consistent 57749
Christmas 57744
sixth 57734
relief 57652
Because 57623
Congo 57616
Zealand 57575
UNEP 57557
consultation 57549
violation 57546
gh@@ 57530
improvement 57511
fast 57501
listed 57501
ak@@ 57457
normal 57422
resulting 57407
ma 57403
join 57398
Center 57345
aware 57345
Just 57330
ness 57318
Northern 57302
la 57299
civilians 57291
Angeles 57274
values 57237
decade 57089
establishing 57080
consensus 57058
1990 57040
Supreme 57036
statistics 57030
investors 56990
tools 56981
UNHCR 56977
Man@@ 56965
Mon@@ 56888
Ex@@ 56871
appointed 56861
entered 56860
Sea 56853
rose 56850
ters 56831
pretty 56826
picture 56812
Annex 56789
located 56787
sufficient 56768
names 56766
Goals 56748
enjoy 56714
gr@@ 56698
accept 56689
Today 56669
findings 56596
sites 56572
wood 56513
actual 56509
intergovernmental 56483
do@@ 56450
creating 56432
gives 56403
cars 56328
destruction 56325
difference 56307
Joint 56279
brother 56264
completely 56228
3.@@ 56138
sought 55990
fields 55976
mine 55959
Child 55883
green 55877
wall 55830
Com@@ 55799
defined 55784
launch 55751
books 55746
broad 55691
represented 55680
waste 55628
managed 55562
weather 55548
lose 55442
specialized 55392
Financial 55388
Rio 55348
reflected 55319
Bill 55295
ments 55282
achievement 55265
Where 55251
perhaps 55124
mon@@ 55119
cl@@ 55101
ative 55097
generation 55087
ho@@ 55077
obligation 55039
hearing 55030
limit 55018
talking 55014
secure 55006
interested 54984
monitor 54946
dangerous 54940
ina 54924
counter 54910
please 54882
troops 54872
Here 54814
Johnson 54803
ban 54802
OF 54754
affect 54753
widely 54733
displaced 54710
democracy 54706
mid 54690
1991 54687
ong 54660
Ad@@ 54657
Saudi 54599
ph@@ 54594
reflect 54578
multiple 54537
Scottish 54535
male 54529
com@@ 54505
King 54437
ble 54396
Earth 54336
Pe@@ 54314
declared 54312
System 54308
carrying 54307
appreciation 54269
16@@ 54263
Ma@@ 54247
voice 54214
efficient 54205
dy 54188
Brexit 54184
300 54172
unable 54159
fish 54138
murder 54106
useful 54098
prepare 54087
feet 54086
proliferation 54086
driver 54070
certainly 54029
die 53929
zone 53923
ni@@ 53908
software 53875
add 53864
sw@@ 53811
couldn 53796
gun 53780
spread 53746
businesses 53734
id@@ 53720
ses 53708
location 53692
targets 53692
ana 53682
advantage 53680
contributed 53654
tive 53650
toward 53566
periodic 53549
married 53535
w 53529
ster 53519
forest 53486
crucial 53425
explained 53418
Gu@@ 53410
Dr 53398
Cor@@ 53394
Headquarters 53394
69 53311
piece 53308
pi@@ 53303
strength 53252
bar@@ 53237
Well 53208
Egypt 53151
ins 53145
agricultural 53129
Note 53123
alization 53067
agree 53037
Spanish 53024
Moreover 53013
features 52953
draw 52951
save 52941
bilateral 52846
card 52830
respective 52783
treated 52760
box 52652
kids 52610
jurisdiction 52599
Bureau 52574
engaged 52525
for@@ 52519
center 52486
largely 52480
affairs 52469
brain 52467
boys 52463
hot 52451
rec@@ 52438
democratic 52417
send 52376
Countries 52356
eye 52331
stressed 52328
decide 52277
gi@@ 52274
District 52249
lived 52218
ver 52143
ology 52139
absence 52131
approaches 52116
registered 52109
dog 52103
Red 52076
Chair 52061
acting 52050
feeling 52009
battle 52000
13@@ 51993
actively 51941
nations 51931
camp 51927
spend 51913
.com 51894
university 51888
gu@@ 51839
cold 51809
trading 51809
Authority 51797
ish 51795
Qu@@ 51781
shares 51780
sports 51759
supporters 51743
ay@@ 51728
photo 51699
membership 51602
st 51601
0.@@ 51581
@ 51580
concrete 51524
ak 51507
Yet 51466
surface 51457
up@@ 51431
Melbourne 51395
eventually 51383
estimates 51322
offers 51311
flow 51307
ger 51294
Recalling 51266
ists 51255
expenditure 51237
implications 51236
changing 51216
meant 51199
district 51196
Technology 51189
enter 51140
recognition 51136
Vienna 51119
minute 51117
store 51103
threats 51060
sell 50962
applicable 50944
ized 50913
identity 50865
finding 50855
enterprises 50824
meaning 50823
factor 50817
involvement 50811
conclusion 50778
Community 50709
seventh 50705
we@@ 50662
reducing 50627
radio 50604
Par@@ 50597
electronic 50592
Over 50572
Disarmament 50570
W 50563
village 50556
row 50543
powerful 50528
accountability 50511
species 50495
conflicts 50484
IN@@ 50449
remember 50401
occurred 50394
movie 50388
Sustainable 50371
12@@ 50368
code 50364
UN@@ 50343
chemical 50320
Air 50303
plane 50295
sts 50292
formed 50265
discovered 50233
Me@@ 50229
teachers 50222
adding 50202
approximately 50199
helping 50192
attended 50186
medium 50186
Prevention 50180
K 50151
sentence 50116
migration 50099
treaties 50088
significantly 50069
ving 50036
ise 50017
Lo@@ 49983
dealing 49962
plant 49940
ie 49912
soldiers 49896
grounds 49891
ages 49883
pointed 49836
ber@@ 49822
arrest 49759
scheduled 49739
clean 49732
languages 49722
Peter 49692
warning 49678
difficulties 49642
extra 49636
Your 49625
criteria 49617
era 49604
aw@@ 49578
ideas 49568
Florida 49565
headquarters 49536
beautiful 49527
Sha@@ 49519
link 49505
army 49495
racial 49487
park 49458
penalty 49450
hundreds 49439
myself 49438
ru@@ 49408
Mark 49407
college 49345
larger 49339
delivered 49318
resulted 49316
afternoon 49299
buildings 49281
fe@@ 49244
urgent 49189
southern 49169
relatively 49140
hair 49136
caught 49129
Apple 49126
killing 49106
multi 49092
mobile 49080
ring 49078
Space 49064
mostly 49059
northern 49053
ste@@ 49053
Lebanon 49037
donors 49032
emerging 49005
extremely 48988
registration 48971
sixty 48971
ending 48950
showing 48949
warned 48947
ci@@ 48946
ants 48935
ale 48922
Go@@ 48914
millions 48897
ying 48883
unless 48876
bu@@ 48857
ra 48854
Su@@ 48843
heads 48828
la@@ 48817
Road 48816
runs 48815
ach@@ 48793
consumption 48789
east 48767
user 48761
hotel 48718
Prince 48692
ut@@ 48678
theory 48675
payments 48657
audit 48613
transparency 48613
losses 48609
bus 48608
au@@ 48603
conferences 48590
Discrimination 48588
ked 48574
pair 48566
bl@@ 48532
check 48528
denied 48432
injuries 48369
attend 48362
ay 48318
reforms 48311
considering 48218
voting 48202
stone 48179
mark 48142
submission 48122
Turkish 48087
trip 48045
observations 48030
Sweden 48005
Officer 47986
option 47983
suffering 47983
Cruz 47979
Army 47974
Each 47963
granted 47948
networks 47941
shooting 47931
funded 47898
evening 47876
Persons 47861
ta 47811
14@@ 47810
tri@@ 47794
Royal 47781
Jones 47751
Policy 47704
imposed 47696
west 47625
Members 47619
grow 47616
Ukraine 47614
unique 47609
coverage 47594
asylum 47587
owner 47581
and@@ 47577
ep@@ 47565
ven@@ 47542
Draft 47534
pen@@ 47530
departments 47520
so@@ 47497
ore 47482
instrument 47477
write 47477
targeted 47476
Indonesia 47473
contains 47449
cur@@ 47444
solutions 47440
deaths 47424
Am@@ 47335
Island 47309
# 47292
foot 47283
partnerships 47246
percentage 47222
plenary 47218
convention 47189
Following 47173
Third 47166
cast 47153
drop 47127
express 47120
bar 47119
occupied 47104
testing 47091
serving 47072
Further 47055
UNFPA 47044
Requests 47042
Three 47026
severe 47026
ade 47019
ey 46986
referendum 46984
ft 46971
can@@ 46953
Ri@@ 46935
cycle 46926
dropped 46903
procurement 46902
sed 46890
Legal 46886
+ 46872
spirit 46859
otherwise 46827
pictured 46824
deployment 46775
C. 46773
eat 46769
Several 46758
owing 46758
exploitation 46757
Senate 46746
Only 46729
powers 46693
contracts 46681
res@@ 46673
ators 46671
band 46658
hopes 46613
Vice 46595
Indian 46579
respectively 46562
definition 46556
Optional 46496
sets 46495
beat 46468
Bi@@ 46467
ality 46464
timely 46447
eighth 46400
rising 46377
4.@@ 46346
worst 46338
sive 46332
commission 46331
Table 46313
72 46305
perfect 46305
spot 46295
category 46259
ess 46244
sub 46243
experienced 46211
structures 46208
straight 46168
Ne@@ 46144
easily 46137
healthy 46127
doubt 46070
ence 46058
Col@@ 46052
perspective 46051
pick 46047
stations 46046
plays 46029
all@@ 45988
pain 45964
sing 45918
Po@@ 45900
Lord 45897
He@@ 45864
exist 45851
Food 45825
receiving 45823
Open 45816
Dis@@ 45808
ful 45778
specifically 45776
ery 45774
sort 45770
corporate 45735
Can 45717
end@@ 45706
Nuclear 45697
é 45665
component 45652
union 45630
emissions 45618
wouldn 45612
mutual 45549
instance 45516
Islands 45511
trend 45511
dark 45488
airport 45480
allows 45443
contributing 45442
guarantee 45423
doctors 45422
prime 45410
blue 45372
experiences 45368
reading 45349
Somalia 45346
immigration 45292
faces 45288
bringing 45221
finished 45210
vision 45208
reviewed 45207
waiting 45206
signs 45203
complaints 45201
scheme 45190
expression 45161
ics 45155
wait 45075
twice 45072
id 45070
famous 45052
skin 45050
sky 45038
choose 45028
yourself 45021
El 45020
teacher 45007
ms 45002
offences 44995
processing 44993
ens 44982
secretary 44952
vital 44946
allowing 44944
refused 44940
truth 44909
ze 44862
intelligence 44849
Tom 44843
Chris 44792
gap 44751
az@@ 44743
stopped 44736
lies 44734
College 44704
illicit 44703
ya 44664
votes 44652
stress 44624
super@@ 44624
Switzerland 44618
ang 44603
strongly 44571
95 44561
except 44534
suggests 44526
combined 44510
crowd 44508
massive 44481
perform 44448
2,@@ 44447
controlled 44447
scientists 44425
su@@ 44417
council 44379
seriously 44339
av@@ 44332
Mor@@ 44330
Once 44315
Meanwhile 44278
herself 44271
_ 44262
tool 44229
tests 44226
proper 44222
ping 44213
gen@@ 44202
tu@@ 44197
ninth 44192
du@@ 44189
numerous 44180
religion 44167
wing 44162
enterprise 44128
Coordination 44098
Any 44084
Yes 44079
Before 44064
ne 44063
ously 44049
Texas 44040
putting 44000
99 43993
IS@@ 43969
ically 43962
Cameron 43939
theme 43926
reportedly 43913
slow 43897
worldwide 43890
af@@ 43875
minority 43868
defense 43855
seat 43854
ys 43851
Ab@@ 43849
US@@ 43796
ii 43770
performed 43765
dollar 43757
Foundation 43723
suggest 43709
origin 43702
IC@@ 43668
obtained 43667
investigations 43650
Per@@ 43640
Sp@@ 43636
background 43629
observed 43620
Pi@@ 43618
expertise 43604
revenue 43603
knows 43567
Italian 43550
expansion 43542
representation 43536
platform 43534
ex 43521
league 43481
85 43477
capacities 43473
ls 43468
honour 43465
animals 43399
Experts 43362
engage 43299
digital 43285
admitted 43233
ff 43212
maximum 43205
regularly 43202
path 43199
seeing 43171
ordered 43159
bid 43138
3,@@ 43115
Inter@@ 43114
stars 43062
ats 43059
deliver 43059
delay 43055
advanced 43051
participated 43050
ky 43024
drawn 43017
Family 43000
mail 42994
church 42981
Territory 42963
profit 42953
Trust 42952
Southern 42946
enhanced 42936
Cha@@ 42926
western 42924
Operations 42923
tor 42918
Martin 42884
teaching 42875
ati@@ 42848
appointment 42832
selling 42829
ash 42827
the@@ 42797
ders 42780
visits 42776
selected 42718
Iraqi 42712
Netherlands 42711
Training 42699
becomes 42697
sport 42671
extend 42656
song 42611
Georgia 42608
Norway 42594
subsequent 42590
assess 42589
Energy 42588
73 42519
Google 42500
broken 42490
20@@ 42475
Post 42439
machine 42432
guilty 42425
anti@@ 42411
Dr. 42387
wind 42380
ian 42376
Jordan 42363
collective 42337
Y 42333
existence 42306
occupation 42297
1,000 42282
stable 42281
men@@ 42229
images 42216
indicate 42192
Press 42183
represent 42181
protected 42173
punishment 42170
declined 42160
= 42154
yesterday 42143
accounting 42139
br@@ 42113
dec@@ 42087
Sal@@ 42058
stories 42039
enhancing 42012
variety 42011
summary 42001
We@@ 41988
iz@@ 41988
que 41980
differences 41925
visited 41908
Games 41906
supports 41898
regulation 41897
storm 41895
rehabilitation 41881
substantial 41826
courses 41814
removed 41814
uc@@ 41802
ships 41793
asking 41760
secondary 41740
Guinea 41728
ai@@ 41704
Sch@@ 41687
decline 41681
outstanding 41679
wearing 41663
programs 41644
assessments 41631
strike 41580
71 41579
NGOs 41573
lawyer 41566
For@@ 41557
ir 41551
recruitment 41547
eastern 41520
ent@@ 41519
Brown 41480
Field 41475
guide 41461
latter 41435
6.@@ 41412
Scott 41390
Who 41377
gain 41377
doctor 41354
IS 41349
Muslim 41348
hoped 41345
secret 41327
diseases 41315
-@@ 41297
highlighted 41291
Or@@ 41289
River 41286
allegedly 41259
electoral 41257
ke@@ 41248
integrity 41237
Argentina 41188
incidents 41169
Control 41138
Eastern 41128
har@@ 41118
Staff 41108
Elimination 41099
sleep 41096
mar@@ 41085
Finally 41079
crash 41074
organs 41073
donor 41065
exactly 41049
conclusions 41031
els 41008
examination 40987
den@@ 40970
smaller 40955
pilot 40944
firms 40940
subregional 40925
Therefore 40903
Project 40878
400 40866
chairman 40848
audience 40843
Technical 40822
stood 40821
fit 40817
RE@@ 40803
So@@ 40734
heat 40734
Black 40711
p.m 40708
UNIDO 40688
diplomatic 40680
Governing 40666
sister 40656
dispute 40645
haven 40633
supplies 40627
square 40622
amounts 40609
ines 40595
broke 40588
Instead 40537
As@@ 40533
Rules 40521
maintained 40514
selection 40496
gs 40490
element 40487
Wales 40482
award 40476
Green 40466
restrictions 40456
houses 40447
Her@@ 40440
Getty 40433
ably 40422
cre@@ 40417
rapid 40403
sensitive 40387
tor@@ 40385
bought 40376
institution 40362
strengthened 40357
Republicans 40350
di 40348
components 40338
mer@@ 40330
feature 40326
investigate 40302
models 40302
5.@@ 40297
Robert 40278
CO@@ 40269
coordinated 40220
thank 40215
favour 40210
newspaper 40177
workshops 40165
trans@@ 40157
offering 40140
1,@@ 40132
lessons 40124
telling 40102
Korean 40089
Like 40052
greatest 40040
increases 40017
Thus 40007
devices 39995
fresh 39982
directed 39966
Every 39956
tra@@ 39944
tough 39937
panel 39933
mandates 39927
ure 39920
worse 39879
requirement 39817
push 39813
rejected 39756
Hall 39711
Among 39702
Strategy 39692
tree 39689
behaviour 39668
extreme 39658
inclusion 39614
contain 39610
losing 39608
Deputy 39601
Ber@@ 39576
il 39548
sk@@ 39526
tasks 39492
Fe@@ 39477
preparing 39465
ass@@ 39451
understood 39448
Part 39387
paying 39374
manage 39368
fixed 39361
sustained 39356
tour 39344
ched 39339
welcomes 39312
outcomes 39290
agriculture 39287
See 39255
Science 39246
engagement 39244
Manchester 39207
Greece 39202
undertake 39195
animal 39192
email 39169
friendly 39160
participating 39149
recognize 39145
observers 39142
shop 39122
76 39117
containing 39115
Olympics 39069
file 39051
violent 39020
Carolina 39018
Jo@@ 39016
estate 39008
Media 38996
closer 38992
struck 38979
wear 38972
emphasis 38965
Pl@@ 38945
a.m. 38937
sions 38937
emphasized 38931
explain 38907
internationally 38881
ham 38879
eliminate 38840
represents 38795
cutting 38792
fired 38790
trends 38788
encourages 38783
Power 38776
Society 38767
aims 38758
filed 38758
port 38758
Mac@@ 38740
faith 38734
Bush 38733
holiday 38732
screen 38730
Assistance 38723
facts 38718
Sir 38717
marine 38716
au 38711
Add.1 38708
sal@@ 38707
Cultural 38703
Canadian 38695
Rwanda 38688
responses 38686
fun 38669
Total 38668
km 38659
Kuwait 38642
Palestine 38638
carbon 38625
Ko@@ 38604
owners 38602
categories 38586
kill 38581
responded 38578
ber 38573
bridge 38548
abroad 38541
recalled 38541
Fifth 38540
primarily 38540
currency 38481
Ra@@ 38468
documentation 38450
notice 38448
ownership 38440
ingly 38407
obtain 38396
orders 38387
expand 38384
Democrats 38373
Former 38363
workshop 38362
Related 38360
bear 38345
map 38340
bs 38339
reaching 38339
cooperate 38317
rock 38298
bottom 38280
74 38278
diversity 38267
trained 38244
D. 38231
falling 38227
replaced 38217
master 38203
50@@ 38190
passengers 38171
cor@@ 38167
authorized 38164
cells 38147
scored 38144
bound 38129
investments 38128
object 38120
5,000 38073
Christian 38069
air@@ 38039
declaration 38032
Philippines 37989
mer 37964
grew 37963
consent 37949
Gender 37943
chapter 37940
NA@@ 37933
Mal@@ 37907
conventions 37906
device 37865
virus 37859
guard 37851
non@@ 37804
harm 37802
pool 37781
gross 37770
accident 37762
ast@@ 37752
Ho@@ 37747
letters 37737
sitting 37717
brand 37707
Queen 37696
den 37689
minorities 37687
links 37667
window 37651
block 37632
memory 37622
cuts 37617
reasonable 37611
Are 37587
Bu@@ 37573
considerable 37519
spring 37505
restaurant 37500
populations 37492
driven 37491
expenses 37468
mat@@ 37466
sit 37458
Williams 37412
I. 37409
regulatory 37366
rain 37353
watching 37345
managers 37335
assault 37317
onto 37301
belief 37290
ns 37288
Local 37287
thanks 37280
ell 37264
introduction 37260
proved 37245
sion 37244
competitive 37234
4,@@ 37223
constitute 37221
leaves 37214
appearance 37189
ruling 37181
topic 37172
plants 37159
Thailand 37143
gl@@ 37143
Images 37138
ca@@ 37137
Kosovo 37133
Chicago 37119
Oh 37109
fashion 37107
considers 37104
Having 37091
updated 37090
rare 37085
ches 37066
destroyed 37064
ff@@ 37054
rape 37036
Colombia 37024
territories 37021
78 37019
Pre@@ 37019
loved 37019
Richard 37016
Hu@@ 37013
constitutional 37003
ned 36989
willing 36988
prove 36964
roles 36962
cra@@ 36921
Bur@@ 36893
boat 36873
Item 36868
fellow 36867
guy 36850
actor 36849
Nigeria 36810
Thomas 36808
ran@@ 36789
Mrs 36779
controls 36775
ell@@ 36767
interpretation 36731
AP 36730
encouraging 36726
etc 36714
ud@@ 36709
competent 36705
freedoms 36695
ford 36667
Sierra 36662
governing 36654
distance 36652
streets 36622
duties 36606
Wil@@ 36604
Brussels 36585
coast 36562
ming 36549
winner 36543
danger 36531
shift 36531
Star 36512
migrant 36512
inform 36488
sun 36482
emb@@ 36446
Haiti 36432
prisoners 36425
William 36423
deeply 36423
causing 36408
patient 36401
facility 36400
consumer 36398
40@@ 36390
lands 36372
600 36344
aren 36344
ret@@ 36343
length 36332
voted 36330
offence 36313
Good 36307
back@@ 36285
Man 36263
83 36261
preventing 36257
completion 36255
cell 36247
Mu@@ 36238
unemployment 36221
welfare 36202
drink 36191
Lee 36155
arm 36146
lie 36138
locations 36136
kers 36135
neither 36104
Tr@@ 36096
emerged 36073
winter 36070
Andrew 36069
designated 36046
nearby 36039
Business 36029
database 36017
Will 35996
ma@@ 35982
quick 35941
initially 35933
anniversary 35929
filled 35918
sis 35914
forum 35895
St 35894
sen 35888
roads 35833
prosecution 35786
savings 35781
Mi@@ 35780
Kim 35770
ant@@ 35770
ino 35766
impossible 35755
Arabia 35752
88 35729
limits 35716
ile 35711
Right 35702
To@@ 35693
demands 35679
ization 35676
replace 35674
pollution 35652
flows 35650
Fourth 35649
agent 35645
expanded 35644
ly@@ 35644
forth 35615
campaigns 35603
Canberra 35589
extensive 35577
namely 35572
pursue 35563
wi@@ 35528
pro 35526
Cal@@ 35516
advisory 35505
identification 35488
gra@@ 35481
Ambassador 35455
aff@@ 35452
hy@@ 35445
forty 35413
holds 35413
Ben@@ 35391
urges 35370
historical 35366
consumers 35360
9.@@ 35359
ess@@ 35340
Mike 35321
protecting 35316
slightly 35314
eg@@ 35306
ur 35294
fees 35287
lawyers 35286
remove 35244
availability 35240
81 35233
operate 35205
Weapons 35187
AR@@ 35181
employed 35169
ai 35159
indeed 35139
stands 35137
organizational 35132
og@@ 35073
aries 35062
division 35051
principal 35047
Greek 35042
sovereignty 35035
ISIS 35026
Network 35025
About 35014
publication 35014
RA@@ 35010
combating 35006
turning 35003
glass 34997
chain 34994
stocks 34990
Life 34975
98 34965
Ministers 34949
inflation 34944
backed 34943
covering 34937
Poland 34928
Liberia 34913
ends 34913
Austria 34904
tourism 34903
AN@@ 34881
Ryan 34881
endorsed 34881
finish 34876
expensive 34863
Singapore 34857
disability 34854
86 34848
Objective 34788
79 34787
Ac@@ 34783
82 34777
MP 34776
inclusive 34752
Ke@@ 34747
widespread 34733
Sa@@ 34706
nice 34691
sl@@ 34689
attempts 34625
headed 34606
shape 34606
statistical 34606
protest 34591
walking 34591
Chamber 34588
potentially 34586
maintaining 34577
adults 34558
84 34535
96 34506
dream 34503
hand@@ 34496
marked 34496
La@@ 34494
writer 34484
territorial 34425
Indigenous 34421
properties 34417
association 34401
Reuters 34386
suit 34385
Vi@@ 34374
VI 34365
suicide 34349
temperature 34340
province 34336
newly 34305
seats 34280
J 34277
AND 34276
Chapter 34275
politicians 34242
productive 34219
satellite 34203
maybe 34197
resolve 34189
j 34187
intention 34180
87 34179
argued 34165
transportation 34158
laid 34154
warm 34149
ped 34090
Territories 34084
OHCHR 34080
Framework 34077
fill 34074
rel@@ 34061
historic 34058
gains 34053
profile 34052
suspected 34051
younger 34038
exports 34027
connected 34021
authors 34015
Co 34013
CA@@ 34009
decrease 34000
ely 34000
Premier 33990
none 33986
Min@@ 33984
functioning 33968
drinking 33951
Instagram 33905
Independent 33903
foundation 33898
bur@@ 33889
Given 33873
comply 33858
reporters 33849
Si@@ 33830
5,@@ 33825
camera 33825
struggle 33821
racism 33815
Gaza 33810
academic 33807
92 33796
800 33788
ane 33788
equity 33778
schedule 33770
Peacekeeping 33768
web 33755
farmers 33745
purchase 33732
pictures 33727
signing 33695
ES 33690
war@@ 33681
agents 33663
deals 33661
fied 33646
trees 33636
ised 33633
lay 33584
pe 33582
ney 33574
river 33573
trouble 33548
entirely 33517
col@@ 33513
ang@@ 33508
giant 33504
Victoria 33491
\ 33463
Malaysia 33460
complaint 33459
vast 33457
Team 33454
Ben 33440
acknowledged 33437
Letter 33434
suspended 33424
reviews 33411
index 33410
leads 33396
heading 33387
extension 33383
whatever 33366
boost 33364
ali@@ 33351
wishes 33346
detained 33344
proportion 33340
happens 33331
remote 33313
missed 33302
Kar@@ 33296
earth 33288
properly 33286
Bay 33279
drivers 33279
ung 33239
presentation 33194
plus 33192
weak 33192
ano 33183
grown 33180
.1 33175
studied 33167
wage 33164
ges 33141
route 33137
inquiry 33136
relative 33126
mi@@ 33110
str@@ 33110
ents 33108
ational 33102
pension 33092
ub@@ 33085
Kenya 33080
ou 33080
min@@ 33059
wealth 33053
helps 33044
relationships 33038
Coast 33024
Time 33024
pregnant 33024
surgery 33017
posed 33008
assessed 33006
Taiwan 32986
ging 32960
films 32957
album 32955
attached 32955
taxes 32934
resident 32924
mining 32917
Cyprus 32914
ministers 32908
easier 32897
7.@@ 32894
Du@@ 32885
ering 32837
loans 32824
AC@@ 32786
touch 32785
Assistant 32778
fo@@ 32734
Pol@@ 32733
Leone 32720
Population 32715
ki 32711
norms 32711
guys 32699
successfully 32691
Source 32690
oversight 32690
Financing 32683
dedicated 32679
grant 32672
93 32639
Inter 32629
criticism 32617
valuable 32606
ratification 32591
capable 32585
characteristics 32581
Fox 32580
score 32570
messages 32568
alized 32553
journalists 32553
finds 32535
Tri@@ 32525
ved 32520
handed 32517
grave 32515
convicted 32486
yards 32480
Fi@@ 32470
wh@@ 32451
surprise 32450
Hollywood 32434
97 32423
volume 32413
examined 32393
preliminary 32393
custody 32390
frequently 32380
St. 32379
Belgium 32373
Military 32370
threatened 32369
head@@ 32365
Tra@@ 32357
pending 32349
alcohol 32328
sy 32324
gained 32320
Moscow 32307
internet 32282
burden 32277
minor 32252
Bosnia 32246
desire 32245
specified 32239
ga 32225
tend 32217
Putin 32208
innovation 32193
vice 32183
bigger 32166
suspect 32166
wider 32149
fiscal 32144
stronger 32143
catch 32132
examine 32131
examples 32126
explore 32119
feels 32119
Credit 32106
outer 32100
eating 32083
engineering 32073
originally 32073
papers 32073
possibly 32072
Internal 32071
refer 32057
89 32050
depth 32050
output 32047
Big 32039
ride 32038
91 32026
ceremony 32009
rooms 32005
AS@@ 32003
est@@ 31998
unlikely 31976
Safety 31942
salary 31938
reaction 31925
solid 31906
edge 31894
coal 31872
ori@@ 31867
Jerusalem 31858
returns 31855
Introduction 31854
Four 31845
boss 31841
gn@@ 31840
repeatedly 31833
convened 31832
technological 31824
Ver@@ 31818
display 31813
ther@@ 31813
visitors 31808
ha 31804
chemicals 31778
improvements 31776
broader 31771
confident 31769
ot 31767
ash@@ 31741
legitimate 31739
Based 31736
interesting 31727
29@@ 31726
10.@@ 31725
founded 31708
un 31688
fer@@ 31685
hurt 31683
post@@ 31674
squ@@ 31645
ths 31641
manufacturing 31638
Home 31621
sha@@ 31601
storage 31584
transferred 31573
ching 31567
pace 31564
delegates 31548
Mer@@ 31535
94 31522
equivalent 31517
colleagues 31512
crew 31511
reproductive 31495
pulled 31488
objects 31483
speakers 31470
Hospital 31468
subsequently 31467
divided 31465
mortality 31445
ba 31438
berg 31438
Test 31419
nationality 31418
Rome 31414
drew 31407
professor 31401
expenditures 31397
covers 31395
heavily 31393
tic@@ 31392
down@@ 31386
makers 31381
structural 31379
tells 31377
Lu@@ 31374
COP 31369
subsidiary 31362
entering 31359
Resources 31355
Or 31354
parliament 31351
Through 31315
dress 31304
alongside 31292
Rule 31290
Questions 31282
ads 31239
expectations 31238
satisfaction 31236
6,@@ 31228
update 31208
fan 31203
elimination 31195
breaking 31193
elect 31186
pleased 31171
package 31159
Lebanese 31147
rapidly 31146
TION 31126
tw@@ 31121
Academy 31113
fly 31113
monthly 31110
Indeed 31094
Q 31094
1989 31093
fying 31082
Jack 31078
tics 31039
enemy 31026
steel 31022
ire 31012
Bra@@ 30983
Forces 30955
hundred 30938
representing 30930
Prosecutor 30929
disasters 30927
Humanitarian 30920
ill@@ 30918
begun 30904
ann@@ 30880
inf@@ 30869
achievements 30866
ev@@ 30864
va 30849
count 30845
Harry 30829
od@@ 30825
starts 30825
poll 30801
Ethiopia 30793
witnesses 30779
Professor 30775
fishing 30765
occur 30755
150 30754
Status 30752
def@@ 30752
lasting 30752
IAEA 30749
Soviet 30740
impacts 30730
Best 30718
electric 30715
detail 30710
ning 30709
affecting 30707
iting 30707
Work 30700
wine 30688
color 30687
committees 30682
} 30682
Company 30669
characters 30638
{ 30622
treat 30620
Aleppo 30608
photos 30597
overseas 30583
Yugoslavia 30579
intervention 30574
sti@@ 30554
periods 30544
borders 30542
artist 30540
customer 30538
RT 30537
asset 30523
CNN 30516
attacked 30513
moral 30506
Hill 30494
yes 30481
clothes 30473
Water 30469
amid 30449
ani 30443
passing 30437
micro@@ 30409
thirty 30408
dry 30404
reconciliation 30370
ese 30352
bro@@ 30351
chair 30351
initiated 30351
Decides 30349
ultimately 30344
pping 30333
dinner 30332
wins 30330
tro@@ 30324
Labor 30321
Bri@@ 30304
qualified 30284
innovative 30263
closing 30252
ruled 30249
ski 30240
household 30227
Young 30222
defeat 30215
drawing 30211
noting 30211
rally 30185
introduce 30175
J. 30171
walked 30162
disabled 30161
absolutely 30154
Burundi 30148
interim 30146
2,000 30121
seconds 30121
Ba@@ 30120
transit 30120
Morocco 30118
Wall 30108
wave 30104
sentenced 30095
transparent 30088
capabilities 30082
managing 30079
realization 30061
captured 30059
enabling 30040
attempted 30020
ancient 30019
atmosphere 30010
Saint 30009
hole 30007
Daily 30006
sat 29983
Myanmar 29980
singer 29977
Habitat 29972
distributed 29968
magazine 29968
Bangladesh 29967
fraud 29966
Church 29949
overcome 29940
IA@@ 29939
cards 29939
amendment 29920
deployed 29916
techniques 29910
ize 29908
bomb 29896
ty@@ 29891
Chile 29887
alism 29880
combination 29868
truly 29865
ising 29845
Adoption 29837
soil 29827
binding 29812
nominee 29787
Chairperson 29778
fewer 29777
turns 29776
ged 29767
amendments 29760
enjoyment 29734
publicly 29734
Regulations 29727
19@@ 29725
mu@@ 29709
Im@@ 29708
flying 29707
flat 29674
sa 29673
stages 29653
journey 29649
announcement 29639
8.@@ 29619
worker 29615
vel@@ 29612
Still 29608
pattern 29605
tur@@ 29605
argument 29604
NSW 29597
Summary 29589
loan 29588
List 29575
involve 29575
rou@@ 29559
ny 29553
www.@@ 29535
dies 29529
focusing 29509
proud 29496
.... 29483
tackle 29471
pr@@ 29434
oral 29433
Dar@@ 29430
fulfil 29417
Ge@@ 29416
ple@@ 29411
lin@@ 29405
ari@@ 29403
tested 29401
tomorrow 29398
pieces 29380
arts 29366
Charles 29359
transactions 29354
thematic 29337
sa@@ 29336
Steve 29325
Miss 29286
camps 29286
Queensland 29279
adaptation 29244
Zika 29231
conservative 29218
alize 29217
Medical 29205
dance 29203
conversation 29202
TA@@ 29191
Is@@ 29184
stuff 29174
disputes 29173
reservations 29171
electricity 29167
leg 29158
budgetary 29152
planet 29151
van 29146
Take 29140
arising 29134
beach 29132
entity 29123
adult 29110
ites 29104
GDP 29086
opposed 29071
Wi@@ 29052
hospitals 29046
Use 29040
hu@@ 29037
marketing 29007
assigned 29006
industries 29006
brief 28997
tly 28994
contrast 28990
formulation 28983
grade 28979
rescue 28977
demonstrated 28974
typically 28973
Grand 28960
prosecutors 28952
violated 28948
metres 28946
picked 28935
bearing 28918
returning 28910
Shanghai 28908
La 28907
proof 28902
clubs 28900
mines 28892
her@@ 28887
Ham@@ 28885
internally 28884
Universal 28881
Herzegovina 28880
horse 28872
amended 28866
ara 28859
producing 28853
reflects 28847
thereby 28845
sting 28843
Mary 28840
programming 28840
humanity 28835
correct 28812
Follow 28802
ier 28785
mouth 28778
retirement 28755
rent 28751
terror 28738
summit 28726
surrounding 28717
7,@@ 28710
Mrs. 28707
Virginia 28695
equitable 28688
concluding 28683
frame 28677
han@@ 28673
700 28668
hate 28661
pol@@ 28651
systematic 28647
Darfur 28645
witness 28631
ratified 28621
labor 28603
pri@@ 28602
earned 28596
legally 28573
ba@@ 28571
atory 28570
commissions 28567
command 28564
ju@@ 28551
excellent 28550
collected 28534
substances 28531
liability 28529
flag 28520
waters 28517
clients 28514
promised 28507
investigating 28492
reintegration 28489
ta@@ 28487
s.@@ 28476
obvious 28468
Sc@@ 28460
Gi@@ 28459
1990s 28444
champion 28438
Joe 28433
charity 28425
bri@@ 28417
Cross 28413
banking 28407
Afghan 28404
identifying 28404
gate 28402
apartment 28399
Gar@@ 28396
Ti@@ 28391
complainant 28381
engine 28378
dissemination 28365
ko 28353
elsewhere 28330
allocated 28328
remarks 28326
escape 28320
ast 28316
Small 28312
Azerbaijan 28301
motion 28297
WHO 28295
Statistics 28285
obstacles 28285
wake 28268
lists 28266
promoted 28255
formation 28245
ow@@ 28243
e.g. 28190
behavior 28189
Decade 28185
jointly 28183
sections 28160
roll 28158
dates 28157
Initiative 28156
Monitoring 28156
awarded 28143
equally 28142
necessarily 28123
SA@@ 28112
30@@ 28111
globalization 28110
sight 28104
hom@@ 28077
substance 28076
Gra@@ 28061
allocation 28060
&apos;Ivoire 28050
Love 28042
false 28041
hasn 28036
exposed 28025
footage 28017
PA 28011
chosen 28009
UNESCO 28001
fallen 28001
wild 28000
balanced 27993
q@@ 27988
indicates 27987
subprogramme 27978
estimate 27977
Terrorism 27960
carefully 27958
coffee 27946
app 27940
lu@@ 27937
2018 27933
Hor@@ 27932
ach 27929
Refugees 27925
are@@ 27918
publications 27914
Ste@@ 27901
Ha@@ 27892
Taylor 27884
governor 27879
inspection 27873
emotional 27865
Bel@@ 27862
ory 27856
Reporting 27849
suffer 27843
na 27841
reservation 27837
sm@@ 27834
terrorists 27825
normally 27821
kinds 27815
ordinary 27807
execution 27789
ment@@ 27785
universities 27781
seized 27778
Mil@@ 27768
off@@ 27764
coalition 27736
Additional 27730
Defence 27726
permit 27718
--@@ 27717
Read 27710
Finland 27702
damaged 27702
promise 27698
suitable 27695
del@@ 27692
Do@@ 27683
Uganda 27678
movements 27670
Have 27669
supposed 27669
greatly 27658
earnings 27656
plenty 27655
zz@@ 27652
reserve 27646
MPs 27640
buying 27628
medicine 27625
Five 27621
1988 27615
dealt 27612
corner 27611
Movement 27607
acquisition 27599
cul@@ 27595
Though 27593
inc@@ 27593
captain 27585
Building 27562
sustainability 27559
nomination 27555
10,000 27535
paras 27531
sur@@ 27526
miss 27525
fat 27490
garden 27488
Côte 27482
Noting 27481
constant 27474
60@@ 27470
shortly 27470
residence 27450
apparently 27449
Airport 27438
Sun 27423
sugar 27421
controversial 27391
Ta@@ 27374
Partnership 27373
reconstruction 27370
IT@@ 27357
conservation 27355
soft 27348
Ohio 27346
Taking 27338
metal 27330
rival 27324
mountain 27308
occasion 27294
Election 27293
frameworks 27286
Bro@@ 27279
rely 27272
Museum 27257
CD 27253
branch 27250
War@@ 27239
split 27222
jail 27217
handling 27211
advocacy 27209
athletes 27209
Scientific 27182
marks 27180
offensive 27178
enjoyed 27164
apart 27162
oned 27154
tering 27135
novel 27129
CEO 27125
settlements 27120
Long 27113
Denmark 27108
Sub@@ 27100
cher 27085
Ca@@ 27083
multi@@ 27081
sees 27079
ick@@ 27070
sen@@ 27063
At@@ 27046
Super 27039
profits 27038
presidency 27032
dly 27029
solve 27023
dogs 27022
CE@@ 27018
kin 27012
Daniel 27011
reiterated 27008
tered 27006
dignity 26992
ro 26988
sel@@ 26982
moon 26968
Club 26952
ily 26939
sons 26939
ath@@ 26929
Far@@ 26918
biological 26910
No@@ 26908
inspired 26906
performing 26900
shopping 26899
ban@@ 26894
Venezuela 26890
lights 26890
acceptance 26888
county 26882
flights 26881
mixed 26870
Principles 26864
patterns 26842
import 26838
handle 26835
att@@ 26831
ce 26823
atic 26814
investigated 26813
worry 26811
protests 26805
Be 26794
tie 26791
stores 26789
Czech 26780
regarded 26780
11.@@ 26771
LA@@ 26757
Model 26754
pose 26748
definitely 26718
EC@@ 26714
ILO 26710
Climate 26708
oo@@ 26701
banned 26693
officially 26693
mothers 26681
á@@ 26680
Old 26672
Number 26659
00@@ 26656
ture 26656
Catholic 26648
UNODC 26648
begins 26646
Drugs 26626
She@@ 26621
Planning 26620
empowerment 26611
vo@@ 26597
Ger@@ 26577
dri@@ 26567
eligible 26565
customs 26542
polls 26534
Transport 26529
geographical 26526
Finance 26525
afford 26520
brings 26503
households 26498
eradication 26495
Operation 26493
Developing 26486
drafting 26479
outs 26476
tes 26476
alive 26462
tors 26458
recommend 26455
snow 26454
format 26447
coordinate 26442
Te@@ 26432
visiting 26424
Sri 26419
imprisonment 26408
watched 26408
Budget 26399
1st 26394
verification 26365
ster@@ 26364
fears 26362
cap@@ 26357
FAO 26347
gar@@ 26343
generated 26329
ourselves 26328
shut 26324
che@@ 26323
phenomenon 26321
cha@@ 26317
hoping 26312
exposure 26306
Land 26291
explanation 26291
Professional 26276
founder 26273
worried 26273
8,@@ 26266
convinced 26248
ward 26241
gathered 26240
Murray 26227
humans 26216
E. 26207
mention 26197
copy 26179
gro@@ 26170
&gt; 26166
appeals 26161
tons 26147
Bre@@ 26145
possession 26144
tical 26143
parliamentary 26136
constructive 26134
lock 26132
ini 26130
ov 26130
realize 26128
usual 26127
Francisco 26119
Nor@@ 26116
falls 26110
ICT 26094
Mat@@ 26075
busy 26073
guarantees 26068
pushed 26060
Peru 26052
classes 26049
Valley 26039
discriminatory 26027
earthquake 26024
Atlantic 26008
Che@@ 26004
Playing 25999
our@@ 25996
spokeswoman 25976
Costa 25973
conventional 25970
ently 25970
subjected 25958
transmitted 25934
Strategic 25925
Ni@@ 25912
claiming 25911
Algeria 25909
exception 25909
Pal@@ 25906
zero 25899
Han@@ 25883
Hol@@ 25880
Blue 25877
ee 25871
intellectual 25870
fy 25868
nationals 25866
parent 25858
delays 25849
reply 25846
degrees 25831
ticket 25830
retired 25828
pregnancy 25826
facilitating 25814
Val@@ 25811
sending 25805
episode 25793
Environmental 25789
thousand 25785
zed 25785
FBI 25779
Tony 25768
telephone 25766
reliable 25762
Barack 25761
alist 25754
topics 25749
accessible 25747
sick 25743
pan@@ 25722
tech 25721
Without 25710
3,000 25702
hall 25701
pa@@ 25699
conducting 25678
barriers 25674
ear@@ 25665
Judge 25660
solar 25658
Br@@ 25645
Trans@@ 25645
ological 25643
Pa@@ 25620
Stephen 25617
outlined 25611
professionals 25592
commit 25590
yn 25577
MO@@ 25573
Country 25571
mainstreaming 25558
mm 25547
bag 25543
Chi@@ 25536
replied 25534
bright 25521
Promotion 25515
segment 25503
yard 25501
fighters 25498
Euro@@ 25496
sized 25493
perpetrators 25489
contrary 25466
9,@@ 25457
land@@ 25446
acquired 25440
immigrants 25439
NHS 25434
employee 25431
Change 25424
conformity 25416
CS@@ 25367
fail 25349
commodity 25342
constraints 25337
ER@@ 25320
ye@@ 25320
functional 25315
strict 25314
Within 25300
birthday 25289
05 25278
accurate 25245
shots 25242
regardless 25237
Bl@@ 25223
Bal@@ 25220
forget 25207
Cro@@ 25197
Representatives 25196
coastal 25171
ities 25171
happening 25169
Calls 25164
oriented 25163
familiar 25160
budgets 25151
psychological 25147
expanding 25146
copies 25142
ish@@ 25137
120 25128
Croatia 25127
socio 25110
GOP 25107
Sol@@ 25106
stri@@ 25099
cited 25091
Resolution 25085
spoken 25079
Free 25073
pull 25070
rem@@ 25059
anger 25053
beauty 25044
moves 25038
missile 25027
tradition 25027
PR@@ 25022
repeated 25015
lift 25009
sters 25004
100,000 25001
teen 24999
mayor 24985
Self 24979
client 24972
Notes 24959
Muslims 24956
afraid 24954
safeguards 24943
Journal 24941
observer 24939
shock 24929
ished 24914
upper 24901
replacement 24899
Berlin 24894
festival 24880
Jackson 24878
dynamic 24876
adds 24873
Liverpool 24871
generate 24869
attorney 24868
zones 24865
resistance 24859
suggestions 24852
ama 24848
chances 24839
gaps 24837
tan@@ 24830
struggling 24828
900 24825
za 24823
signal 24820
continuous 24811
i.e. 24805
Comprehensive 24795
Ed@@ 24793
ocean 24790
aside 24781
unknown 24775
don@@ 24773
rac@@ 24773
PA@@ 24763
refers 24763
composition 24761
tied 24756
ri 24752
bra@@ 24751
han 24741
presents 24729
error 24719
listen 24716
productivity 24715
lots 24696
composed 24691
low@@ 24690
star@@ 24689
elderly 24687
VII 24663
supervision 24651
IP@@ 24649
judiciary 24648
farm 24646
prohibited 24635
associations 24625
angry 24621
stick 24600
CH@@ 24596
ces 24592
describe 24577
Page 24575
SE@@ 24567
hosted 24556
yer 24545
moments 24544
hel@@ 24542
squad 24540
solidarity 24539
fruit 24538
foster 24536
Communications 24533
gri@@ 24513
defend 24505
Dec@@ 24503
2nd 24496
til@@ 24493
Kelly 24486
demonstrate 24483
cool 24476
Timor 24475
ath 24469
Corbyn 24468
adjustment 24462
Men 24457
sanitation 24456
pur@@ 24447
izing 24431
surprised 24427
bul@@ 24424
Portugal 24419
obviously 24408
milk 24407
fee 24405
portion 24402
deputy 24397
jury 24390
fin@@ 24388
urge 24370
grateful 24362
saving 24362
Serbia 24361
drama 24357
12.@@ 24340
resumed 24340
Shi@@ 24333
ick 24325
assisting 24322
devoted 24316
subjects 24313
involves 24308
Pen@@ 24304
Task 24303
Perhaps 24273
corresponding 24272
Em@@ 24270
ville 24267
invitation 24261
ack 24244
employers 24243
Violence 24223
passenger 24217
talent 24212
Subcommittee 24211
Radio 24201
Chelsea 24196
register 24195
Head 24193
ation@@ 24189
cat@@ 24183
sorry 24182
failing 24172
unusual 24172
Can@@ 24171
cr@@ 24171
continent 24169
Nepal 24159
settled 24157
wedding 24153
Forms 24147
Accordingly 24139
ham@@ 24136
pages 24135
acceptable 24127
guaranteed 24105
WTO 24103
focal 24094
opposite 24088
seeks 24083
50,000 24078
premises 24078
a.m 24077
reveal 24075
citizen 24068
Ser@@ 24055
Official 24045
fa@@ 24042
FA 24020
Cambodia 24019
faster 24016
significance 24010
MA@@ 24004
remedies 24003
Mag@@ 24002
deemed 23986
Libya 23983
dependent 23977
01 23976
creative 23976
ours 23974
staffing 23973
exists 23962
preventive 23957
C.2 23947
2020 23944
EN@@ 23943
work@@ 23938
Yemen 23932
Sam@@ 23930
grand 23928
gay 23927
hum@@ 23923
cents 23922
likes 23922
societies 23920
ti 23919
Belarus 23917
factory 23916
slowly 23908
broadcast 23907
San@@ 23897
confirm 23894
Brisbane 23872
fac@@ 23869
Region 23848
ue 23841
requiring 23839
secured 23833
vulnerability 23832
bo 23822
ace 23817
withdrawal 23817
assi@@ 23810
troop 23806
matches 23803
wounded 23798
Win@@ 23793
Iranian 23791
meat 23785
Jewish 23779
harassment 23771
Anti 23770
attitude 23767
Por@@ 23763
Lake 23761
accompanied 23754
Sen@@ 23749
heritage 23748
tion@@ 23746
puts 23735
illness 23734
Ram@@ 23723
arrangement 23721
CBS 23718
Nairobi 23718
CA 23716
鈥 23710
awards 23707
recall 23699
semi 23696
Irish 23693
input 23690
apparent 23689
comparison 23686
CEDAW 23682
songs 23682
ake 23678
truck 23671
phones 23667
Fin@@ 23666
char@@ 23664
extraordinary 23659
removal 23658
Expert 23657
fu@@ 23640
zing 23634
actress 23617
Go 23616
abortion 23602
cu@@ 23598
Sam 23594
IT 23587
assistant 23577
Festival 23571
Nevertheless 23567
mal@@ 23563
targeting 23554
pop 23553
channel 23546
Beach 23541
ja 23539
viewed 23535
aspect 23522
feed 23518
Ru@@ 23513
iii 23510
reputation 23501
regards 23486
surveillance 23482
collect 23476
rail 23474
water@@ 23474
Awards 23466
mandated 23464
partly 23461
merely 23455
lowest 23453
ishing 23452
thinks 23449
infection 23445
delayed 23442
everybody 23420
wished 23403
ef@@ 23401
arrive 23398
gre@@ 23394
realized 23391
gan@@ 23387
advertising 23380
suddenly 23369
incorporated 23360
producers 23360
€ 23359
des@@ 23353
seekers 23340
Swiss 23337
PO@@ 23335
250 23330
por@@ 23329
Recognizing 23324
Standing 23323
preparatory 23317
activists 23312
plastic 23297
Maybe 23286
sharp 23284
Jan 23282
val@@ 23279
momentum 23274
Earlier 23271
unions 23271
sec@@ 23255
Hotel 23251
Port 23245
Armed 23244
contest 23241
em 23238
Youth 23237
ining 23235
quiet 23235
wages 23232
define 23225
diverse 23219
SA 23211
pped 23209
ce@@ 23200
root 23200
comfortable 23195
dismissed 23187
providers 23183
MA 23176
threatening 23175
assisted 23174
Watch 23173
Henry 23169
childhood 23166
Ocean 23164
genuine 23157
annually 23149
amazing 23146
enormous 23140
hor@@ 23133
ase 23123
smoke 23108
strikes 23105
0,000 23071
equ@@ 23066
depends 23064
Sun@@ 23061
artists 23060
tiny 23056
debut 23053
mor@@ 23048
sted 23039
mistake 23037
sponsors 23034
insisted 23026
Nick 23020
Observer 23015
ING 23012
Agriculture 23007
Senator 22998
Cur@@ 22996
guns 22987
consultative 22983
arrival 22978
Adam 22977
pres@@ 22972
Increased 22965
ine@@ 22963
forecast 22952
counsel 22951
Measures 22949
evaluate 22945
Lanka 22934
prospects 22927
vers 22926
Tim 22925
flexible 22911
Bor@@ 22905
arbitrary 22899
Er@@ 22890
Fu@@ 22876
gradually 22869
Emergency 22859
challenging 22856
critics 22844
questioned 22842
super 22841
Sports 22840
briefing 22840
tournament 22823
reg@@ 22821
accommodation 22818
ratio 22804
organ 22801
ich 22793
iron 22792
NPT 22787
ric@@ 22786
privacy 22779
resort 22772
renewed 22769
cat 22764
Capital 22761
1986 22756
ES@@ 22750
conviction 22750
Budgetary 22725
Hungary 22721
istic 22721
Turnbull 22713
maker 22709
prominent 22709
anticipated 22708
LA 22695
recalls 22683
symptoms 22678
v. 22673
Strengthening 22671
tea 22667
Peoples 22662
ered 22655
assembly 22654
disposal 22652
&apos;i 22647
Rubio 22644
utilization 22644
Miami 22641
1980s 22623
ple 22623
projected 22609
Roman 22605
tonight 22605
Edinburgh 22604
Data 22586
mix 22585
Cam@@ 22571
insufficient 22564
organisation 22564
trials 22558
Bulgaria 22545
cluster 22529
TS 22526
bn 22519
technique 22519
consists 22516
tre@@ 22516
hal@@ 22506
integrate 22506
ae 22496
wa@@ 22495
Informal 22494
peak 22488
mate 22484
flu@@ 22483
Palestinians 22473
serves 22469
transmission 22456
interaction 22454
wonder 22454
Coordinator 22448
smart 22448
Swedish 22446
holders 22445
lying 22443
ministerial 22442
explosive 22440
PM 22432
鈥@@ 22422
ular 22421
kitchen 22419
applying 22417
hydro@@ 22406
sum 22405
birds 22404
harder 22404
protesters 22402
Associated 22398
Fer@@ 22397
locked 22395
silver 22394
Ecuador 22392
ABC 22391
methodology 22386
unity 22383
breach 22372
Between 22366
bing 22366
bit@@ 22363
New@@ 22351
ain@@ 22346
walls 22340
OIOS 22339
os@@ 22339
Ad 22336
sey 22326
competence 22324
Ren@@ 22314
generations 22304
Elizabeth 22299
dramatic 22299
hoc 22296
ports 22288
uck 22284
signature 22276
totally 22272
Equality 22271
Mus@@ 22266
towns 22262
reserves 22241
honest 22236
Kate 22225
conclude 22213
alizing 22184
Jeremy 22183
alised 22177
Senior 22172
negotiation 22154
empty 22148
oul@@ 22142
bas@@ 22139
Guatemala 22131
impunity 22121
Photograph 22120
uncertainty 22115
talked 22114
careful 22113
prostitution 22111
respected 22099
roughly 22097
EC 22094
ron@@ 22088
Preparatory 22081
liberty 22078
native 22067
gged 22062
ises 22060
1980 22059
Activities 22058
om 22058
constitutes 22057
IF@@ 22053
organize 22048
ots 22039
collapse 22031
preparations 22030
West@@ 22026
S. 22022
blame 22016
bre@@ 22012
advised 22011
ist@@ 22011
tight 22008
mode 22004
dr@@ 22003
Game 22002
Editing 22001
Commonwealth 21991
ol 21987
villages 21987
Cuban 21980
mp@@ 21976
ga@@ 21962
1.5 21955
iled 21953
Investment 21950
Station 21948
hon@@ 21945
kick 21944
imagine 21942
Six 21939
ID 21936
retail 21935
3rd 21934
Major 21923
yl@@ 21916
schemes 21913
seminars 21911
RC 21909
ass 21909
of@@ 21908
Dutch 21902
ils 21896
Dem@@ 21871
Annual 21862
coordinating 21861
Ali 21860
NFL 21860
med 21859
forests 21857
Ki@@ 21852
Torture 21842
producer 21839
Sometimes 21837
Del@@ 21836
invest 21833
invasion 21829
recognizes 21827
LDCs 21825
inadequate 21823
bor@@ 21822
kes 21820
Stadium 21808
investigators 21800
complicated 21793
pitch 21789
Gold 21785
flexibility 21782
ect 21778
belonging 21775
Matt 21768
speaker 21753
closure 21748
Paragraph 21722
contemporary 21720
Main 21719
Rec@@ 21717
adverse 21709
ain 21694
rebel 21692
analysts 21686
lucky 21685
occasions 21685
Mexican 21684
lat@@ 21683
acy 21679
argue 21677
Matthew 21674
ades 21673
relevance 21670
underlying 21663
UPI 21662
uni@@ 21660
Us 21659
colour 21645
noise 21639
C.3 21627
Province 21625
difficulty 21625
Look 21623
ited 21619
Z 21612
Wal@@ 21611
Morgan 21610
Gr@@ 21606
reaffirmed 21600
bird 21595
Iowa 21594
lin 21592
diet 21591
gift 21590
Louis 21585
restricted 21583
zi@@ 21580
attract 21577
exit 21569
capture 21565
MI@@ 21562
ets 21560
bel@@ 21554
relatives 21549
Tokyo 21547
provinces 21540
brothers 21536
interventions 21532
ei@@ 21530
islands 21527
load 21526
inequality 21525
scoring 21525
crises 21517
Fifty 21514
compete 21503
blow 21484
Mechanism 21480
USA 21478
thoughts 21472
leg@@ 21463
mainstream 21461
celebrate 21436
Angola 21434
neck 21425
unclear 21423
sul@@ 21416
CN.4 21413
Did 21404
dle 21404
Pan@@ 21402
ON 21400
sounds 21400
mel@@ 21398
describes 21391
featured 21389
scandal 21384
ek 21378
ith 21374
.. 21373
Cre@@ 21373
referring 21373
ME@@ 21370
resolved 21367
Don@@ 21366
formally 21361
Statute 21356
Eritrea 21355
SO@@ 21352
rice 21350
AP@@ 21349
consistently 21348
explains 21323
Integrated 21312
pounds 21304
depend 21299
gg@@ 21295
Hel@@ 21291
assume 21291
throw 21286
Davis 21285
ws 21283
inventory 21280
clinical 21273
tures 21268
form@@ 21264
proceed 21263
tweeted 21263
du 21260
doors 21242
Which 21240
ease 21239
Out 21237
acted 21237
Au@@ 21233
print 21232
negotiating 21229
tensions 21228
notably 21220
embargo 21204
V. 21195
abandoned 21187
taught 21186
library 21185
saved 21183
pledged 21169
dic@@ 21164
bond 21159
Wilson 21157
joining 21150
airspace 21140
Web 21134
absolute 21128
burn 21124
constantly 21097
Bernie 21096
aging 21090
212 21087
flowers 21087
Others 21080
dozen 21064
sweet 21061
Treasury 21059
separation 21059
Kevin 21058
maternal 21058
backs 21046
Bon@@ 21030
Speaking 21028
NGO 21019
din@@ 21018
duration 21017
deliberations 21014
deficit 21012
Platform 21003
recording 20997
allowance 20996
Under@@ 20995
survival 20995
.2 20989
Pri@@ 20982
4th 20968
plate 20962
tries 20959
classified 20956
clothing 20954
Madrid 20952
shoulder 20952
Line 20928
Drug 20925
NATO 20919
grass 20907
stayed 20904
repair 20903
suspension 20899
wonderful 20897
dad 20896
Miller 20893
departure 20892
4,000 20884
derived 20875
tolerance 20875
fication 20872
ST@@ 20870
exploration 20868
11@@ 20864
TO 20861
win@@ 20853
Award 20830
gonna 20822
responding 20812
operated 20805
seasons 20801
Study 20793
ata 20788
legs 20777
museum 20776
Lin@@ 20764
circulated 20756
applies 20747
visible 20746
enti@@ 20743
mobilization 20741
ID@@ 20740
affordable 20738
Ford 20731
fled 20728
fought 20728
accountable 20726
translation 20724
reviewing 20722
waves 20713
inner 20705
ah@@ 20696
sponsored 20696
tribute 20684
undertaking 20684
surveys 20681
adopting 20680
gathering 20680
BC 20679
Video 20679
ü@@ 20679
Anthony 20677
shelter 20671
instructions 20670
exchanges 20666
gan 20666
Fo@@ 20659
hill 20653
typical 20652
feelings 20650
sad 20646
protocol 20645
ser@@ 20642
grants 20630
renewable 20630
assumed 20628
depending 20625
measured 20621
Area 20612
terrible 20608
monetary 20607
ideal 20602
Channel 20596
pot 20590
studying 20590
IN 20589
hits 20585
ances 20582
emails 20570
ket 20560
tens 20557
coherence 20543
Santa 20542
Ps 20541
unprecedented 20529
aggression 20526
chose 20524
09 20522
tables 20516
Similarly 20499
decides 20498
sch@@ 20493
,0@@ 20482
dra@@ 20479
integral 20478
pushing 20475
description 20474
extradition 20473
earn 20472
ballot 20471
allies 20465
tank 20457
sem@@ 20455
1985 20453
yellow 20449
ena 20442
Defense 20437
ups 20436
C.@@ 20431
í@@ 20429
capability 20427
formulated 20419
therapy 20419
sun@@ 20418
opinions 20416
1987 20409
weren 20404
Romania 20403
70@@ 20402
Des@@ 20400
autonomous 20398
Je@@ 20397
valid 20375
interviews 20370
finals 20367
frequency 20367
Sy@@ 20365
Up 20361
ong@@ 20360
ack@@ 20357
A.@@ 20356
transfers 20349
financed 20346
Ap@@ 20331
Lewis 20331
stra@@ 20316
noticed 20311
Mel@@ 20309
Hon@@ 20308
Series 20308
organisations 20301
relate 20301
restore 20294
Hamilton 20280
Char@@ 20275
harmful 20275
Michigan 20273
prospect 20270
satisfied 20270
Qatar 20264
UNOPS 20253
aggressive 20249
hunger 20248
tickets 20242
Real 20231
intense 20231
OK 20230
penalties 20226
modalities 20222
jump 20216
genetic 20214
rarely 20212
imp@@ 20207
favourite 20203
Alex 20200
Taliban 20195
AL@@ 20193
Simon 20192
steady 20185
destination 20183
drove 20183
pp@@ 20177
Kazakhstan 20152
Boston 20142
architecture 20138
Officers 20137
unilateral 20137
adequately 20134
book@@ 20133
prize 20129
Art 20113
Rem@@ 20113
clo@@ 20108
crossing 20101
Ministerial 20097
guests 20094
progressive 20094
Kyoto 20091
q 20087
dozens 20067
Unfortunately 20059
temperatures 20059
Reports 20054
guided 20053
Reserve 20041
Tunisia 20041
ö@@ 20038
stuck 20037
bio@@ 20036
ening 20036
Navy 20018
Music 20017
ancy 20012
Library 20010
lic@@ 20007
fairly 20006
hardly 20004
residential 20002
ultimate 20002
joy 19998
tourists 19994
seminar 19992
contingent 19991
detainees 19989
taste 19986
recovered 19980
depression 19978
ners 19971
enc@@ 19966
permission 19964
Little 19963
races 19962
Add.@@ 19959
blo@@ 19947
determining 19944
bills 19942
bedroom 19936
rer 19935
survive 19934
editor 19922
instances 19918
neighbouring 19910
deadline 19908
ye 19908
Sub 19900
radiation 19900
ao 19898
tim@@ 19898
answers 19897
ut 19872
PC 19859
advances 19854
Sar@@ 19853
vocational 19849
Later 19846
campus 19846
files 19845
venture 19838
ards 19837
cal@@ 19834
oring 19830
machinery 19828
Jean 19827
kin@@ 19824
pal@@ 19806
provincial 19805
calm 19804
sovereign 19804
Studies 19796
elling 19795
Cl@@ 19793
shoot 19793
fra@@ 19789
2.5 19774
computers 19774
appreciate 19769
oun@@ 19769
ari 19767
Amazon 19765
loo@@ 19757
channels 19755
citizenship 19751
CC 19741
AT@@ 19740
sor@@ 19728
travelling 19719
Show 19716
XX@@ 19714
gang 19710
vessels 19701
Libyan 19699
DNA 19696
municipal 19696
narrow 19694
essentially 19692
excessive 19691
Khan 19689
Ter@@ 19686
Joseph 19685
outreach 19682
dating 19681
sto@@ 19678
drought 19676
nominated 19675
impose 19671
mile 19670
impressive 19661
videos 19653
lets 19650
iPhone 19648
envisaged 19644
decent 19641
suggestion 19636
ole 19635
1967 19630
Industrial 19629
M. 19628
choices 19625
transaction 19625
lawsuit 19623
ris@@ 19623
considerations 19622
somewhat 19622
Sixth 19620
80@@ 19618
Sur@@ 19608
organic 19608
Employment 19605
winds 19603
railway 19601
maritime 19595
Marine 19593
smoking 19591
Frank 19582
SP@@ 19581
Islam 19576
sentences 19576
preserve 19568
ministry 19566
promises 19564
28@@ 19562
prosecutor 19560
iness 19555
Treatment 19545
transformation 19536
rebels 19531
lunch 19518
Jim 19506
degradation 19505
exhibition 19502
scenes 19492
Brazilian 19489
alternatives 19481
Final 19472
arbitration 19467
Jason 19466
ada 19466
Arizona 19464
IM@@ 19462
militants 19460
Mediterranean 19458
texts 19458
highlight 19452
parallel 19447
keen 19438
VIII 19430
http 19429
F. 19428
upcoming 19427
fate 19426
knee 19413
° 19409
Van 19406
commonly 19405
favorite 19403
pressing 19403
ow 19398
forums 19390
Dor@@ 19383
Next 19366
opponents 19352
observation 19342
mandatory 19337
mil@@ 19335
shops 19335
Pat@@ 19331
aring 19322
experiment 19320
medal 19319
districts 19318
sion@@ 19318
shi@@ 19316
pat@@ 19315
mid@@ 19309
Perth 19307
Hy@@ 19306
1982 19297
rit@@ 19294
permitted 19292
passes 19269
knowing 19267
C.5 19257
babies 19257
Cap@@ 19254
shirt 19244
ures 19243
ac 19242
defensive 19241
writes 19237
UNRWA 19232
fol@@ 19232
Ob@@ 19218
introducing 19218
by@@ 19214
meaningful 19208
Jesus 19197
Vietnam 19196
Glasgow 19194
journalist 19191
excited 19190
Acting 19180
pursued 19180
anywhere 19159
shoes 19159
stake 19155
ington 19147
Workers 19129
threw 19121
happiness 19119
Football 19117
Panama 19117
tired 19116
ron 19115
exclusive 19098
incentives 19098
ala 19097
yuan 19097
tel 19087
revolution 19086
Thank 19084
mercury 19080
25@@ 19075
5th 19068
Tor@@ 19068
May@@ 19067
explosion 19066
expects 19061
Crown 19059
itation 19059
Roma 19056
soul 19055
prevented 19051
raw 19049
breast 19045
mann 19044
Ju@@ 19040
advancement 19039
Hoc 19038
ums 19034
Oversight 19033
suspects 19025
shouldn 19023
Access 19006
mes 19006
laundering 19002
constitution 18996
jo@@ 18990
requesting 18988
Alliance 18978
Tanzania 18978
consecutive 18978
Everyone 18976
shadow 18974
sco@@ 18973
Against 18962
ranging 18962
strange 18958
Ghana 18955
musical 18953
Cas@@ 18951
6,000 18939
restaurants 18938
stolen 18937
Back 18927
Hal@@ 18923
poses 18917
Senegal 18915
everywhere 18915
Picture 18914
movies 18911
FC 18909
Rom@@ 18909
pay@@ 18909
200@@ 18905
DP 18904
gue 18899
buyers 18898
Fire 18895
Statement 18894
eless 18891
tis 18890
counter@@ 18887
lady 18882
divorce 18876
bon@@ 18875
Standard 18867
ammunition 18865
prisons 18855
tears 18842
Top 18840
boards 18836
Armenia 18832
fix 18830
Na@@ 18828
directors 18824
Bas@@ 18822
landing 18821
attending 18816
luxury 18816
Toronto 18815
ables 18812
volunteers 18810
HRC 18806
Reaffirming 18788
invite 18786
studio 18782
vic@@ 18780
remarkable 18774
sexually 18769
approve 18768
Peacebuilding 18767
retain 18767
pupils 18756
Governor 18751
Square 18750
ry@@ 18749
na@@ 18746
03 18739
distinction 18736
tically 18734
adjustments 18716
personality 18715
transnational 18714
Dra@@ 18707
Issues 18696
CRC 18694
keeps 18694
Jersey 18689
ams 18684
rocket 18684
stepped 18673
willingness 18671
smile 18658
reflecting 18657
Salvador 18655
expresses 18652
Sept 18650
Analysis 18648
Should 18647
Make 18638
6th 18631
1984 18628
Arabic 18627
defenders 18626
Uruguay 18619
condemned 18617
illa 18617
aling 18614
ella 18605
Would 18600
judgment 18600
shire 18599
Tar@@ 18593
ace@@ 18589
remedy 18583
Montreal 18582
intensive 18579
weekly 18578
tenth 18571
Excellency 18562
8th 18561
Whether 18561
asi@@ 18561
101 18558
Rica 18553
20,000 18550
fun@@ 18545
advantages 18543
Cleveland 18539
Bob 18537
Francis 18529
tional 18527
certificate 18525
Upon 18524
Fed 18507
.org 18504
settle 18501
rough 18492
fault 18491
hol@@ 18488
LE@@ 18487
Gulf 18481
Li 18479
commerce 18479
thy 18477
Chad 18472
fire@@ 18469
frequent 18466
dual 18463
06 18455
cultures 18455
bonds 18451
ministries 18439
AFP 18438
Auditors 18434
addresses 18424
xi@@ 18424
themes 18413
1970s 18404
trains 18402
Assessment 18400
Rev.1 18399
staying 18397
my@@ 18394
Tu@@ 18389
dominated 18388
Assad 18386
swimming 18381
crude 18379
classic 18378
Championship 18374
SR.@@ 18374
bil@@ 18369
DC 18364
Ted 18362
cease 18357
enforced 18357
130 18356
cap 18353
disciplinary 18353
tracking 18350
advisers 18346
literature 18345
OR@@ 18343
tal 18343
Guardian 18342
burning 18341
ined 18341
del 18336
1.2 18328
Ph@@ 18328
Palace 18320
focuses 18320
tru@@ 18318
rap@@ 18308
beer 18305
ica 18305
tone 18296
conjunction 18293
sman 18293
speci@@ 18292
freely 18291
contacts 18287
lan@@ 18285
prefer 18284
ranked 18274
commodities 18270
racist 18267
discovery 18266
meal 18263
Freedom 18257
prompted 18257
uniform 18257
app@@ 18255
Ban 18252
IX 18249
Nov 18244
arguments 18238
proven 18237
CC@@ 18234
ays 18229
cabinet 18228
kg 18225
attitudes 18223
liked 18222
Mul@@ 18215
mit@@ 18215
aps 18211
sol@@ 18209
Mail 18204
sle@@ 18204
eng 18198
documentary 18196
affects 18193
Mali 18187
intolerance 18175
rivals 18175
ji 18171
Constitutional 18169
reverse 18168
installed 18161
nutrition 18161
Interior 18160
ord@@ 18160
7th 18149
Attorney 18143
survivors 18133
suggesting 18114
hat 18112
painting 18101
Original 18097
imports 18097
prohibition 18095
prescribed 18086
roots 18086
kilometres 18083
roof 18076
sil@@ 18062
tension 18059
cup 18058
executed 18054
mitigation 18052
meets 18051
Sim@@ 18050
forming 18050
cy@@ 18048
De 18044
guess 18044
royal 18044
securities 18041
thrown 18037
somebody 18035
20th 18029
fies 18026
launching 18025
Welcomes 18024
Takes 18014
dressed 18014
im 18013
Hi@@ 18010
upset 18008
fre@@ 18004
27@@ 18003
tall 18003
Order 18002
acid 18000
revision 18000
Conservative 17994
Rose 17985
limitations 17985
Relations 17982
deb@@ 17959
Sarah 17954
exciting 17945
separated 17944
struggled 17942
Industry 17936
Alan 17930
hidden 17922
landscape 17920
firmly 17904
sample 17902
calendar 17897
disappeared 17895
Process 17893
stream 17890
interference 17889
alists 17886
consequence 17884
ST 17879
Encourages 17870
Intergovernmental 17870
succeed 17863
checks 17860
Progress 17858
Heads 17857
workplace 17855
sin@@ 17854
organizing 17853
ACT 17849
Reduction 17839
MS@@ 17835
wal@@ 17830
Pr@@ 17827
sectoral 17822
innocent 17821
favor 17820
thin 17817
approached 17814
graduate 17809
spo@@ 17808
blocks 17803
parking 17801
hazardous 17797
undermine 17792
salt 17791
stadium 17783
Guide 17782
concepts 17781
tin 17781
top@@ 17772
attractive 17770
bone 17768
Does 17765
fires 17757
C.1 17753
layer 17746
machines 17741
carries 17740
recognizing 17738
smooth 17738
counts 17737
lifted 17736
Tom@@ 17734
concert 17734
int@@ 17732
orientation 17722
tle 17722
sole 17721
Guidelines 17718
Pres@@ 17716
severely 17716
employer 17715
acc@@ 17714
ton@@ 17713
AD@@ 17708
pul@@ 17707
revenues 17706
Def@@ 17705
submissions 17705
amounted 17703
analyst 17699
dered 17699
beings 17689
engaging 17686
regret 17686
bombing 17677
ination 17663
pleasure 17656
tennis 17653
attracted 17652
legacy 17651
concentration 17649
Whit@@ 17648
Celtic 17645
routine 17641
disappointed 17640
answered 17635
commended 17632
loc@@ 17629
Dun@@ 17625
assessing 17616
ben@@ 17613
thirds 17611
onic 17607
clearance 17594
forever 17594
diagnosis 17593
ecting 17592
badly 17586
IC 17581
Doha 17576
ologist 17574
silence 17573
windows 17571
Le 17568
Mad@@ 17563
pursuit 17563
cou@@ 17550
accelerate 17549
ola 17544
boo@@ 17540
mobility 17539
accordingly 17536
pet 17535
consolidated 17534
Decision 17528
CR@@ 17519
sphere 17519
cooperative 17506
servants 17505
Could 17504
neighborhood 17498
ili@@ 17497
Recommendation 17491
attempting 17480
fe 17469
procedural 17469
Live 17468
reveals 17466
Get 17463
evolution 17460
calculated 17455
offset 17455
abuses 17453
Pursuant 17452
Pennsylvania 17450
adviser 17449
TE@@ 17448
viewers 17444
bun@@ 17442
honor 17439
Microsoft 17433
Sin@@ 17432
bin 17431
veteran 17423
bars 17419
Lam@@ 17409
restructuring 17408
Fl@@ 17405
ray 17393
med@@ 17388
accession 17387
Care 17383
Mars 17382
Fre@@ 17381
zer 17380
Provisional 17379
discipline 17371
recover 17371
Ly@@ 17368
ential 17368
Da@@ 17366
nobody 17362
specialist 17358
highlights 17353
balances 17345
110 17342
PS 17342
height 17341
excess 17334
02 17332
Inc 17320
junior 17317
whereas 17316
overnight 17312
ency 17308
flood 17306
Bridge 17303
observe 17303
compromise 17298
Bolivia 17295
Leicester 17294
Res@@ 17293
spotted 17290
adi@@ 17288
knife 17288
ately 17286
tracks 17286
equipped 17283
lam@@ 17281
Men@@ 17280
cho@@ 17279
eggs 17278
executives 17276
virtual 17274
briefly 17272
cheap 17272
liberal 17272
versions 17254
burg 17252
Alexander 17248
detection 17246
consolidation 17244
Dec 17240
Until 17238
foods 17236
Philip 17232
Brian 17224
Jamaica 17223
MS 17223
anc@@ 17221
08 17217
comp@@ 17207
displacement 17205
SC 17204
diagnosed 17204
Cook 17202
tragedy 17202
stance 17196
delivering 17195
destroy 17192
cruel 17189
compulsory 17187
1979 17182
persistent 17178
communicate 17177
transmit 17173
SBI 17172
Cle@@ 17169
mood 17166
partially 17164
NBC 17161
My@@ 17160
1981 17159
perceived 17158
eli@@ 17157
Hampshire 17138
visual 17138
reiterates 17134
hitting 17133
ail 17129
Patrick 17128
whenever 17128
outputs 17122
consultants 17121
spare 17121
Procedure 17118
select 17116
Proliferation 17110
receipt 17110
preferred 17109
biodiversity 17105
corporations 17096
ceasefire 17094
oning 17094
debates 17091
journal 17087
constituted 17084
occurs 17079
Rock 17070
Ban@@ 17062
lers 17062
IMF 17055
distinct 17051
9th 17049
sheet 17046
yed 17045
Tur@@ 17039
eling 17039
judgement 17036
deadly 17031
wore 17030
enabled 17029
accounted 17027
Poverty 17016
tribunal 17016
rein@@ 17014
Customs 17007
prosperity 17003
switch 17003
Appeals 17000
Film 16998
Mayor 16998
radi@@ 16989
predicted 16987
LO@@ 16986
strictly 16984
beaten 16982
RO@@ 16979
surge 16974
Twenty 16973
criticized 16967
Legislative 16966
History 16965
phrase 16963
Oscar 16960
helicopter 16957
controversy 16952
gh 16948
Avenue 16947
deprived 16947
hired 16947
ave 16942
notification 16939
Ross 16933
aviation 16924
avi@@ 16919
credibility 16918
politically 16915
existed 16910
lim@@ 16906
cream 16905
exceptional 16905
praised 16905
negotiate 16903
Op@@ 16901
ement 16900
Gordon 16898
Arsenal 16897
bike 16893
string 16893
opens 16892
IP 16891
basketball 16888
automatic 16884
exact 16884
Survey 16874
Liberal 16870
girlfriend 16869
Consideration 16864
dimensions 16860
necessity 16858
Golden 16852
TH@@ 16849
ashed 16848
margin 16848
scores 16846
indication 16845
Trafficking 16842
lit@@ 16839
CO 16838
dying 16838
licence 16829
pack 16818
ble@@ 16817
Tro@@ 16815
owed 16811
Counter 16810
jumped 16808
NE@@ 16806
branches 16804
DA 16802
writers 16789
Urges 16788
teach 16788
yn@@ 16788
1978 16786
IA 16785
soci@@ 16785
coherent 16779
discharge 16777
bal@@ 16775
Common 16771
fur@@ 16770
contractors 16766
cru@@ 16765
promising 16764
1.1 16762
racing 16760
anne 16758
eth@@ 16755
Stockholm 16748
backing 16743
decreased 16738
indicating 16738
personally 16737
salaries 16736
dish 16735
Black@@ 16733
Market 16733
modified 16733
proceeds 16729
carrier 16726
UNCITRAL 16722
entertainment 16722
Racial 16716
Sen. 16712
NASA 16706
bags 16705
tourist 16700
NO@@ 16698
operators 16698
liquid 16693
automatically 16691
samples 16690
Lady 16689
parameters 16684
transitional 16669
vacancy 16669
nu@@ 16662
Star@@ 16659
Cabinet 16652
justified 16652
viable 16652
peacebuilding 16649
Andy 16647
ie@@ 16647
Pu@@ 16643
overview 16642
Mosul 16640
suppliers 16639
resume 16634
ome 16631
tropical 16631
comedy 16630
Cape 16628
pound 16616
amed 16615
OECD 16611
CN@@ 16608
Point 16608
cleared 16607
subsidies 16604
appointments 16603
Early 16598
Polish 16595
ys@@ 16594
Sixty 16581
symbol 16571
withdraw 16568
defeated 16567
lar@@ 16562
appoint 16548
operative 16545
liabilities 16544
IG@@ 16542
favourable 16540
vis 16540
yield 16537
Philadelphia 16534
wor@@ 16531
fake 16526
customary 16525
speaks 16524
e.@@ 16522
survived 16520
dimension 16516
infected 16514
IR@@ 16505
arise 16504
Committees 16503
devastating 16497
asks 16496
Rob@@ 16484
sufficiently 16482
propose 16472
wise 16471
fisheries 16469
aci@@ 16461
funny 16461
operates 16460
IL@@ 16458
bury 16458
dale 16457
ston 16455
Lan@@ 16453
argues 16451
Occupied 16450
Fairfax 16444
titles 16440
Oct 16436
fil@@ 16428
jet 16428
robust 16427
Evaluation 16425
voter 16423
photographs 16418
Mother 16417
relates 16417
Michelle 16408
play@@ 16404
barely 16403
contents 16401
Conventions 16398
incredible 16398
chronic 16396
Resource 16387
bench 16385
venue 16382
Ash@@ 16378
linkages 16378
disclosure 16374
administering 16362
Cambridge 16353
19th 16352
guards 16339
105 16335
shareholders 16333
bet 16331
Cameroon 16329
quantity 16329
killings 16324
cope 16315
associate 16310
reads 16309
environmentally 16305
missiles 16302
interactive 16300
Much 16299
Super@@ 16295
ESCAP 16293
cameras 16289
mistakes 16289
Overall 16286
mortgage 16283
feedback 16281
incurred 16281
cop@@ 16274
incorporate 16266
Hum@@ 16264
chicken 16259
Come 16255
Corporation 16246
sudden 16239
listening 16227
vessel 16226
Emirates 16222
Delegations 16217
acquire 16209
routes 16209
skill 16202
shocked 16196
val 16196
Anderson 16195
hero 16191
rating 16189
forthcoming 16187
reductions 16181
Rangers 16178
ini@@ 16173
Kurdish 16163
Wang 16151
genocide 16145
sign@@ 16145
Electoral 16144
Officials 16144
pursuing 16138
YouTube 16137
unacceptable 16136
1973 16132
creates 16132
chi@@ 16129
stresses 16129
inhabitants 16126
Wor@@ 16123
dominant 16123
helpful 16123
Kennedy 16122
adjusted 16121
ison 16120
FA@@ 16116
dem@@ 16116
exclusion 16112
competing 16111
ide@@ 16110
euro 16106
Tim@@ 16104
senator 16102
Target 16101
daughters 16101
divisions 16101
demanded 16095
transmitting 16090
bottle 16089
winners 16087
orbit 16086
thin@@ 16086
moderate 16083
cable 16076
striking 16076
Ay@@ 16072
anxiety 16072
auction 16071
Seven 16069
exercises 16062
constructed 16057
fighter 16050
radical 16050
commander 16048
intent 16048
mere 16048
notion 16044
Standards 16042
championship 16041
continuation 16039
ater 16036
Mongolia 16035
SBSTA 16032
Provision 16029
mutually 16027
deposit 16021
repatriation 16020
airline 16013
retained 16012
Basic 16010
facilitated 16010
drinks 16007
Currently 16006
Adelaide 16003
ranks 16002
gather 15997
challenged 15993
kid 15993
evaluations 15992
hide 15988
Eric 15985
ids 15984
Culture 15983
bol@@ 15982
Week 15977
Town 15972
recruited 15970
ita 15965
demanding 15957
performances 15951
prejudice 15947
Moore 15946
clock 15945
blamed 15944
crazy 15942
Records 15930
spots 15928
toxic 15928
rest@@ 15919
golf 15916
23@@ 15915
ame 15913
ER 15912
comprising 15911
Bat@@ 15908
ome@@ 15908
boundary 15906
Cu@@ 15899
soldier 15891
eri@@ 15885
Housing 15881
interior 15880
Audit 15876
cargo 15876
CP@@ 15874
Me 15871
worthy 15871
Regarding 15870
antly 15869
screening 15869
Using 15868
Josh 15862
hadn 15853
breakfast 15846
crops 15846
teenager 15843
Uber 15840
nationwide 15838
dent 15837
offenders 15837
greenhouse 15831
debris 15827
Property 15822
plot 15819
Summer 15818
class@@ 15815
modest 15815
swe@@ 15815
rid 15814
bat@@ 15813
witnessed 15813
ere 15812
cy 15811
ken 15805
000 15804
ought 15800
damages 15799
maintains 15797
Mauritius 15795
disappearance 15791
coup 15789
entrance 15788
expense 15788
credible 15787
Developed 15785
juvenile 15783
teeth 15781
encountered 15780
Adviser 15777
WFP 15775
demobilization 15771
NBA 15769
poly@@ 15768
ough 15767
Cy@@ 15763
eng@@ 15763
complexity 15760
isolated 15756
vo 15751
manufacture 15746
realistic 15743
Consequently 15742
dy@@ 15739
landed 15739
lake 15736
Houston 15734
desk 15734
pu@@ 15732
visa 15727
fed 15721
pertaining 15718
pic@@ 15716
Asked 15713
tar@@ 15712
drafted 15710
Ty@@ 15707
Zimbabwe 15706
Migration 15705
formula 15701
ight 15701
Egyptian 15700
qui@@ 15695
valued 15689
hur@@ 15686
sy@@ 15685
virtually 15683
edition 15682
da@@ 15681
Tour 15680
oldest 15675
op 15666
Communist 15659
Arms 15656
Feb 15656
cer@@ 15655
friendship 15653
Nicaragua 15648
Slovenia 15644
Procurement 15638
exclusively 15638
analytical 15633
Lau@@ 15628
blind 15626
hi 15622
Green@@ 15611
portfolio 15611
attendance 15606
yl 15601
bread 15600
beating 15598
reporter 15598
blocked 15594
Due 15591
Uzbekistan 15591
www.un.org 15590
connect 15581
Exchange 15578
surprising 15575
gen 15574
1983 15573
ren 15569
ethics 15563
Cri@@ 15562
motivated 15559
acknowledge 15558
aya 15555
Jan@@ 15546
luck 15544
quarters 15544
holes 15543
sn@@ 15540
Jane 15537
Justin 15536
dust 15534
accidents 15529
26@@ 15523
DA@@ 15523
couples 15522
toll 15521
vary 15520
rolling 15519
buried 15518
magnitude 15517
contacted 15514
column 15513
stretch 15513
evil 15510
P.@@ 15503
ambitious 15496
Corruption 15493
Mari@@ 15490
arranged 15485
holidays 15485
ki@@ 15485
emphasize 15484
warming 15481
biennial 15477
gers 15477
ail@@ 15475
PRO@@ 15474
Dan 15473
tin@@ 15472
riding 15470
Mur@@ 15466
Out@@ 15461
intends 15456
Being 15452
server 15450
attributable 15449
Document 15448
Ombudsman 15446
restoration 15445
Diego 15435
Merkel 15435
ignored 15435
skilled 15433
Session 15432
Inspection 15427
bers 15426
designer 15424
GM 15414
politician 15414
rolled 15409
Age 15407
deny 15407
declare 15405
guest 15405
Harris 15400
partial 15398
arriving 15396
Oil 15394
measurement 15391
supportive 15391
reminded 15388
placement 15383
Macedonia 15382
duc@@ 15382
Colorado 15380
negotiated 15379
cas@@ 15375
operator 15369
objection 15367
Democrat 15363
discussing 15363
U.N. 15360
buyer 15360
consistency 15357
ner@@ 15354
ranking 15353
sho@@ 15353
inputs 15346
wastes 15344
hosts 15341
nose 15341
emp@@ 15337
celebrated 15336
anna 15335
furniture 15335
literacy 15335
wheel 15333
mph 15326
Corr.1 15322
exceed 15320
halt 15319
searching 15319
offshore 15318
EL@@ 15313
motor 15309
stein 15306
ko@@ 15303
ille 15302
hell 15298
electrical 15296
Natural 15295
sand 15294
Ku@@ 15292
collapsed 15291
alert 15288
ress 15288
monitored 15287
Duke 15283
tobacco 15281
Iceland 15277
recession 15273
economics 15268
ther 15268
brown 15263
translated 15261
ene 15247
07 15244
precise 15244
somewhere 15243
vis@@ 15242
timing 15240
Gre@@ 15239
ography 15235
substantially 15228
Educational 15225
angle 15223
ous@@ 15223
chan@@ 15222
AFL 15220
occupying 15220
GEF 15219
listing 15210
borne 15206
workforce 15203
Construction 15202
ened 15200
spokesperson 15199
adapt 15197
ium 15195
Invites 15194
plan@@ 15190
purchased 15173
Russell 15172
lah 15165
Chemical 15162
firearms 15159
epidemic 15158
logistics 15157
smo@@ 15157
Manhattan 15156
donations 15156
MDGs 15153
rugby 15147
ap 15139
dering 15133
risen 15120
uring 15119
111 15117
punished 15117
Outer 15116
oma 15108
dreams 15107
opponent 15105
ab 15099
Ian 15097
passage 15097
breaks 15095
Maria 15093
disorder 15087
bling 15085
platforms 15085
rental 15083
testimony 15080
replies 15079
Uni@@ 15074
Belgian 15069
inj@@ 15068
OS 15059
handled 15058
ailing 15050
Ji@@ 15049
bases 15047
ock 15044
administered 15042
runner 15042
shaped 15040
xenophobia 15035
963 15031
generating 15030
Sil@@ 15028
Kerry 15022
desperate 15020
Ir@@ 15018
uck@@ 15013
isation 15012
formulate 15011
pers 15007
Bissau 15006
Light 15003
SS 15003
UR@@ 15001
cloud 14999
complained 14999
shipping 14999
Disney 14989
elite 14984
chers 14982
basically 14979
Basel 14977
perfectly 14975
clarify 14973
add@@ 14972
Champions 14971
tape 14969
coordinator 14968
ss@@ 14966
advocate 14960
ink 14959
enn@@ 14957
Bowl 14952
pressed 14951
mountains 14948
Tory 14946
graphic 14945
benefited 14944
Jud@@ 14943
one@@ 14938
Nam 14933
rep@@ 14930
Sport 14925
Howard 14924
fold 14923
chest 14922
Lithuania 14919
invested 14917
beneficial 14915
Abu 14913
stroke 14899
W. 14897
characterized 14896
hosting 14896
D.C. 14890
Woods 14890
ali 14890
documented 14886
theatre 14886
Round 14885
wick 14882
Kal@@ 14880
possibilities 14880
Authorities 14878
int 14878
Dr@@ 14875
contractual 14874
evident 14872
indicator 14868
ales 14866
hin@@ 14858
Theresa 14857
eliminating 14856
scenario 14855
Slovakia 14854
excluded 14851
license 14848
protein 14848
unlawful 14846
Independence 14845
ases 14845
barrel 14844
Den@@ 14842
Arts 14840
eu@@ 14834
Jonathan 14831
golden 14830
Walker 14825
illegally 14824
Yeah 14822
meters 14821
acute 14818
circle 14817
break@@ 14816
expressing 14815
rounds 14807
packed 14804
Kh@@ 14800
refuse 14798
wealthy 14794
Cat@@ 14790
Mount 14788
conc@@ 14785
MORE 14782
conversion 14779
enjoying 14771
8,000 14765
featuring 14764
IV@@ 14756
Columbia 14752
spaces 14752
obtaining 14751
Yu@@ 14749
thick 14749
Gary 14747
attributed 14747
Barcelona 14746
prompt 14742
Night 14738
Gal@@ 14729
comfort 14729
Ur@@ 14727
rank 14727
consult 14726
separately 14726
oth 14725
Case 14724
citing 14719
lending 14719
mag@@ 14719
eller 14718
tower 14714
inated 14711
manual 14711
Key 14706
codes 14706
liaison 14706
lifetime 14706
Private 14703
Pope 14701
planes 14696
ashing 14683
attacking 14682
ound 14681
stat@@ 14676
releases 14668
Transitional 14664
AT 14658
gging 14657
unto 14651
considerably 14648
cooking 14648
accomplishments 14647
facto 14645
complement 14643
iles 14643
marry 14639
ox@@ 14636
bi 14635
defending 14632
cam@@ 14629
marking 14628
14.@@ 14627
oms 14627
lawmakers 14626
thereof 14626
Program 14621
Nothing 14618
agrees 14614
Puerto 14606
Graham 14605
Ten 14605
fatal 14604
13.@@ 14602
owns 14602
ca 14601
permits 14595
1970 14594
criminals 14593
neighbours 14592
rush 14589
Jennifer 14586
Vladimir 14586
centuries 14585
1975 14581
gy 14581
Application 14574
Statements 14574
Gl@@ 14573
vel 14571
Question 14570
1.3 14567
102 14563
Reform 14562
Date 14550
crossed 14548
safeguard 14548
deserve 14546
issuance 14543
disadvantaged 14542
24@@ 14540
sleeping 14540
solely 14540
spar@@ 14538
Vol@@ 14535
fleet 14534
placing 14534
battery 14533
pun@@ 14532
Wh@@ 14530
Oxford 14521
gun@@ 14519
merits 14518
jailed 14517
elaborate 14514
ries 14504
Gri@@ 14502
enforce 14500
sof@@ 14494
tier 14494
sh 14492
trail 14492
extrabudgetary 14490
collecting 14489
ens@@ 14489
impression 14488
Sec@@ 14486
Prize 14485
websites 14484
Coalition 14477
cry 14477
adi 14476
promptly 14473
explicitly 14468
councils 14466
dom 14461
Cs 14460
underground 14460
references 14458
locally 14457
Evans 14454
profound 14454
extending 14447
hat@@ 14446
homeless 14446
receives 14446
Cou@@ 14442
anda 14442
quit 14436
converted 14435
reinforce 14435
ó@@ 14434
Sky 14430
ashes 14426
Roberts 14425
funeral 14420
surely 14420
analyzed 14406
singing 14402
measuring 14400
servicing 14399
shore 14395
investing 14393
mum 14389
ira 14384
controlling 14383
140 14380
cont@@ 14380
organised 14380
accuracy 14373
patrol 14372
memories 14371
Kasich 14368
walks 14367
demonstration 14363
stly 14361
ony 14357
&#124; 14352
thorough 14348
arian 14344
mobilize 14341
usage 14341
Book 14340
ratify 14339
,@@ 14338
competitiveness 14333
Regulation 14332
diabetes 14332
newspapers 14332
ute 14331
Branch 14328
Viet 14326
Wa@@ 14326
parks 14325
fails 14322
nec@@ 14322
alling 14321
classification 14317
readers 14315
ich@@ 14312
chaired 14309
ush 14308
Montenegro 14307
securing 14307
tragic 14300
gent 14299
Least 14297
tured 14295
21st 14292
Allen 14292
bombs 14289
High@@ 14287
boats 14284
Jeff 14283
defining 14280
ze@@ 14279
a.@@ 14275
forcing 14275
lion 14274
physically 14271
hot@@ 14270
educated 14267
Recommendations 14266
deeper 14263
Charlotte 14262
admit 14261
Australians 14260
ji@@ 14255
algorithm 14250
TA 14248
1974 14247
tal@@ 14245
traditionally 14245
chart 14242
investor 14240
Mas@@ 14238
Gov. 14237
influenced 14236
arrests 14234
declarations 14231
immunity 14231
surplus 14223
surrounded 14223
pipeline 14220
counselling 14218
Ow@@ 14216
outbreak 14214
dro@@ 14207
Zambia 14206
let@@ 14205
conducive 14204
Forest 14202
nervous 14199
petition 14199
silent 14199
Unlike 14191
prof@@ 14190
Stewart 14189
tenure 14189
avoided 14187
1976 14185
quoted 14185
trigger 14184
FCCC 14173
Edward 14171
quarterback 14171
tab@@ 14171
cricket 14170
Faso 14165
1,0@@ 14161
checked 14160
Gen@@ 14159
ethical 14157
appealed 14153
foreigners 14152
Chancellor 14149
baseball 14144
admission 14142
printing 14142
hang 14141
Kardashian 14140
umb@@ 14139
brilliant 14137
ands 14136
Burkina 14135
healthcare 14134
run@@ 14134
flooding 14131
ples 14124
popularity 14123
consultant 14113
beneficiaries 14111
tory 14107
balls 14105
Ordinance 14104
ageing 14103
shortage 14103
curriculum 14101
facilitation 14096
stating 14094
Shar@@ 14092
ov@@ 14090
consisting 14089
Urban 14088
artificial 14085
hotels 14085
tip 14080
interviewed 14078
not@@ 14074
WA 14072
logical 14072
1960s 14068
anybody 14068
Researchers 14067
The@@ 14067
Pur@@ 14066
cancelled 14063
scrutiny 14062
intensity 14058
ura 14058
Interim 14055
Ka@@ 14054
touched 14048
tail 14042
elle 14035
globally 14022
immune 14022
pos@@ 14022
trapped 14021
Disabilities 14017
crashed 14015
swing 14013
autumn 14010
centers 14009
person@@ 14009
io 14007
ols 14007
row@@ 14003
municipalities 14000
minds 13999
Aug 13994
descent 13993
sum@@ 13992
divide 13990
raises 13988
Lar@@ 13984
exc@@ 13984
wet 13982
EP 13974
7,000 13971
installation 13971
vit@@ 13970
IPSAS 13965
Steven 13964
sli@@ 13959
ero@@ 13958
black@@ 13954
flo@@ 13946
contractor 13941
holder 13940
killer 13938
gam@@ 13937
peer 13937
counted 13934
loves 13932
Sel@@ 13929
casualties 13928
draws 13926
tangible 13923
Articles 13921
briefings 13921
regimes 13921
successor 13919
invites 13916
lesson 13915
Strip 13911
iv 13906
odds 13900
pen 13900
belt 13895
EA 13891
paint 13890
Ol@@ 13889
protocols 13887
logistical 13886
Penal 13885
smuggling 13883
unlike 13883
temporarily 13880
Commerce 13874
Mozambique 13869
intensify 13869
04 13865
1972 13864
Communication 13862
Conclusion 13862
gene 13859
Istanbul 13858
warrant 13852
ard@@ 13851
Opening 13850
spectrum 13850
ona 13849
assurance 13847
urgency 13844
Jews 13836
advocates 13833
affair 13827
30,000 13825
Organizations 13823
Vegas 13823
analyses 13821
spite 13821
aching 13819
103 13818
Base 13818
celebration 13817
slavery 13815
un.org 13814
Acc@@ 13810
inger 13809
beliefs 13808
USD 13803
advise 13799
Ak@@ 13797
connections 13796
emergencies 13792
counterparts 13789
Ass@@ 13787
Kin@@ 13784
aka 13780
medi@@ 13780
ections 13779
ial 13778
Combat 13777
everyday 13775
imperative 13773
announce 13772
laboratory 13772
expecting 13765
Thanks 13763
vin@@ 13763
ection 13760
Brooklyn 13759
UNO@@ 13759
emphasizes 13758
assured 13753
Castro 13749
printed 13743
confidential 13739
egg 13737
horses 13732
Albania 13726
foot@@ 13724
formerly 13720
aking 13719
label 13718
Bol@@ 13717
Str@@ 13715
Statistical 13713
reflection 13713
Front 13710
Malta 13708
Norwegian 13705
FDI 13697
mom 13696
termination 13696
TO@@ 13695
suspicion 13693
regrets 13688
Future 13687
verse 13682
Wisconsin 13677
travelled 13677
Voluntary 13676
Carter 13673
ins@@ 13673
rick 13669
manufacturers 13663
pin@@ 13659
CE 13654
rey 13649
inary 13648
G. 13647
cro@@ 13646
rage 13645
crop 13644
ey@@ 13642
dramatically 13641
outline 13641
sia 13636
Signed 13628
Capacity 13622
chocolate 13622
repeat 13622
1977 13615
ade@@ 13615
oted 13614
systematically 13614
Amendment 13613
Tajikistan 13613
Las 13611
aiming 13608
utilized 13608
dia 13606
Sk@@ 13605
Bay@@ 13604
alisation 13602
defended 13602
Malcolm 13599
protective 13597
describing 13595
nationally 13589
Osborne 13586
Mid@@ 13585
laugh 13585
BO@@ 13582
Somali 13582
restored 13582
harmonization 13579
abilities 13578
infections 13578
All@@ 13576
appreciated 13574
comparable 13574
assignment 13572
zy 13571
pure 13569
Organized 13567
sty 13567
neutral 13553
threshold 13548
Almost 13547
arch@@ 13546
philosophy 13546
enacted 13543
red@@ 13543
examining 13542
Rather 13540
Danish 13534
ette 13532
real@@ 13532
ep 13531
Friends 13525
Cooper 13524
Med@@ 13524
traditions 13519
utility 13518
throwing 13517
Charlie 13516
Production 13516
Holy 13515
pled 13515
Travel 13514
plain 13513
Ensure 13512
disseminate 13505
Contents 13503
ush@@ 13501
Welcoming 13496
Protocols 13493
naturally 13490
glad 13489
stopping 13486
alo@@ 13485
bles 13485
ologists 13481
feasible 13479
wars 13479
cake 13477
aftermath 13475
malaria 13471
pledge 13470
ounding 13469
brands 13468
frozen 13467
voices 13467
feeding 13464
Welsh 13462
desertification 13462
kicked 13461
180 13459
narrative 13459
ounded 13457
minors 13456
emission 13454
2.2 13452
Virgin 13452
asc@@ 13449
mi 13447
Bec@@ 13446
Sahara 13442
contracting 13440
Wars 13439
foundations 13439
urging 13437
trips 13436
Systems 13435
criticised 13435
environments 13435
earliest 13434
ware 13434
compound 13432
speculation 13432
od 13431
seed 13427
lifestyle 13424
generous 13423
landlocked 13423
unfair 13420
ila 13419
mut@@ 13418
poorest 13416
Baghdad 13410
prosecute 13410
None 13407
flew 13406
polling 13406
craft 13405
Indiana 13404
Alabama 13403
processed 13401
stand@@ 13397
suspicious 13397
boyfriend 13395
Tax 13392
welcoming 13391
alled 13388
courage 13388
detected 13387
fir@@ 13387
pride 13386
stan@@ 13385
ET 13384
escaped 13383
sect 13374
coat 13372
rushed 13371
Additionally 13366
Body 13365
Directorate 13365
belong 13363
Immigration 13362
updates 13362
appropriation 13359
infant 13359
Cairo 13350
pling 13347
Bangkok 13337
N.@@ 13337
Participants 13337
signals 13336
filing 13333
overwhelming 13333
Aid 13331
Monetary 13328
E.@@ 13327
H. 13326
economically 13326
expulsion 13326
ains 13323
Land@@ 13322
sits 13318
115 13317
1971 13317
2.1 13315
perception 13311
rows 13310
Participation 13307
joke 13304
Tibet 13302
mentally 13300
eman 13299
zo 13298
justify 13297
encounter 13295
Appeal 13294
Marshall 13290
combatants 13290
108 13289
chi 13289
son@@ 13287
capita 13279
adolescents 13278
AF@@ 13274
autonomy 13272
urgently 13271
Craig 13270
ank 13268
motor@@ 13264
BA 13263
Establishment 13262
kins 13262
detect 13258
publishing 13256
Sab@@ 13255
anyway 13255
removing 13252
McDonald 13251
tus 13250
ert 13245
ecosystem 13244
granting 13244
Nine 13237
Stra@@ 13237
boxes 13231
demographic 13231
supplementary 13230
Lastly 13228
stem 13227
advancing 13226
Princess 13224
threaten 13223
dol@@ 13221
circuit 13214
durable 13214
Works 13213
CON@@ 13212
activist 13209
Closed 13206
Shel@@ 13203
fragile 13203
3.5 13201
burst 13199
freeze 13199
Der@@ 13198
dge 13197
wildlife 13195
lifting 13191
sustain 13189
assurances 13188
followers 13188
104 13187
succeeded 13185
statute 13184
magic 13179
bly 13177
tonnes 13177
barrier 13173
Sum@@ 13172
15.@@ 13170
census 13170
chairs 13170
gratitude 13170
inv@@ 13170
rated 13170
outlook 13167
regulated 13162
1949 13160
esses 13160
integrating 13160
upgrade 13152
sty@@ 13150
alities 13148
domain 13148
Settlements 13147
fantastic 13147
arguing 13146
maternity 13146
Gun@@ 13143
blast 13143
pocket 13137
shed 13137
endorsement 13134
bail 13132
shell 13128
deprivation 13127
Kansas 13124
Mun@@ 13122
ading 13122
stipulated 13113
trac@@ 13107
AC.@@ 13103
OP@@ 13102
sparked 13098
fulfilment 13095
Thompson 13094
IO@@ 13091
eness 13089
hostilities 13087
thanked 13087
10th 13084
AC 13084
Figure 13084
soccer 13083
experimental 13078
cen@@ 13075
Christie 13074
breakdown 13074
applicant 13068
Facility 13065
meanwhile 13064
underlined 13058
lan 13056
resi@@ 13055
avoiding 13052
Antonio 13050
mediation 13050
Sector 13049
Luke 13047
Cli@@ 13043
Leste 13043
hatred 13041
Around 13040
Atlanta 13036
Dialogue 13028
FOR 13025
instability 13025
teenage 13024
Bahrain 13017
160 13016
passion 13010
pointing 13009
misconduct 13008
Price 13006
instruction 13006
marijuana 13005
refusal 12999
warnings 12997
nie 12996
flower 12992
Stone 12988
dness 12988
unnecessary 12988
NLB 12985
Efforts 12984
Mol@@ 12984
passport 12983
Design 12981
orally 12981
roc@@ 12981
hear@@ 12979
fortune 12977
feared 12976
tioned 12975
admissibility 12972
SU@@ 12970
accusations 12969
Presidential 12967
106 12966
Oklahoma 12964
dor@@ 12961
ED 12958
Airlines 12956
fax 12955
firing 12951
notable 12950
Organisation 12949
bacteria 12947
dam@@ 12946
Conduct 12943
painful 12943
concentrated 12942
interpreted 12942
rob@@ 12941
consolidate 12937
Bruce 12935
defendant 12935
incredibly 12932
AM 12930
settings 12930
lab@@ 12928
aker 12924
Bou@@ 12923
probe 12922
treating 12920
degrading 12919
fitness 12919
Decree 12918
publish 12916
but@@ 12913
unexpected 12913
Mis@@ 12912
designs 12910
independently 12910
insecurity 12910
ious 12910
band@@ 12908
Pra@@ 12907
errors 12902
Portuguese 12895
hunting 12895
Scientists 12894
Samsung 12893
cli@@ 12893
mainland 12892
concerted 12882
atives 12881
filmed 12879
amp@@ 12875
TR@@ 12871
longest 12866
ual 12865
whis@@ 12864
simultaneously 12857
Fra@@ 12856
preservation 12855
array 12854
Inf@@ 12851
fle@@ 12850
vegetables 12850
gear 12847
Disaster 12845
certification 12845
Tre@@ 12844
&lt; 12842
acti@@ 12836
Watson 12832
storms 12831
bot@@ 12828
Jamie 12823
tel@@ 12817
cleaning 12816
ym@@ 12815
Atomic 12810
valuation 12810
authorization 12809
entrusted 12809
analyse 12808
convening 12807
rence 12807
forgotten 12804
Biological 12802
ele@@ 12802
tended 12793
Thousands 12792
Vis@@ 12783
infl@@ 12783
Prohibition 12782
clarification 12782
Money 12781
macroeconomic 12781
nights 12780
conf@@ 12777
till 12776
mitigate 12774
Maryland 12772
Rev@@ 12772
accommodate 12771
aw 12767
reception 12767
clash 12756
discover 12753
memorandum 12748
rises 12745
mers 12744
Empire 12743
regulate 12742
seller 12741
obliged 12740
burned 12739
iling 12739
pornography 12738
Everything 12731
promotes 12730
hire 12726
withdrawn 12726
stops 12725
Birmingham 12721
UNIFIL 12717
filling 12713
hardware 12712
onal 12711
boundaries 12710
resigned 12710
Father 12707
alliance 12706
Zi@@ 12702
ratings 12701
rendered 12699
produces 12696
ensured 12694
Clark 12691
112 12690
doubled 12688
supplied 12688
Minnesota 12687
Relief 12687
hanging 12685
eradicate 12684
inhuman 12684
Mitchell 12683
ez 12681
respondents 12681
twentieth 12675
odd 12669
executions 12667
loose 12663
deposits 12660
rational 12659
TC 12654
Af@@ 12651
euros 12651
tremendous 12650
Tower 12647
itated 12647
wisdom 12647
MC 12642
conver@@ 12638
Max 12637
vin 12635
Seattle 12634
ado 12634
capit@@ 12633
rhetoric 12631
wil@@ 12631
wire 12625
Bow@@ 12623
photograph 12623
whereby 12620
Aviation 12616
Jose 12616
cle@@ 12615
characteristic 12612
farming 12610
precisely 12610
Hills 12606
tender 12605
assumption 12600
cheaper 12599
boom 12596
DE@@ 12584
impressed 12582
Investigation 12581
dangers 12580
enhancement 12580
Hur@@ 12575
Rad@@ 12568
chap 12565
roster 12565
ASEAN 12564
elaboration 12559
meals 12559
therein 12559
comprises 12558
dre@@ 12558
pleaded 12558
tile 12558
enshrined 12557
doc@@ 12554
subparagraph 12552
ODA 12547
I.@@ 12546
Pension 12543
125 12539
highway 12536
Windows 12534
spiritual 12534
Durban 12531
sharply 12530
ambassador 12527
commentary 12527
policymakers 12526
Law@@ 12522
painted 12522
complementary 12519
prevalence 12514
Dan@@ 12513
Personal 12510
Nu@@ 12506
coll@@ 12506
wed 12506
Dallas 12505
literally 12503
Besides 12500
una 12500
pes 12499
Goal 12497
liberalization 12497
Students 12496
107 12495
Dominican 12490
bathroom 12490
itch@@ 12490
ecological 12483
imported 12483
gaining 12481
ects 12476
strain 12476
chaos 12475
remind 12473
damaging 12472
met@@ 12471
accepting 12468
Was 12466
aligned 12466
TD 12464
decisive 12462
Ukrainian 12461
Fiji 12459
conscious 12458
Hague 12453
finger 12450
handful 12450
oli@@ 12450
audio 12449
regulators 12446
recipient 12445
Detroit 12444
dd@@ 12442
births 12441
thereto 12439
Never 12438
lovely 12438
telecommunications 12438
Grant 12436
prevailing 12436
fer 12435
ander 12431
Limited 12427
celebrity 12427
External 12422
je@@ 12422
si 12420
kets 12412
taxi 12411
stomach 12410
coaches 12409
Advancement 12407
Greater 12407
bulk 12406
inmates 12403
unt 12402
apped 12397
displayed 12396
ori 12390
CB@@ 12388
refrain 12388
audiences 12387
hunt 12387
comparative 12385
volunteer 12385
Wood@@ 12383
ig@@ 12383
interface 12381
predictable 12379
aming 12378
1960 12377
Proposed 12377
Fle@@ 12374
Parliamentary 12374
Benin 12371
dropping 12365
explicit 12365
pensions 12363
reserved 12362
preceding 12361
workload 12361
1.4 12356
XI 12355
cri@@ 12355
Cop@@ 12347
accomplished 12342
ax@@ 12342
pink 12341
scared 12340
mechanical 12339
breath 12337
coun@@ 12335
ani@@ 12334
ecosystems 12334
stored 12330
Harvard 12322
knocked 12322
L. 12321
convene 12320
appearing 12318
Ci@@ 12316
yen 12315
triggered 12311
ech@@ 12308
loud 12305
fuels 12302
inch 12301
16.@@ 12300
praise 12299
sporting 12299
budgeting 12297
ared 12295
initiate 12295
qualifications 12295
ero 12294
indirect 12294
syn@@ 12291
Xinhua 12290
claimant 12290
isolation 12288
fiction 12287
Insurance 12286
bears 12281
clause 12280
pin 12280
shake 12279
declining 12276
Cra@@ 12273
ok@@ 12267
AD 12263
pledges 12263
Anne 12262
Jimmy 12261
remembered 12260
Death 12259
pressures 12259
hard@@ 12252
Ken@@ 12251
experiencing 12251
engineer 12248
sophisticated 12248
alarm 12246
Honduras 12245
disaggregated 12245
dow@@ 12243
thereon 12243
ele 12242
ignore 12242
inches 12242
somehow 12241
Reaffirms 12240
universe 12237
experiments 12234
safely 12228
contributes 12227
Girls 12225
short@@ 12224
school@@ 12222
Hun@@ 12221
minimize 12220
readiness 12220
guiding 12217
limitation 12213
Net 12210
horror 12210
berry 12209
Ltd 12206
moder@@ 12203
xes 12199
Scheme 12197
gar 12196
governed 12196
ceiling 12193
norm@@ 12193
succession 12192
commissioned 12190
fertility 12189
businessman 12188
reward 12188
Moldova 12187
pel 12187
Sup@@ 12186
py@@ 12183
circulation 12182
blog 12181
disclosed 12179
1969 12177
continuously 12177
directions 12177
new@@ 12176
adapted 12173
liber@@ 12172
SP 12170
iser 12169
Estonia 12163
Haw@@ 12163
Commercial 12159
Telegraph 12156
Vo@@ 12155
scientist 12152
drone 12148
tanks 12147
resignation 12145
Gran@@ 12141
certificates 12141
differently 12140
calculation 12137
spl@@ 12135
Kam@@ 12133
Pro 12131
Good@@ 12122
Luxembourg 12122
adjust 12121
lor@@ 12119
snow@@ 12118
Latvia 12116
Recent 12115
Blair 12114
ounce 12114
Gor@@ 12112
Nobel 12112
UNIFEM 12112
Current 12107
Az@@ 12106
exploring 12106
lining 12106
hearings 12105
Saharan 12102
brutal 12102
incomes 12095
provider 12094
pays 12091
seas 12091
globe 12090
lasted 12089
broadly 12086
Pence 12085
posing 12082
Christopher 12076
Consultative 12076
Neil 12074
murdered 12073
pon@@ 12073
seemingly 12070
economist 12069
Hay@@ 12067
MONUC 12066
Fun@@ 12061
ger@@ 12060
unemployed 12060
recognised 12054
commented 12053
profession 12053
perspectives 12052
116 12050
cheese 12047
bold 12042
wishing 12042
Logistics 12040
appropriately 12040
reiterate 12039
stal@@ 12029
UNC@@ 12021
defender 12018
Matters 12017
lo 12017
Dave 12015
afterwards 12015
colonial 12014
kit 12008
Wright 12007
medicines 12002
rub@@ 12001
Gil@@ 12000
fines 12000
ll 11999
tissue 11999
continuity 11998
alien 11997
designing 11997
Ul@@ 11996
posting 11995
Air@@ 11994
satisfactory 11993
90@@ 11991
deciding 11983
button 11980
unified 11980
Theatre 11979
strongest 11977
crack 11976
intend 11976
anymore 11972
109 11970
inappropriate 11970
oph@@ 11970
ake@@ 11969
cook 11969
hostile 11968
Nevada 11967
amp 11962
fulfilling 11961
ulation 11960
Full 11959
wherever 11959
aks 11956
Off 11951
colleague 11946
fulfilled 11946
114 11941
Transnational 11940
arti@@ 11940
keys 11940
Eight 11937
transform 11933
fore@@ 11932
Ag@@ 11931
emerge 11924
Master 11922
substitute 11922
Sexual 11921
inevitable 11915
Victorian 11914
ven 11912
Trial 11910
mon 11910
tips 11910
legitimacy 11909
net@@ 11909
vol@@ 11908
chamber 11907
Arthur 11906
HR 11901
auspices 11900
CONF.@@ 11897
credits 11897
har 11897
Leave 11896
nit@@ 11896
franchise 11891
Nation 11889
females 11887
confirmation 11882
Level 11881
embrace 11880
dancing 11879
Wood 11872
spin 11872
arrives 11870
buses 11862
rescued 11860
Bir@@ 11859
gy@@ 11857
Rel@@ 11854
prohibit 11850
2.3 11846
choosing 11846
desert 11841
hou@@ 11840
Guard 11839
muscle 11839
alike 11836
Newcastle 11835
Rural 11833
Reporter 11832
script 11832
efficiently 11831
hair@@ 11831
incidence 11826
Mah@@ 11823
aire 11823
awa 11821
Set 11819
verdict 11818
wondered 11812
explosives 11811
ela 11810
bowl 11806
irs 11806
ills 11798
panels 11796
aspirations 11790
ew 11788
habit 11788
powered 11788
supporter 11788
HC@@ 11784
quar@@ 11784
assure 11783
influential 11782
qualify 11780
Equal 11776
Manager 11774
Dol@@ 11773
mates 11772
Anna 11770
occupational 11770
predecessor 11768
sisters 11768
billions 11764
Commander 11759
H.E. 11757
eff@@ 11756
Dev@@ 11755
fence 11751
loving 11751
Bad@@ 11749
developers 11742
akes 11741
ker@@ 11739
eline 11737
R. 11736
default 11736
finalized 11734
premium 11734
tz 11732
van@@ 11726
rers 11723
Battle 11722
CAT 11722
seeds 11719
menu 11715
Spe@@ 11714
ops 11714
Ker@@ 11713
ion 11712
spreading 11709
terminal 11708
bled 11706
nel 11706
appearances 11703
hearts 11699
2019 11696
18th 11693
gravity 11691
lease 11690
lessly 11688
Welfare 11687
wives 11687
acks 11683
earning 11683
stones 11682
HR@@ 11680
nevertheless 11677
methodologies 11676
loaded 11675
radar 11674
letting 11672
propaganda 11672
disappointing 11671
submitting 11667
establishes 11665
CF@@ 11663
Nazi 11663
presenting 11661
Border 11659
abused 11657
olds 11656
sta@@ 11656
fare 11653
militia 11653
realised 11649
explo@@ 11645
NEPAD 11644
ager 11643
cannabis 11642
icity 11640
innings 11640
thesis 11639
establishments 11635
tra 11635
mol@@ 11634
Effective 11626
Results 11623
traded 11616
1,500 11613
Angela 11609
Oregon 11609
tale 11609
ign@@ 11607
inspiration 11602
cm 11601
CN.9 11599
ote 11598
read@@ 11598
predict 11596
logic 11595
statutory 11594
remuneration 11590
lacking 11589
worn 11589
Sand@@ 11588
Lev@@ 11586
reject 11585
AI 11584
ails 11584
mac@@ 11584
wa 11583
atively 11582
Dal@@ 11580
ate@@ 11576
phases 11576
engines 11575
specialists 11575
artistic 11573
bru@@ 11573
Warren 11571
theft 11571
tide 11569
Red@@ 11568
wound 11568
deliberately 11566
thro@@ 11561
verify 11561
glasses 11558
PD 11550
Marco 11548
Intelligence 11547
Cru@@ 11546
exp@@ 11541
vaccine 11541
Punishment 11540
Ran@@ 11540
electro@@ 11540
admits 11539
fro@@ 11538
questionnaire 11538
treatments 11538
oceans 11536
113 11531
Again 11530
18.@@ 11529
doubts 11529
tactics 11528
SNP 11526
impartial 11523
und@@ 11523
clearing 11522
P. 11521
Has 11520
bits 11520
Dom@@ 11519
mented 11519
Rol@@ 11518
ear 11518
quest 11517
specify 11517
punish 11515
200,000 11510
len@@ 11508
mond 11508
Domestic 11505
tends 11505
Volunteers 11503
End 11500
Kor@@ 11498
desirable 11494
ication 11494
gifts 11492
Ale@@ 11490
transgender 11489
closest 11486
ón 11486
STA@@ 11484
Yugoslav 11484
veterans 11482
finishing 11478
pillars 11478
safer 11478
wanting 11478
proposes 11476
Tourism 11474
diamond 11474
Massachusetts 11471
aux 11469
obstacle 11468
rocks 11468
4.5 11466
prosecuted 11465
Sou@@ 11462
acking 11462
economists 11461
occasionally 11459
Namibia 11458
McC@@ 11455
Place 11455
solving 11455
Spring 11454
steadily 11454
density 11453
hiring 11453
uncertain 11452
chains 11448
li 11444
memorial 11444
tweet 11442
1961 11441
Neither 11441
Prior 11441
downtown 11441
stu@@ 11439
credentials 11438
filming 11436
founding 11435
COM@@ 11432
oo 11431
nurse 11429
1968 11428
sin 11428
Mountain 11427
impl@@ 11425
tendency 11417
dar@@ 11416
pulling 11412
replacing 11409
hip 11406
waited 11401
checking 11400
confusion 11398
ser 11397
fel@@ 11395
ket@@ 11393
Bell 11392
presentations 11391
applicants 11389
rot@@ 11386
ility 11385
9,000 11384
debts 11384
cour@@ 11382
navigation 11377
possess 11377
weakness 11375
Together 11373
eliminated 11372
exhausted 11372
22@@ 11370
feasibility 11369
limiting 11369
ok 11369
unpaid 11367
Hawaii 11365
frustration 11365
ishes 11365
mystery 11365
Commons 11364
Engineering 11362
credited 11361
sequence 11361
Bab@@ 11360
aki 11357
sake 11357
oxygen 11356
denial 11354
esti@@ 11354
reaffirm 11354
Rab@@ 11352
GE 11348
agu@@ 11347
networking 11344
meantime 11343
vation 11343
ink@@ 11341
questioning 11337
Nature 11334
wooden 11334
1.6 11333
munitions 11333
Giants 11330
tun@@ 11329
B.@@ 11320
completing 11320
pan 11320
creditors 11319
fossil 11318
Captain 11316
excuse 11315
click 11313
reaffirms 11313
rotation 11313
Maritime 11310
resilience 11310
illed 11309
inherent 11308
plat@@ 11299
reimbursement 11298
solved 11298
Ara@@ 11296
precious 11291
Presidents 11290
199@@ 11288
Anyone 11288
conspiracy 11285
kov 11277
lig@@ 11275
submits 11274
shipment 11273
Baltimore 11272
Nearly 11269
preference 11267
Governmental 11266
harsh 11266
， 11263
Ed 11261
Netflix 11259
optimistic 11259
males 11258
è@@ 11258
dist@@ 11255
habits 11255
marginalized 11255
may@@ 11251
Lisa 11249
Roc@@ 11247
offense 11247
incentive 11244
Performance 11240
commun@@ 11240
mineral 11235
stereotypes 11234
deploy 11233
tear 11233
Warner 11231
ensures 11230
meter 11229
subregion 11229
demonstrations 11228
TS@@ 11226
Wol@@ 11221
det@@ 11221
On@@ 11220
corporation 11219
linking 11219
wan 11219
Zh@@ 11218
airports 11217
robbery 11216
Pic@@ 11215
compare 11215
bow@@ 11214
hn@@ 11213
thers 11211
heating 11210
stunning 11208
Tam@@ 11206
Mine 11202
tunnel 11202
Zone 11201
beneath 11201
united 11197
eries 11196
delegate 11195
powder 11194
Fair 11193
strip 11193
Revolution 11192
shame 11192
mentation 11183
gran@@ 11180
TRA@@ 11178
tent 11177
responsive 11175
amend 11174
Hey 11171
duplication 11171
AB@@ 11170
enemies 11169
reliance 11168
climb 11164
entrepreneurs 11164
pricing 11163
Winter 11154
insists 11152
Pel@@ 11149
17.@@ 11148
respects 11148
Hen@@ 11140
117 11139
LE 11139
issuing 11135
Stat@@ 11134
continental 11132
118 11131
500,000 11131
reas@@ 11128
trucks 11128
Modern 11121
Leader 11120
champions 11118
transformed 11116
Off@@ 11114
gotten 11112
Robinson 11111
1945 11110
bitter 11110
distinguished 11110
costly 11109
nominations 11108
Raiders 11107
Rap@@ 11107
clarity 11107
lengthy 11107
Water@@ 11106
desired 11106
reinforced 11106
slight 11106
Campaign 11105
preparedness 11101
LC 11098
Bak@@ 11096
Metro 11096
liver 11094
iss 11092
Jar@@ 11090
cing 11089
custom 11086
Rob 11084
Morning 11077
picking 11075
accessibility 11074
tot@@ 11074
lawful 11069
chase 11066
gel 11062
resolving 11058
accord 11056
episodes 11055
ust 11055
qualification 11052
validity 11051
Bil@@ 11050
U. 11046
aqu@@ 11042
zi 11041
FO@@ 11038
neuro@@ 11037
Kyrgyzstan 11036
Sciences 11034
Very 11033
Helen 11032
evacuation 11031
Woman 11026
ambulance 11023
configuration 11022
redress 11022
micro 11019
bones 11018
smell 11018
Class 11016
Keep 11016
Greg 11015
ingredients 11015
tled 11013
versus 11013
supplier 11012
amm@@ 11011
asts 11011
billionaire 11011
striker 11009
Corp 11001
Kat@@ 10997
ides 10996
Pun@@ 10995
Copenhagen 10994
Leg@@ 10992
deleted 10992
grain 10992
ss 10992
trillion 10992
compilation 10991
fon@@ 10991
benchmark 10987
Promoting 10985
liable 10985
openly 10985
understands 10984
Flo@@ 10982
lighting 10982
mirror 10981
evolving 10975
graduates 10975
Garden 10973
engineers 10973
ora 10972
Yorkshire 10971
outlets 10971
Conflict 10970
cats 10970
grandmother 10970
Austin 10968
Jessica 10967
violate 10965
Gro@@ 10964
Arctic 10961
Reagan 10960
Wat@@ 10960
timetable 10960
geographic 10958
genital 10957
harmony 10956
varied 10956
ä@@ 10955
Aligned 10950
intensified 10949
theories 10947
Administrator 10946
intim@@ 10944
definitions 10941
hop@@ 10939
ices 10938
Margaret 10936
viral 10932
radioactive 10931
participatory 10926
ea 10925
Sher@@ 10923
ased 10920
convenient 10920
Niger 10919
UNMIK 10918
rum@@ 10917
yan 10917
Ahmed 10915
planted 10915
Boris 10913
Easter 10913
fastest 10913
RIGHTS 10911
Whatever 10910
struc@@ 10908
Christ 10907
Utah 10907
shocking 10905
Abbott 10904
hiding 10904
K. 10903
any@@ 10903
Hom@@ 10899
ho 10899
Phil 10898
conversations 10895
exercising 10894
TIONS 10893
arrange 10892
Heritage 10890
evolved 10890
Tan@@ 10889
Stre@@ 10888
S.@@ 10887
eck 10883
UNAMID 10881
aled 10878
counties 10875
pour 10875
displaystyle 10871
Calif 10869
TE 10869
erson 10868
Highway 10865
crowds 10865
march 10864
tia 10863
observance 10862
Ali@@ 10860
dian 10859
Baby 10858
Simpson 10857
enables 10857
satisfy 10857
photographer 10856
zes 10856
CP 10855
socialist 10854
ounds 10850
Girl 10849
mature 10847
122 10846
keeper 10845
asser@@ 10842
sand@@ 10842
metre 10840
Jam@@ 10839
drunk 10835
iner 10835
tackling 10832
teenagers 10832
dig@@ 10829
Met@@ 10828
analysed 10826
colleges 10824
lane 10823
sky@@ 10822
identical 10818
Ori@@ 10816
immigrant 10816
SecretaryGeneral 10815
mur@@ 10815
romantic 10814
Ga@@ 10812
tongue 10812
Syn@@ 10807
explaining 10804
mation 10803
Loc@@ 10801
Victims 10801
sit@@ 10800
Fisher 10797
prisoner 10792
Ball@@ 10788
lover 10787
2.4 10785
Jamahiriya 10785
Vincent 10785
ook 10784
registry 10782
pel@@ 10780
Medicine 10778
edi@@ 10775
Making 10773
hood 10773
rol@@ 10771
titled 10771
Ari@@ 10768
Judicial 10766
sir 10766
Hurricane 10764
crying 10764
Fort 10761
traveling 10760
pil@@ 10758
random 10758
Expresses 10757
Paraguay 10756
sni@@ 10756
stered 10756
ose 10754
Supplement 10752
utmost 10752
Bun@@ 10751
distant 10751
concludes 10749
Contributions 10748
à 10748
Zhang 10745
disputed 10743
updating 10742
thoroughly 10739
GO@@ 10738
dining 10738
hence 10737
raped 10736
Rico 10727
duly 10727
Contracting 10725
350 10723
thou 10723
midnight 10721
prolonged 10721
ected 10719
Television 10718
trick 10718
Thai 10715
committing 10714
fts 10714
Juli@@ 10706
realise 10704
subsistence 10704
auto 10702
reaches 10702
wash 10702
atten@@ 10701
Tak@@ 10699
Turner 10697
hopeful 10694
Sean 10691
45@@ 10688
accelerated 10687
realities 10687
Tal@@ 10686
databases 10685
Not@@ 10684
gur@@ 10684
emotions 10680
sson 10679
19.@@ 10677
oper@@ 10677
Institutions 10676
suff@@ 10676
Susan 10674
CT@@ 10673
upgrading 10671
port@@ 10670
collaborative 10669
religions 10661
bull@@ 10659
Looking 10652
Rus@@ 10651
astic 10651
enters 10650
eve 10646
inspections 10645
blin@@ 10642
excluding 10642
apps 10641
fostering 10641
oh 10638
3.2 10637
alls 10630
Higher 10624
explored 10624
nes 10624
pa 10623
Lane 10619
ician 10619
budgeted 10617
Throughout 10613
exceptions 10613
raid 10612
1966 10611
gol@@ 10609
Dou@@ 10607
forecasts 10606
Sav@@ 10605
indispensable 10605
dose 10604
Dubai 10603
tax@@ 10603
Stanley 10602
quake 10601
ref@@ 10599
Observatory 10596
enrolment 10595
lows 10594
Indonesian 10587
Vir@@ 10586
discount 10584
satellites 10581
summarized 10581
clinic 10580
mixture 10580
tains 10578
Wells 10577
Conclusions 10576
vacation 10574
Eve 10571
naked 10571
rats 10571
noon 10570
1963 10568
Hou@@ 10567
ound@@ 10564
tube 10564
MB@@ 10563
Powers 10559
endeavour 10556
mankind 10554
notified 10554
rie 10552
Mohammed 10551
SS@@ 10547
apping 10545
headlines 10541
Democracy 10539
Euro 10538
hurricane 10537
troubled 10535
0.5 10530
unveiled 10530
NP@@ 10529
锛 10528
structured 10527
diplomacy 10526
patent 10525
Mic@@ 10523
Roger 10523
outset 10523
Register 10521
compl@@ 10521
grey 10521
ences 10519
similarly 10514
with@@ 10513
combine 10504
rez 10504
ECA 10503
retro@@ 10501
sian 10500
yers 10500
Index 10496
Situation 10496
fingers 10496
Concerning 10494
ect@@ 10494
clashes 10493
Adams 10490
lit 10489
dges 10488
investigative 10487
Chen 10486
medication 10485
Envoy 10484
occurring 10481
awaiting 10474
twin 10474
Enterprise 10471
orange 10469
surprisingly 10469
vi 10469
evaluated 10468
recruit 10466
Hand@@ 10465
extremist 10465
ED@@ 10464
free@@ 10463
contested 10460
Southeast 10458
bra 10454
privately 10454
restrict 10453
syndrome 10453
Sales 10452
dirty 10452
fined 10452
Over@@ 10451
fla@@ 10450
Americas 10446
MP@@ 10446
youngest 10444
bow 10441
Chin@@ 10439
Responsible 10439
Pap@@ 10438
nursing 10438
Prison 10436
synergies 10436
izes 10435
Way 10434
Serious 10430
sym@@ 10430
une 10428
Xi 10427
NS@@ 10424
15,000 10423
span 10421
eds 10420
locals 10417
cruise 10416
Inside 10414
hub 10412
nar@@ 10412
justification 10406
optional 10406
scre@@ 10405
Kentucky 10402
tom@@ 10402
iss@@ 10398
packages 10398
IDB.@@ 10395
Families 10389
bel 10388
stic 10388
.Source 10387
clip 10387
Operational 10386
inning 10384
Add 10381
elled 10378
hun@@ 10375
Along 10368
Son@@ 10368
quarterly 10367
deserves 10365
publicity 10364
failures 10363
formulating 10353
tery 10353
Aff@@ 10352
Parker 10350
Agricultural 10349
MI 10349
Collins 10348
pain@@ 10347
materi@@ 10346
proceeding 10346
finances 10343
Jon 10342
hopefully 10341
licensing 10340
ective 10333
Yahoo 10331
cultivation 10331
lau@@ 10330
Bom@@ 10329
Kon@@ 10328
consulting 10327
loading 10327
laser 10324
shelters 10321
socially 10319
119 10318
1373 10318
reminder 10318
embassy 10313
wounds 10312
33@@ 10310
Secondly 10310
lined 10307
cement 10303
reliability 10303
Terry 10302
delighted 10302
farms 10301
spir@@ 10301
Py@@ 10300
grid 10300
bir@@ 10298
magnetic 10298
competitors 10297
Illinois 10296
tune 10295
ts@@ 10294
virtue 10292
cocaine 10289
Es@@ 10287
ailed 10285
retention 10285
hoo@@ 10282
Jay 10281
quantities 10279
Years 10276
approaching 10276
reasonably 10275
vowed 10275
ears 10274
refusing 10272
Aaron 10271
concentrate 10270
crimin@@ 10270
midfielder 10268
forestry 10264
assists 10262
PS@@ 10251
bias 10247
com 10246
maps 10242
Workshop 10239
fron@@ 10239
correctly 10238
livelihoods 10236
Ah@@ 10232
D.@@ 10230
Campbell 10227
eled 10222
centr@@ 10220
cycles 10220
belongs 10214
rear 10213
law@@ 10211
grandfather 10209
decree 10207
adherence 10206
Phot@@ 10205
PR 10204
exercised 10204
ric 10204
Catherine 10203
ced 10202
erie 10200
appraisal 10199
hungry 10199
incumbent 10199
Up@@ 10198
purchasing 10197
fal@@ 10195
F.@@ 10193
Kir@@ 10193
123 10192
sponsor 10191
emergence 10187
mad 10186
Prosecution 10185
house@@ 10185
Ray 10182
Dean 10180
40,000 10177
HO@@ 10177
bis 10177
Liu 10174
breathing 10173
Primary 10172
evacuated 10172
cut@@ 10171
doping 10171
slip 10171
Bar 10169
wan@@ 10169
Erdogan 10168
nation@@ 10168
part@@ 10165
Village 10164
panic 10164
shorter 10164
1964 10161
monitors 10159
cyber 10156
diver@@ 10156
Kel@@ 10153
Corps 10151
Oc@@ 10151
fleeing 10151
forensic 10151
merger 10151
ume 10151
warn 10149
allocate 10148
baseline 10148
Palmer 10140
brac@@ 10139
naval 10138
Competition 10137
gym 10137
Electronic 10135
marriages 10135
bat 10134
retailers 10134
arity 10133
minimal 10133
ity@@ 10132
sta 10131
Certain 10130
Cold 10128
corrupt 10128
supplement 10127
inability 10123
&apos;it 10122
af 10121
Dakota 10120
But@@ 10117
Mourinho 10117
aboard 10116
matched 10116
matic 10116
Lincoln 10110
eager 10107
Aberdeen 10105
CD@@ 10105
certified 10105
Schools 10104
deportation 10104
currencies 10100
Ye@@ 10099
charging 10099
helicopters 10099
intimidation 10096
torn 10096
Response 10093
practitioners 10092
chy 10089
assumptions 10088
contracted 10086
reactions 10086
ECE 10084
theoretical 10079
yp@@ 10079
celebrating 10078
35@@ 10076
deliberate 10076
essence 10075
superior 10075
Jr 10074
Taxonomy 10074
worrying 10072
beside 10071
suburbs 10070
alise 10064
you@@ 10064
Moon 10063
rubber 10062
vul@@ 10060
reluctant 10058
Fran@@ 10056
sentiment 10055
wings 10055
render 10054
UNMIL 10053
denies 10053
tran@@ 10053
militant 10052
ried 10052
Nor 10051
regi@@ 10048
Unity 10045
chip 10044
consist 10044
lab 10044
medals 10044
trauma 10044
Practice 10043
asing 10043
ME 10042
Nobody 10041
3.1 10039
loads 10038
dressing 10035
coaching 10034
Djibouti 10031
3.3 10030
vs. 10030
Bot@@ 10028
knock 10028
purchases 10028
Increase 10027
aster 10027
rel 10027
talented 10027
enthusiasm 10026
financially 10026
dil@@ 10025
nest 10023
sincere 10021
Austrian 10020
NG 10019
Dodgers 10016
Johannesburg 10013
reli@@ 10008
Conservation 10007
violating 10007
thereafter 10006
Seoul 10005
11th 10002
Cot@@ 10001
ev 10000
Produc@@ 9997
night@@ 9997
Ric@@ 9995
nic@@ 9995
Denver 9994
touchdown 9993
classical 9992
outdoor 9992
Accounting 9990
Regular 9990
Consider 9989
Brit@@ 9987
pillar 9986
100@@ 9985
grand@@ 9985
deterioration 9984
Cubs 9983
imposing 9982
athlete 9978
participant 9978
recognise 9978
oppose 9975
Tennessee 9974
compiled 9974
sheets 9974
vely 9972
Continue 9968
sie 9963
Goldman 9962
spatial 9961
disclose 9960
spell 9960
dou@@ 9959
donated 9958
geo@@ 9958
ghts 9956
clinics 9955
L.A. 9952
inquiries 9950
Obviously 9948
counting 9948
pass@@ 9948
Malawi 9947
jurisdictions 9947
17th 9945
Poor 9944
tless 9944
twelve 9942
ball@@ 9941
fri@@ 9937
bureau 9936
genes 9936
pc 9935
climbed 9934
stakeholder 9934
paintings 9933
obesity 9932
aine 9929
strive 9929
ula 9929
brave 9928
Wayne 9926
volatile 9926
reinforcing 9924
motivation 9923
1000 9920
fever 9920
gies 9917
ump@@ 9917
Zoo 9914
payable 9913
FIFA 9912
pronounced 9912
Diversity 9911
fathers 9911
oured 9909
sibility 9909
ians 9907
UNOCI 9904
ques 9901
鈥檚 9901
Samoa 9900
opposing 9900
121 9899
Phil@@ 9899
campaigning 9899
vacancies 9898
ozone 9894
cel@@ 9890
react 9890
Cour@@ 9889
ECOWAS 9888
confronted 9888
nurses 9886
consciousness 9885
policing 9885
ool 9883
exceeded 9882
robot 9880
pipe 9877
Yo@@ 9874
ffs 9874
show@@ 9873
freezing 9871
Amy 9870
Cancer 9870
turing 9867
broadcasting 9865
Laura 9862
compatible 9860
Kent 9856
GS 9855
Jur@@ 9852
mot@@ 9851
techn@@ 9851
stupid 9850
conscience 9848
lacked 9847
DO@@ 9845
eye@@ 9844
san@@ 9843
shar@@ 9842
researcher 9835
Century 9834
sav@@ 9834
OSCE 9833
frustrated 9833
drives 9832
rejection 9832
155 9831
ide 9831
mess 9831
spouse 9831
planets 9829
ree 9829
static 9829
convictions 9828
stop@@ 9827
Albert 9821
supermarket 9821
Rachel 9819
minded 9816
spacecraft 9815
theater 9814
collision 9810
Quality 9808
neg@@ 9802
positively 9801
viol@@ 9801
Soon 9799
Mand@@ 9798
Lou@@ 9797
toilet 9795
Madagascar 9791
Background 9790
Sw@@ 9790
fluid 9790
simulation 9790
qualifying 9788
Express 9786
Gold@@ 9786
consulted 9785
Danny 9783
borough 9781
confused 9781
evaluating 9780
CS 9779
Nik@@ 9773
Provide 9773
successive 9772
ICC 9771
metric 9771
Anti@@ 9769
struggles 9768
tle@@ 9768
AL 9767
tee 9767
Mir@@ 9764
boarding 9764
parental 9762
past@@ 9762
Sho@@ 9761
introduces 9760
pole 9760
demonstrates 9757
Call 9756
alternate 9755
dev@@ 9755
Pot@@ 9754
smartphone 9754
urs 9753
Barbados 9752
chemistry 9751
remainder 9751
resettlement 9749
CCTV 9746
RS 9744
oting 9744
Ken 9740
Lawrence 9735
iconic 9734
pt 9732
circum@@ 9731
inging 9730
installations 9730
bath 9723
lac@@ 9721
ago@@ 9718
cotton 9718
oke 9717
Kings 9716
Outcome 9716
classroom 9715
temple 9715
suits 9712
undertook 9712
module 9710
briefed 9709
literary 9705
bonus 9704
tariff 9700
overtime 9699
bert 9697
addiction 9696
ouse 9696
Cypriot 9694
lon@@ 9693
Things 9690
curb 9690
sorts 9688
fications 9686
ented 9685
Ten@@ 9682
Juan 9680
clouds 9679
odi@@ 9679
ration@@ 9679
ply 9676
gor@@ 9673
stamp 9672
yah 9671
cure 9670
trace 9670
loyal 9669
Give 9667
Perry 9667
freight 9667
nowhere 9666
appealing 9665
Castle 9664
tan 9663
arena 9658
summits 9656
Personnel 9655
^ 9655
Storm 9652
premiere 9652
patrols 9651
viewing 9651
collectively 9650
accurately 9648
speeches 9648
distress 9645
mounted 9645
Stuart 9642
fissile 9642
borrowing 9640
okay 9640
Oliver 9639
25,000 9638
Botswana 9634
tops 9634
jacket 9633
confrontation 9630
Liberation 9627
PAR@@ 9627
ris 9627
Embassy 9626
rev@@ 9626
carriage 9625
physics 9625
Address 9624
weaknesses 9624
mic@@ 9621
py 9618
Munich 9616
Ear@@ 9615
Income 9615
Kil@@ 9614
casting 9612
unchanged 9611
Hunt 9610
employ 9609
mus@@ 9607
UNDCP 9605
diversification 9603
trainer 9603
dging 9602
Mohamed 9598
floods 9598
Fro@@ 9597
dental 9595
gal@@ 9593
idi@@ 9593
Pas@@ 9590
crews 9590
acious 9589
Nelson 9588
curricula 9586
CB 9585
Down 9585
BS 9584
normative 9582
carpet 9580
abl@@ 9578
aying 9578
pot@@ 9577
swept 9577
weigh 9577
disruption 9575
bed@@ 9573
tation 9573
1.8 9571
Methods 9570
induced 9570
135 9567
Fil@@ 9567
amongst 9567
att 9566
rell 9566
par 9565
venues 9564
36@@ 9563
Emma 9563
Subsequently 9562
Eddie 9558
hyper@@ 9558
expectation 9554
wee@@ 9547
Cr@@ 9546
Som@@ 9543
Warriors 9542
caring 9541
legend 9540
acker 9539
unanimously 9539
PI 9537
Baker 9536
asp@@ 9536
congratulate 9536
inequalities 9535
pra@@ 9533
managerial 9530
underway 9530
copper 9529
eves 9529
manufacturer 9529
offs 9528
Kuwaiti 9527
enjoys 9525
chef 9524
Coach 9523
Eng@@ 9523
15th 9522
cattle 9522
stre@@ 9520
Ankara 9519
Indians 9519
Has@@ 9518
Memorial 9516
peers 9515
.The 9514
Plus 9508
priest 9506
Online 9504
Haitian 9502
sequ@@ 9500
sensitivity 9499
heart@@ 9498
Carlos 9497
esp@@ 9497
Beyond 9495
compounds 9494
GA 9493
graduated 9493
convey 9492
tial 9491
Language 9489
stabbed 9487
modernization 9485
Low 9484
inations 9478
EM 9474
postponed 9474
Damascus 9471
beds 9470
charter 9469
NRL 9468
quietly 9468
institute 9465
bite 9463
128 9462
Fr@@ 9461
taxpayers 9459
drops 9458
fran@@ 9458
hn 9458
objections 9458
poorly 9457
Duterte 9456
Gray 9456
grab 9456
translate 9455
illing 9454
ition 9453
Brad 9452
ories 9452
container 9450
lung 9450
streaming 9450
alignment 9449
Forests 9448
Golan 9447
editing 9446
intelligent 9446
Railway 9445
bie 9445
ald 9444
apology 9443
Comp@@ 9441
Hence 9439
convince 9438
Civilian 9436
Better 9434
Bishop 9433
stimulate 9433
pilots 9432
dioxide 9431
Keith 9430
Christ@@ 9429
Hope 9423
Haz@@ 9420
Mill@@ 9419
Pul@@ 9417
Writing 9416
Gall@@ 9415
Togo 9415
Type 9415
disappointment 9415
dear 9414
decolonization 9414
nets 9414
aded 9405
volumes 9405
here@@ 9404
ESA 9403
oot 9402
Louisiana 9401
Tw@@ 9399
character@@ 9399
renewal 9398
Risk 9396
gallery 9395
particles 9395
EPA 9394
itable 9394
Christians 9393
inconsistent 9393
ici@@ 9391
tations 9390
mentary 9388
neighbors 9388
chro@@ 9387
Lao 9386
clarified 9386
Hughes 9385
124 9384
1950s 9384
dumping 9384
hij@@ 9383
preserved 9383
1965 9377
Nar@@ 9376
landmark 9376
spectacular 9376
tren@@ 9376
Mobile 9375
achi@@ 9375
trainers 9375
spec@@ 9374
bands 9370
maximize 9370
readily 9368
300,000 9366
cher@@ 9366
colon@@ 9364
washing 9364
tively 9363
Romney 9362
WA@@ 9361
tap 9361
Fon@@ 9360
Views 9360
lor 9360
pub 9360
matching 9359
16th 9357
exam 9356
ock@@ 9356
diesel 9354
pets 9354
phen@@ 9352
leather 9351
Lab@@ 9350
rivers 9350
Congolese 9349
varying 9349
12th 9348
wards 9348
slipped 9346
attends 9345
seal 9345
Dur@@ 9344
tual 9344
resist 9339
airlines 9335
Tehran 9334
nings 9333
uncle 9333
Boeing 9331
170 9329
cell@@ 9329
indi@@ 9328
rebuild 9324
Pakistani 9323
UNCCD 9323
gases 9323
lob@@ 9323
ored 9323
power@@ 9323
discretion 9321
susp@@ 9321
segments 9320
quanti@@ 9319
disturbing 9318
Desertification 9316
Narcotic 9316
rings 9316
pper 9314
Lakes 9313
butter 9312
Aboriginal 9311
crown 9311
importantly 9311
warns 9311
differ 9307
patri@@ 9305
variable 9305
countering 9303
Ful@@ 9299
shifting 9295
prob@@ 9294
uphold 9293
mou@@ 9292
acknowledges 9290
thee 9289
1.7 9287
DS 9287
dom@@ 9285
nom@@ 9282
HS 9280
Hitler 9279
fame 9277
Consensus 9276
Unless 9274
path@@ 9273
amounting 9271
highlighting 9270
Boo@@ 9269
fierce 9269
mo 9268
nam@@ 9267
Il@@ 9264
flee 9264
Cla@@ 9263
itating 9262
slide 9260
leak 9258
Ang@@ 9256
allowances 9256
likelihood 9256
systemic 9252
endorse 9249
App@@ 9248
notify 9247
log 9245
there@@ 9244
defines 9241
fairness 9241
Paragraphs 9239
Stresses 9237
Account 9236
ares 9235
categor@@ 9234
13th 9233
Monterrey 9233
commenced 9233
tionally 9232
Rugby 9228
gment 9228
Janeiro 9227
Shakespeare 9227
swim 9222
Bernard 9221
Richmond 9221
communicated 9220
oon 9218
locks 9217
permanently 9216
dynamics 9213
qualities 9212
flies 9208
Clarke 9207
thouse 9206
Delhi 9205
Prof@@ 9205
construct 9205
sely 9204
log@@ 9203
tum@@ 9203
undergo 9202
asting 9199
contingency 9196
Russians 9194
elaborated 9191
Liechtenstein 9190
Too 9189
IR 9187
Jacob 9186
wrapped 9186
abide 9184
sheep 9184
underscored 9184
.C. 9183
alter 9183
comprise 9183
Westminster 9181
ault 9181
kiss 9181
revealing 9181
Exc@@ 9180
chat 9178
1948 9175
Colonial 9174
complain 9174
ump 9173
Lim@@ 9172
abandon 9171
vertical 9171
Arbitration 9170
Banks 9169
accorded 9169
projections 9168
shortcomings 9168
Consumer 9166
hung 9163
piracy 9163
suburb 9162
Entertainment 9161
grows 9155
cessation 9154
CRP.@@ 9151
Transfer 9151
gradual 9151
sk 9151
optimal 9150
factories 9149
insolvency 9143
itting 9143
kil@@ 9143
Consul@@ 9142
lay@@ 9138
quantitative 9138
churches 9137
heroin 9136
len 9136
,000 9134
chron@@ 9134
Potter 9130
owe 9130
cin@@ 9127
Pentagon 9125
Rams 9125
solo 9124
comple@@ 9123
side@@ 9123
adjacent 9122
chair@@ 9120
heated 9120
North@@ 9119
precision 9119
audits 9118
Registration 9116
resistant 9114
she@@ 9114
ema 9113
Socialist 9112
Ma 9109
heaven 9109
Companies 9107
predic@@ 9107
hazard 9104
teenth 9104
AS 9103
absent 9103
132 9102
Bowie 9102
bottles 9102
posi@@ 9100
Davies 9099
Douglas 9099
Duchess 9099
affiliated 9099
suspend 9096
vacant 9094
trusted 9092
Conferences 9091
altogether 9090
flash 9090
Turkmenistan 9089
caution 9089
individually 9084
dat@@ 9083
Cash 9078
nongovernmental 9077
Kabul 9074
ck 9073
Soci@@ 9072
sou@@ 9071
UL@@ 9070
Alaska 9068
meth@@ 9068
Sudanese 9066
careers 9066
corn 9066
congressional 9062
mar 9062
visibility 9062
Mess@@ 9060
Orange 9060
wording 9059
Bali 9058
breeding 9058
mas@@ 9057
gin 9056
complications 9054
dishes 9052
proceeded 9052
recalling 9051
teammates 9051
deserved 9049
UKIP 9048
refuge 9046
Hundreds 9045
Benjamin 9043
kn@@ 9043
kills 9042
GB 9041
colors 9041
4.2 9040
plea 9038
Mes@@ 9037
crowded 9037
streak 9036
diamonds 9035
Crisis 9034
Organizational 9034
thermal 9034
shifts 9033
Eli@@ 9032
mosquito 9030
153 9028
Improved 9028
ind 9028
Near 9027
mapping 9026
scholars 9026
Role 9025
Bet@@ 9024
Fa@@ 9024
bidding 9023
contaminated 9023
triple 9022
ano@@ 9020
onia 9020
blown 9019
Duncan 9016
JIU 9016
developmental 9016
Ox@@ 9015
indirectly 9014
laying 9013
ense 9012
worries 9012
Billy 9010
sup@@ 9009
Equ@@ 9007
Violations 9006
ato 9005
farmer 9002
unfortunate 9000
20.@@ 8998
AG@@ 8998
DR 8998
developer 8998
Franklin 8997
siege 8995
servant 8994
lum@@ 8993
beloved 8991
insist 8990
plates 8990
sacrifice 8990
Inspector 8989
bankruptcy 8988
Add.2 8985
ural 8985
CI 8982
rier 8978
Carson 8976
commissioner 8974
akers 8973
fabric 8971
surveyed 8970
fantasy 8969
polar 8968
presidents 8968
Maldives 8967
bin@@ 8966
distribu@@ 8965
graphy 8963
2.6 8961
5.5 8961
Illicit 8960
compelling 8957
gru@@ 8957
Mass 8956
rests 8956
Bearing 8954
Fur@@ 8953
aforementioned 8952
riot 8952
Murphy 8951
pit 8951
confront 8950
tribunals 8945
Qaida 8944
nur@@ 8944
Multilateral 8941
shifted 8939
stimulus 8939
Flint 8938
apo@@ 8936
Pet@@ 8935
gie 8933
Broadway 8930
artillery 8929
ech 8929
exceeding 8928
legislature 8926
traveled 8926
steam 8925
stro@@ 8925
thor@@ 8922
malnutrition 8919
countryside 8918
warehouse 8916
Milan 8911
dé@@ 8911
Galaxy 8909
confi@@ 8906
list@@ 8906
cab@@ 8905
Sco@@ 8903
arm@@ 8903
Traffic 8902
attracting 8902
Registry 8901
petrol 8899
mini 8898
sim@@ 8898
Command 8896
bridges 8895
rat 8895
instant 8894
relied 8894
undergoing 8893
volatility 8893
plo@@ 8888
Monaco 8887
confined 8886
intervene 8886
Pittsburgh 8883
Coll@@ 8882
Fol@@ 8881
defl@@ 8881
regulating 8881
unfortunately 8880
breaches 8879
shower 8877
fa 8874
incorporating 8873
receiver 8873
gently 8872
restriction 8871
Psych@@ 8870
Papua 8868
Late 8866
138 8865
Lakers 8863
fundraising 8863
iler 8862
lain 8862
prohibits 8861
announcing 8860
washed 8857
bility 8856
editorial 8856
alizes 8853
manifestations 8851
abolition 8848
tian 8848
laughing 8845
day@@ 8844
fi 8842
spheres 8842
Considering 8840
Tesla 8840
fort 8840
itch 8839
Recognizes 8838
futures 8838
steal 8838
Remember 8837
1951 8836
Barry 8835
Stars 8835
taxation 8835
aerial 8834
neglect 8834
roy@@ 8834
3D 8832
alistic 8829
Len@@ 8826
Thirty 8826
allegation 8826
inge 8826
irregular 8826
leaked 8825
nan 8825
secrets 8825
expressions 8823
Lat@@ 8820
Digital 8819
mul@@ 8819
orph@@ 8818
Ky@@ 8817
deck 8816
Calais 8814
imposition 8813
circled 8810
comic 8810
shocks 8810
ambition 8808
pump 8806
Ny@@ 8804
dubbed 8802
inadmissible 8798
Flight 8797
sentencing 8796
essing 8795
recovering 8793
Coun@@ 8791
inous 8791
Sheriff 8789
inci@@ 8789
manufactured 8789
aliens 8788
Cab@@ 8787
Supplied 8787
reign 8787
6.5 8785
chem@@ 8785
lap@@ 8785
sends 8785
synthesis 8785
Blake 8783
devastated 8781
stipulates 8781
134 8779
amen@@ 8779
flu 8779
stepping 8779
licensed 8777
thr@@ 8777
dependence 8775
cinema 8773
ort 8773
portal 8773
sixtieth 8773
ami 8766
hai 8766
Think 8764
defendants 8763
jurisprudence 8761
37@@ 8759
ello 8759
emotion 8757
believing 8756
disorders 8756
brush 8754
ender 8753
ells 8752
god 8751
interrupted 8751
sells 8751
CL@@ 8750
recurrent 8750
Metropolitan 8748
extremism 8747
Fal@@ 8746
ota 8744
logy 8742
screen@@ 8740
banning 8735
ESCWA 8732
blocking 8731
Rick 8730
fting 8729
renew 8728
Ros@@ 8727
disparities 8726
Bloomberg 8724
Bac@@ 8720
auto@@ 8718
lic 8716
assuming 8715
scep@@ 8715
veto 8715
HUMAN 8713
juice 8713
Tel@@ 8710
Estimate 8709
Programmes 8708
apartments 8708
ody 8706
bou@@ 8704
Fac@@ 8703
South@@ 8703
abolished 8703
ees 8703
Pay@@ 8702
Tell 8701
Fab@@ 8700
Secret 8699
leaf 8696
cancellation 8692
lips 8690
seize 8690
tariffs 8690
126 8689
verbale 8689
GA@@ 8687
WW@@ 8685
benchmarks 8685
kingdom 8684
floating 8683
threatens 8682
correspondent 8680
margins 8679
uncomfortable 8679
catching 8678
Tigers 8677
Manual 8676
Put 8676
Hai@@ 8675
LORD 8675
adhere 8675
EN 8673
grams 8672
Registrar 8670
pit@@ 8670
1962 8667
govern@@ 8667
CP.@@ 8666
aria 8665
mad@@ 8665
es.@@ 8663
moti@@ 8663
traders 8663
38@@ 8659
Develop 8659
intentions 8659
verified 8659
impartiality 8658
extends 8657
recycling 8656
ogy 8654
Living 8653
fitted 8653
inven@@ 8651
jo 8651
mud 8651
tele@@ 8650
14th 8646
coin 8645
weighed 8643
SMEs 8642
coordinates 8641
pharmaceutical 8640
ppers 8640
anity 8639
Ex 8638
tag 8638
ratifying 8636
audi@@ 8634
á 8634
30pm 8632
emo@@ 8632
lend 8631
attainment 8630
claimants 8629
cigarettes 8628
cyber@@ 8627
sooner 8627
Gol@@ 8625
repairs 8622
celebrities 8620
Chambers 8619
Lon@@ 8619
decor@@ 8618
livestock 8618
reader 8618
reb@@ 8616
anner 8615
menting 8613
34@@ 8611
Poly@@ 8609
Colin 8606
draw@@ 8604
ugly 8600
performs 8599
Dad 8594
reconnaissance 8594
injection 8593
sid@@ 8592
ç@@ 8592
iro 8591
Islamist 8589
Stop 8586
49@@ 8584
retire 8584
sauce 8584
acle 8582
Sky@@ 8581
Dublin 8580
utilize 8580
favorable 8579
standardized 8579
voluntarily 8579
climbing 8578
Doctor 8577
bronze 8577
shy 8575
apple 8574
militias 8574
merit 8572
dont 8571
efully 8571
slave 8570
multipl@@ 8567
asted 8565
vested 8565
Explo@@ 8564
suited 8564
Meetings 8561
lacks 8561
rs 8558
beaches 8557
drag 8555
Jon@@ 8554
Speaker 8554
cousin 8553
interactions 8553
origin@@ 8553
tsunami 8553
Beirut 8551
fulness 8550
steering 8548
teens 8547
aked 8544
centred 8543
flown 8543
holistic 8542
Doctors 8541
loses 8541
mod@@ 8541
Mob@@ 8540
shells 8540
solic@@ 8540
Cardiff 8539
quota 8539
cooperating 8538
ologically 8538
align 8537
shortages 8537
gi 8536
resumption 8535
Ann 8534
Os@@ 8534
ova 8534
proactive 8534
encing 8533
vendors 8532
gates 8531
retreat 8531
fitting 8530
Cox 8529
anim@@ 8526
deduc@@ 8526
flags 8526
Bahamas 8525
Presidency 8525
tense 8525
1950 8522
Prosecutors 8522
inevitably 8522
prone 8521
longtime 8520
tain@@ 8520
Germans 8518
certainty 8518
hall@@ 8515
implies 8515
Kra@@ 8514
acres 8514
alleviate 8514
vet 8512
abol@@ 8509
shelf 8509
gli@@ 8507
swee@@ 8507
Gene@@ 8506
Specific 8506
Camp 8505
incompatible 8503
prayer 8503
radic@@ 8503
sponsoring 8503
EA@@ 8502
Provi@@ 8502
Rou@@ 8502
relaxed 8502
Pierre 8500
pile 8496
145 8495
127 8494
Economics 8494
consisted 8494
insight 8494
bombings 8492
historically 8490
Stri@@ 8489
ml 8486
transported 8485
Cul@@ 8484
2,500 8483
Liber@@ 8483
legi@@ 8482
mice 8482
aches 8481
celebrations 8478
tened 8478
uss 8478
Dam@@ 8476
Tru@@ 8474
throat 8473
beef 8471
ticism 8471
7.5 8470
harmonized 8469
rookie 8469
129 8468
chlor@@ 8468
persuade 8468
CDC 8465
Guil@@ 8465
marital 8465
void 8463
fast@@ 8461
Newton 8460
Alice 8459
lett 8458
ature 8456
Heart 8452
earmarked 8452
enger 8452
asleep 8451
bush 8451
destroying 8451
judged 8451
norm 8451
grades 8450
relocation 8449
donation 8448
eventual 8448
recruiting 8448
INF 8445
fiftieth 8445
holy 8445
bunch 8442
Qaeda 8438
mobilizing 8437
Argentine 8434
ling@@ 8434
searched 8434
irrespective 8432
bullet 8431
Bolivarian 8430
designation 8430
slowdown 8429
Direc@@ 8428
purely 8428
revolutionary 8428
Havana 8426
releasing 8426
yields 8424
diplomats 8421
Reg@@ 8419
examinations 8419
Citizens 8418
Nathan 8418
adventure 8418
exemption 8418
Les@@ 8417
albeit 8415
revol@@ 8415
ession 8411
McCain 8409
offender 8409
voiced 8409
Ele@@ 8405
atics 8405
wat@@ 8405
Key@@ 8404
Ther@@ 8402
Vill@@ 8402
specially 8402
mild 8400
Amnesty 8398
Percentage 8397
Ze@@ 8396
wheat 8396
CN.@@ 8395
News@@ 8395
Pon@@ 8395
kindly 8395
circles 8393
eligibility 8393
hostage 8391
resp@@ 8391
án 8391
flowing 8390
stam@@ 8390
statue 8390
lip 8389
packaging 8389
Mississippi 8386
coupled 8386
road@@ 8385
Edwards 8384
connecting 8384
fier 8383
tours 8383
ud 8383
undoubtedly 8383
Athens 8382
redeployment 8382
cancel 8380
Mandate 8377
convert 8377
shoulders 8376
sealed 8375
attraction 8374
jud@@ 8371
Son 8370
eleventh 8370
Bus@@ 8369
Fam@@ 8369
folk 8368
ache 8367
UNITAR 8366
routinely 8366
undermined 8363
lik@@ 8358
oming 8358
proclaimed 8358
Bran@@ 8357
Bhutan 8356
tles 8356
IL 8355
guaranteeing 8355
stimul@@ 8355
viewer 8355
Pyongyang 8354
inhi@@ 8354
о@@ 8354
Morris 8353
promulgated 8353
Fel@@ 8352
minim@@ 8352
recipients 8352
tionist 8352
Similar 8350
castle 8348
unc@@ 8348
4.3 8346
Geor@@ 8346
critic 8343
zoo 8342
suc@@ 8340
toys 8339
Economy 8338
Ve@@ 8338
Enhanced 8336
nt 8336
Reid 8334
aired 8334
far@@ 8334
stretched 8333
chancellor 8332
privilege 8332
attain 8330
aser 8329
bell 8329
bloody 8329
fits 8329
hydrogen 8329
privileges 8329
commencement 8328
shirts 8327
itz 8326
accomplish 8325
deci@@ 8324
assaulted 8322
vations 8322
optimism 8321
vac@@ 8320
lodged 8317
Fish 8316
anxious 8315
graduation 8315
withdrew 8315
fers 8314
Guyana 8312
ideological 8310
listened 8310
allocations 8309
Ry@@ 8308
sciences 8308
Nonetheless 8307
Far 8306
vent 8305
Governance 8304
Decolonization 8303
Try 8302
nerve 8301
wind@@ 8301
Main@@ 8299
chapters 8298
neighbourhood 8297
aggregate 8296
civilization 8295
uranium 8295
excitement 8294
vy 8294
Gam@@ 8293
spouses 8292
Sony 8290
Yang 8290
Likewise 8289
kilometers 8288
tortured 8288
spe@@ 8286
metals 8284
battles 8283
BB@@ 8282
131 8281
alarming 8281
architect 8281
Paper 8280
Serbian 8280
ured 8277
Marie 8276
GP 8275
Trinidad 8274
broadcaster 8274
enrolled 8273
institutes 8271
delicate 8270
tism 8270
advocated 8269
SCO 8268
opera 8268
ied 8267
tribal 8267
Cum@@ 8266
imagination 8266
Ontario 8265
ox 8265
set@@ 8265
gener@@ 8264
U.S.-@@ 8263
weaker 8263
aj@@ 8262
mal 8261
bizarre 8260
preserving 8260
vocal 8260
AM@@ 8257
Happy 8257
Mauritania 8257
bet@@ 8257
grabbed 8257
essed 8256
Substantive 8255
bla@@ 8253
wit@@ 8252
fusion 8251
0.7 8249
clean@@ 8249
Lower 8248
Roy 8248
Bul@@ 8246
academy 8246
branded 8246
dawn 8246
gardens 8246
long@@ 8245
vic 8245
Carrie 8244
parade 8244
accompanying 8242
cried 8242
incoming 8242
plight 8240
utes 8240
anch@@ 8239
opted 8239
author@@ 8238
inquest 8237
umbling 8235
addi@@ 8234
Check 8232
Recently 8231
dan 8231
Sm@@ 8229
exclude 8228
itor 8228
warfare 8227
182 8222
scenarios 8222
awful 8220
ankle 8219
realizing 8219
133 8217
Masters 8216
darkness 8216
hygiene 8216
carriers 8215
linguistic 8215
simul@@ 8215
Nice 8213
recipe 8213
Sul@@ 8211
igh@@ 8210
Rail 8206
Sti@@ 8206
inate 8206
discusses 8205
HD 8204
outrage 8204
trailer 8203
scar@@ 8202
Jake 8200
libraries 8199
anonymous 8198
Maintenance 8197
inheritance 8197
settling 8197
weird 8196
Bryant 8195
WG@@ 8195
basket 8195
Dow@@ 8194
Pass@@ 8190
Promote 8190
dam 8190
Integration 8189
destructive 8186
fruits 8186
les@@ 8186
playoff 8186
Sor@@ 8185
Solomon 8184
heroes 8184
Nigel 8183
breakthrough 8182
occurrence 8180
atomic 8179
2.7 8177
Lions 8176
door@@ 8176
penal 8175
wai@@ 8175
Bru@@ 8174
intimate 8174
palace 8173
ram@@ 8173
time@@ 8172
tioning 8172
prompting 8171
LGBT 8167
operation@@ 8166
Coordinating 8164
bullying 8160
hes@@ 8159
Ronald 8158
Tokelau 8158
fights 8158
corrections 8157
Accounts 8155
IOC 8155
sympathy 8155
Six@@ 8154
explanations 8153
Foster 8150
grati@@ 8149
cooked 8148
consequently 8147
Nic@@ 8141
reck@@ 8141
Growth 8140
Missouri 8140
temp@@ 8140
calories 8139
Av@@ 8138
tious 8137
prohibiting 8136
rooted 8135
comprised 8130
proposing 8129
tow@@ 8128
Everybody 8125
ridiculous 8125
year@@ 8125
Racism 8124
ener@@ 8124
min 8123
Pop@@ 8122
10,@@ 8120
Tribunals 8120
360 8118
bare 8118
Subprogramme 8115
confidentiality 8114
Phoenix 8110
declaring 8110
toy 8110
xed 8110
arly 8109
ja@@ 8107
reduces 8106
ept 8105
hazards 8103
refriger@@ 8103
Emily 8102
Learning 8102
colours 8102
ix 8101
bes 8099
compensate 8099
atal 8098
livelihood 8098
alt 8097
Apart 8096
modification 8095
pertinent 8095
bon 8093
func@@ 8093
erosion 8092
cognitive 8091
precedent 8091
CIA 8090
Direct 8090
civic 8090
dimensional 8087
sel 8087
Orleans 8086
reversed 8086
4.1 8084
launches 8084
optical 8084
transboundary 8084
OAU 8083
cock 8081
invoked 8081
unite 8081
staged 8079
cord 8078
Kaine 8076
su 8075
Kan@@ 8074
Spi@@ 8074
hike 8074
alty 8071
successes 8071
repl@@ 8070
glory 8065
imminent 8065
linear 8065
respecting 8065
electorate 8064
modern@@ 8064
surrender 8063
endangered 8062
prescription 8061
tooth 8061
matrix 8060
acceded 8058
filter 8058
Stock 8056
decentralization 8056
exchanged 8053
exploit 8052
infectious 8050
contributors 8049
distinctive 8049
Fir@@ 8048
inviting 8047
otted 8046
Conn@@ 8045
ader 8045
rainfall 8045
screens 8045
Xi@@ 8044
unhappy 8044
lock@@ 8041
Ple@@ 8039
Vancouver 8038
kid@@ 8035
leverage 8035
fic@@ 8034
Day@@ 8033
amy 8033
Large 8032
Originally 8032
invention 8032
tweets 8032
ult 8032
piano 8031
joins 8030
competitions 8028
neighbour 8027
rei@@ 8027
sang 8026
Muhammad 8025
270 8024
Gibraltar 8023
bal 8023
Eu@@ 8022
distribute 8021
1958 8020
ury 8020
Documents 8019
Junior 8019
mask 8019
deferred 8017
3.4 8016
Plat@@ 8015
cautious 8015
boot 8013
WP.@@ 8011
nuts 8008
que@@ 8007
Mit@@ 8006
spotlight 8006
Mom@@ 8005
computing 8004
jumping 8004
olo 8004
turmoil 8003
worship 8003
ring@@ 8002
adversely 8001
lap 7998
Barbara 7995
ballistic 7994
ía 7994
Temple 7993
ceased 7992
garage 7992
acked 7991
speeds 7991
Aqu@@ 7989
median 7989
distinguish 7988
lun@@ 7988
Gab@@ 7986
Pictures 7985
itate 7985
poetry 7982
Gabon 7981
5.2 7980
Song 7979
entrepreneurship 7979
rant 7979
som@@ 7978
Manuel 7974
XV 7969
displays 7969
renovation 7969
59@@ 7963
cigarette 7963
Ev@@ 7961
ION 7961
Tibetan 7960
generic 7959
pac@@ 7959
Norman 7957
resign 7956
Gat@@ 7955
backgrounds 7953
hedge 7953
Resident 7952
servic@@ 7951
Dylan 7950
priced 7950
condemn 7949
SR@@ 7948
affirmed 7948
layers 7948
hardship 7945
altered 7942
consumed 7942
lip@@ 7942
slowed 7941
Dead 7939
floors 7939
Greens 7938
Organ@@ 7938
ecti@@ 7938
flames 7937
arose 7934
guilt 7934
wer 7934
220 7933
wo@@ 7932
Wel@@ 7931
master@@ 7930
tac@@ 7929
Beyonce 7928
musician 7928
Bailey 7927
lia 7927
multinational 7927
Addis 7926
Gallery 7926
rolls 7925
stabilization 7922
Often 7921
deficiency 7921
Lag@@ 7920
mounting 7920
Various 7919
deri@@ 7917
lobby 7917
Sex 7915
shark 7915
cycling 7914
ligh@@ 7914
creativity 7913
RY 7911
extremists 7911
Bos@@ 7910
jokes 7908
human@@ 7907
persecution 7907
Sign@@ 7905
stole 7904
Rousseff 7903
modules 7903
Hungarian 7902
vating 7902
Mai@@ 7901
selective 7901
Marc 7896
141 7895
Goods 7894
experi@@ 7894
Impact 7891
cross@@ 7891
Rotterdam 7890
bay 7890
cleaner 7890
inten@@ 7890
Less 7888
victories 7887
Rand@@ 7886
Contact 7885
Improving 7884
UNAIDS 7882
wel@@ 7882
Bradley 7881
Transportation 7881
Short 7880
dge@@ 7880
elementary 7878
valley 7878
hem@@ 7876
scra@@ 7875
flat@@ 7873
utter 7873
liquidation 7872
intru@@ 7871
scal@@ 7869
Tel 7868
clin@@ 7868
confirms 7868
xi 7868
extrac@@ 7867
slower 7867
mutilation 7865
Long@@ 7864
smiling 7864
starter 7864
ideology 7861
ister 7861
styles 7861
icon 7860
zhou 7860
brick 7859
crip@@ 7859
mes@@ 7859
uation 7859
39@@ 7858
discriminate 7858
bus@@ 7857
expectancy 7855
prints 7855
aide 7854
govern 7853
manages 7853
oversee 7853
sley 7853
annexed 7849
Dame 7847
illustrated 7846
Principal 7844
Refugee 7844
brains 7844
Half 7842
containers 7842
Advice 7840
Chairs 7840
inventories 7840
UNMIS 7839
5m 7837
lesser 7837
Suppression 7835
Larry 7834
din 7832
Hot@@ 7831
finger@@ 7831
starring 7831
Granting 7825
Speci@@ 7825
massacre 7825
ses@@ 7825
slowing 7823
stressing 7823
Rub@@ 7822
activated 7822
urg@@ 7822
Play@@ 7821
Swe@@ 7821
Forty 7817
deputies 7817
safeguarding 7817
accredited 7815
analysing 7815
Championships 7814
oes 7814
Applications 7812
Bulgarian 7811
dividend 7811
Luc@@ 7810
attackers 7810
inspectors 7809
loyalty 7809
az 7807
Sturgeon 7806
mysterious 7806
correspondence 7805
extrajudicial 7805
1540 7804
José 7804
imprisoned 7804
runway 7803
disseminated 7802
consuming 7800
surviving 7800
Shares 7799
sweeping 7799
thum@@ 7799
Jerry 7798
horrible 7798
switched 7798
Carl 7797
Luis 7796
upheld 7796
eps 7795
Season 7790
tam@@ 7790
Play 7788
Tun@@ 7788
kidnapping 7787
Born 7785
Blues 7784
creatures 7784
ank@@ 7782
phenomena 7781
Jer@@ 7779
archives 7779
sacked 7779
stranger 7779
educate 7777
isa 7777
portrait 7777
CT 7774
Guam 7774
childcare 7774
20s 7773
municipality 7773
Silver 7770
regulator 7770
conqu@@ 7769
loop 7769
Broncos 7768
poet 7766
ek@@ 7765
Rwandan 7764
accumulation 7763
136 7762
Shan@@ 7762
defects 7762
mosque 7759
Smo@@ 7758
strat@@ 7757
Steering 7756
HK@@ 7755
oos 7754
weakened 7754
guideline 7753
Opposition 7749
Ottawa 7749
Rep@@ 7749
relies 7749
Parents 7746
Bond 7743
firefighters 7743
AU 7742
arbitral 7742
Chemicals 7738
Mercedes 7738
Port@@ 7737
makeup 7737
uk@@ 7737
novels 7735
Story 7733
searches 7733
accelerating 7731
composite 7731
Beng@@ 7730
instructed 7727
Bristol 7725
corrected 7724
Ababa 7723
grief 7723
Computer 7721
162 7720
clut@@ 7720
prec@@ 7719
IES 7718
secon@@ 7717
batteries 7716
orn 7716
adap@@ 7714
dismissal 7714
MINUSTAH 7713
&apos;the 7712
bubble 7712
contamination 7709
absorbed 7708
induc@@ 7708
Distr 7707
Pre 7706
tec@@ 7706
ICRC 7705
Enforcement 7704
fan@@ 7704
Partners 7703
blew 7702
irrit@@ 7702
sal 7702
Nur@@ 7700
queen 7700
Van@@ 7699
Morrison 7697
cali@@ 7696
Eagles 7695
heightened 7695
Ferguson 7694
LD@@ 7694
Reynolds 7694
ame@@ 7694
picks 7694
enter@@ 7692
drones 7691
organisms 7691
brow@@ 7690
tening 7688
wn 7688
charities 7686
perpetrated 7686
Autom@@ 7685
Vietnamese 7683
restrictive 7683
Eventually 7682
Cruel 7681
Hunter 7681
negatively 7679
retailer 7679
East@@ 7678
gated 7678
curve 7676
situated 7676
ishment 7675
separ@@ 7675
PP 7674
genuinely 7674
Nixon 7673
Phillips 7673
Rum@@ 7670
Cohen 7668
bud@@ 7668
Disease 7667
laun@@ 7667
lethal 7667
settlers 7667
Groups 7666
ambitions 7662
ef 7662
risky 7662
vacuum 7659
quo 7657
watchdog 7656
166 7651
chin 7651
disappearances 7651
ental 7650
ggs 7649
stays 7649
visas 7647
sens@@ 7646
transi@@ 7646
ballots 7645
takeover 7644
lean 7642
Category 7640
Met 7640
stealing 7639
− 7639
dal 7637
Broad@@ 7636
Oman 7635
wireless 7635
TED 7633
empower 7633
fli@@ 7633
incorporation 7633
sensi@@ 7632
clusters 7631
ept@@ 7631
icks 7629
evi@@ 7627
TH 7625
Ven@@ 7625
headline 7625
sensing 7624
AR 7621
restraint 7621
psych@@ 7619
variation 7618
wrongful 7617
interfere 7616
vs 7616
passionate 7615
Berry 7614
overdue 7614
turnover 7613
aa 7612
ECLAC 7611
stry 7611
Elections 7609
ashi@@ 7609
Welcome 7606
interact 7606
ni 7604
arch 7603
endless 7602
Rescue 7596
dos 7596
ñ@@ 7596
counterpart 7595
dragged 7595
Orlando 7594
yu@@ 7593
47@@ 7592
thetic 7592
suppose 7591
Inhuman 7590
crackdown 7589
bosses 7588
ei 7587
scram@@ 7586
builds 7585
Harrison 7584
Web@@ 7583
shield 7583
Quar@@ 7581
determin@@ 7581
t. 7581
Ethics 7580
UNU 7580
Degrading 7578
Tottenham 7578
selfie 7578
smen 7578
Box 7575
OPEC 7575
modify 7575
AMISOM 7574
Securities 7574
Vermont 7574
expressly 7574
Arena 7573
combining 7573
milestone 7572
Peaceful 7570
revenge 7570
Colombian 7569
Eradication 7569
JS@@ 7569
ax 7569
concessions 7569
identifies 7569
undermining 7568
Addendum 7566
spray 7565
tives 7564
altitude 7563
Female 7562
inal 7562
Stanford 7561
empire 7560
equation 7560
protections 7560
CERD 7559
139 7558
airstrikes 7558
mill 7557
shootings 7557
tak@@ 7557
occasional 7556
wel 7556
attach 7555
vens 7555
Effects 7554
Karen 7553
belonged 7553
bans 7551
rin@@ 7551
anni@@ 7550
overs 7550
Andrews 7549
MD@@ 7549
MAR@@ 7548
gentle 7548
CDM 7547
GC 7546
creditor 7546
vor@@ 7546
2.8 7542
&apos;we 7541
169 7541
compreh@@ 7541
oven 7541
Chan@@ 7539
coordinators 7539
wondering 7538
Bell@@ 7537
schooling 7536
tracked 7535
Georgian 7533
142 7531
desperately 7531
IE@@ 7530
emphasizing 7530
revisions 7530
Lynch 7529
Walter 7529
rallies 7529
eaten 7527
Genocide 7526
boxing 7526
sticks 7526
Tobago 7525
acknowledging 7525
denying 7525
archi@@ 7523
proving 7523
designate 7522
kicking 7521
get@@ 7519
rup@@ 7519
ć 7519
CMP 7518
adolescent 7517
mony 7517
Bennett 7515
secretariats 7515
Kur@@ 7513
authorize 7513
clever 7512
201@@ 7510
obj@@ 7507
opt 7507
thir@@ 7507
timber 7507
raids 7506
Migrant 7505
Tech 7504
relying 7504
4.4 7503
Fri@@ 7503
litigation 7502
~ 7502
orial 7500
extensively 7498
fasc@@ 7498
akh@@ 7497
Work@@ 7496
J.@@ 7495
abstentions 7495
photography 7495
restoring 7494
Liaison 7493
academics 7493
dys@@ 7492
technically 7492
450 7490
honey 7490
revise 7490
Actress 7489
profitable 7489
ographic 7488
blaze 7486
convenience 7486
embraced 7486
Roo@@ 7484
encouragement 7484
runners 7484
.I 7483
143 7483
HK 7483
32@@ 7481
casual 7481
legality 7481
stakes 7481
sizes 7480
Stor@@ 7478
arrears 7478
triumph 7477
60,000 7476
Ham 7476
attaches 7475
heim 7474
Boy 7473
You@@ 7473
foul 7473
hypo@@ 7473
prince 7473
Critics 7470
Glenn 7470
fiber 7469
144 7468
T. 7468
tox@@ 7467
eful 7464
obli@@ 7464
indicative 7463
tain 7461
tuition 7461
ée 7461
Bed@@ 7460
intake 7459
ope 7459
touching 7459
inno@@ 7457
icy 7456
LS 7454
influx 7454
Ann@@ 7453
bloc 7452
relax 7451
UNFCCC 7450
tag@@ 7450
Robin 7448
harvest 7448
profiles 7448
psychology 7448
steep 7448
Farage 7447
acquiring 7447
signatures 7447
obstruc@@ 7446
barrels 7445
receivable 7444
Had 7442
Prevent 7441
Maj@@ 7440
Sheikh 7440
differential 7439
Ron 7438
Smart 7438
250,000 7434
dementia 7433
variations 7433
instrumental 7432
punishable 7432
1959 7431
ousness 7431
PP@@ 7430
exploded 7430
iz 7430
mall 7430
embedded 7429
periodically 7429
137 7427
Rep. 7427
analyze 7427
Var@@ 7426
strengths 7426
seizure 7422
murders 7418
ght 7417
unrest 7415
Kremlin 7414
gus 7414
gement 7413
maj@@ 7413
varies 7412
rapporteurs 7411
criterion 7410
exploited 7409
Bretton 7408
Opportunities 7408
Nation@@ 7407
patience 7407
doctrine 7406
epi@@ 7403
predominantly 7403
celebrates 7402
factions 7400
install 7397
synthetic 7397
ante 7396
pants 7396
designers 7393
imply 7393
Johnny 7391
eo 7391
rightly 7388
accusing 7386
0.2 7385
Estate 7385
anny 7385
Kyle 7384
protects 7384
tible 7383
favoured 7381
bad@@ 7380
Seminar 7379
240 7378
Gambia 7378
accepts 7378
ffy 7378
ú@@ 7378
conservatives 7377
sessional 7377
kie 7376
Especially 7375
Mak@@ 7375
ubs 7375
Rice 7374
accreditation 7373
von 7371
midst 7370
noble 7370
umbrella 7370
Acts 7364
escalation 7364
ached 7363
Tat@@ 7361
hills 7361
drilling 7360
Brumbies 7359
Panthers 7359
ector 7359
ilization 7359
Wild 7358
laughed 7358
6.2 7357
Hollande 7356
Post@@ 7356
snake 7356
Isis 7352
ectively 7352
fur 7352
vian 7352
commence 7351
Belfast 7350
ambi@@ 7350
nineteenth 7348
Ashley 7347
persistence 7344
pine 7344
Expressing 7343
peri@@ 7343
hil@@ 7342
lander 7342
prosecutions 7342
Pin@@ 7341
debtor 7341
heed 7340
muscles 7340
Analy@@ 7339
Delta 7339
backlash 7339
equi@@ 7339
1.15 7338
Iron 7338
num@@ 7338
oner 7338
voc@@ 7336
accessing 7334
touchdowns 7334
eral 7333
influences 7333
shouting 7331
57@@ 7329
develops 7328
cabin 7327
diversion 7327
COMMITTEE 7326
herewith 7326
life@@ 7326
Someone 7325
kle 7324
incitement 7323
main@@ 7323
turnout 7323
USC 7320
whilst 7320
157 7318
enquiry 7318
paths 7317
mont 7316
inspire 7315
facial 7313
Regi@@ 7312
assaults 7312
Goo@@ 7311
shouted 7311
tum 7311
deceased 7309
Nov@@ 7308
GE@@ 7307
trap 7307
hybrid 7306
EX@@ 7305
rushing 7305
а@@ 7302
immense 7301
Fashion 7300
Pit@@ 7299
screaming 7299
eting 7298
ibid 7298
Rud@@ 7297
critically 7296
Todd 7295
Julie 7292
Marcus 7292
clim@@ 7292
eta 7292
Ton@@ 7291
musicians 7291
refuses 7291
mem@@ 7290
rah 7287
scales 7287
NATIONS 7286
recourse 7286
visions 7285
Clearly 7283
Owen 7282
M.@@ 7281
accomplishment 7281
dock 7280
story@@ 7280
terminated 7280
Reser@@ 7277
Ward 7276
universality 7276
AA 7275
charts 7275
perf@@ 7275
serial 7273
vine 7273
Fair@@ 7272
commanders 7271
costing 7269
48@@ 7268
opener 7267
whi@@ 7267
aces 7266
decom@@ 7265
Conventional 7264
convincing 7264
gos 7264
chasing 7261
Provisions 7258
eld 7258
Android 7257
Reiterates 7255
locate 7254
Paulo 7252
nut 7252
shi 7252
campaigners 7251
corporal 7251
eved 7250
Bulldogs 7247
IMO 7247
NI 7247
bag@@ 7246
boring 7246
dominate 7245
Dav@@ 7244
Getting 7244
Spencer 7244
UNA@@ 7244
appropriations 7244
innovations 7244
rifle 7244
Mac 7242
Oakland 7242
photo@@ 7242
ario 7241
gon@@ 7240
ions 7240
Politics 7236
miners 7236
zo@@ 7236
Left 7235
Ok@@ 7235
tasked 7235
Thi@@ 7234
enko 7234
1946 7233
DE 7232
incomplete 7232
populated 7232
moratorium 7231
stripped 7231
var@@ 7230
booked 7229
compact 7229
inherited 7224
punch 7224
annexes 7223
Wu 7221
deli@@ 7218
proves 7217
Single 7216
mathematics 7216
Student 7215
raft 7215
premature 7213
poli@@ 7212
Jab@@ 7211
prevail 7210
sue 7207
divorced 7206
Counsel 7205
accumulated 7205
Deutsche 7204
Hus@@ 7204
kel 7204
FS 7202
Peninsula 7201
Held 7200
battling 7200
dedication 7200
och@@ 7200
Plan@@ 7199
UFC 7199
presenter 7199
tling 7198
ggy 7197
width 7196
supervisory 7194
petroleum 7193
atures 7192
GU@@ 7191
Solar 7190
call@@ 7190
1.9 7188
nell 7188
DF 7187
Hammond 7187
problematic 7187
roof@@ 7186
UNITED 7183
147 7182
inception 7180
Bible 7179
nish 7179
orderly 7178
endeavours 7177
rist@@ 7177
scattered 7177
preambular 7175
renowned 7170
phased 7167
oping 7166
pp. 7165
Help 7164
jets 7164
Alzheimer 7163
remnants 7158
ulate 7158
elli 7157
intentionally 7156
Cav@@ 7155
Nicole 7155
aggravated 7155
Arnold 7154
Bern@@ 7154
Cities 7154
grip 7154
assass@@ 7153
vet@@ 7153
SE 7152
continually 7152
borrow 7151
returnees 7150
175 7149
Cast@@ 7149
Brady 7148
Lor@@ 7145
graph 7144
Hot 7143
empowered 7143
agan 7142
explosions 7142
ove@@ 7142
proc@@ 7142
beans 7140
expedite 7140
insul@@ 7140
Tol@@ 7139
stairs 7139
GC.@@ 7138
flav@@ 7138
hacking 7138
Adv@@ 7137
Kun@@ 7137
entail 7136
154 7135
topped 7135
boun@@ 7134
hardest 7134
trem@@ 7134
Kha@@ 7133
departmental 7132
mouse 7131
collaborate 7130
ACC 7129
universally 7129
IM 7128
lenders 7128
pleasant 7126
MENT 7125
demo@@ 7125
lef@@ 7125
tougher 7125
Mainland 7124
biology 7124
probability 7124
1947 7123
12,@@ 7122
circular 7122
Transit 7120
3.6 7119
stipul@@ 7119
Kis@@ 7118
deficiencies 7116
exhibit 7116
chil@@ 7115
dig 7112
Cost 7110
Some@@ 7107
1,200 7106
Cir@@ 7106
gin@@ 7106
hackers 7106
horizontal 7106
indictment 7106
itary 7106
openness 7106
Mogadishu 7105
expelled 7105
rebuilding 7105
tex@@ 7104
vag@@ 7104
connectivity 7102
tar 7101
rockets 7100
CEB 7099
ridge 7096
McG@@ 7094
agreeing 7094
instalment 7094
Vit@@ 7093
flesh 7092
gray 7092
Biden 7091
Cel@@ 7091
absorb 7091
boots 7091
146 7088
packing 7088
ggling 7087
Nauru 7085
liquidity 7083
download 7081
pray 7081
Sem@@ 7080
singles 7080
Philippine 7079
Ruth 7079
Whole 7078
sheer 7078
gambling 7077
Hil@@ 7076
intersessional 7076
origins 7075
folks 7073
heels 7072
ranges 7071
misleading 7070
Reference 7069
Dick@@ 7068
consultancy 7068
demonstrators 7068
elevated 7068
Kr@@ 7067
eri 7067
tenants 7067
tico 7067
direc@@ 7065
intern@@ 7065
Plenary 7064
eous 7064
ua 7064
wrongdoing 7064
inalienable 7063
ported 7063
patch 7061
pup@@ 7060
rat@@ 7060
1954 7059
ood 7059
Inv@@ 7058
aides 7058
mun@@ 7058
qualitative 7058
rents 7058
Harvey 7057
Providing 7055
submarine 7055
destinations 7052
Vic@@ 7051
sued 7051
prospective 7045
boy@@ 7044
conceptual 7044
Low@@ 7043
Something 7042
dium 7042
supreme 7042
CO2 7041
Vatican 7041
Creek 7040
CCW 7037
glit@@ 7037
rays 7037
thi@@ 7037
Hassan 7036
bride 7036
fried 7035
uk 7035
ouring 7034
Bour@@ 7033
Dick 7033
RES 7029
chips 7028
constitu@@ 7027
Victory 7026
dg@@ 7026
interdependence 7026
yours 7026
neighboring 7025
rigorous 7024
soup 7024
Committed 7023
FOR@@ 7023
buff@@ 7023
Connecticut 7021
sacred 7021
Swift 7020
affiliate 7020
electronics 7019
sword 7019
Reconciliation 7018
dled 7018
shoppers 7017
Katie 7014
segregation 7014
ski@@ 7014
Coo@@ 7013
Grand@@ 7013
spy 7013
Brothers 7012
1956 7010
spirits 7010
ati 7009
ros 7009
Dy@@ 7008
NT 7008
licences 7007
EU@@ 7006
oud 7006
235 7005
Cow@@ 7004
burns 7002
suffers 7002
Snow 7001
extract 7000
graphics 7000
programmatic 7000
sounded 7000
trademark 7000
Emperor 6999
foremost 6999
idity 6998
lovers 6998
Kit@@ 6997
Rid@@ 6997
Separ@@ 6997
Tow@@ 6995
IB@@ 6994
ethnicity 6994
ghs 6994
Bonn 6993
Nicola 6993
151 6992
Jong 6992
Knowledge 6991
Listen 6991
peacekeepers 6990
s. 6990
5.3 6989
after@@ 6989
collabor@@ 6989
fet@@ 6989
psychiatric 6989
rod 6989
diminished 6988
prepares 6988
disappear 6987
ayed 6986
blu@@ 6986
administrators 6984
endeav@@ 6984
pered 6984
indications 6981
tuberculosis 6980
premier 6978
till@@ 6978
ore@@ 6976
Aud@@ 6975
cus@@ 6975
nan@@ 6974
primaries 6974
excellence 6973
repeal 6973
twins 6973
emia 6972
measurements 6972
unaccompanied 6972
210 6971
attacker 6971
Meas@@ 6968
contexts 6967
Hear@@ 6966
comeback 6966
handic@@ 6965
stor@@ 6964
BP 6963
NS 6963
uncovered 6963
Courts 6962
talents 6962
home@@ 6961
neighbor 6961
snap 6960
ticul@@ 6960
twelfth 6960
elephant 6959
itors 6958
likewise 6957
alog 6956
austerity 6954
bomber 6954
flooded 6954
guides 6954
suite 6954
Documentation 6953
Hamas 6953
acies 6953
Hudson 6949
abducted 6949
asters 6948
math 6947
peninsula 6947
siblings 6946
telec@@ 6946
wholly 6946
Mack@@ 6943
holdings 6943
Will@@ 6941
wears 6941
Nicholas 6940
dire 6940
elec@@ 6940
inflicted 6940
tailored 6938
attorneys 6935
quotas 6935
Drive 6933
Liberian 6933
appetite 6933
thrust 6932
cooling 6929
southeast 6929
conceded 6928
magazines 6928
Ou@@ 6927
Wan 6927
sar@@ 6927
benefiting 6926
urbanization 6924
aur@@ 6922
justi@@ 6920
Investigations 6919
prerequisite 6918
bleeding 6917
contra@@ 6917
sing@@ 6917
instruc@@ 6914
execute 6912
som 6911
ffle 6910
hes 6910
shaking 6910
156 6909
190 6909
downs 6909
eh 6909
subway 6909
és 6909
Weather 6908
batch 6908
Supply 6907
verbal 6905
Liberty 6903
conceived 6903
deter 6902
lord 6901
surgeon 6900
aly@@ 6899
eman@@ 6899
beam 6898
testi@@ 6898
vendor 6898
bes@@ 6897
Ds 6896
Monitor 6895
altern@@ 6895
backdrop 6895
Gas 6893
torate 6893
dents 6892
Credentials 6891
grace 6891
preferences 6891
popul@@ 6890
frames 6888
notorious 6888
shoe 6888
AN 6887
PAC 6887
subtle 6887
rebounds 6885
lens 6884
Herald 6883
awkward 6883
constituency 6881
poorer 6881
0.3 6879
che 6879
Average 6878
sensors 6878
Experience 6877
candidacy 6877
liberation 6877
perpetu@@ 6877
Israelis 6876
cafe 6876
IAL 6875
sexuality 6875
Cer@@ 6874
Santos 6874
alleviation 6872
DVD 6870
Lyn@@ 6869
pie 6869
senators 6869
5.1 6867
Experi@@ 6867
Investors 6865
Julia 6865
Netanyahu 6865
dairy 6865
tural 6863
Downing 6862
Verde 6862
employing 6862
weak@@ 6862
Arkansas 6860
Capitol 6860
abortions 6860
impetus 6860
need@@ 6859
traumatic 6859
Emphasizes 6858
ped@@ 6858
Buc@@ 6857
hydr@@ 6857
orate 6857
icked 6856
SW@@ 6855
jur@@ 6855
freed 6854
Hussein 6853
communist 6853
XII 6852
cau@@ 6852
northeast 6852
tedly 6852
observ@@ 6851
Judges 6849
tem@@ 6849
ament 6848
crystal 6848
surgical 6848
tick 6848
Mart@@ 6847
Subject 6847
caption@@ 6847
demonstrating 6847
trophy 6847
exacerbated 6845
leisure 6845
icians 6844
165 6843
rous 6842
vir@@ 6842
Hart 6841
Mom 6840
alle@@ 6840
deposited 6840
Magic 6839
Infrastructure 6838
White@@ 6838
Click 6837
aters 6836
determines 6836
commend 6835
narr@@ 6833
upgraded 6833
Holmes 6831
Scots 6831
seasonal 6830
Bud@@ 6829
aga 6829
endured 6829
landmines 6829
Rock@@ 6828
journalism 6828
imagined 6826
Steel 6825
assembled 6825
Form 6824
Samuel 6824
inform@@ 6824
psycho@@ 6824
eria 6823
lonely 6823
Actor 6822
Few 6822
Lucas 6822
Said 6822
Jac@@ 6821
romance 6821
True 6820
spends 6819
uma 6819
Evidence 6818
ania 6816
guitar 6816
genic 6815
spin@@ 6815
persist 6814
pockets 6814
notwithstanding 6813
oy@@ 6813
152 6812
abduction 6812
Spurs 6809
Request 6806
policymaking 6806
prosperous 6806
sively 6806
1,6@@ 6805
No.@@ 6805
olution 6805
symbols 6805
tress 6805
Globe 6803
olu@@ 6803
Otherwise 6802
Vs 6801
Krist@@ 6800
Travel@@ 6800
Kim@@ 6799
electr@@ 6799
nonetheless 6799
Dow 6798
Thomson 6792
dict@@ 6792
Mot@@ 6791
Pan 6791
Pep@@ 6791
Conservatives 6790
Mont@@ 6790
clearer 6789
scarce 6789
entitlements 6787
46@@ 6786
Bad 6786
Physical 6786
ida 6786
woods 6785
ernity 6784
sided 6784
Four@@ 6782
broadband 6782
disastrous 6782
practically 6782
famously 6779
curious 6777
parked 6777
hometown 6776
inserted 6776
RA 6775
dier 6774
reconc@@ 6772
horrific 6771
mour@@ 6770
ultra 6770
Portland 6769
225 6768
55@@ 6768
Sources 6768
nearest 6768
Shortly 6767
prevents 6767
totalling 6767
bons 6764
ram 6764
Export 6763
gues 6763
Djokovic 6762
custom@@ 6761
gesture 6761
PL@@ 6760
bids 6759
regretted 6759
sten 6759
countless 6758
skin@@ 6758
happily 6756
accessed 6755
congress 6755
impro@@ 6754
outfit 6753
visitor 6753
erupted 6752
shareholder 6752
synchron@@ 6752
Initial 6751
Swansea 6751
invented 6751
partisan 6751
spac@@ 6751
illum@@ 6749
Europeans 6747
Knight 6747
Strong 6747
shipped 6747
extraction 6746
hampered 6745
wells 6745
Contract 6744
ET@@ 6743
Jo 6742
OC 6742
vered 6742
Lesotho 6741
Syrians 6740
comedian 6740
hugely 6739
1955 6736
Im 6736
jan 6735
intentional 6732
rested 6732
faculty 6731
positioned 6730
tap@@ 6730
Non@@ 6729
besides 6729
ulating 6729
eurozone 6727
icated 6727
sums 6726
201 6725
Native 6725
iter 6724
Fox@@ 6723
Heat 6723
Hugh 6723
Nigerian 6723
C.4 6722
loom 6722
Wildlife 6721
derog@@ 6721
public@@ 6721
underwent 6721
bore 6720
nightmare 6719
Micro@@ 6717
dest 6717
hammer 6717
Butler 6716
Generally 6715
unaware 6715
Elliott 6714
deliveries 6714
priv@@ 6714
Car 6713
cia 6713
infants 6713
Adopted 6712
fancy 6712
Han 6710
Liam 6710
embarrassing 6707
siveness 6706
hem 6705
quote 6705
Shane 6704
dare 6704
By@@ 6703
Guy 6702
contests 6702
entitlement 6702
reparation 6702
rides 6702
consolidating 6701
Kids 6699
lier 6699
referee 6698
reproduced 6698
sor 6698
d.@@ 6697
158 6696
backup 6693
mount 6692
230 6691
Griffin 6691
accede 6691
balancing 6687
bent 6686
CM 6685
Grace 6685
Phase 6685
eration 6685
neutr@@ 6685
spi@@ 6685
Mountains 6684
VA 6684
expan@@ 6684
Mercury 6683
Kanye 6682
gram 6682
Pil@@ 6681
disagree 6681
pizza 6681
Gibson 6680
Lun@@ 6679
denom@@ 6679
Residents 6677
morph@@ 6677
selecting 6677
Ahmad 6676
cle 6676
wet@@ 6676
Pat 6674
lightning 6673
Destruction 6671
Ron@@ 6671
Uses 6671
resemb@@ 6671
travellers 6666
wheels 6666
oxide 6665
Prof 6661
coral 6661
Armenian 6659
Macao 6659
devote 6659
QU@@ 6658
vement 6658
preferential 6657
Gw@@ 6656
intermediate 6656
ML 6655
Thanksgiving 6655
Cases 6654
Fight 6654
N. 6654
exemptions 6654
Bashar 6651
accompl@@ 6651
Ice 6650
NY@@ 6650
outing 6650
sink 6650
overcoming 6649
Decisions 6648
Islam@@ 6648
Michel 6648
Sachs 6648
lions 6647
porting 6647
и@@ 6647
ems 6646
plug 6645
Truth 6644
ffed 6644
diligence 6643
II.@@ 6642
Oval 6640
renamed 6640
termin@@ 6640
Name 6639
minerals 6639
1,7@@ 6636
poster 6636
ship@@ 6636
Details 6635
Treaties 6635
oid 6635
Mario 6634
elegant 6634
socioeconomic 6634
proximity 6633
refu@@ 6633
modes 6631
swift 6631
coins 6629
Maz@@ 6628
Projects 6628
kidney 6628
Stan@@ 6627
nutri@@ 6627
stabil@@ 6627
ove 6626
scary 6625
fulfill 6621
logo 6621
lon 6621
rang 6621
reimbur@@ 6620
comparing 6619
vegetable 6618
Michel@@ 6617
jam@@ 6617
vulnerabilities 6617
UC@@ 6615
forec@@ 6615
poem 6615
indul@@ 6614
Multi@@ 6613
FD@@ 6612
deported 6612
idate 6612
disseminating 6611
shan 6611
asserted 6610
Close 6608
Hin@@ 6608
Lopez 6608
PG 6606
Sing@@ 6606
anonymity 6606
famili@@ 6606
habitat 6606
depressed 6605
lou@@ 6604
Days 6603
RB@@ 6603
collections 6603
Top@@ 6602
UNFICYP 6602
cip@@ 6600
Compensation 6599
Nancy 6598
downturn 6598
tieth 6598
appreh@@ 6597
bombers 6597
entries 6597
Saints 6596
Understanding 6596
Vari@@ 6596
confiscated 6596
instantly 6596
Examples 6595
kett 6595
enduring 6594
hid 6594
Cin@@ 6593
beneficiary 6593
biting 6593
blockade 6593
confiscation 6593
correction 6592
gle@@ 6592
industrialized 6592
Comple@@ 6591
nominees 6591
Consi@@ 6590
Lot@@ 6590
formul@@ 6590
ows 6590
embarked 6589
harmonious 6588
Revised 6586
laughter 6586
ITC 6585
Manning 6585
bis@@ 6585
breath@@ 6585
enactment 6585
Kaz@@ 6584
residual 6584
Jun@@ 6583
Dundee 6581
Outside 6581
Julian 6580
deser@@ 6580
gangs 6579
1957 6578
conform 6578
excav@@ 6578
Serb 6577
ken@@ 6577
CR 6576
Start 6575
broaden 6575
dd 6574
Recovery 6573
deficits 6573
Disability 6570
informing 6570
iny 6569
sam@@ 6569
Heathrow 6567
gens 6567
swiftly 6567
je 6566
treasure 6566
161 6565
contributor 6565
departed 6565
trans 6565
rewards 6564
tract 6564
Institutional 6563
iller 6563
Clippers 6562
thered 6562
Lic@@ 6561
Yan@@ 6561
strang@@ 6561
correlation 6560
Centres 6559
ana@@ 6559
cles 6559
expendable 6559
Bau@@ 6558
Open@@ 6558
audited 6557
neighborhoods 6557
recreational 6556
Villa 6553
cir@@ 6553
him@@ 6553
12,000 6551
Lin 6551
2030 6550
Sunni 6550
alli@@ 6549
easing 6549
Petro@@ 6548
Oscars 6546
bum@@ 6546
variables 6545
unsafe 6544
zation 6544
tail@@ 6542
Brun@@ 6541
illiteracy 6540
hectares 6539
149 6538
Lucy 6538
Sorry 6537
gal 6537
tt@@ 6536
leap 6534
vitamin 6534
anism 6533
Thre@@ 6532
catalyst 6531
Movie 6529
eson 6529
Detention 6528
Ensuring 6528
rain@@ 6528
Monica 6527
ful@@ 6526
playoffs 6526
parity 6525
posters 6525
concentrations 6524
privileged 6524
148 6522
atmospheric 6522
contingents 6522
cloth 6518
expose 6518
GMT 6517
ladder 6516
pale 6516
Sure 6515
Silicon 6514
upward 6514
bush@@ 6513
haul 6513
clauses 6512
eping 6512
cribed 6511
Hello 6510
pools 6508
seas@@ 6508
Dennis 6506
aren@@ 6505
Prix 6504
travels 6504
accidentally 6501
fundamentally 6501
Wallace 6500
homeland 6500
COP.@@ 6498
shook 6498
vers@@ 6498
mist@@ 6497
dum@@ 6496
overhaul 6496
Stressing 6495
condemnation 6494
recogn@@ 6494
Colonel 6492
ints 6492
Hamp@@ 6491
ground@@ 6491
symbolic 6491
Dil@@ 6490
Him 6490
Lyon 6488
compatibility 6488
occupy 6488
smashed 6488
aven@@ 6487
dings 6485
taxpayer 6485
uous 6485
aud@@ 6483
portable 6480
tham 6480
plum@@ 6479
Albanian 6478
age@@ 6478
1,8@@ 6477
gas@@ 6477
misuse 6476
oter 6474
shop@@ 6471
Brand@@ 6470
Strengthen 6470
fraction 6469
substantiated 6469
View 6468
Reading 6466
ules 6466
Collection 6464
chiefs 6464
1952 6463
Chiefs 6463
lec@@ 6463
whatsoever 6463
arrivals 6462
tribe 6462
Communities 6461
imag@@ 6460
McGregor 6459
executing 6459
respectful 6459
Owing 6458
Save 6458
seriousness 6458
Minimum 6457
retaining 6457
locking 6456
Dep@@ 6455
conditioning 6455
CIS 6454
intra@@ 6454
Aspects 6453
duo 6453
aving 6452
assignments 6451
woke 6451
0.1 6450
delicious 6450
Challenge 6449
museums 6449
Minorities 6448
airing 6448
embro@@ 6448
Beverly 6447
Approach 6446
proj@@ 6446
variance 6446
Abuse 6445
glob@@ 6445
smallest 6445
acre 6442
attained 6442
liner 6441
Formula 6440
Policies 6440
slept 6440
hailed 6438
weed 6438
Orthodox 6435
neglected 6435
breed 6434
purple 6434
tique 6433
dt 6432
Compliance 6431
UP 6430
navy 6429
mud@@ 6428
thirteenth 6428
downward 6427
furious 6427
inity 6427
Lind@@ 6426
shipments 6426
subprogrammes 6426
sustaining 6426
NT@@ 6425
automated 6425
Multi 6423
riots 6423
208 6422
SH@@ 6422
administrations 6422
communal 6422
conserv@@ 6422
lag@@ 6422
Inte@@ 6421
perceptions 6421
ordering 6420
autom@@ 6419
enact 6419
insured 6419
yearly 6419
Magistrates 6418
Rest@@ 6418
physician 6418
robots 6418
disk 6416
refined 6416
wood@@ 6415
suppression 6414
Holocaust 6413
disadvantage 6412
testified 6410
utting 6410
Sus@@ 6409
impacted 6408
airs 6407
amending 6407
healing 6407
Funds 6406
Periodic 6406
Practices 6406
0.4 6405
outlines 6405
drain 6404
sensor 6404
3.7 6403
Dispute 6403
chester 6403
Dog 6402
dling 6402
reunification 6402
atis@@ 6400
motive 6399
Offices 6398
embry@@ 6398
responds 6398
R.@@ 6397
VR 6397
maturity 6397
quad@@ 6396
cot@@ 6395
erc@@ 6395
magne@@ 6395
charitable 6394
fatigue 6394
intr@@ 6393
Rain@@ 6392
Bah@@ 6391
Supporting 6391
parliamentarians 6391
performers 6391
sheriff 6390
Mechan@@ 6389
arguably 6389
Bam@@ 6387
Doc@@ 6387
Ethiopian 6387
Sir@@ 6387
terrain 6387
condi@@ 6386
itude 6386
GENERAL 6385
Valentine 6385
directing 6385
meteor@@ 6385
trio 6382
Rogers 6380
assassination 6379
sellers 6379
Boys 6378
Leeds 6378
paramount 6378
probable 6378
Inspectors 6377
undertakings 6377
knees 6376
mission@@ 6376
semi@@ 6376
5.4 6375
adhe@@ 6375
duck 6375
leaning 6375
Lit@@ 6373
ladies 6373
OB@@ 6370
Head@@ 6369
Rodgers 6369
Santiago 6368
stig@@ 6368
š@@ 6368
starred 6366
acqui@@ 6364
dealers 6364
mathematical 6364
joked 6363
Surve@@ 6362
breathe 6361
ingham 6361
Funding 6360
pes@@ 6359
Areas 6358
shr@@ 6358
1944 6357
Okay 6357
diagno@@ 6357
identities 6357
150,000 6356
quired 6356
Baltic 6355
olive 6355
Cole 6354
Mason 6354
O.@@ 6354
dding 6353
elly 6353
grasp 6352
numbered 6350
Abe 6349
animated 6349
emi@@ 6349
lightly 6349
DI 6348
CARICOM 6347
photographed 6346
symbol@@ 6345
80s 6344
deteriorating 6343
weekends 6342
Sally 6341
blowing 6341
faithful 6340
graph@@ 6339
creature 6338
masses 6338
mess@@ 6338
PE@@ 6337
Venice 6337
spra@@ 6337
Partnerships 6336
peacefully 6335
ui 6335
vements 6334
monopoly 6333
Lloyd 6332
Spo@@ 6332
Rehabilitation 6331
Hid@@ 6330
Ja@@ 6330
anced 6330
barred 6330
contradic@@ 6330
Kid@@ 6326
pragmatic 6326
signatories 6326
ety 6325
medic@@ 6324
delivers 6323
Chase 6321
Corp. 6321
alising 6321
twist 6320
poured 6319
suburban 6318
transform@@ 6318
Malaysian 6316
advising 6316
booking 6316
eland 6315
Investigators 6314
gut 6314
shaping 6313
oni 6312
Oce@@ 6311
despair 6311
Cher@@ 6310
Eur@@ 6310
Techn@@ 6310
doses 6310
genius 6310
Henderson 6309
Powell 6309
Reed 6309
锛@@ 6309
4.6 6307
injustice 6307
dened 6306
MailOnline 6305
ventures 6305
1,5@@ 6304
Incre@@ 6304
Opera 6303
Sanchez 6303
bre 6303
Establish 6302
administrator 6302
incur@@ 6301
positioning 6301
eme@@ 6300
quot@@ 6299
catastrophic 6298
irk 6298
reco@@ 6298
Search 6297
antibiotics 6297
Conc@@ 6296
Towards 6296
bee 6296
gaz@@ 6296
lyrics 6294
schedules 6294
bau@@ 6292
seizures 6292
Clo@@ 6291
OP 6291
ask@@ 6291
calculations 6288
ting@@ 6288
Migrants 6287
horizon 6285
interpret 6285
tees 6285
Wy@@ 6284
introductory 6284
Everton 6281
Theater 6281
Had@@ 6280
Mau@@ 6280
spr@@ 6280
agendas 6279
goalkeeper 6278
Chan 6276
stark 6276
0m 6275
eving 6274
lanes 6274
Tha@@ 6273
flagship 6273
phot@@ 6273
Victor 6272
Organic 6271
Kane 6270
fortunate 6270
6.3 6269
Spirit 6269
afforded 6269
tance 6268
Louise 6267
Seven@@ 6267
Upper 6267
counsel@@ 6267
attributes 6266
ineffective 6266
reign@@ 6265
reminds 6265
McCarthy 6264
unsuccessful 6264
Bren@@ 6263
Ep@@ 6263
planting 6263
Kay 6262
elder 6262
13,@@ 6260
Frank@@ 6259
bargaining 6258
nas@@ 6257
Dro@@ 6256
atrocities 6256
rying 6256
reacted 6255
ensuing 6253
fores@@ 6253
tactical 6253
Croatian 6252
blanket 6252
honoured 6252
mel 6252
vicious 6252
passive 6251
Pay 6250
conve@@ 6249
handing 6249
sensible 6249
calculate 6248
Plans 6246
ny@@ 6246
Say 6245
referral 6245
consume 6244
eco 6244
tis@@ 6244
yeah 6244
Trudeau 6243
mono@@ 6241
originated 6241
transferring 6240
eding 6239
finalize 6238
salad 6238
251 6234
bedrooms 6234
persu@@ 6234
Changes 6233
Integr@@ 6233
sible 6233
185 6232
cave 6231
exported 6230
slammed 6230
gic 6229
rich@@ 6228
underwater 6228
boosting 6227
ghtful 6227
unanimous 6227
vate 6227
footballer 6226
Dear 6225
ectors 6225
abusive 6224
rendering 6224
scan 6224
8.5 6223
capac@@ 6222
halted 6222
FDA 6221
Penn 6221
speedy 6221
modifications 6220
recruits 6219
regain 6219
Ivorian 6218
Moroccan 6218
inte@@ 6218
Certainly 6217
depend@@ 6217
stranded 6217
Ball 6216
Kay@@ 6215
Teachers 6215
bull 6215
caps 6215
devil 6214
jazz 6214
warranted 6213
Catal@@ 6212
richest 6211
vague 6211
widening 6211
Thor@@ 6210
lowered 6210
Census 6209
observing 6209
400,000 6208
prediction 6208
basin 6207
UNIS@@ 6206
nationalist 6206
ues 6206
Wenger 6205
lucrative 6205
Wall@@ 6204
TIVE 6202
orian 6202
Animal 6201
Solidarity 6201
complied 6201
confronting 6201
rowing 6201
159 6200
mill@@ 6200
Survi@@ 6199
lawsuits 6199
Madison 6198
192 6197
harmonize 6196
overhead 6196
pig 6196
shor@@ 6196
н@@ 6195
Schwar@@ 6194
Diana 6193
declines 6193
illi@@ 6192
pollutants 6192
memor@@ 6191
stering 6191
&apos;clock 6190
Gener@@ 6190
acher 6190
chat@@ 6190
vest 6190
Silva 6189
tually 6189
Find 6187
MINURSO 6187
servers 6187
Electric 6186
ason 6186
child@@ 6186
quet 6185
Finnish 6184
commends 6184
Traditional 6183
optim@@ 6183
Sunderland 6182
enne 6182
footing 6182
cler@@ 6181
coercive 6181
dumped 6181
sati@@ 6181
Tul@@ 6180
broker 6180
cc@@ 6180
dominance 6179
specifications 6179
immer@@ 6178
Player 6177
Rooney 6176
inson 6176
RES@@ 6175
fiel@@ 6175
sic 6175
thre@@ 6175
silly 6174
AC.109 6173
condolences 6173
underlines 6173
Sid@@ 6172
revitalization 6172
ograph@@ 6170
NAL 6169
throws 6169
ardo 6167
trusts 6167
е@@ 6167
Race 6166
promotional 6166
Lives 6165
amateur 6165
confirming 6164
learnt 6164
portrayed 6164
Agreements 6163
Amsterdam 6163
Joshua 6162
discharged 6162
sponsorship 6160
Fargo 6159
northwest 6159
Cincinnati 6158
CPC 6152
nasty 6150
disproportionate 6149
List@@ 6148
exporting 6148
tre 6148
gauge 6147
hop 6147
213 6146
Derby 6146
depleting 6146
embodied 6146
Ultimately 6145
lecture 6145
terminate 6145
dru@@ 6144
flame 6144
whereabouts 6144
tha 6143
Fame 6142
Golf 6141
Satellite 6141
basement 6141
Pitt 6140
Stevens 6140
lam 6140
zie 6140
CST 6139
Lack 6139
Marriage 6138
OR 6138
aver@@ 6138
cliff 6138
biography 6137
Cris@@ 6135
anchor 6134
decreasing 6133
revival 6133
ér@@ 6132
Combating 6129
Meet 6128
Wo@@ 6128
260 6127
Sullivan 6127
abstract 6127
habit@@ 6127
physi@@ 6127
outgoing 6124
kan 6122
flour 6121
Saf@@ 6118
Sat@@ 6118
civilizations 6115
plunged 6115
Belize 6114
rope 6113
14,@@ 6112
IPCC 6112
Tab@@ 6112
Tax@@ 6112
epic 6112
decentralized 6111
escorted 6111
Burns 6110
common@@ 6110
arises 6109
bicycle 6109
populist 6109
unsustainable 6109
80,000 6107
Analysts 6107
bach 6107
faction 6107
homework 6107
stained 6107
Challenges 6106
fascinating 6106
ingu@@ 6106
167 6105
1930s 6104
Tories 6104
passports 6103
HP 6102
Oslo 6102
alien@@ 6102
worlds 6102
OL 6101
tes@@ 6101
unconscious 6101
LD 6100
greeted 6100
pandemic 6100
deepen 6099
indoor 6099
outright 6099
GPS 6098
Lucia 6098
adequacy 6097
news@@ 6097
rab@@ 6097
expired 6096
impres@@ 6096
Pes@@ 6094
essay 6094
kh@@ 6094
stine 6094
aut@@ 6093
alleges 6092
earthquakes 6092
icate 6090
trou@@ 6090
Sandy 6089
UCLA 6088
irrigation 6088
Batman 6085
Scre@@ 6085
authentic 6085
crushed 6085
lem 6085
pivotal 6084
riders 6084
grandchildren 6083
&apos;a 6082
decorated 6082
Chap@@ 6080
Southampton 6080
fixing 6079
nutritional 6079
strategist 6079
Gill@@ 6077
associates 6077
step@@ 6077
ordin@@ 6076
CBD 6074
Tyler 6074
compelled 6074
enforcing 6074
watches 6074
Britons 6073
recosting 6072
lied 6071
Crimes 6070
Emphasizing 6070
coc@@ 6070
kits 6070
than@@ 6070
dra 6069
Kath@@ 6067
humankind 6067
mit 6067
Interest 6066
ampli@@ 6066
kar@@ 6066
landers 6066
traffickers 6066
Appointment 6065
gunman 6065
methyl 6065
UNMI@@ 6064
lineup 6064
echoed 6062
Cont@@ 6060
Karl 6060
merged 6060
parliaments 6060
Les 6059
Mohammad 6059
Kenny 6058
delete 6058
dial 6058
plac@@ 6058
Hogan 6057
boosted 6057
ographer 6056
unauthorized 6054
undergone 6054
esh 6053
Gates 6052
Individual 6052
championships 6051
enthusi@@ 6051
ght@@ 6051
PRST 6050
LM 6049
Laws 6049
clu@@ 6047
guarded 6047
millennium 6047
workplan 6047
genre 6046
ind@@ 6046
liness 6046
bankers 6045
zen 6044
friend@@ 6043
Overseas 6042
Tonight 6042
repe@@ 6042
Except 6041
simplified 6041
199 6040
betting 6040
inspiring 6040
villagers 6040
2.9 6039
progressively 6039
franch@@ 6038
dirt 6037
cow 6036
Hearts 6035
definitive 6035
strangers 6034
compromised 6033
canceled 6032
prop@@ 6031
voltage 6030
Actually 6029
clay 6029
pepper 6029
utilities 6029
collar 6028
impede 6028
mp 6028
1,9@@ 6027
Record 6027
anthem 6027
dried 6027
Directors 6026
delight 6026
fifteenth 6025
fluctuations 6024
shortfall 6024
Exp@@ 6023
take@@ 6023
molecular 6022
Crescent 6021
Pearl 6021
Sound 6021
Yesterday 6020
contention 6019
diving 6019
Kas@@ 6018
extr@@ 6018
pills 6018
Cowboys 6016
fat@@ 6016
parole 6015
streams 6015
soap 6014
spur 6014
Linda 6013
Talk 6012
zy@@ 6012
historian 6011
wis@@ 6011
abil@@ 6009
implied 6009
appreciates 6008
communicable 6007
kidnapped 6006
unpredictable 6006
affirmative 6005
fr@@ 6005
perpetrator 6005
mercenaries 6004
lowering 6001
oids 6001
scourge 6000
750 5999
confinement 5999
ima 5999
jum@@ 5997
15,@@ 5996
exempt 5996
tex 5996
Toyota 5995
43@@ 5993
caucus 5992
edited 5992
facilitates 5992
throne 5991
highs 5990
vity 5989
237 5984
Batt@@ 5984
Sha 5984
chairmanship 5984
Markets 5983
rationale 5982
avoidance 5981
rubble 5980
mosquitoes 5979
SD 5977
auditors 5977
Jakarta 5975
PRESIDENT 5975
Vision 5975
hockey 5975
underneath 5975
PDF 5974
stigma 5974
ever@@ 5972
flow@@ 5972
impe@@ 5972
Gur@@ 5971
complemented 5970
swi@@ 5970
Comey 5969
mg 5968
chim@@ 5967
hospitality 5966
mortar 5966
sla@@ 5966
sailing 5965
Yar@@ 5964
commerci@@ 5961
conception 5961
OS@@ 5960
aining 5960
aned 5960
instituted 5960
Above 5959
FF 5959
catches 5959
whites 5959
Alberta 5958
sci@@ 5958
3.8 5957
Att@@ 5957
Phar@@ 5956
detectives 5956
drum 5956
insisting 5956
HBO 5955
44@@ 5953
alian 5953
ennial 5953
lav@@ 5953
cups 5952
Blood 5951
unwanted 5951
garbage 5950
ais 5948
birth@@ 5948
shine 5948
Buddhist 5946
disproportionately 5945
shut@@ 5943
y.@@ 5943
monster 5942
solitary 5942
atically 5939
illnesses 5939
silk 5939
alties 5938
cohesion 5937
ideals 5935
Temporary 5934
Volkswagen 5934
sunny 5933
newborn 5932
pouring 5931
bolster 5930
demolition 5930
Rot@@ 5929
jer@@ 5929
orable 5928
thread 5928
Procedures 5927
housed 5926
residing 5926
countermeasures 5924
overlap 5924
sians 5923
Core 5922
asses 5922
plantation 5920
Archi@@ 5919
Products 5919
endo@@ 5919
organizers 5919
rot 5918
4.8 5917
Brow@@ 5917
Kol@@ 5917
ggle 5917
streamline 5916
atable 5914
overwhelmed 5914
tribes 5914
242 5913
Crystal 5913
revive 5913
Arti@@ 5912
announcements 5912
diary 5912
creator 5911
key@@ 5911
transplant 5911
ym 5911
2,0@@ 5910
Safe 5910
202 5909
Tenth 5909
edges 5909
Different 5908
mighty 5908
Ibrahim 5907
Pad@@ 5907
Across 5906
aer@@ 5906
Dre@@ 5905
Spring@@ 5905
geared 5904
Wade 5903
Kend@@ 5902
Nam@@ 5902
desc@@ 5902
smartphones 5902
ushing 5901
Arabs 5900
Hab@@ 5900
Lawyers 5900
Manila 5900
other@@ 5900
SO 5899
protec@@ 5899
0.6 5898
quantum 5897
Gross 5896
laboratories 5896
narrowly 5896
226 5895
Bear 5895
burnt 5894
weighing 5894
factual 5893
troubles 5893
anic 5892
prayers 5892
shaw 5892
Abdullah 5889
Going 5889
Re 5889
southwest 5889
Holland 5888
Kum@@ 5887
aul@@ 5886
gasoline 5886
innocence 5886
labels 5886
ond 5886
17,@@ 5885
izations 5885
utterly 5885
ppy 5884
eship 5883
prevalent 5883
closures 5882
Revenue 5881
163 5880
UNITA 5880
Camp@@ 5878
shapes 5878
addy 5877
albums 5876
secretly 5876
poisoning 5875
Side 5874
supposedly 5874
NP 5872
marathon 5872
Emer@@ 5870
blank 5870
bribery 5870
C.6 5869
ICE 5869
ror 5868
Belgrade 5867
asti@@ 5867
switching 5866
183 5865
Nav@@ 5865
legendary 5865
Fred 5864
myth 5864
stockpiles 5864
Vil@@ 5863
bother 5863
evolve 5863
exporters 5863
kel@@ 5863
possessed 5862
Religious 5860
211 5859
cling 5859
rented 5859
Wong 5857
slo@@ 5857
vibrant 5857
203 5856
UNCDF 5856
sements 5856
PV.@@ 5855
midfield 5855
teammate 5854
illo 5853
Fisheries 5852
impeachment 5852
tiger 5852
Harper 5851
humor 5851
56@@ 5850
Dum@@ 5850
severity 5850
whale 5850
Brent 5849
Moses 5849
Clin@@ 5848
Imperial 5847
entr@@ 5847
189 5846
colored 5846
diplomat 5846
even@@ 5846
respiratory 5846
Dist@@ 5845
rehear@@ 5845
Racing 5844
grim 5842
jah 5841
youngsters 5841
asa 5840
Inquiry 5838
ushed 5838
ا@@ 5838
Sheffield 5837
undocumented 5836
ITV 5835
pause 5835
pleas@@ 5835
205 5834
Hoo@@ 5833
auc@@ 5833
needing 5833
Pen 5832
policeman 5832
rations 5832
restitution 5832
week@@ 5832
Dark 5831
Dri@@ 5831
Sharon 5831
pork 5831
MT@@ 5830
OIC 5830
recep@@ 5829
declares 5828
boasts 5827
164 5826
behave 5826
ssing 5826
unstable 5826
Bio@@ 5824
Buenos 5824
Claire 5824
slaves 5824
Caroline 5823
IO 5823
modelling 5822
sewage 5822
172 5821
scholarship 5821
spill 5821
companion 5820
vaccines 5820
forwarded 5819
shel@@ 5819
6.4 5818
WG.@@ 5818
coloured 5818
grammar 5818
tro 5818
Crow@@ 5817
corridor 5816
Starting 5815
illustrate 5815
dispatched 5814
north@@ 5814
ā@@ 5814
disturbed 5813
gab@@ 5813
hack 5812
vey 5812
yoga 5812
Maine 5811
mediate 5811
overlooked 5811
ripped 5811
Run@@ 5810
chor@@ 5809
deepening 5809
IF 5808
Hispanic 5807
IMIS 5807
akin 5805
detrimental 5805
memorable 5804
ESPN 5803
Enforced 5803
gon 5803
rubbish 5802
testify 5801
care@@ 5799
laptop 5799
esman 5797
[...]
